, 318182
. 200517
и 140841
в 101414
на 52461
не 44258
с 37908
- 37663
что 30932
по@@ 26055
к 22873
я 21128
не@@ 20427
: 20014
у@@ 19950
по 19128
но 18799
; 17943
о@@ 17273
о 17122
как 17005
за@@ 16758
его 16427
для 15722
ных 15432
у 15283
вы@@ 15239
из 15055
а 15048
с@@ 15045
в@@ 14908
ной 14726
или 14678
на@@ 14615
т 14470
про@@ 14097
при@@ 14070
ные 13936
от 13597
до@@ 13170
со@@ 13118
их 12795
за 12710
он 12551
е 12447
то 12332
В 12235
И 12142
ного 11778
д@@ 11703
ки 11663
ю 11526
от@@ 11418
( 11271
л 11198
ный 11197
ли 11130
" 11062
ка 11019
ре@@ 10383
ты 10370
ко@@ 10334
? 10328
ы 10167
раз@@ 9948
м 9946
С@@ 9636
же 9596
ным 9529
ли@@ 9504
это 9373
во@@ 9342
ж@@ 9255
з@@ 9184
т@@ 9155
и@@ 9137
все 9055
ле@@ 8826
ра@@ 8757
ни@@ 8718
ти@@ 8718
ро@@ 8667
ное 8653
та 8638
ве@@ 8621
мы 8579
но@@ 8497
я@@ 8420
ть 8390
вы 8327
мо@@ 8322
ви@@ 8183
О@@ 8098
ри@@ 8036
они 8032
ра 7988
те 7944
чтобы 7869
— 7717
ет 7694
м@@ 7681
ди@@ 7290
А@@ 7288
во 7222
ч@@ 7199
ют 7161
й 7089
) 7010
ная 6995
ш@@ 6969
го@@ 6968
ке 6952
е@@ 6914
пере@@ 6894
из@@ 6802
ст@@ 6786
то@@ 6785
де@@ 6778
бы 6772
В@@ 6755
том 6743
ем 6665
ло@@ 6595
ности 6591
н 6585
ла 6577
Я 6572
так 6567
ции 6562
да 6550
пре@@ 6544
ется 6513
бо@@ 6478
ру@@ 6440
г@@ 6395
к@@ 6377
р 6374
б@@ 6355
а@@ 6321
! 6316
до 6307
было 6304
вать 6272
ение 6267
ку 6255
ва@@ 6233
будет 6200
се@@ 6195
которые 6122
под@@ 6108
ме@@ 6077
ными 6057
И@@ 6003
н@@ 5988
бе@@ 5983
об@@ 5948
ка@@ 5928
ном 5921
ную 5857
те@@ 5807
й@@ 5806
п@@ 5800
жи@@ 5771
д 5763
ни 5753
г 5722
рас@@ 5668
ать 5648
чи@@ 5631
л@@ 5601
воз@@ 5582
когда 5545
был 5517
того 5505
ее 5502
си@@ 5475
да@@ 5462
ми@@ 5450
Он 5448
также 5447
ь 5380
ей 5372
сказал 5358
ения 5277
ны 5219
ность 5203
время 5110
только 5102
та@@ 5092
тся 5059
па@@ 5026
ва 5024
– 4994
х 4991
су@@ 4981
ство 4975
ться 4961
р@@ 4958
них 4956
ль@@ 4952
ства 4917
ис@@ 4912
может 4887
К@@ 4858
1 4841
тов 4818
ф@@ 4786
ен@@ 4775
ку@@ 4767
она 4756
Т@@ 4700
ров 4684
« 4654
если 4651
Е@@ 4649
были 4649
ского 4630
2 4600
ан@@ 4590
Н@@ 4566
сти@@ 4564
пи@@ 4556
ма 4550
х@@ 4543
че@@ 4513
У@@ 4461
са@@ 4429
вер@@ 4420
ин@@ 4407
ми 4365
ются 4358
ду@@ 4354
быть 4351
По@@ 4339
Д@@ 4321
П@@ 4318
ему 4301
более 4283
ба@@ 4282
Г@@ 4263
М@@ 4231
зо@@ 4226
ков 4170
ста@@ 4138
А 4136
чем 4115
пе@@ 4109
ма@@ 4102
меня 4096
него 4092
при 4080
му 4051
хо@@ 4049
им 4049
3 4048
би@@ 4047
са 4046
Но 4041
ко 4040
года 4016
кой 4008
стра@@ 4004
ской 3974
га@@ 3932
вой 3874
ь@@ 3823
ки@@ 3785
кон@@ 3779
го 3757
мне 3712
Б@@ 3667
сть 3651
мен@@ 3650
сто@@ 3614
5 3600
ну@@ 3590
ша@@ 3585
ание 3576
со 3573
ги@@ 3568
э@@ 3567
ских 3531
али 3530
4 3524
сти 3520
ла@@ 3516
ания 3480
На@@ 3477
всех 3472
ы@@ 3466
ала 3461
еще 3453
который 3439
зи@@ 3435
Господь 3432
ше@@ 3379
есть 3339
Л@@ 3329
ло 3322
вых 3307
ча@@ 3304
Р@@ 3301
ю@@ 3295
ду 3289
6 3216
же@@ 3210
му@@ 3206
ры 3200
пол@@ 3198
Это 3194
пред@@ 3183
ция 3181
ский 3154
уже 3139
дом 3134
ком 3132
лет 3118
/ 3113
вал 3069
нет 3065
Если 3043
ся 3042
кто 3041
бы@@ 3035
вая 3035
нам 3023
ар@@ 3021
7 3009
ря@@ 3009
этого 3007
). 2993
ении 2989
ат@@ 2978
ши@@ 2965
жа@@ 2965
ды 2952
вает 2945
ений 2918
сла@@ 2908
ля@@ 2906
будут 2906
была 2905
бу@@ 2903
ту@@ 2897
ры@@ 2890
жен@@ 2882
году 2871
ней 2862
ор@@ 2859
ром 2851
га 2800
ц@@ 2793
С 2780
там 2767
нас 2737
этом 2731
себя 2724
8 2721
между 2720
ль 2710
день 2705
ом 2700
вам 2698
можно 2695
ила 2668
ению 2667
атель@@ 2664
ско@@ 2662
це@@ 2660
ному 2657
ился 2656
ением 2654
ня@@ 2649
вания 2632
нее 2630
является 2625
Его 2623
… 2620
9 2611
очень 2607
мой 2607
), 2597
где 2596
ческих 2582
ибо 2580
10 2576
после 2573
цы 2540
ос@@ 2513
щ@@ 2513
вас 2506
под 2499
Ф@@ 2485
могут 2469
цен@@ 2465
S@@ 2454
ющих 2446
лен@@ 2445
зна@@ 2443
ью 2440
Ка@@ 2438
ним 2437
даже 2435
Э@@ 2435
нем 2420
ями 2418
пу@@ 2416
На 2413
пер@@ 2411
ля 2408
ту 2398
ал@@ 2395
б 2392
ские 2379
ци@@ 2367
Мо@@ 2358
ваться 2353
род@@ 2352
аль@@ 2352
вали 2349
[ 2334
обра@@ 2331
тем 2330
ана 2322
ре 2321
вос@@ 2311
ья 2309
з 2303
тебя 2303
вые 2301
цию 2285
Со@@ 2278
лись 2273
этой 2268
ании 2266
потому 2258
ру 2257
ван@@ 2242
ющие 2241
должны 2233
пло@@ 2223
ками 2222
Мы 2220
йте 2216
сло@@ 2214
стро@@ 2209
человек 2205
слу@@ 2202
ска@@ 2200
он@@ 2194
голо@@ 2176
ве 2176
тя@@ 2176
гу@@ 2169
ник 2169
аться 2161
Не 2160
сы@@ 2151
больше 2147
ну 2137
без 2129
один 2117
ях 2114
ле 2111
вления 2110
ники 2109
лся 2105
много 2105
рен@@ 2103
ров@@ 2101
ги 2093
откры@@ 2089
пра@@ 2088
благо@@ 2083
кан@@ 2082
З@@ 2075
вот 2061
щи@@ 2055
ством 2047
кого 2039
этот 2038
де 2038
али@@ 2038
над 2037
Не@@ 2036
против 2035
ще@@ 2033
людей 2030
Про@@ 2023
нен@@ 2020
других 2015
об 2014
име@@ 2006
ций 2003
всего 2000
ди 1999
своих 1996
ак@@ 1993
эти 1985
ись 1985
11 1984
12 1981
шь 1980
тер@@ 1978
Бог 1978
свою 1973
ников 1969
высо@@ 1967
". 1965
человека 1963
ились 1962
вели@@ 1957
сни@@ 1956
чи 1952
сов 1949
За@@ 1938
ям 1938
ровать 1936
ем@@ 1929
лю@@ 1927
дал 1925
ческие 1919
которых 1917
ер@@ 1916
О 1912
Когда 1909
Они 1909
ста 1907
Как 1905
жизни 1904
фи@@ 1900
К 1899
ву 1898
ческой 1897
20 1893
хи@@ 1893
своей 1891
тебе 1887
гу 1885
говорит 1882
дов 1874
ё@@ 1872
дел@@ 1863
ца 1856
кий 1855
тель@@ 1853
ц 1850
свои 1843
вого 1836
через 1830
Вы 1828
ке@@ 1828
ме 1820
раз 1819
сте@@ 1818
ческого 1815
себе 1814
Республики 1813
чен@@ 1811
ском 1810
", 1809
Чувашской 1808
ды@@ 1803
15 1803
ха 1798
способ@@ 1797
бра@@ 1792
При@@ 1782
которая 1773
пла@@ 1771
ба 1769
той 1769
Ко@@ 1767
рии 1758
Ва@@ 1753
основ@@ 1750
важ@@ 1748
стоя@@ 1747
ющий 1742
своего 1740
заме@@ 1724
мы@@ 1721
гла@@ 1716
вой@@ 1715
ств 1714
Х@@ 1712
ден@@ 1708
По 1706
стан@@ 1703
доро@@ 1699
лу@@ 1698
всем 1698
вым 1696
ете 1696
ти 1695
дан@@ 1693
1@@ 1683
M@@ 1682
Ты 1671
этих 1669
жд@@ 1661
тра@@ 1657
ман@@ 1656
нов@@ 1654
тив@@ 1653
вла@@ 1650
щих 1645
13 1644
тот 1644
бро@@ 1642
гра@@ 1641
стре@@ 1635
тре@@ 1633
фор@@ 1624
ща@@ 1623
вра@@ 1621
тельно 1621
нач@@ 1616
согла@@ 1608
P@@ 1605
ние 1605
вид@@ 1604
ха@@ 1604
нами 1600
ил@@ 1594
тен@@ 1591
дела@@ 1590
Си@@ 1590
челове@@ 1587
кра@@ 1586
кор@@ 1583
жения 1582
вом 1581
ят 1577
14 1577
жить 1575
телей 1575
вление 1574
пове@@ 1572
ках 1572
тели 1572
два 1566
чения 1565
D@@ 1565
чу@@ 1563
вый 1562
Господа 1561
области 1560
Са@@ 1559
№ 1559
Ч@@ 1555
тан@@ 1554
полити@@ 1542
кие 1542
16 1541
ами 1540
тель 1538
C@@ 1535
% 1533
стве 1532
стал 1527
встре@@ 1524
времени 1524
сер@@ 1523
бес@@ 1521
несколько 1520
Ш@@ 1516
ход@@ 1514
бан@@ 1512
ская 1511
им@@ 1510
рования 1497
всегда 1496
чно 1495
тех 1493
которое 1492
пред 1492
поло@@ 1490
приня@@ 1485
У 1485
До@@ 1482
ком@@ 1482
Ю@@ 1479
ов 1478
ес@@ 1475
ника 1474
свя@@ 1473
Бе@@ 1473
шен@@ 1471
тия 1471
вание 1470
показ@@ 1470
перед 1470
ани@@ 1468
либо 1462
сред@@ 1462
вают 1460
ах 1459
экономи@@ 1458
развития 1455
ев 1454
щения 1453
сты@@ 1450
рабо@@ 1448
три@@ 1446
вается 1445
гор@@ 1444
17 1443
вое 1443
вет@@ 1442
дать 1441
вод@@ 1440
слова 1440
лет@@ 1439
сил@@ 1438
Ж@@ 1437
ье 1434
кро@@ 1433
рован@@ 1430
фо@@ 1424
образом 1423
ний 1417
работы 1415
чего 1415
сле@@ 1415
18 1413
плат@@ 1411
Для 1410
ствен@@ 1409
использу@@ 1408
три 1407
место 1403
посе@@ 1403
зы@@ 1402
гру@@ 1401
влен@@ 1400
кар@@ 1399
част@@ 1398
смо@@ 1398
отве@@ 1397
послед@@ 1392
обо@@ 1392
щий 1391
рт@@ 1386
год 1384
люди 1383
вля@@ 1381
альных 1381
ков@@ 1380
народ 1380
сын 1379
19@@ 1378
19 1377
полу@@ 1377
чной 1376
тами 1376
» 1376
сы 1375
должен 1375
сен@@ 1374
вен@@ 1373
страны 1372
ро 1368
рах 1367
ри 1366
закон@@ 1366
ам 1364
чер@@ 1364
гре@@ 1361
A@@ 1358
От@@ 1356
дает 1356
шел 1355
защи@@ 1353
ностью 1352
Так 1350
детей 1348
России 1345
Та@@ 1344
тогда 1344
США 1342
шения 1342
B@@ 1341
ния 1341
ству 1341
дома 1336
цев 1336
Однако 1334
ясь 1330
вя@@ 1327
жда@@ 1326
сом 1326
теперь 1325
мал@@ 1320
ству@@ 1318
вала 1317
ран@@ 1316
гово@@ 1315
щие 1311
тру@@ 1310
нения 1309
воен@@ 1308
сь 1307
чув@@ 1307
обе@@ 1302
ени@@ 1297
Бога 1296
собствен@@ 1293
рав@@ 1293
йся 1290
лей 1288
ге 1287
тро@@ 1285
ними 1283
щен@@ 1277
30 1276
жение 1275
ек@@ 1275
ления 1274
случае 1272
другие 1272
Ре@@ 1271
объя@@ 1269
Ма@@ 1269
зе@@ 1268
нение 1267
системы 1267
данных 1267
бере@@ 1266
Де@@ 1265
мер@@ 1264
ж 1264
бли@@ 1264
стороны 1260
само@@ 1260
доб@@ 1260
ожи@@ 1259
вал@@ 1259
священ@@ 1258
21 1258
дви@@ 1257
ался 1257
ство@@ 1253
тах 1248
кат@@ 1246
кла@@ 1245
Все 1244
тво@@ 1244
опера@@ 1241
лож@@ 1240
цией 1240
ходит 1238
кое 1237
ким 1236
кру@@ 1235
Что 1232
тому 1229
цар@@ 1229
оказ@@ 1227
дел 1226
ским 1223
пис@@ 1219
Она 1218
теле@@ 1216
T@@ 1214
ческий 1212
анию 1211
сме@@ 1211
лю 1209
рия 1208
здесь 1205
п 1205
реш@@ 1205
8@@ 1205
руки 1204
которой 1200
лен 1199
дет 1199
обла@@ 1199
ствие 1198
7@@ 1196
це 1192
25 1191
ск@@ 1189
ил 1189
слы@@ 1188
чить 1187
] 1187
нии 1187
бед@@ 1182
стран 1182
кам 1180
22 1179
a 1176
каз@@ 1174
вз@@ 1173
жизнь 1173
пы@@ 1173
ый 1172
боль@@ 1172
тить 1170
зы 1170
зн@@ 1170
точ@@ 1168
вить 1166
шение 1165
6@@ 1165
свой 1165
Вот 1164
деятельности 1163
E@@ 1162
мом 1162
кри@@ 1162
другой 1160
ждения 1157
ких 1157
среди 1157
мат@@ 1157
ша 1156
дол@@ 1156
Ве@@ 1156
люби@@ 1154
мест@@ 1154
ало@@ 1153
нуть 1153
пос@@ 1153
Да 1150
сами 1149
безопасности 1147
ате@@ 1146
шли 1146
вся@@ 1144
зу@@ 1143
ничего 1141
сам 1140
ять 1138
жил 1138
Тво@@ 1138
сил 1137
эк@@ 1136
пл@@ 1136
». 1136
каждый 1135
дер@@ 1135
Ме@@ 1134
вместе 1133
использо@@ 1132
сту@@ 1132
без@@ 1131
право@@ 1129
аний 1127
части 1127
ались 1126
силь@@ 1125
илась 1124
тий 1122
лан@@ 1120
дела 1119
земли 1119
лич@@ 1118
связи 1118
ад@@ 1118
чных 1118
ча 1116
тал@@ 1116
зем@@ 1115
дня 1115
имеет 1115
являются 1113
свое 1113
рами 1111
подоб@@ 1109
ешь 1109
земле 1109
од@@ 1108
пара@@ 1107
Ан@@ 1107
чу 1106
таких 1104
распростра@@ 1104
лась 1103
измен@@ 1102
све@@ 1102
хотя 1100
сем@@ 1099
После 1097
началь@@ 1096
землю 1096
зд@@ 1095
сейчас 1094
подо@@ 1094
жу 1094
Ц@@ 1090
помо@@ 1090
дру@@ 1089
тор@@ 1089
держ@@ 1089
уч@@ 1085
тил 1084
жал 1083
друг 1082
определен@@ 1082
роди@@ 1081
чет@@ 1081
авто@@ 1080
зая@@ 1079
мини@@ 1078
стов 1077
илось 1076
ального 1075
нул 1075
которого 1075
служ@@ 1075
продол@@ 1073
лов 1073
социаль@@ 1072
Се@@ 1070
пар@@ 1070
ствует 1070
царь 1070
F@@ 1069
хоро@@ 1069
Ин@@ 1068
представи@@ 1066
информации 1066
ге@@ 1066
ших 1065
лег@@ 1065
ющим 1065
ательно 1064
Го@@ 1064
лось 1064
необходи@@ 1063
повы@@ 1063
еди@@ 1062
ственно 1062
собра@@ 1062
рус@@ 1061
ч 1059
альной 1058
поя@@ 1057
фе@@ 1057
любо@@ 1057
кры@@ 1056
лишь 1056
чески 1055
I@@ 1053
жи 1053
ши 1052
24 1051
лы 1050
работ@@ 1050
матери@@ 1049
такой 1048
сделать 1047
финансо@@ 1047
часть 1047
ще 1047
города 1046
план@@ 1043
цион@@ 1043
ление 1041
су 1041
уча@@ 1041
устано@@ 1041
утвер@@ 1040
мира 1039
23 1039
компании 1039
ст 1039
ило 1038
своим 1038
успе@@ 1038
мое 1038
заклю@@ 1037
альные 1036
соб@@ 1035
дут 1035
Я@@ 1034
вед@@ 1033
види@@ 1032
щение 1032
чь 1031
нов 1030
ствовать 1028
все@@ 1027
стью 1027
стали 1026
счита@@ 1026
L@@ 1025
эффектив@@ 1025
участ@@ 1024
одного 1023
2@@ 1019
ой 1019
прав@@ 1018
ступ@@ 1016
одной 1016
тек@@ 1016
сказать 1013
оста@@ 1013
которую 1012
емых 1011
учи@@ 1011
се 1010
вести 1009
ье@@ 1009
ограни@@ 1006
явля@@ 1005
дости@@ 1005
ню 1004
кая 1003
мере 1003
просто 1002
гне@@ 1002
такие 1002
действия 1000
ут@@ 1000
жно 999
мо 997
Израиле@@ 997
мер 996
дней 996
иде@@ 995
суще@@ 993
тат@@ 992
имя 992
То@@ 992
ше 992
ское 992
вре@@ 989
эту 985
необходимо 985
дни@@ 984
тие 983
ющего 983
ениях 983
сторо@@ 983
осо@@ 982
ствия 981
G@@ 980
течение 980
Во@@ 980
ез@@ 979
лом 978
обще@@ 978
ца@@ 978
возвра@@ 977
или@@ 976
фа@@ 976
пока 974
мов 974
тесь 973
зации 972
уме@@ 972
хорошо 971
жел@@ 971
став@@ 970
вами 969
вших 968
ур@@ 968
следу@@ 968
ян@@ 964
сво@@ 964
дить 962
цу 962
зат@@ 961
народа 960
управления 959
ениями 959
нужно 959
моло@@ 959
помощи 958
решения 958
выми 958
0@@ 958
двух 957
щего 956
чение 954
гро@@ 954
сердце 954
организации 953
глав@@ 952
Кон@@ 951
деле 949
ок 948
производи@@ 948
При 946
тар@@ 945
образ@@ 945
спо@@ 944
новых 944
хра@@ 943
ины 943
жал@@ 943
ху@@ 942
никогда 941
пой@@ 941
дело 941
», 941
шим 939
функ@@ 939
власти 939
произ@@ 939
вался 939
програм@@ 938
должно 938
форми@@ 938
принима@@ 937
сегодня 937
рой 936
возможность 935
V@@ 935
чие 934
продук@@ 934
кую 933
анием 932
делать 932
H@@ 931
мин@@ 930
дерев@@ 930
вил 929
сотрудни@@ 929
R@@ 929
муж@@ 928
стано@@ 927
докумен@@ 927
многие 923
низ@@ 923
чный 922
выбо@@ 922
ок@@ 921
мето@@ 921
3@@ 921
дам 920
надо 920
шее 919
радо@@ 919
собой 918
ост@@ 918
какой 917
Ра@@ 917
мина@@ 917
язы@@ 917
50 917
ати@@ 916
менее 913
9@@ 913
пал@@ 912
полож@@ 912
теля 911
мя@@ 911
интере@@ 910
дей@@ 910
дал@@ 910
многих 909
ват@@ 909
начала 909
тии 907
логи@@ 907
шие 906
кни@@ 906
вол@@ 906
разви@@ 905
уда@@ 905
мая 903
слово 902
около 902
меры 901
Су@@ 901
программы 901
бле@@ 901
сты 901
можете 900
спа@@ 899
нат@@ 898
практи@@ 898
пря@@ 898
тран@@ 898
сообщ@@ 897
фай@@ 896
обществен@@ 896
ностей 896
вались 894
луч@@ 893
отношении 893
широ@@ 892
тых 891
шу@@ 890
соответствии 890
воды 890
причи@@ 889
круп@@ 889
ющей 889
весь 887
техни@@ 885
вшие 885
ты@@ 884
Бо@@ 883
ший 883
говори@@ 883
Ибо 883
пробле@@ 882
пад@@ 881
нибудь 880
ш 879
качестве 879
гов 879
граждан@@ 877
особенно 876
ней@@ 875
общ@@ 874
националь@@ 874
актив@@ 874
например 874
дами 874
кими 873
Ни@@ 872
гото@@ 871
Ли@@ 871
объ@@ 870
мости 870
прода@@ 869
Но@@ 869
мог 869
говорить 869
Тогда 868
следует 867
поч@@ 865
интер@@ 865
ало 865
месте 865
пле@@ 865
дели@@ 864
рей 864
использовать 864
тра 864
жен 862
говорил 862
сына 862
сдела@@ 861
поли@@ 860
золо@@ 860
напра@@ 860
сделал 860
много@@ 860
пода@@ 860
ход 859
26 858
мире 858
алось 858
разработ@@ 858
рование 857
нять 856
Вы@@ 856
внутрен@@ 856
ствуют 855
иль@@ 855
рить 854
потом 853
осуществля@@ 853
ност@@ 852
над@@ 851
странах 851
ходя@@ 850
27 850
тоже 850
ня 849
дере@@ 847
дой 846
американ@@ 846
царя 846
грани@@ 845
этим 845
скую 844
чного 843
мени@@ 842
убе@@ 842
бе 841
некоторые 841
маль@@ 839
вел 839
наде@@ 838
тысяч 837
тер 836
соответству@@ 836
чные 836
бри@@ 835
позво@@ 833
источ@@ 833
россий@@ 833
вопро@@ 833
ас@@ 833
O@@ 833
дни 833
мир 832
возможности 832
прав 832
нес@@ 832
сель@@ 832
Кроме 831
ческим 831
оно 830
потреб@@ 830
возмож@@ 830
включая 829
приве@@ 829
шать 829
верну@@ 828
наших 828
почти 828
йти 827
дя 827
Во 826
ющихся 826
зан@@ 825
обы@@ 825
знать 824
кре@@ 824
хи 821
ф 821
199@@ 820
оди@@ 820
реши@@ 820
пор@@ 819
сп@@ 817
наши 816
ав@@ 815
настоя@@ 815
шла 815
N@@ 812
прежде 811
принци@@ 811
которым 811
работу 811
правитель@@ 810
рамках 809
дат@@ 809
шей 808
мор@@ 808
акти@@ 806
мол@@ 805
ведения 803
поддержи@@ 803
дар@@ 803
груп@@ 802
За 802
ваются 802
тем@@ 802
хват@@ 802
000 801
сай@@ 801
Сво@@ 797
шин@@ 796
сынов 795
кал@@ 794
населения 794
числе 794
лиц@@ 793
... 793
испол@@ 792
Пе@@ 792
ток 792
юсь 792
мет@@ 791
спе@@ 790
эта 790
уз@@ 790
Иисус 790
28 790
сли 788
международ@@ 787
сси@@ 787
держи@@ 786
поддерж@@ 785
вший 785
права 785
куда 784
часто 784
брат@@ 784
таким 783
кому 783
нашей 782
тол@@ 782
годы 781
получ@@ 781
Ку@@ 781
государ@@ 781
лучше 780
отдель@@ 780
вшись 779
Раз@@ 778
всей 778
котором 777
ены 777
поня@@ 777
внимание 777
совер@@ 776
гля@@ 776
выше 776
бу 776
дет@@ 774
ходят 774
па 773
щим 773
опас@@ 772
общества 772
чуваш@@ 772
времен@@ 771
вле@@ 770
коман@@ 770
обеспечения 770
емые 769
шая 769
шего 769
Господ@@ 769
лица 767
соста@@ 766
ждение 766
мся 766
расши@@ 764
сс@@ 763
пути 763
дии 762
A 762
взя@@ 762
ван 762
глаза 762
созда@@ 761
тных 761
проблемы 759
структу@@ 758
Па@@ 758
графи@@ 758
зло@@ 758
противо@@ 757
дво@@ 757
кли@@ 757
город 757
ческое 756
кур@@ 756
выра@@ 755
фици@@ 753
рез@@ 752
проек@@ 752
рения 751
Га@@ 750
решение 750
пози@@ 749
Т 749
води@@ 749
ателей 749
современ@@ 748
предо@@ 748
буду 747
мар@@ 747
проводи@@ 746
Пу@@ 746
алась 746
улуч@@ 746
вто@@ 746
шка 746
нему 746
новые 745
разме@@ 745
юще@@ 745
чать 745
ски@@ 745
пор 744
извест@@ 743
большой 743
Божи@@ 743
29 742
Ду@@ 741
Ар@@ 739
работать 739
сро@@ 739
регион@@ 738
W@@ 738
сед@@ 738
цов 738
однако 737
i 736
могли 736
Е 736
ениям 735
специаль@@ 735
воро@@ 735
поскольку 734
статьи 734
пы 733
дах 733
побе@@ 732
ником 731
знал 730
клиен@@ 730
ходить 730
мило@@ 730
S 729
заня@@ 729
C 729
обеспечи@@ 729
Ми@@ 727
назад 727
тый 726
мил@@ 726
Мне 726
ори@@ 726
Господу 726
хода 725
Пер@@ 724
совершен@@ 724
должна 723
Бу@@ 723
рый 723
мои 723
рай@@ 722
шко@@ 722
рам 721
ть@@ 721
един@@ 720
действи@@ 720
влении 720
нашего 719
сдел@@ 719
пусть 719
ато@@ 718
ум@@ 717
сколько 717
именно 717
ставить 716
администра@@ 716
никто 716
результате 716
иг@@ 716
че 715
имеют 715
рует 715
печ@@ 714
зу 714
ческая 713
0 712
31 712
вую 712
Меня 712
ьте 712
науч@@ 711
своем 711
ъ@@ 711
стат@@ 711
буду@@ 710
примен@@ 709
дро@@ 709
места 709
соз@@ 708
40 708
клю@@ 707
слож@@ 707
ых 707
обрат@@ 706
Все@@ 704
государства 704
добро@@ 704
кти@@ 703
шему 702
мость 701
сто 701
сказали 701
поко@@ 700
своими 700
орган@@ 699
ими 699
уби@@ 699
видел 698
процес@@ 697
ут 697
стало 697
пять 697
люб@@ 697
бло@@ 696
физи@@ 696
неф@@ 696
средств 696
войны 695
основе 695
значитель@@ 695
представля@@ 695
ска 695
состоя@@ 695
жа 693
случа@@ 692
наз@@ 692
количество 691
взгля@@ 691
гом 691
дель@@ 690
Господи 690
чей 689
жден@@ 689
4@@ 689
промышлен@@ 689
П 687
сказала 687
силу 686
Поэтому 686
отме@@ 685
креди@@ 685
дополнитель@@ 684
право 684
жены 684
игра@@ 684
пунк@@ 683
вил@@ 682
производ@@ 682
предлож@@ 682
проро@@ 682
доволь@@ 682
зыва@@ 682
оцен@@ 682
увелич@@ 681
вало 681
виде@@ 681
пат@@ 681
лице 680
стратеги@@ 680
сей 680
пришел 680
музы@@ 679
дов@@ 679
кля@@ 679
ото@@ 678
восто@@ 677
уровне 677
группы 677
гну@@ 677
приобре@@ 677
проис@@ 676
чис@@ 676
Те@@ 676
ступа@@ 675
спор@@ 675
прави@@ 675
ходи@@ 675
оде@@ 675
малень@@ 674
территории 674
собы@@ 674
чита@@ 674
нор@@ 673
иметь 672
вклю@@ 672
мыс@@ 671
год@@ 670
смерти 670
изменения 670
тые 670
руку 669
занима@@ 669
Том 669
сах 668
P 668
остано@@ 668
Сы@@ 668
президен@@ 667
i@@ 667
имен@@ 667
труд@@ 667
созд@@ 667
одна 666
рок 666
деля@@ 666
щей 665
яр@@ 665
печат@@ 664
достаточно 664
мии 664
твой 664
выпол@@ 663
потер@@ 663
рекомен@@ 662
ственных 662
душ@@ 662
вин@@ 661
образо@@ 661
дите 661
най@@ 661
бор@@ 661
внеш@@ 661
прият@@ 660
вл@@ 660
дия 660
стране 659
некоторых 659
продолж@@ 659
тради@@ 659
Пред@@ 659
сить 658
пуст@@ 658
рий 658
ционных 658
рев@@ 658
ственного 657
ально 657
прилож@@ 657
женщин 656
данные 656
говоря 656
вопрос 655
вещ@@ 655
ственной 654
ог@@ 654
свобод@@ 653
объек@@ 653
поэтому 653
мир@@ 653
жит 653
вно 652
моего 652
ить 652
пя@@ 651
зву@@ 650
руковод@@ 650
обязатель@@ 650
бла@@ 649
дея@@ 649
две 648
исклю@@ 648
политики 648
чки 648
Хо@@ 648
использования 647
Ну 647
связ@@ 646
образования 646
независи@@ 646
лу 646
ятся 646
силы 645
Бы@@ 645
Об@@ 645
5@@ 645
первый 644
кто@@ 644
стей 643
уди@@ 643
знаю 643
тно 642
Р 642
свидетель@@ 641
Иуде@@ 641
сою@@ 640
ся@@ 640
отли@@ 640
Лю@@ 640
креп@@ 639
пользовате@@ 637
дали 637
тяже@@ 637
Израиля 637
государствен@@ 636
предлага@@ 636
истори@@ 636
сол@@ 636
коле@@ 636
глу@@ 635
знает 634
Пре@@ 634
тари@@ 634
2008 634
стои@@ 634
этому 634
хом 634
дра@@ 634
стоит 633
помощью 633
приме@@ 633
словами 633
провод@@ 632
ницы 632
дне@@ 632
тин@@ 631
уве@@ 631
Ему 631
Алексей 631
коми@@ 630
чик 630
плани@@ 630
каче@@ 630
подня@@ 630
твор@@ 629
гам 629
период 628
угро@@ 628
Российской 628
обсу@@ 627
стать 627
серьез@@ 627
поме@@ 627
отнош@@ 627
ющее 627
ски 627
совмест@@ 626
.@@ 625
возможно 625
самом 625
сня@@ 625
получить 624
ун@@ 624
щая 624
информа@@ 623
рил 623
Да@@ 623
верси@@ 623
стар@@ 623
ческую 622
число 622
спро@@ 621
ходе 621
твои 621
Федерации 620
лиц 620
обно@@ 620
туда 620
ею 619
наиболее 619
бой 619
ые 618
лить 618
ваши 618
ща 617
атель 617
доба@@ 617
спосо@@ 616
называ@@ 616
снова 616
каждого 615
вода 615
стара@@ 615
вар@@ 614
информацию 614
гами 614
забо@@ 614
официаль@@ 613
пусти@@ 613
начина@@ 613
природ@@ 613
ген@@ 612
мента 612
ющими 612
чает 612
дь 612
связан@@ 611
Моск@@ 611
семь 611
еже@@ 611
мыш@@ 611
коло@@ 611
прине@@ 611
32 611
город@@ 610
последние 610
мые 610
дают 610
долж@@ 610
исследов@@ 609
крат@@ 609
йской 609
быстро 609
рты 609
сереб@@ 609
X@@ 608
скому 608
нуж@@ 608
нало@@ 608
вари@@ 607
ху 607
мати@@ 606
тета 606
Из 606
кроме 606
Ле@@ 606
наро@@ 605
остал@@ 605
поро@@ 605
ходов 605
требу@@ 605
вки 605
близ@@ 604
пти@@ 604
кров@@ 604
ствами 604
тут 604
Эти 603
различных 603
какие 602
целью 602
покры@@ 602
Мар@@ 602
зии 602
ванием 601
мых 600
моей 600
комнат@@ 600
пят@@ 600
отца 600
пусты@@ 600
твоего 600
D 599
режи@@ 599
Государ@@ 599
никами 598
лем 598
взаимо@@ 598
наш@@ 598
шед@@ 598
Кто 598
находится 597
устрой@@ 597
хо 596
миро@@ 596
раб@@ 595
ган@@ 595
услуг 592
дил 592
оборо@@ 592
дей 592
пошел 592
опре@@ 591
момент 591
нау@@ 591
одно 591
вании 590
участие 590
вод 590
стала 590
лы@@ 590
мало 589
доме 589
Укра@@ 589
уровня 589
взял 589
новой 588
вился 588
мероприя@@ 588
располо@@ 587
' 587
ситуа@@ 587
скими 587
"@@ 587
вне@@ 587
ступл@@ 586
I 586
тные 586
сокра@@ 586
вече@@ 585
говорят 585
ву@@ 584
Боль@@ 584
такого 584
хле@@ 584
прош@@ 583
лый 583
ктор 582
сторон@@ 582
моя 582
помощь 582
пить 581
шить 581
мощ@@ 581
Windows 581
емся 581
сии 580
всю 580
затем 580
путь 579
тации 579
рассматри@@ 578
доступ@@ 578
такое 578
алов 577
але@@ 577
воль@@ 576
ционной 576
провер@@ 576
фон@@ 576
шает 576
инвести@@ 575
работе 575
храни@@ 575
постав@@ 575
ряд 574
настоящее 574
мах 573
тай@@ 573
наруш@@ 573
Этот 573
дума@@ 572
2007 571
мно@@ 571
стви@@ 571
свер@@ 571
торго@@ 571
Воз@@ 571
35 570
полага@@ 570
сум@@ 570
зация 570
фа 570
роль 570
регули@@ 569
ден 569
нер@@ 569
уровень 569
ственные 568
жает 568
спек@@ 568
инстру@@ 568
ую 568
медицин@@ 568
Теперь 568
альный 567
ологи@@ 567
ющи@@ 567
остан@@ 567
опять 566
зма 566
жду 566
оте@@ 565
рес@@ 565
установлен@@ 565
торо@@ 565
житель@@ 564
другим 564
пус@@ 563
окру@@ 563
нах 562
назна@@ 562
ходил 562
ООН 562
оби@@ 562
финанси@@ 562
o 562
чества 561
чин@@ 561
НИ@@ 561
вета 561
хозяй@@ 561
Ие@@ 561
гн@@ 560
почему 560
член@@ 560
расска@@ 560
ющая 560
докла@@ 560
секто@@ 560
институ@@ 559
няя 559
пото@@ 559
соответ@@ 558
приз@@ 558
одним 557
аты@@ 557
Ис@@ 556
кну@@ 556
рать 556
долго 556
подтвер@@ 555
жной 555
ющиеся 555
мен 554
вопросы 554
поис@@ 553
мас@@ 553
спас@@ 553
33 553
глоб@@ 552
k@@ 551
дети 551
позволяет 551
шими 551
комплек@@ 551
работа@@ 550
сан@@ 550
публи@@ 550
закона 550
друга 549
пе 549
досто@@ 549
Ки@@ 549
избира@@ 549
ай@@ 549
чал 549
стом 548
цами 548
крас@@ 548
шки 547
тет 547
чил 547
слишком 547
вов 547
ходы 547
рода 547
ось 546
зада@@ 546
полностью 546
услы@@ 546
казыва@@ 545
Из@@ 545
жерт@@ 545
ьев 545
уров@@ 545
дальней@@ 544
нали@@ 544
деления 544
неу@@ 543
чены 543
кло@@ 543
наш 543
сети 542
путем 542
указан@@ 541
Богу 540
интерес@@ 539
твер@@ 539
найти 539
сре@@ 539
Кита@@ 539
Ио@@ 539
поль@@ 538
конце 538
ору@@ 538
шу 538
пен@@ 537
конкре@@ 537
счет 537
пан@@ 537
догово@@ 536
млн 536
ск 536
можем 536
вич 536
гать 536
счи@@ 535
комисси@@ 535
рей@@ 534
позволя@@ 534
реги@@ 534
цем 534
аб@@ 533
сфере 533
раль@@ 533
действие 533
закры@@ 532
ят@@ 532
госпо@@ 532
эта@@ 531
своему 531
весьма 531
ныне 531
производства 530
сего 530
понима@@ 529
призн@@ 529
цеп@@ 529
атели 528
завер@@ 528
всеми 528
строй@@ 528
счаст@@ 528
пришли 528
влия@@ 527
призна@@ 527
доступ 527
другими 527
каж@@ 527
наблюд@@ 526
полномо@@ 526
хотел 526
постро@@ 526
средства 525
дли@@ 525
руководи@@ 525
Нет 525
ась 525
сразу 524
направлен@@ 524
ново@@ 523
Под@@ 523
первые 523
никам 523
хот@@ 523
эле@@ 523
целях 522
спи@@ 522
рин@@ 522
характе@@ 521
чным 521
зер@@ 521
следо@@ 521
Ви@@ 521
Пра@@ 520
бо 520
вила 519
2009 519
рованных 519
действительно 519
стен@@ 519
усили@@ 519
следов@@ 518
дек@@ 518
воору@@ 518
стол@@ 518
казал 518
циональ@@ 518
тей 518
огром@@ 518
раст@@ 518
долларов 517
законодатель@@ 517
след@@ 517
тон@@ 517
сам@@ 517
профессион@@ 517
прино@@ 517
зе 516
цер@@ 516
дух 516
гает 516
отсут@@ 515
Пос@@ 515
органи@@ 515
мена 515
исто@@ 515
чен 515
защиты 515
Сер@@ 515
значение 515
собира@@ 515
рублей 515
дис@@ 514
обуч@@ 514
скры@@ 514
вокруг 513
сте 513
конфлик@@ 513
ющую 513
друз@@ 513
программ 513
мент 512
чка 511
жан@@ 511
алы 511
Организации 511
свобо@@ 510
истин@@ 510
ступи@@ 510
имени 509
республи@@ 509
совет@@ 509
мать 508
ститу@@ 508
ним@@ 508
создания 508
труда 508
предоставля@@ 507
жела@@ 507
голову 507
искус@@ 507
говорили 507
жиз@@ 507
весе@@ 507
культур@@ 506
дина@@ 506
станет 506
глубо@@ 506
покуп@@ 506
ваш 505
прово@@ 505
стер@@ 505
вопросам 505
стан 505
ред@@ 504
ставля@@ 504
ран 504
городе 504
руп@@ 504
жена 503
пуска@@ 503
ставлен@@ 503
запис@@ 503
начал 503
Итак 503
казывает 502
Только 502
принадле@@ 501
лин@@ 501
формы 501
безопас@@ 501
общи@@ 501
стана 501
отвечал 501
Ру@@ 500
проекта 500
обнару@@ 499
укра@@ 499
ужа@@ 499
пользо@@ 499
меч@@ 499
суд@@ 498
ванию 498
одно@@ 498
коли@@ 498
организа@@ 498
ческими 497
ставил 497
бур@@ 497
реда@@ 497
ческом 496
Од@@ 496
пит@@ 495
пись@@ 495
ов@@ 495
организо@@ 495
Например 494
рение 494
четыре 494
восстано@@ 494
лена 493
отношения 493
оконч@@ 493
секре@@ 493
вной 493
вшего 493
ман 493
цать 493
оче@@ 492
Эта 492
йдет 492
перво@@ 492
умень@@ 492
масшта@@ 492
конечно 491
60 491
насе@@ 491
пес@@ 491
рых 490
ал 490
второй 490
четы@@ 490
запре@@ 489
зм 489
телями 489
подвер@@ 489
М 489
ресурсов 489
K@@ 488
зов 488
Д 488
требо@@ 488
меня@@ 488
специали@@ 488
всему 488
вместо 488
осуществ@@ 487
сила 487
выс@@ 487
будем 487
Израиль@@ 487
твоих 487
ною 487
Амери@@ 486
среды 486
увидел 485
провед@@ 485
заболе@@ 485
рат@@ 485
консуль@@ 485
поле@@ 484
организаций 484
Свя@@ 484
проблем 484
тал 484
сом@@ 483
видно 483
тела 483
вок 483
будто 483
совсем 483
будешь 483
действий 482
скри@@ 482
идет 482
закон 482
процесс 482
реализации 482
тате@@ 481
гря@@ 481
ваш@@ 481
кажется 481
служи@@ 481
пора@@ 481
менты 481
дит 481
цио@@ 481
партне@@ 481
Чтобы 480
суд 480
чия 480
гли 480
выз@@ 480
случаях 480
правед@@ 480
Че@@ 479
газе@@ 479
гене@@ 479
2006 479
Восто@@ 478
E 478
Наций 478
мальчи@@ 477
одну 477
трех 477
возник@@ 477
ене@@ 477
СТ@@ 476
обре@@ 476
влением 475
федера@@ 475
стри@@ 475
технологи@@ 475
това@@ 475
слов 475
Ге@@ 475
голос 475
принять 474
вет 474
привле@@ 474
переда@@ 473
праздни@@ 473
определя@@ 473
альным 473
сим@@ 473
Объединенных 473
сюда 472
шно 472
предоста@@ 472
влению 471
груз@@ 471
гах 471
поним@@ 471
вс@@ 471
бума@@ 471
ию@@ 470
фак@@ 470
язык 470
куп@@ 470
ходили 470
ради@@ 470
M 469
удал@@ 469
смотре@@ 468
t@@ 468
бре@@ 468
Дру@@ 468
мым 467
АТ@@ 467
инте@@ 467
ата@@ 467
нить 467
ченных 467
прибли@@ 467
составля@@ 466
Совета 466
достато@@ 466
сторону 466
евре@@ 465
уго@@ 465
мень@@ 465
щу 465
щает 464
бом 464
условиях 464
упра@@ 464
процеду@@ 464
капит@@ 464
2005 464
e 464
мами 463
деньги 463
ваний 463
правительство 463
мя 463
воло@@ 463
деятельность 462
болез@@ 462
стал@@ 462
сили 462
развитие 461
., 461
ПР@@ 461
Ба@@ 461
стой 461
свет@@ 461
носи@@ 460
кать 460
рем 460
частности 460
серд@@ 460
тым 460
Ди@@ 459
нако@@ 459
Международ@@ 459
предста@@ 458
возра@@ 458
жать 458
самого 458
очи@@ 458
пов 458
учени@@ 458
стави@@ 457
изба@@ 457
самых 457
зрения 457
энергети@@ 457
Давид 457
проектов 456
поле 456
Хотя 456
поддержки 456
похо@@ 455
ристи@@ 455
обязан@@ 455
запа@@ 455
34 455
освобо@@ 454
месяца 454
истории 454
земля 454
кам@@ 454
хе 454
горо@@ 454
ьдесят 454
ину 453
Б 453
стин@@ 452
ься 452
00 451
ствах 451
пас@@ 451
совершенно 450
могу 450
ница 450
будете 450
созн@@ 450
жертвен@@ 450
точки 449
Ф 449
числен@@ 449
живо@@ 449
столько 449
послал 449
смыс@@ 448
культуры 448
ья@@ 448
нескольких 448
мимо 448
дели 447
экономики 447
сыл@@ 447
энергии 447
зывает 447
руется 447
емой 447
учрежд@@ 447
ментов 447
нельзя 447
e@@ 446
стра 446
система 446
ит@@ 446
ответ 446
существует 446
анти@@ 445
наме@@ 445
уг@@ 445
новый 445
роста 445
цели 445
сове@@ 445
сохрани@@ 444
электрон@@ 444
тной 444
содерж@@ 444
получа@@ 444
обеспечить 443
Иу@@ 443
постоян@@ 442
существу@@ 442
полови@@ 442
ствовали 442
тельной 442
двадцать 442
народов 442
уж 442
Росси@@ 441
членов 441
надеж@@ 441
смотреть 441
шло 441
виться 441
36 440
емого 440
автомо@@ 440
вах 440
краси@@ 440
ваших 440
нра@@ 440
Вер@@ 439
предло@@ 439
гар@@ 439
отвер@@ 439
100 439
ядер@@ 439
богат@@ 439
слови@@ 438
валась 438
вме@@ 438
немного 438
ноги 438
людьми 438
нан@@ 438
вашего 438
солн@@ 438
пут@@ 438
шем 437
тельных 437
лями 437
делает 437
массо@@ 436
работает 436
телем 436
отра@@ 436
ницу 436
множество 436
чением 436
присут@@ 436
оп@@ 436
ционные 435
чий 435
нюю 435
процентов 435
управля@@ 435
Ира@@ 435
шали 435
треть@@ 434
тыс 434
сильно 434
er@@ 434
женщины 433
бира@@ 433
альное 433
филь@@ 433
руют 433
80 433
сия 433
изобра@@ 432
a@@ 432
большинство 432
бер@@ 432
постоянно 432
щать 432
большин@@ 432
положение 432
веб 432
легко 431
правительства 431
ала@@ 431
Таким 431
ствовал 431
напо@@ 431
рт 431
зако@@ 431
си 431
мед@@ 431
чное 430
ателя 430
ьями 430
чет 430
гося 430
рын@@ 429
шан@@ 429
полез@@ 429
жили 429
моих 429
бить 429
гри@@ 428
разных 428
любой 428
тать 428
ВИЧ 428
вери@@ 428
доступа 428
рова 428
годно 427
ик@@ 427
жил@@ 427
ственный 427
вшихся 427
степен@@ 427
наход@@ 427
дя@@ 427
Иисуса 427
сне@@ 427
самым 426
хочет 426
начале 426
сих 426
месяцев 426
цве@@ 426
веду@@ 426
свет 426
мудро@@ 426
отец 426
писан@@ 425
соблюд@@ 425
лицо 425
отрас@@ 425
блу@@ 425
рынке 425
проведения 425
вну@@ 425
другого 425
Пере@@ 425
международных 424
жесто@@ 424
ступления 424
деся@@ 424
L 424
благосло@@ 424
мого 424
вна 424
Некоторые 423
льного 423
молоды@@ 423
думал 423
опис@@ 422
ым 422
емый 422
говари@@ 422
которыми 421
органов 421
попро@@ 421
обслужи@@ 421
вест@@ 421
мера 421
сердца 421
рост 420
потре@@ 420
опы@@ 420
вдруг 420
частью 420
писал 420
виде 419
пам@@ 419
чено 419
ждать 419
платы 419
сыновей 418
экономического 418
чном 418
вышел 418
Европей@@ 417
уй@@ 417
мигра@@ 417
положения 417
зве@@ 417
син@@ 417
тыся@@ 417
Мой 417
зай@@ 416
любы@@ 416
дется 416
рабаты@@ 416
покло@@ 416
решений 416
обычно 416
сче@@ 416
ё 416
живу@@ 415
повед@@ 415
мною 415
дву@@ 415
дем 415
сотрудничества 414
благодаря 414
поддержку 414
деление 414
тобою 414
Вели@@ 413
удоб@@ 413
части@@ 413
попа@@ 413
необ@@ 413
тр@@ 413
степени 413
Моисе@@ 413
ваны 412
затра@@ 412
здравоохранения 412
вили 411
использование 411
жителей 411
спорта 411
подготов@@ 411
Сегодня 411
T 411
крест@@ 410
электро@@ 410
срав@@ 410
сцен@@ 410
жении 410
лаг@@ 410
Г 410
бар@@ 410
муницип@@ 410
вии 410
сие 409
циаль@@ 409
l@@ 409
относительно 409
архи@@ 409
осно@@ 409
самое 409
здоровья 409
нечести@@ 409
вных 408
существо@@ 408
выя@@ 408
деву@@ 408
знаком@@ 408
»; 408
уничто@@ 407
прибы@@ 407
прошло@@ 407
казы@@ 407
работа 407
тор 407
стандар@@ 407
водо@@ 407
щем 407
жет 407
ева 407
шал@@ 407
сыны 407
мон@@ 406
нового 406
нику 406
Россия 406
меньше 406
Также 406
получи@@ 406
Многие 406
преимуще@@ 406
ственным 405
валось 405
ощу@@ 405
тельного 405
мент@@ 405
Му@@ 405
Ро@@ 405
факто@@ 405
пребы@@ 405
шил 405
прекрас@@ 404
y@@ 404
уни@@ 404
бран@@ 404
сбо@@ 404
вились 404
точно 404
чная 404
увиде@@ 404
ял 404
щихся 403
вится 403
гут 403
ставили 403
Й@@ 402
нима@@ 402
зво@@ 402
систем 402
мл@@ 402
женных 401
европей@@ 401
видеть 401
очередь 401
условия 401
ченные 401
потенци@@ 401
народ@@ 401
абза@@ 401
Сейчас 400
недо@@ 400
далеко 400
контро@@ 400
довольно 400
упа@@ 400
пу 399
одном 399
мог@@ 399
дох@@ 399
уста@@ 399
ствии 399
справедли@@ 399
тур@@ 399
вши@@ 399
чтоб 399
важно 398
нию 398
прямо 398
чается 398
универси@@ 398
серве@@ 398
ех@@ 398
ап@@ 398
глазами 398
X 397
убий@@ 397
рен 397
означает 397
нал 397
ресто@@ 397
государственных 397
общество 397
процен@@ 397
медленно 397
знают 397
мной 396
гло@@ 396
хе@@ 396
чество 396
молоде@@ 396
компаний 396
мерт@@ 396
рынка 396
Дж@@ 396
царю 396
слуша@@ 396
запад@@ 395
йтесь 395
религиоз@@ 395
лые 395
говорю 395
души 394
компания 394
ваясь 394
гая 394
споль@@ 394
вид 393
добы@@ 393
вкла@@ 393
начали 393
мую 393
вай 393
народу 393
теку@@ 392
века 392
лит 392
экологи@@ 392
сет 392
часов 392
телям 392
Ваня 392
коллек@@ 391
коро@@ 391
c@@ 391
рая 391
исче@@ 391
экспе@@ 391
так@@ 391
2003 391
какое 391
судеб@@ 390
беж@@ 390
целом 390
капи@@ 390
сно 390
граждан 389
согласно 389
знали 389
офи@@ 389
кции 389
жу@@ 389
кол@@ 389
пыт@@ 389
Иудей@@ 389
произо@@ 388
идти 388
обви@@ 388
рядом 388
лад@@ 388
2010 388
разли@@ 388
шую 388
давно 388
прия@@ 387
ситуации 387
er 387
стран@@ 387
первых 387
большое 387
тысячи 387
применя@@ 386
хов 386
онов 386
ровали 386
раза 386
жды 386
o@@ 385
стреми@@ 385
объеди@@ 385
написан@@ 385
ночь 385
участников 385
альном 385
Н 384
зани@@ 384
Потом 384
доче@@ 384
лел 384
контроля 383
сно@@ 383
компьюте@@ 383
ого 383
систему 383
дания 383
щер@@ 383
ранее 383
учре@@ 383
От 383
ведь 383
37 383
развитию 383
циях 382
мою 382
тром 382
позд@@ 382
развед@@ 382
корпора@@ 382
особен@@ 382
фер@@ 382
структуры 382
стане 382
альная 381
ради 381
сон 381
мали 381
цам 381
лям 380
голосо@@ 380
услуги 380
ствам 380
Тебя 380
лав@@ 379
чении 379
простран@@ 379
пыта@@ 379
обеспеч@@ 379
бов 379
смерт@@ 378
Здесь 378
происходит 378
З 378
условий 378
Вам 378
государств 377
рг@@ 377
кризи@@ 377
скоро@@ 377
предусмотрен@@ 377
зав@@ 377
бре 377
Даже 377
ставит 377
полни@@ 377
ватель@@ 377
реб@@ 377
вше@@ 376
ника@@ 376
J@@ 376
нежели 376
твое 376
прожи@@ 375
d 375
десять 375
пли@@ 375
бизнес 375
уро@@ 375
ско 375
воду 375
тивных 375
сел 375
Штат@@ 374
шься 374
Иерусалим 374
Цар@@ 374
душа 374
Европы 373
содержи@@ 373
пера@@ 373
ито@@ 373
разру@@ 373
ЕС 373
устойчи@@ 373
вшиеся 373
жных 372
дель 372
движения 372
онах 372
конкурен@@ 372
охра@@ 372
матери 372
лик@@ 372
учеб@@ 372
биль@@ 371
щается 371
специ@@ 371
создать 371
фикации 371
службы 371
остается 371
оцени@@ 371
республики 371
заменить 371
щее 370
меся@@ 370
тая 370
жений 370
цати 370
спросил 370
рые 370
Комп@@ 370
ставляет 370
людям 370
чали 370
нару@@ 370
двиг@@ 370
укрепл@@ 370
Благо@@ 370
писать 369
c 369
тного 369
ум 369
прекра@@ 369
ец 369
бюдже@@ 369
тело 369
але 368
препят@@ 368
пери@@ 368
потреби@@ 368
учен@@ 368
здоров@@ 368
немец@@ 368
нь 368
мули@@ 368
полнитель@@ 368
продуктов 367
нулся 367
контак@@ 367
ализи@@ 367
прошлом 367
поступ@@ 367
местах 367
Егип@@ 367
тельные 366
лил 366
указ@@ 366
регистра@@ 366
содержа@@ 366
чины 366
вного 366
изменений 366
зави@@ 366
другом 366
мля@@ 366
Лат@@ 366
посмотре@@ 366
продукции 365
зап@@ 365
регуляр@@ 365
привы@@ 365
жат 364
Фран@@ 364
изо@@ 364
ан 364
щи 364
фир@@ 364
лок@@ 364
твоей 364
38 364
копи@@ 363
вне 363
Ти@@ 363
s@@ 363
дации 363
изуч@@ 363
нена@@ 363
стабиль@@ 363
большие 362
горя@@ 362
харак@@ 362
вайте 362
технологии 362
Ско@@ 362
жению 362
Ха@@ 362
боя@@ 361
увеличи@@ 361
ствий 361
инициати@@ 361
числа 361
различ@@ 361
док 361
торговли 361
находя@@ 360
состоянии 360
результат@@ 360
кнов@@ 360
доби@@ 360
Ы@@ 360
запро@@ 360
U@@ 360
окружающей 360
пораз@@ 360
Сле@@ 359
шению 359
эти@@ 359
рос@@ 359
p@@ 359
пошли 359
девя@@ 359
территори@@ 359
70 359
2004 359
порт@@ 359
погиб@@ 359
Моисей 359
иногда 358
гии 358
18@@ 358
поставил 358
Еще 358
разум@@ 358
целей 358
культу@@ 357
милли@@ 357
10@@ 357
лены 357
хочу 357
39 357
исследования 356
есте@@ 356
холод@@ 356
единен@@ 356
юриди@@ 356
визи@@ 356
находи@@ 356
случаев 356
игро@@ 356
целе@@ 356
духов@@ 356
Ав@@ 356
ждает 356
чную 356
понять 355
каждой 355
предела@@ 355
верно 355
усилия 355
студен@@ 355
Анге@@ 355
ступил 354
правля@@ 354
самой 354
комп@@ 354
гос@@ 354
циони@@ 354
мите 354
машин@@ 354
-- 354
сделали 354
душу 354
Израиль 354
услови@@ 353
рованы 353
стер 353
несмотря 353
семьи 353
смотри@@ 353
основных 353
скорее 352
инфра@@ 352
мест 352
долго@@ 352
прове@@ 352
p 352
действовать 352
оказыва@@ 352
деть 352
Федера@@ 352
сыновья 352
вут 351
2000 351
огонь 351
данной 351
Ал@@ 351
практически 351
проект 351
меди@@ 350
кровь 350
борьбе 350
щении 350
чек 350
устра@@ 350
действу@@ 350
титься 350
высоко@@ 349
выда@@ 349
ниц@@ 349
Правитель@@ 349
качества 349
суда 348
каса@@ 348
сравнению 348
грес@@ 348
форма@@ 348
Ла@@ 348
Сред@@ 348
пригла@@ 348
яс@@ 348
составляет 348
экспер@@ 348
опу@@ 347
выполня@@ 347
плен@@ 347
крови 347
нях 347
веще@@ 347
сят 347
умер@@ 347
R 347
млрд 347
отношений 347
Конвен@@ 346
ционного 346
лат@@ 346
емы@@ 346
необходимости 346
кос@@ 346
вные 345
организаци@@ 345
аген@@ 345
компьютер@@ 345
ВО@@ 345
КО@@ 345
Евро@@ 345
поз@@ 345
ви 345
мам 345
То 345
Христа 345
тора 344
стить 344
представлен@@ 344
ьи 344
ниц 344
предприним@@ 344
ошиб@@ 344
До 344
покол@@ 344
правиль@@ 344
технологий 343
худо@@ 343
наконец 343
дж@@ 343
скоро 343
Програм@@ 343
форме 343
гой 343
хоче@@ 343
нок 342
употреб@@ 342
НО@@ 342
сви@@ 342
менить 342
45 342
знаете 342
брать 342
дочь 342
диа@@ 341
стату@@ 341
директо@@ 341
тный 341
доказ@@ 341
ата 341
били 341
катего@@ 341
рий@@ 341
ведо@@ 341
море 341
жают 340
РА@@ 340
вещи 340
ев@@ 340
ску@@ 340
равно 340
t 340
компани@@ 340
раться 340
тельности 340
эффек@@ 339
увиди@@ 339
стя@@ 339
Есть 339
жите 339
спокой@@ 339
север@@ 338
спис@@ 338
коммер@@ 338
мый 338
систе@@ 338
миллионов 338
Централь@@ 338
Дави@@ 338
аэ@@ 338
съ@@ 338
зависимости 337
мель@@ 337
касается 337
Дан@@ 337
пру@@ 337
известно 336
создание 336
тию 336
Ком@@ 336
m@@ 336
языка 336
строить 336
отказ@@ 336
гаранти@@ 336
начи@@ 336
ян 336
денег 336
веден@@ 336
], 336
Алексе@@ 336
Иа@@ 336
перегово@@ 335
бизнеса 335
раньше 335
представляет 335
жете 335
сад@@ 335
туры 335
тенден@@ 335
гром@@ 335
разгово@@ 335
отды@@ 334
20@@ 334
рите 334
Богом 334
напря@@ 334
многочислен@@ 334
Зако@@ 334
эт@@ 333
нении 333
станда@@ 333
каза@@ 333
крити@@ 333
каким 333
развива@@ 333
ус@@ 333
езд@@ 332
тое 332
Президен@@ 332
результаты 332
рекла@@ 332
безу@@ 332
вашей 332
жили@@ 332
ина 332
народы 332
жур@@ 331
иностран@@ 331
мпи@@ 331
шит 331
вообще 331
Ри@@ 331
тр 331
такая 331
любви 331
исполни@@ 331
даст 331
хран@@ 330
значит 330
удовлетво@@ 330
мра@@ 330
трудо@@ 330
метров 330
предупре@@ 330
проте@@ 330
фе 330
руш@@ 330
сор@@ 330
гие 330
Зем@@ 330
цело@@ 330
помочь 330
тит 330
нести 330
стр 329
следующие 329
сок 329
Конечно 329
фил@@ 329
колле@@ 329
тео@@ 329
сем 329
Сою@@ 329
тали@@ 329
сра@@ 329
предприятий 329
школы 329
скорб@@ 329
скажи 329
внутри 328
вшим 328
процесса 328
ниже 328
g@@ 328
чай@@ 328
мож@@ 328
максималь@@ 328
Иерусалиме 328
становится 327
будущем 327
непре@@ 327
вятся 327
Ас@@ 327
лых 327
ави@@ 327
нужда@@ 326
порядке 326
поряд@@ 326
думаю 326
первой 326
жением 326
Тем 326
истре@@ 326
женные 326
дай 326
площа@@ 326
41 326
мину@@ 325
Тур@@ 325
Министер@@ 325
оборудо@@ 325
ук@@ 325
Север@@ 325
групп 325
системе 325
ит 325
содержания 325
распре@@ 325
инф@@ 325
Коми@@ 324
сделан@@ 324
большую 324
влений 324
горе 324
всё 324
x 323
стол 323
конца 323
лей@@ 323
повто@@ 323
находятся 323
крепо@@ 323
вали@@ 323
упо@@ 322
зывать 322
механи@@ 322
B 322
s 322
подраз@@ 322
воскре@@ 322
сегодняш@@ 322
человеку 322
умер 322
Несмотря 322
большая 322
дно 322
42 321
лях 321
198@@ 321
опреде@@ 321
рабочих 321
слуш@@ 321
ющ@@ 321
приори@@ 321
лах 321
группа 320
апре@@ 320
государственной 320
влияние 320
данным 320
бое@@ 320
ия 320
тки 320
зло 320
опыт 320
самый 319
СС@@ 319
последу@@ 319
$ 319
наблю@@ 319
трид@@ 319
рым 319
декабря 318
стров 318
информация 318
семей@@ 318
первого 318
насле@@ 318
подклю@@ 318
рук 318
дин 318
всякий 318
жертву 318
кт 317
служить 317
обу@@ 317
етесь 317
пля@@ 317
лять 317
домаш@@ 317
рованные 317
приняли 317
минут 317
мисси@@ 317
разнообраз@@ 317
]. 317
предприя@@ 316
перио@@ 316
ена 316
видов 316
тет@@ 316
щ 316
ключе@@ 316
относи@@ 316
грех 316
связанных 316
авиа@@ 316
молит@@ 316
района 316
стами 315
шесть 315
лок 315
сен 315
Казах@@ 315
предполага@@ 315
кова 315
забы@@ 315
сал@@ 315
оценки 315
десяти@@ 315
выгля@@ 315
подроб@@ 315
дабы 315
помни@@ 315
Каждый 315
Более 315
бог@@ 315
горы 315
Иса@@ 315
камен@@ 314
опти@@ 314
фика@@ 314
разработки 314
получения 314
альную 314
про 314
Господом 314
Республике 313
форм 313
рассмот@@ 313
исти@@ 313
позиции 313
женщина 313
Ше@@ 313
изло@@ 313
товари@@ 313
ещё 313
кле@@ 312
имуще@@ 312
беспоко@@ 312
емы 312
Германии 312
Ча@@ 312
сторон 312
уче@@ 312
готов@@ 312
кости 312
гли@@ 312
коор@@ 312
подпис@@ 312
энерги@@ 312
засед@@ 312
примерно 312
лоша@@ 312
двенад@@ 312
непосред@@ 311
демократи@@ 311
возраст@@ 311
ума 311
местного 311
заповед@@ 311
маши@@ 311
доколе 311
соеди@@ 310
коне@@ 310
буд@@ 310
рак@@ 310
миру 310
d@@ 310
вилась 310
ема 310
лов@@ 310
вариан@@ 310
принимать 310
бами 310
леви@@ 310
наше 310
осуществления 310
индивиду@@ 310
хотите 310
пали 310
горе@@ 310
скло@@ 309
резер@@ 309
учетом 309
оружи@@ 309
значительно 309
список 309
b@@ 309
вспо@@ 309
дая 309
втор@@ 309
чиков 309
кал 309
надле@@ 309
g 309
словно 309
реди@@ 309
бесплат@@ 309
вопросов 309
влю 309
ны@@ 309
Чебок@@ 309
жешь 308
обстоятель@@ 308
дается 308
состоит 308
сексу@@ 308
террори@@ 308
реализ@@ 308
прежнему 308
кали 308
гораздо 308
валю@@ 308
Интернет 307
ор 307
поря@@ 307
пропа@@ 307
внед@@ 307
вновь 307
блю@@ 307
дальше 307
дене@@ 307
домой 307
делал 307
наказ@@ 306
ближай@@ 306
предотвра@@ 306
мет 306
ано 306
тим 306
ровал 306
Фе@@ 306
ауди@@ 306
ресур@@ 306
циями 306
меж@@ 306
равно@@ 306
Египет@@ 306
Гру@@ 305
настро@@ 305
r@@ 305
аспек@@ 305
политических 305
щими 305
паль@@ 305
тря@@ 305
нар@@ 305
мужчин 305
чами 305
журнали@@ 305
племен@@ 305
Израилевых 305
Господня 305
h@@ 304
u@@ 304
Европе 304
заинтересован@@ 304
приводи@@ 304
честве 304
вана 304
род 304
возь@@ 304
фотографи@@ 303
обеспечение 303
ря 303
аниях 303
дав@@ 303
жей 303
стоял 303
Националь@@ 303
дат 303
местных 303
Афри@@ 303
памяти 303
щиеся 303
ночью 303
стратегии 303
кою 303
Боже 303
ждая 302
хов@@ 302
правил 302
председ@@ 302
боро@@ 302
гают 302
устанавли@@ 302
Там 302
внимания 302
тельный 302
мия 302
жде 302
лению 302
жду@@ 302
молч@@ 302
словам 302
хранения 302
статье 302
процессе 301
столь 301
озна@@ 301
месяц 301
сту 301
шек 301
зре@@ 301
уте@@ 301
общего 300
национальных 300
хими@@ 300
корот@@ 300
женщи@@ 300
дополнить 300
Ели@@ 300
недавно 299
демонстри@@ 299
.) 299
бежать 299
сфер@@ 299
зом 299
Их 299
проя@@ 299
наб@@ 299
Челове@@ 299
социальной 299
испыты@@ 299
хоть 298
пересе@@ 298
чики 298
последни@@ 298
енти@@ 298
Би@@ 298
боле@@ 298
казалось 297
нынеш@@ 297
вшей 297
видели 297
уми@@ 297
данный 297
подви@@ 297
факт 297
каждо@@ 297
ьми 297
бил 297
ответственность 296
жив 296
работ 296
лым 296
желез@@ 296
Кар@@ 296
животных 296
чисто@@ 296
ственное 296
нашим 296
Сан@@ 296
пожал@@ 296
большим 295
щены 295
кси@@ 295
жный 295
ребенка 295
которому 295
виногра@@ 295
достижения 295
держа@@ 294
постано@@ 294
оправ@@ 294
дие 294
княз@@ 294
носить 294
аны 294
подчер@@ 294
относя@@ 294
сеть 294
Microsoft 294
отправил@@ 293
нице 293
re@@ 293
край@@ 293
вско@@ 293
еся 293
эффективности 293
мел@@ 293
диться 293
ностями 293
очеред@@ 293
документов 293
другое 293
вающих 293
муж 293
реки 292
шку 292
эксплуата@@ 292
Совет@@ 292
приш@@ 292
возду@@ 292
пору@@ 292
II 292
вей@@ 292
ваше 292
око@@ 292
43 292
брат 292
твою 292
тивные 291
вате@@ 291
превра@@ 291
щую 291
витель@@ 291
тури@@ 291
основном 291
вся 291
работан@@ 291
моря 291
исключи@@ 291
пригото@@ 291
центра@@ 290
лиде@@ 290
июня 290
превы@@ 290
прото@@ 290
дре@@ 290
пуск@@ 290
цент@@ 290
жали 290
ходя 290
альными 290
небе@@ 290
одежды 290
старо@@ 290
дан 290
нажды 289
чая 289
возгла@@ 289
подготовки 289
Может 289
Интер@@ 289
законодательства 289
44 289
щему 289
приходи@@ 289
конец 289
куль@@ 289
кандидат@@ 289
шта@@ 289
прогрес@@ 289
рю@@ 289
моему 288
протяжении 288
мни@@ 288
трудно 288
попул@@ 288
власть 288
пользователей 288
вен 288
могу@@ 288
гал 288
Сло@@ 287
палат@@ 287
судь@@ 287
какая 287
Почему 287
ПО 287
возможностей 287
Господень 287
священник 287
чений 286
ир@@ 286
получил 286
льных 286
камп@@ 286
Рас@@ 286
играть 286
верт@@ 286
персон@@ 286
нями 286
сор 286
клад@@ 286
ели 286
мировой 286
бюджета 285
ъя@@ 285
законо@@ 285
b 285
остат@@ 285
Гла@@ 285
ноя@@ 285
СР 285
правило 285
револю@@ 285
Генераль@@ 285
фро@@ 285
телефон@@ 285
сот 285
Чувашии 285
февра@@ 284
общей 284
исследований 284
ссии 284
знания 284
Затем 284
против@@ 284
O 284
Ман@@ 284
N 284
данного 284
рассе@@ 284
зелен@@ 284
нею 284
щал 283
цены 283
руках 283
предприятия 283
члены 283
час 283
подгото@@ 283
ехал 283
множе@@ 283
терпе@@ 283
требует 283
2002 283
зок 282
%. 282
зацию 282
различные 282
чку 282
век 282
регионе 282
ребен@@ 281
успеш@@ 281
чена 281
вероят@@ 281
предыду@@ 281
государственного 281
древ@@ 281
самые 281
рию 281
клас@@ 281
знаешь 281
четвер@@ 280
больших 280
отда@@ 280
лли@@ 280
дин@@ 280
енных 280
In@@ 280
письмо 280
чест@@ 280
ою 280
тщ@@ 279
национальной 279
сму@@ 279
тин 279
Це@@ 279
ализ@@ 279
фан@@ 279
автомати@@ 279
полно@@ 279
пяти 279
второ@@ 279
пал 279
Афгани@@ 279
Крас@@ 279
ющем 279
клады@@ 278
авгу@@ 278
международного 278
партии 278
англи@@ 278
чуть 278
районе 278
ен 278
длин@@ 278
тельным 278
сит 278
чит 278
уверен@@ 278
привести 278
услышал 278
жено 278
ана@@ 278
рта 278
следующего 278
беззако@@ 278
лицем 278
рет 277
рынок 277
думать 277
щению 277
клу@@ 277
рту 277
результатов 277
гую 277
любовь 277
работают 277
преступ@@ 277
ствием 277
включа@@ 277
тре 277
глаз 277
стую 277
хал@@ 277
квали@@ 276
двумя 276
эн@@ 276
взять 276
контроли@@ 276
предусматри@@ 276
фей@@ 276
Х 276
шен 276
маршру@@ 276
проведен@@ 276
казывать 276
)@@ 276
достиг@@ 276
принятия 276
награ@@ 276
страш@@ 276
тя 276
механиз@@ 276
вит 276
сь@@ 276
пах 275
никаких 275
сек@@ 275
лами 275
каждом 275
маться 275
Япо@@ 275
объем 275
доно@@ 275
времена 275
увидеть 275
летия 275
учиты@@ 275
йского 275
мися 275
предназна@@ 274
связанные 274
строитель@@ 274
наче 274
Бан@@ 274
книги 274
48 274
просто@@ 274
вка 274
щают 274
90 274
пира@@ 274
!» 274
чрезвычай@@ 273
политической 273
централь@@ 273
диало@@ 273
лении 273
вку@@ 273
отлич@@ 273
роваться 273
языке 273
компонен@@ 273
преж@@ 273
нут 273
греш@@ 273
правду 273
план 272
удалось 272
виду 272
читать 272
первую 272
Слу@@ 272
зор 272
нарко@@ 272
считы@@ 272
дешь 272
анализ@@ 272
минуту 272
вспомни@@ 272
ответственности 271
статисти@@ 271
реак@@ 271
имел 271
долгосро@@ 271
надцать 271
чень 271
цен 271
часа 271
старей@@ 271
миллиар@@ 271
тится 271
ьям 270
случ@@ 270
улыб@@ 270
?@@ 270
осу@@ 270
ставки 270
чению 270
тием 270
дует 270
енно 270
пункт 270
Оте@@ 270
предпо@@ 270
десяти 270
глаза@@ 270
возврат@@ 270
Мно@@ 270
Кото@@ 270
Иерусалима 270
укреп@@ 269
врат@@ 269
игры 269
рованию 269
участия 269
теат@@ 269
рит 269
ческому 269
опублико@@ 269
таться 269
вним@@ 269
привлек@@ 269
корен@@ 269
зла 269
кнул 269
перен@@ 268
могла 268
каких 268
ar@@ 268
мусуль@@ 268
F 268
СМИ 268
мяг@@ 268
лицен@@ 268
вперед 268
рубеж@@ 268
чными 268
одоб@@ 268
сентября 268
тотчас 268
придет 268
субъек@@ 267
Один 267
таки 267
оружия 267
197@@ 267
вшийся 267
Азии 267
страну 267
хлеб 267
новую 267
хождения 267
поводу 267
кно@@ 267
вполне 267
вероятно 267
йских 266
ступает 266
получили 266
оба 266
предме@@ 266
СПИ@@ 266
строительства 266
вилось 266
мало@@ 266
тным 266
ощ@@ 266
упомя@@ 266
сохран@@ 266
балан@@ 266
Иоа@@ 266
психо@@ 265
наша 265
услу@@ 265
городов 265
няет 265
Через 265
Согласно 265
здоро@@ 265
Цен@@ 265
жается 265
необходимость 265
кварти@@ 265
устро@@ 265
вец 265
Вавил@@ 265
всесож@@ 265
област@@ 264
хотят 264
срок 264
нием 264
талан@@ 264
!@@ 264
пом@@ 264
дело@@ 264
лицу 263
достой@@ 263
пытал@@ 263
Ex@@ 263
вза@@ 263
последов@@ 263
конференции 263
представителей 263
мужчи@@ 263
инвестиций 263
настоящей 263
тыми 263
новое 263
вости 263
сохраня@@ 263
путеше@@ 262
парла@@ 262
вое@@ 262
крайней 262
ровки 262
Основ@@ 262
тую 262
питания 262
чают 262
суббо@@ 262
воде 262
ищ@@ 262
зависит 262
тельность 261
сфе@@ 261
n@@ 261
нес 261
оставля@@ 261
посредством 261
экономической 261
зия 261
следующей 261
or@@ 261
носит 261
жертвы 261
страхо@@ 261
лян@@ 261
Тебе 261
Мересьев 261
переме@@ 260
АО 260
ционный 260
франц@@ 260
сожал@@ 260
зарегистри@@ 260
обработ@@ 260
тес@@ 260
интегра@@ 260
никакого 260
попыт@@ 260
самоле@@ 260
вошел 260
состояния 260
раскры@@ 260
цат@@ 260
Чуваш@@ 260
дверь 259
контроль 259
Рабо@@ 259
мнению 259
%@@ 259
an@@ 259
настоящего 259
мата 259
циям 259
нению 259
зри@@ 259
G 259
200 259
конструк@@ 259
насколько 259
стороне 259
хотелось 259
состояние 259
пами 259
дому 259
борьбы 259
выш@@ 259
врагов 259
собою 259
гео@@ 258
Поль@@ 258
христиан@@ 258
пил 258
окружа@@ 258
жного 258
набо@@ 258
движение 258
топли@@ 258
дево@@ 258
присоеди@@ 258
сотво@@ 258
какую 258
пош@@ 258
библиоте@@ 258
рился 258
потенциаль@@ 257
жные 257
уник@@ 257
октября 257
работал 257
работников 257
ровании 257
коммуника@@ 257
лек@@ 257
значи@@ 257
сказан@@ 257
городах 257
ждений 257
цель 257
мага@@ 257
уголо@@ 257
лая 257
чему 257
вью 257
жая 257
твоя 257
испыт@@ 257
жители 257
женный 257
литера@@ 257
Мое 257
новым 256
правда 256
невозможно 256
иностранных 256
имели 256
войну 256
шал 256
вяз@@ 256
алом 256
46 256
энер@@ 256
центр 256
передачи 256
мони@@ 256
веро@@ 256
иль 256
благодар@@ 256
региона 256
сайте 256
тера@@ 256
2012 256
глуб@@ 255
китай@@ 255
рез 255
направля@@ 255
район@@ 255
эпи@@ 255
мониторин@@ 255
сама 255
поверх@@ 255
комму@@ 255
двери 255
Наконец 255
руко@@ 255
многи@@ 254
типа 254
возника@@ 254
пой 254
поста@@ 254
ждены 254
(@@ 254
дание 254
нил 254
правильно 254
ЕН@@ 254
ясно 254
проти@@ 254
сей@@ 254
задач 254
хозяйства 254
моим 254
школе 254
Филисти@@ 254
фара@@ 254
образование 253
ллек@@ 253
навер@@ 253
большей 253
Ь@@ 253
порядок 253
ресурсы 253
проз@@ 253
выполнения 253
Всемир@@ 253
зан 253
класса 253
тив 253
шо@@ 253
моз@@ 253
хро@@ 253
совещ@@ 253
ворот 253
небес@@ 253
истреб@@ 253
отри@@ 252
отчет@@ 252
соответствующих 252
спраши@@ 252
лежа@@ 252
изи@@ 252
тюр@@ 252
тон 252
Закон 252
обли@@ 252
Иису@@ 252
парт@@ 252
тиях 252
кад@@ 251
фы 251
пользу@@ 251
полнить 251
собственности 251
внес@@ 251
чика 251
производство 251
сотрудничество 251
транспорт@@ 251
); 251
посы@@ 251
брал 251
Божий 251
био@@ 251
тям 250
ответ@@ 250
ведение 250
законом 250
стру@@ 250
отметить 250
знаем 250
пож@@ 250
* 250
суб@@ 249
требования 249
будущее 249
правила 249
налого@@ 249
500 249
сли@@ 249
лой 249
января 249
произошло 249
охват@@ 249
объектов 249
живет 249
роли 249
смерть 249
ваем 249
наря@@ 249
коль@@ 249
Посему 249
Твоего 249
международной 248
свободы 248
рили 248
чувствовал 248
насилия 248
ист@@ 248
посред@@ 248
строи@@ 248
Ивано@@ 248
свете 248
тивной 247
рации 247
Й 247
Именно 247
странами 247
реали@@ 247
ждении 247
ваю 247
парта@@ 247
слышал 247
модели 247
голу@@ 247
заключается 247
рал 247
спорт 247
Мои 247
социа@@ 246
какого 246
следования 246
чала 246
отче@@ 246
одновременно 246
дипло@@ 246
готовы 246
дороге 246
веки 246
ень@@ 246
ленные 246
нашу 246
пустил 246
соби@@ 246
зал 246
иск@@ 245
мили@@ 245
задачи 245
соци@@ 245
Ван@@ 245
l 245
хорош@@ 245
щаться 245
планирования 245
зная 245
конфи@@ 245
Республика 245
руб@@ 245
включает 245
микро@@ 245
сельскохозяй@@ 245
управление 244
церкви 244
Стра@@ 244
Хе@@ 244
марта 244
Комисси@@ 244
факти@@ 244
душе@@ 244
захват@@ 244
Ави@@ 244
2001 244
Мини@@ 243
on 243
at@@ 243
Чер@@ 243
нова 243
демокра@@ 243
карти@@ 243
программа 243
Азербай@@ 243
усил@@ 243
Ам@@ 243
деб@@ 242
k 242
одо@@ 242
кого@@ 242
v@@ 242
капитан 242
большо@@ 241
анало@@ 241
?» 241
гумани@@ 240
ува@@ 240
бил@@ 240
правил@@ 240
et@@ 240
фон 240
бою 240
инвесто@@ 239
персо@@ 239
тери@@ 239
пациен@@ 239
Ним 239
рина 239
ура@@ 238
вина 238
тех@@ 238
ин 238
ответствен@@ 237
тали 237
Мал@@ 237
Иван 237
Авра@@ 237
вад@@ 236
Ста@@ 236
сот@@ 236
систем@@ 236
Гор@@ 236
y 236
мун@@ 236
Давида 236
свиде@@ 235
профил@@ 235
спорт@@ 235
команди@@ 235
Пол@@ 235
лагер@@ 234
in@@ 234
бал@@ 234
рек@@ 234
Иор@@ 234
росси@@ 233
on@@ 233
сказ@@ 233
47 233
гражд@@ 233
вни@@ 232
снов@@ 232
борь@@ 232
инду@@ 232
мана 232
нормати@@ 232
грам@@ 232
нова@@ 232
пункта 232
лес@@ 232
ква@@ 231
программ@@ 231
]@@ 231
рели@@ 230
фун@@ 230
рех 230
тат 230
нин 230
Органи@@ 229
лам 229
en@@ 228
достат@@ 228
u 228
что@@ 228
лле@@ 228
нен 228
аф@@ 228
конкур@@ 228
министер@@ 227
:@@ 227
дри@@ 227
рес 227
геро@@ 226
Фин@@ 226
Фа@@ 226
спон@@ 226
прогно@@ 226
нике 226
дале@@ 225
Пи@@ 225
ью@@ 224
каз 224
тура 224
Пар@@ 224
наи@@ 224
резуль@@ 224
рь 224
иску@@ 223
ино@@ 223
увели@@ 222
Учи@@ 222
ада@@ 222
тан 222
Мат@@ 222
контрак@@ 221
смен@@ 221
после@@ 221
бине@@ 221
Биденко 221
стере@@ 220
al@@ 220
повер@@ 220
Уз@@ 220
Ааро@@ 220
ат 219
Хри@@ 219
ене 219
смот@@ 218
196@@ 218
больш@@ 218
обору@@ 218
Еф@@ 218
лия 217
лев@@ 216
/@@ 216
бат@@ 216
гда 216
кило@@ 216
Мил@@ 216
55 216
лал 216
оз@@ 215
it@@ 215
пил@@ 215
an 215
единенных 215
ник@@ 215
лага@@ 214
требовани@@ 214
жели 214
2015 214
Петр 214
аш@@ 214
обяз@@ 213
рам@@ 213
is@@ 213
кала 213
конферен@@ 213
поги@@ 213
Гу@@ 212
ел 212
тите 212
Нико@@ 212
сар@@ 212
ган 211
вли@@ 211
будь 211
каде@@ 211
z@@ 211
здра@@ 211
гин@@ 210
мин 210
скольку 210
сован@@ 210
участи@@ 210
мала 210
ьер@@ 209
ol@@ 209
разно@@ 209
!.. 209
+ 208
лам@@ 208
рят 208
бин@@ 208
площад@@ 208
Гри@@ 208
Саваоф 208
el@@ 207
строительство 207
am@@ 207
Пет@@ 207
49 207
хар@@ 207
Иоан@@ 207
оск@@ 207
рем@@ 206
хозя@@ 206
вь 206
вей 206
тей@@ 205
17@@ 205
радио@@ 205
друго@@ 205
особ@@ 205
уй 205
лью 204
храня@@ 204
Алексан@@ 204
дий 204
Ша@@ 203
,@@ 203
кун@@ 202
хан@@ 202
Гек 202
зависи@@ 201
трен@@ 201
51 201
вича 201
мери@@ 200
?.. 200
скор@@ 200
терро@@ 199
Совет 199
Владимир 199
ферен@@ 199
лес 199
64 198
IP 197
Ев@@ 197
элек@@ 197
Тро@@ 196
Л 196
курса 196
уя@@ 196
оши@@ 195
54 195
евро@@ 195
асси@@ 194
юд@@ 194
f@@ 194
инвали@@ 194
рую 194
чах 193
люд@@ 193
рек 193
Ху@@ 193
Ке@@ 192
вия 192
лод@@ 192
Сау@@ 192
Объ@@ 191
двад@@ 191
ень 191
пси@@ 191
Май@@ 191
com 190
1999 190
53 190
май@@ 190
бря 190
ине 189
моли@@ 189
насили@@ 189
фрон@@ 188
n 187
гал@@ 187
гаран@@ 187
даль@@ 187
Дубров@@ 187
m 186
влек@@ 186
Петрович 186
ам@@ 185
референду@@ 185
мона 185
Иуда 185
Иакова 185
300 184
стари@@ 184
Y@@ 184
протя@@ 184
x@@ 184
совет 184
Зе@@ 183
ул@@ 183
57 183
ОО@@ 182
депу@@ 182
52 181
утра@@ 181
Ь 181
ноч@@ 181
Server 180
быст@@ 180
Кан@@ 179
нал@@ 179
вель@@ 179
др 178
проф@@ 178
St@@ 178
авли@@ 178
семе@@ 178
ая 178
рово@@ 178
стой@@ 177
дире@@ 177
Иере@@ 177
Влади@@ 176
фф@@ 176
бата@@ 176
день@@ 176
Э 176
75 175
in 175
фин@@ 175
пала 175
споко@@ 175
ач@@ 175
бизне@@ 174
%, 174
временно 174
коридо@@ 174
лай@@ 173
смер@@ 172
кин 172
Джо 172
Вениа@@ 172
тел 171
www 171
вино@@ 171
сун@@ 171
Макси@@ 171
кня@@ 171
Христос 170
Согла@@ 170
лине 169
комен@@ 169
Z@@ 169
нь@@ 169
'@@ 168
V 168
верен@@ 167
юри@@ 167
сож@@ 167
-@@ 167
израиль@@ 167
школ@@ 167
шав 167
Павел 166
посмо@@ 166
Хал@@ 166
Соло@@ 166
16@@ 166
Сама@@ 166
,] 166
»@@ 166
пример 165
Щ@@ 165
56 165
es 165
2017 165
Вла@@ 164
контра@@ 164
Андре@@ 164
мара 164
праз@@ 163
мате@@ 163
ti@@ 163
кия 163
долла@@ 162
il@@ 162
al 162
лин 162
Енакиев 162
тен 161
st@@ 161
обя@@ 161
скал@@ 161
59 161
Иоси@@ 161
Саул 161
Его@@ 161
мани@@ 160
en 160
IS@@ 159
сив@@ 159
Герм@@ 159
Q@@ 159
мат 159
2014 159
коно@@ 158
квар@@ 158
обес@@ 158
диви@@ 158
Сте@@ 158
чести@@ 158
58 158
Ахи@@ 158
чих 157
ссе 157
сар 157
ic@@ 156
Иаков 156
сматри@@ 155
сут 155
ер 155
2011 155
шине 155
Чу@@ 155
em@@ 154
Кана@@ 154
and 154
экс@@ 154
Аха@@ 154
Ту@@ 153
as@@ 153
сат@@ 153
Кири@@ 153
2016 153
сколь@@ 152
зах@@ 152
Христо@@ 152
мон 152
профес@@ 152
2013 152
оне 152
un@@ 151
ia 151
СП@@ 151
Иван@@ 151
ut@@ 150
Анти@@ 150
имо@@ 150
помощ@@ 150
э 150
US@@ 149
." 149
двер@@ 149
Вар@@ 149
желе@@ 149
бай@@ 149
сут@@ 149
Иг@@ 149
струк@@ 148
ri@@ 148
h 148
di@@ 148
ама 148
тата 146
демон@@ 146
ей@@ 146
вш@@ 146
роб@@ 146
01 146
Соломон 146
Асси@@ 146
Кирила 146
кас@@ 145
фото@@ 145
2018 145
Дани@@ 144
Езе@@ 144
зопас@@ 143
нер 143
65 143
Александр 143
финан@@ 142
волю@@ 142
орг@@ 142
Аве@@ 142
здо@@ 142
Аза@@ 142
новья 142
укре@@ 141
сик@@ 141
ra@@ 141
Con@@ 141
кир@@ 141
бя 141
Бекки 141
1998 140
ак 140
компью@@ 140
окон@@ 140
тери 140
менно 140
Египет 140
Ы 139
ation 139
стах 139
.»; 139
Горбу@@ 139
стать@@ 138
террито@@ 138
досту@@ 138
професси@@ 138
вани@@ 138
et 137
хоз@@ 137
Мак@@ 137
ич 137
..@@ 136
кин@@ 136
ая@@ 136
400 136
проц@@ 136
Гали@@ 136
Гала@@ 136
религи@@ 135
лени 135
ro@@ 135
Ну@@ 135
Васили@@ 135
лько 134
Ac@@ 133
шут@@ 133
матри@@ 133
& 133
Ц 132
oo@@ 132
ur@@ 132
Ap@@ 132
кан 132
Михай@@ 132
ВИ@@ 131
рин 131
Михаил 131
Василье@@ 131
Ионафан 131
r 130
деятель@@ 130
Навуходоно@@ 130
обеспе@@ 129
95 129
Бла@@ 129
Саму@@ 129
Николай 129
us 128
__@@ 128
преду@@ 128
Гер@@ 128
ляр@@ 128
лев 128
62 127
Linux 127
om@@ 126
tt@@ 126
of 126
Израиле 126
w@@ 126
ML 126
ет@@ 126
пин@@ 125
прин@@ 125
фили@@ 125
Грушниц@@ 125
ad@@ 124
разу 124
92 124
Фили@@ 124
мерно 124
Петро@@ 124
кви 123
район 123
;@@ 123
j@@ 122
демо@@ 122
юр@@ 122
Иерусали@@ 122
медлен@@ 121
av@@ 121
лени@@ 121
круг 121
пит 120
ag@@ 120
U 120
*@@ 120
старик 120
кла 119
кономи@@ 119
сан 119
AS@@ 119
пророк 119
.] 119
Office 118
ch@@ 118
осуще@@ 118
Al@@ 117
кура@@ 117
im@@ 117
Goo@@ 117
No@@ 117
мерикан@@ 116
апа@@ 116
лать 116
праведли@@ 116
лан 116
жется 115
ac@@ 115
дека@@ 115
gle 115
юл@@ 115
Web 114
ho@@ 114
праши@@ 114
пи 114
тени 114
Мерес@@ 114
участо@@ 113
f 113
шком 113
The 112
?" 112
датель@@ 112
пуш@@ 112
несколь@@ 111
Sy@@ 111
пер 111
ou@@ 110
el 110
En@@ 109
тав@@ 109
зуль@@ 109
Ю 109
ir@@ 109
HT@@ 109
Po@@ 108
Ch@@ 108
Израил@@ 108
цени@@ 107
_@@ 107
выр@@ 107
гих 106
гно@@ 106
Pro@@ 106
Вавилон 106
Иосиф 106
«@@ 106
каш@@ 105
лее 105
рал@@ 105
Mo@@ 104
ist@@ 104
CO@@ 103
tel 103
рее 103
Ч 103
щины 103
сему 103
AP 102
кара@@ 102
Re@@ 102
нта 102
мышлен@@ 102
W 102
мах@@ 102
K 101
OS 101
Ат@@ 101
бюджет 101
le@@ 100
ap@@ 100
изне@@ 100
ab@@ 100
at 100
ери 100
теп@@ 100
00@@ 100
is 99
change 99
министра@@ 99
ar 99
стойчи@@ 99
аро@@ 99
минут@@ 99
пул@@ 98
смотрен@@ 98
неш@@ 98
Пат@@ 98
CD 98
кори@@ 98
PC 98
мот@@ 98
исси@@ 97
торгов@@ 97
lo@@ 97
ид@@ 97
суль@@ 97
испы@@ 97
os@@ 97
шни 97
Аарон 97
Рос@@ 96
An@@ 96
ing 96
H 95
ec@@ 95
рти 95
эко@@ 94
Pl@@ 94
май 94
говор@@ 94
Авраам 94
лё@@ 94
Иона@@ 94
or 93
de 93
ul@@ 93
ay@@ 93
кер 92
тил@@ 92
us@@ 92
RA@@ 91
чрез@@ 91
нче 91
пах@@ 91
Ma@@ 90
вара 90
one 90
проду@@ 90
стоян@@ 90
кате@@ 90
ha@@ 89
Ad@@ 89
медици@@ 89
= 89
li@@ 88
анге@@ 88
um 88
SS 88
рех@@ 88
удовле@@ 88
ard 87
z 87
бок@@ 87
tr@@ 86
le 86
хал 86
вро@@ 86
UN@@ 86
иници@@ 85
тере@@ 85
ell 85
конф@@ 84
AT@@ 83
ob@@ 83
дера@@ 83
улы@@ 83
сист@@ 82
ed 82
UR@@ 82
v 81
Ph@@ 81
int 81
регистри@@ 81
Республи@@ 81
be 81
кер@@ 81
осво@@ 81
to 81
Кро@@ 81
кая@@ 81
­ 81
AP@@ 80
@ 80
pl@@ 80
AR@@ 80
Ar@@ 80
тир@@ 80
…@@ 80
ile 79
Li@@ 79
заинтере@@ 79
туа@@ 79
NE@@ 79
es@@ 79
ER@@ 79
te@@ 78
si@@ 78
IN@@ 78
лай 78
ID@@ 78
\ 78
ow@@ 78
макси@@ 78
Енаки@@ 78
ств@@ 77
кала@@ 77
ура 77
ple 77
хат@@ 77
For@@ 77
шне 77
oc@@ 77
Net@@ 76
сал 76
самы@@ 76
Аф@@ 76
сю@@ 75
хам 75
здравоо@@ 75
лама 75
стоятель@@ 75
as 75
фан 75
RE@@ 75
зербай@@ 74
Гос@@ 74
льзя 74
ad 73
tion 73
AN@@ 73
ch 73
IT@@ 73
Сан 73
иу@@ 73
теля@@ 73
IC@@ 73
Зат@@ 73
ack@@ 72
станавли@@ 72
Pr@@ 72
Manag@@ 72
муниципали@@ 71
De@@ 71
the 71
Y 71
Кал@@ 71
Internet 71
сса 71
зя 71
пир@@ 71
зиден@@ 70
ьше 70
RO@@ 70
Su@@ 70
th@@ 70
age 70
пла 70
Чуваши@@ 70
чар@@ 69
Qu@@ 69
пей@@ 69
200@@ 69
Mar@@ 69
воо@@ 69
su@@ 69
кана 69
вар 69
смотря 69
отно@@ 68
op@@ 67
ex@@ 67
do@@ 67
mail 67
ter 67
сде@@ 67
нк@@ 66
ent@@ 66
лла 66
шай@@ 66
Вань@@ 66
it 65
лове@@ 65
фран@@ 65
рах@@ 65
шар@@ 64
Пал@@ 64
ing@@ 64
am 64
вмест@@ 64
IT 63
ers 63
Миха@@ 63
> 63
ух@@ 63
der 63
IV 62
ph@@ 62
page 62
регу@@ 62
ter@@ 61
исе 61
all 61
ent 61
per@@ 61
Com@@ 61
Group 61
ne@@ 61
ate 61
шка@@ 61
Per@@ 60
жай@@ 60
сили@@ 60
теме 60
AL@@ 60
and@@ 60
рито@@ 60
конку@@ 60
ine 60
кай@@ 60
Direc@@ 59
de@@ 59
tu@@ 59
Wor@@ 59
шк@@ 59
net 59
lu@@ 59
ed@@ 58
EC@@ 58
um@@ 58
христи@@ 58
.. 57
итле@@ 57
ash 57
son 57
траль@@ 57
ev@@ 57
рас 57
пух@@ 57
Савао@@ 57
International 56
SC@@ 56
for 56
look 56
Mon@@ 56
ун 56
te 56
ого@@ 56
пур@@ 56
пар 56
Serv@@ 56
кач@@ 56
Res@@ 55
Sp@@ 55
We@@ 55
ig@@ 55
th 55
fi@@ 55
лап@@ 54
канди@@ 54
Vi@@ 54
ve 54
J 53
Di@@ 53
IS 53
ew@@ 53
иму@@ 53
ak@@ 52
Op@@ 52
qu@@ 52
dio 52
нса 52
ST@@ 52
ore@@ 52
Si@@ 52
сур@@ 52
ans@@ 52
crip@@ 51
tive 51
кумен@@ 51
Par@@ 51
co 51
id@@ 51
МИ 51
чине 51
EN@@ 51
бюд@@ 51
Fi@@ 50
эксплу@@ 50
IM@@ 50
пир 50
ници@@ 50
US 50
World 50
ot@@ 50
ÿ@@ 50
AC@@ 49
Wi@@ 49
ov@@ 49
ъек@@ 49
od 49
au@@ 49
кил@@ 49
El@@ 48
Bo@@ 48
tory 48
юн@@ 48
ge 48
hi@@ 48
IO@@ 48
ay 48
He@@ 48
Мен@@ 48
ell@@ 48
est@@ 48
ps 48
буде@@ 48
la@@ 47
man 47
ony 47
республика 47
Эй 47
хуш@@ 47
ts 46
Th@@ 46
яна 46
мар 46
ас 46
rac@@ 46
all@@ 45
ual 45
Me@@ 45
ффек@@ 45
ню@@ 45
Госпо@@ 45
аса 45
Q 44
ton 44
ail 44
Le@@ 44
bi@@ 44
Нес@@ 44
Tr@@ 44
ав 44
тара@@ 44
uc@@ 43
vi@@ 43
ations 43
# 43
Jo@@ 43
неме@@ 43
коле 43
ice 43
понен@@ 43
ric@@ 43
est 42
ic 42
иле@@ 42
ase 42
сак@@ 42
pe 42
+@@ 42
ису@@ 42
наки@@ 41
ence 41
Ro@@ 41
Au@@ 41
ir 41
рса 41
нине 41
of@@ 41
ber@@ 41
Cor@@ 41
ite 41
Dis@@ 41
," 41
которо@@ 41
ĕ@@ 41
ess@@ 40
ace 40
af@@ 40
w 40
om 40
ach@@ 40
бров@@ 40
se 40
ver@@ 40
лех 40
id 39
довле@@ 39
кото@@ 39
техно@@ 39
Un@@ 39
se@@ 39
Z 39
ill@@ 39
Ж 39
Коне@@ 39
ren@@ 38
ker 38
ry 38
no@@ 38
ware 38
to@@ 38
ыр@@ 38
ds 38
ement 37
ci@@ 37
Comp@@ 37
ce 37
Gu@@ 37
ance 37
ub@@ 37
алли@@ 37
OR@@ 37
Fore@@ 37
путе@@ 37
Орг@@ 37
Co@@ 37
Tra@@ 36
are 36
хин@@ 36
New 36
Col@@ 36
Bank 36
кен@@ 36
Bus@@ 35
ep@@ 35
йт@@ 35
ity 35
обще 35
pen@@ 35
ies 35
man@@ 35
ey 35
меро@@ 35
ail@@ 35
sp@@ 35
ther@@ 35
Ge@@ 35
Uni@@ 35
TV 35
рине 35
bo@@ 35
ef@@ 34
Security 34
ve@@ 34
web 34
bu@@ 34
ft 34
To@@ 34
ke 34
маш@@ 34
Sh@@ 34
гражда@@ 34
ud@@ 34
эй 34
ment 33
ff@@ 33
™ 33
he 33
line 33
tro@@ 33
хани@@ 33
ices 33
earch 32
_ 32
gi@@ 32
талла 32
ick@@ 32
ings 32
ant 32
лар@@ 32
DP 32
mar@@ 32
po@@ 32
пек@@ 32
Наву@@ 32
ari@@ 31
ew 31
Гене@@ 31
ast@@ 31
ran@@ 31
ru@@ 31
ot 31
сул@@ 31
простра@@ 31
ect 31
mo@@ 31
go@@ 31
con@@ 31
ens 31
du@@ 31
ess 31
атте@@ 31
sh@@ 30
пич@@ 30
ner 30
me 30
ore 30
land 30
tor@@ 30
сыно@@ 30
ler 30
fo@@ 30
=@@ 30
ject 30
лав 30
Мои@@ 30
ili@@ 29
be@@ 29
ik@@ 29
серье@@ 29
str@@ 29
So@@ 29
ack 29
Se@@ 29
Am@@ 29
etc 29
< 29
пур 29
enter 29
az@@ 29
eri@@ 29
опубли@@ 29
индиви@@ 29
for@@ 29
Rec@@ 29
Be@@ 29
кка 29
ĕ 29
On@@ 28
book 28
блиоте@@ 28
sion 28
up@@ 28
$@@ 28
парни 28
stem 28
хся 28
гети@@ 28
onal 28
iz@@ 28
тар 28
чике 28
ass@@ 27
ностран@@ 27
Sec@@ 27
gh@@ 27
up 27
ree 27
pe@@ 27
ure 27
os 27
co@@ 27
ool 27
ime 27
Inter@@ 27
ç@@ 27
ink 26
our@@ 26
As@@ 26
prise 26
ace@@ 26
press 26
stems 26
Nor@@ 26
der@@ 26
ak 26
иш@@ 26
ost 26
пай@@ 26
by 26
тум@@ 26
монито@@ 26
ital 26
проце@@ 26
хоте@@ 26
avi@@ 25
bl@@ 25
Pol@@ 25
кине 25
ai@@ 25
ster 25
акан@@ 25
tware 25
Gre@@ 25
ars 25
port 25
re 25
алан@@ 25
Pal@@ 25
Commun@@ 25
go 25
ue 25
sch@@ 25
ire 25
ka 25
лесе 25
° 25
Иудея 25
чик@@ 25
ly 24
dro@@ 24
tic@@ 24
sy@@ 24
gu@@ 24
ma@@ 24
пса 24
хер 24
ame 24
asic 24
ate@@ 24
lobal 24
ks 24
Кай@@ 24
iness 24
ons 24
ast 24
кама 24
шур@@ 24
кай 24
ys@@ 24
ES 24
Сей@@ 24
essi@@ 24
icro@@ 24
аллу@@ 24
хул@@ 24
Bu@@ 23
ics 23
ary 23
echn@@ 23
анса 23
ource 23
enti@@ 23
me@@ 23
tor 23
лас 23
ă@@ 23
ain 22
fe@@ 22
[@@ 22
br@@ 22
Fin@@ 22
Nov@@ 22
ich 22
эксп@@ 22
oun@@ 22
q@@ 22
Ser@@ 22
q 22
ology 22
аса@@ 22
box 22
dy 22
rel@@ 22
ларах 22
Ne@@ 22
ї 22
ood 22
ant@@ 22
>@@ 22
венад@@ 22
годняш@@ 22
хай@@ 22
ash@@ 22
судар@@ 22
шар 21
тот@@ 21
Что@@ 21
den 21
gy 21
ide@@ 21
end@@ 21
mp@@ 21
art 21
ative 21
тине 21
раздо 21
min@@ 21
ge@@ 21
иудей@@ 21
мпа 21
he@@ 21
por@@ 21
General 21
arm@@ 21
ical 21
cho@@ 20
ult 20
eng@@ 20
row@@ 20
унта 20
les 20
mework 20
Ta@@ 20
we@@ 20
ni@@ 20
хама 20
wi@@ 20
ator 20
ord@@ 20
rem@@ 20
wit@@ 20
alth 20
Ш 20
act 20
Bri@@ 20
aw@@ 20
сир 20
памя@@ 20
пин 20
пле 20
soft 20
work 20
маст@@ 20
University 20
ey@@ 20
j 20
сана 20
сси 19
able 19
tions 19
ave 19
ци 19
mer@@ 19
это@@ 19
sk@@ 19
ms 19
ron@@ 19
ress 19
ath 19
январ@@ 19
ext 19
ty 19
plic@@ 19
cl@@ 19
erc@@ 19
tri@@ 19
Wh@@ 19
тух@@ 19
ый@@ 19
ade 18
лле 18
do 18
tec@@ 18
lan@@ 18
Im@@ 18
per 18
полне 18
Pri@@ 18
ish@@ 18
~ 18
od@@ 18
ind@@ 18
Min@@ 18
тул@@ 18
ting 18
туп@@ 18
dit 18
ыл@@ 18
Васил@@ 18
pr@@ 17
Ъ@@ 17
int@@ 17
Or@@ 17
Euro@@ 17
ome 17
fa@@ 17
har@@ 17
Company 17
тес 17
res@@ 17
ys 17
il 17
Ri@@ 17
gr@@ 17
вас@@ 17
ерт@@ 17
шку@@ 17
зад 17
ber 17
хисе@@ 17
ill 16
pi@@ 16
pa@@ 16
can@@ 16
ine@@ 16
ang@@ 16
are@@ 16
нако 16
tic 16
ise 16
ur 16
gn@@ 16
ale 16
ati@@ 16
top 16
its 16
tics 16
ger 16
ated 16
ban@@ 16
dis@@ 16
nam@@ 16
ca@@ 16
Development 16
mm@@ 15
tes 15
ex 15
яр 15
ins 15
soci@@ 15
war@@ 15
циен@@ 15
ding 15
each 15
ory 15
American 15
In 15
att@@ 15
eli@@ 15
ali@@ 15
gra@@ 15
тас 15
ux 15
ook 15
ear@@ 15
ver 15
\@@ 15
pre@@ 15
Hi@@ 15
National 15
тарах 15
вычай@@ 15
ain@@ 15
:— 15
вао@@ 15
nal 14
cat@@ 14
king 14
Bi@@ 14
Man@@ 14
ort 14
tel@@ 14
als 14
ten@@ 14
хав@@ 14
cra@@ 14
com@@ 14
Med@@ 14
потен@@ 14
ma 14
Go@@ 14
ouse 14
ones 14
elec@@ 14
out 14
Bal@@ 14
ound@@ 14
ted 14
Micro@@ 14
aster 14
China 14
Алек@@ 14
ames 14
our 14
inal 14
anc@@ 14
инве@@ 14
ank 14
ning 14
st 14
кул@@ 14
bur@@ 14
formation 14
mi@@ 14
Сак@@ 14
Так@@ 13
§ 13
fin@@ 13
inf@@ 13
UN 13
ei@@ 13
own@@ 13
assi@@ 13
lic@@ 13
rit@@ 13
els 13
sel@@ 13
Pe@@ 13
Can@@ 13
Hol@@ 13
inter@@ 13
The@@ 13
dr@@ 13
кура 13
Ab@@ 13
ble 13
dge 13
пата 13
приним@@ 13
plo@@ 13
lack 13
ori@@ 13
stre@@ 13
way 13
шанса 13
sc@@ 13
сине 13
кун 13
blo@@ 13
алли 12
media 12
тса 12
support 12
ery 12
ser@@ 12
mon@@ 12
gic 12
gs 12
ta@@ 12
cu@@ 12
pres@@ 12
ick 12
ll 12
ols 12
сук@@ 12
tim@@ 12
my 12
gn 12
era 12
куна 12
ina 12
новь 12
read@@ 12
Russian 12
nec@@ 12
utions 12
ere 12
loc@@ 12
red 12
ld@@ 12
open 12
tis@@ 12
Des@@ 12
ound 12
ls 12
aim@@ 12
сых@@ 12
Lin@@ 12
fe 12
Fe@@ 12
asi@@ 12
del@@ 12
gh 12
duc@@ 12
fied 12
рд 12
тав 12
One 12
so@@ 12
stitute 12
ock 12
ke@@ 12
Coun@@ 11
ass 11
end 11
old 11
inc@@ 11
Fr@@ 11
ture 11
par@@ 11
uter 11
Is@@ 11
works 11
ght 11
form@@ 11
date 11
ah 11
алла 11
ял@@ 11
port@@ 11
nel 11
кен 11
sid@@ 11
Centr@@ 11
lin@@ 11
ind 11
sol@@ 11
get 11
ste@@ 11
tur@@ 11
time 11
ow 11
chi@@ 11
ates 11
ut 11
хура 11
„ 11
que 10
ian 10
tan@@ 10
ven@@ 10
€ 10
ities 10
Progra@@ 10
met@@ 10
uni@@ 10
ror 10
vision 10
sm@@ 10
ature 10
server 10
don 10
ust 10
Geor@@ 10
inst@@ 10
ыду@@ 10
ense 10
Tur@@ 10
ublic 10
America 10
run@@ 10
source 10
tors 10
let 10
air 10
esti@@ 10
ep 10
ake 10
To 10
ports 10
абзац@@ 10
op 10
anced 10
let@@ 10
out@@ 10
view 10
United 10
English 10
Of 10
страте@@ 10
Grou@@ 10
val@@ 10
off@@ 10
ited 10
non 10
ith 10
ves 10
выля@@ 10
изра@@ 10
Изра@@ 10
tain@@ 9
gre@@ 9
world 9
ans 9
peri@@ 9
sions 9
na 9
stri@@ 9
TH@@ 9
res 9
sive 9
ish 9
pers@@ 9
eg@@ 9
fer@@ 9
{ 9
pro@@ 9
cc@@ 9
low 9
light 9
ove 9
coun@@ 9
very 9
ist 9
my@@ 9
Ju@@ 9
ization 9
no 9
ond 9
ann@@ 9
cial 9
face 9
fl@@ 9
і@@ 9
ord 9
lob@@ 9
pho@@ 9
леш@@ 9
ose 9
cli@@ 9
des 9
Cha@@ 9
group 9
No 9
European 9
stom@@ 9
леш 9
№@@ 9
can 9
boo@@ 9
ппин 9
space 9
une 9
pic@@ 9
ection 9
vir@@ 9
form 9
скохозяй@@ 9
make 9
хап@@ 9
ens@@ 9
выль@@ 9
рӗ@@ 9
tion@@ 8
hard 8
dra@@ 8
the@@ 8
ther 8
ns 8
han@@ 8
zer@@ 8
bir@@ 8
del 8
Council 8
lab@@ 8
day 8
igh@@ 8
Econ@@ 8
Chr@@ 8
ater 8
econ@@ 8
Fun@@ 8
ability 8
ласа 8
sub@@ 8
Bel@@ 8
ties 8
tw@@ 8
val 8
юра@@ 8
car 8
fil@@ 8
hn@@ 8
Christi@@ 8
vers@@ 8
hu@@ 8
cop@@ 8
Regi@@ 8
Europe 8
ering 8
sts 8
pat@@ 8
ext@@ 8
file 8
часах 8
ous 8
ach 8
tar@@ 8
ъ 8
rup@@ 8
gen@@ 8
low@@ 8
serv@@ 8
Ун@@ 8
board 8
dat@@ 8
шы@@ 8
ong 8
ources 8
tre@@ 8
abor@@ 8
ight 8
live 8
мотря 8
Russia 8
Western 8
tal 8
cre@@ 8
хир 8
ваши@@ 8
лӗх 8
кă@@ 8
тября 8
ling 7
if 7
aur@@ 7
ath@@ 7
net@@ 7
ome@@ 7
site 7
ef 7
gency 7
ministr@@ 7
her 7
pass@@ 7
start 7
mod@@ 7
tegr@@ 7
vo@@ 7
post 7
ush@@ 7
doc@@ 7
sign@@ 7
fu@@ 7
anti@@ 7
air@@ 7
All 7
ыт@@ 7
stry 7
aut@@ 7
fac@@ 7
Hum@@ 7
version 7
life 7
over 7
™@@ 7
ury 7
fic@@ 7
des@@ 7
emp@@ 7
web@@ 7
ety 7
play 7
ental 7
tou@@ 7
bor@@ 7
gar@@ 7
ача@@ 7
марш@@ 7
ward 7
Ear@@ 7
bank 7
West 7
sw@@ 7
che@@ 7
fore@@ 7
play@@ 7
evi@@ 7
arti@@ 7
Рес@@ 7
ou 7
set 7
ign 7
lines 7
add@@ 7
priv@@ 7
this 7
atory 7
work@@ 7
таса 7
pol@@ 7
part@@ 7
рне 7
тап@@ 7
предот@@ 6
mil@@ 6
bri@@ 6
qui@@ 6
Human 6
ris@@ 6
ute 6
col@@ 6
Bec@@ 6
racy 6
СШ@@ 6
} 6
vol@@ 6
ution 6
sen@@ 6
#@@ 6
dre@@ 6
Your 6
fication 6
cor@@ 6
side 6
place 6
Пур@@ 6
gl@@ 6
ents 6
list 6
home 6
ation@@ 6
ality 6
ective 6
Rights 6
ded 6
ments 6
bar@@ 6
aren@@ 6
ants 6
graph@@ 6
vil@@ 6
ken 6
чы@@ 6
uro@@ 6
name 6
text 6
get@@ 6
cur@@ 6
Off@@ 6
tle 6
sha@@ 6
чех 6
asp@@ 6
My 6
now@@ 6
win@@ 6
lig@@ 6
house 6
sul@@ 6
ways 6
хы@@ 6
ors 6
Central 6
tra@@ 6
ping 6
rec@@ 6
Mus@@ 6
reg@@ 6
ten 6
ember 6
ros@@ 6
via 6
Moscow 6
so 6
confi@@ 6
dic@@ 6
Ass@@ 6
Union 6
from 6
ines 6
ya 6
ope 6
леме 6
table 6
lear@@ 6
хур 6
ех 6
some@@ 6
é@@ 6
ĕр@@ 6
хă@@ 6
сиксе 6
мух@@ 6
ăр 6
speci@@ 5
ational 5
use@@ 5
uments 5
dom 5
лаш@@ 5
ough 5
лса 5
head 5
word 5
Ital@@ 5
fra@@ 5
терме 5
lon@@ 5
Committee 5
ease 5
mess@@ 5
tal@@ 5
ws 5
cul@@ 5
ribu@@ 5
hol@@ 5
down@@ 5
lam@@ 5
omic 5
partment 5
ference 5
Party 5
ize 5
sky 5
cha@@ 5
cap@@ 5
free 5
mis@@ 5
stan@@ 5
илсе 5
sor@@ 5
abl@@ 5
moun@@ 5
ally 5
ask 5
gg@@ 5
South 5
type 5
bus@@ 5
Organ@@ 5
isation 5
pan@@ 5
wide 5
enc@@ 5
суя 5
IDS 5
ures 5
vis@@ 5
over@@ 5
week 5
usic 5
users 5
lit@@ 5
референ@@ 5
Commission 5
hand@@ 5
States 5
hel@@ 5
mat@@ 5
key 5
pu@@ 5
Ger@@ 5
under@@ 5
phone 5
chan@@ 5
War 5
sted 5
screen 5
files 5
video 5
sti@@ 5
cr@@ 5
equ@@ 5
code 5
ences 5
enter@@ 5
wor@@ 5
ads 5
~@@ 5
ufac@@ 5
First 5
idea 5
migr@@ 5
North 5
less 5
well 5
Хот@@ 5
ops 5
share 5
car@@ 5
ole 5
аллин@@ 5
cal@@ 5
EU 5
ld 5
gy@@ 5
хир@@ 5
alo@@ 5
Ky@@ 5
ily 5
dies 5
her@@ 5
own 5
istan 5
ирт@@ 5
ga@@ 5
енне 5
point 5
den@@ 5
ждый 5
band 4
eth@@ 4
It 4
ism 4
ross 4
ches 4
thy 4
back 4
systems 4
tional 4
ages 4
back@@ 4
fre@@ 4
}@@ 4
how 4
don@@ 4
ats 4
ites 4
мра 4
ards 4
put 4
ussi@@ 4
lar@@ 4
cover 4
As 4
try 4
data 4
tain 4
software 4
ini@@ 4
bet@@ 4
even 4
халь@@ 4
ologies 4
system 4
aci@@ 4
ered 4
тме 4
dom@@ 4
ession 4
ges 4
atis@@ 4
mul@@ 4
fun@@ 4
iddle 4
September 4
loo@@ 4
русали@@ 4
анине 4
Oc@@ 4
енине 4
indows 4
муници@@ 4
хур@@ 4
come 4
ories 4
ition 4
process@@ 4
гани@@ 4
Nations 4
atic 4
ty@@ 4
Asia 4
aff@@ 4
airs 4
set@@ 4
eting 4
acti@@ 4
tem@@ 4
August 4
mini@@ 4
айне 4
ov 4
viron@@ 4
chem@@ 4
gue 4
entr@@ 4
olo@@ 4
cy@@ 4
xim@@ 4
what 4
ills 4
service 4
^ 4
^@@ 4
stitu@@ 4
action 4
tual 4
erv@@ 4
ner@@ 4
ept@@ 4
mit@@ 4
ays 4
ining 4
use 4
field 4
eas@@ 4
capital 4
sim@@ 4
dri@@ 4
with 4
mit 4
tical 4
security 4
bas@@ 4
game 4
stra@@ 4
wat@@ 4
And 4
bil@@ 4
<@@ 4
екен@@ 4
сире 4
pri@@ 4
development 4
sur@@ 4
dle 4
off 4
wa@@ 4
test 4
front 4
prof@@ 4
content 4
Сана 4
sal@@ 4
acc@@ 4
April 4
туй@@ 4
fer 4
cip@@ 4
пула 4
imp@@ 4
ized 4
І@@ 4
сасси 4
ăр@@ 4
ÿ 4
чир@@ 4
Ҫ@@ 4
hal@@ 3
ological 3
itu@@ 3
lik@@ 3
aw 3
last 3
publ@@ 3
cam@@ 3
ртат@@ 3
Lat@@ 3
control 3
asses 3
Feder@@ 3
eve 3
You 3
inclu@@ 3
ince 3
reco@@ 3
oned 3
hotel 3
wal@@ 3
ous@@ 3
ness 3
call 3
ere@@ 3
sible 3
pul@@ 3
таран 3
itary 3
organ@@ 3
ished 3
ects 3
Azerbaij@@ 3
plan 3
Indi@@ 3
uti@@ 3
rele@@ 3
acy 3
Africa 3
tools 3
los@@ 3
had 3
review 3
ely 3
тус@@ 3
evol@@ 3
Jesus 3
project 3
now 3
rap@@ 3
words 3
body 3
alls 3
wel@@ 3
bre@@ 3
tun@@ 3
arch@@ 3
After 3
event@@ 3
East 3
jects 3
ground 3
alization 3
right 3
rou@@ 3
see 3
active 3
rest@@ 3
ici@@ 3
ever@@ 3
requ@@ 3
юн 3
тавра 3
Germany 3
dist@@ 3
private 3
ells 3
any 3
you 3
March 3
clu@@ 3
bec@@ 3
ority 3
oods 3
Court 3
nov@@ 3
sit 3
clos@@ 3
stor@@ 3
ables 3
hap@@ 3
heal@@ 3
sum@@ 3
Mos@@ 3
ues 3
ept 3
men@@ 3
stration 3
Gener@@ 3
sem@@ 3
prin@@ 3
arri@@ 3
India 3
ging 3
vil 3
HIV 3
down 3
emer@@ 3
met 3
For 3
num@@ 3
atic@@ 3
Govern@@ 3
ination 3
company 3
build 3
size 3
meth@@ 3
fy 3
cent 3
hom@@ 3
Government 3
custom@@ 3
пула@@ 3
eci@@ 3
burg 3
Бек@@ 3
men 3
information 3
auth@@ 3
law 3
oil 3
direc@@ 3
sto@@ 3
&@@ 3
Kazakh@@ 3
Uk@@ 3
bro@@ 3
jo@@ 3
сене 3
state 3
cy 3
search 3
wr@@ 3
new 3
Georgi@@ 3
ача 3
portun@@ 3
ating 3
stu@@ 3
vers 3
case 3
ements 3
working 3
lev@@ 3
чун@@ 3
food 3
thers 3
products 3
local 3
bloc@@ 3
тарса 3
part 3
regul@@ 3
school 3
fol@@ 3
І 3
хула 3
utive 3
вун@@ 3
калан@@ 3
качча 3
Тӑ@@ 3
тӑ@@ 3
¬ 3
чӑ@@ 3
ӑ 3
ӗнче 3
ҫа@@ 3
усал 3
ăх 3
ó@@ 3
тавра@@ 3
тесен 3
allow@@ 2
chec@@ 2
gan@@ 2
Develop@@ 2
Ку 2
serve 2
prises 2
sense 2
ged 2
aries 2
cri@@ 2
rit 2
pub@@ 2
mag@@ 2
based 2
community 2
ring 2
structure 2
sk 2
stop 2
Engl@@ 2
Ъ 2
peace 2
technology 2
him@@ 2
инке@@ 2
илт@@ 2
class 2
dam@@ 2
ases 2
Afric@@ 2
document 2
Europe@@ 2
aper 2
future 2
property 2
sources 2
uring 2
inten@@ 2
eral 2
екен 2
ret@@ 2
Speci@@ 2
leg@@ 2
spe@@ 2
thern 2
шута 2
policies 2
When 2
мешк@@ 2
conc@@ 2
sec@@ 2
known 2
sex@@ 2
estic 2
gas 2
services 2
stat@@ 2
network 2
He 2
about 2
Kaz@@ 2
ateg@@ 2
person@@ 2
porting 2
Israel 2
ounds 2
October 2
ests 2
integr@@ 2
eping 2
cru@@ 2
develop@@ 2
хине 2
that 2
State 2
stead 2
eption 2
пама 2
compl@@ 2
sibility 2
валли 2
Accor@@ 2
ency 2
ets 2
exec@@ 2
Cour@@ 2
comp@@ 2
ked 2
user 2
ented 2
µ@@ 2
click 2
tiz@@ 2
city 2
sing 2
reduc@@ 2
global 2
Americ@@ 2
inv@@ 2
corpor@@ 2
cent@@ 2
health 2
ban 2
dol@@ 2
ermin@@ 2
mun@@ 2
Dec@@ 2
vention 2
tren@@ 2
sett@@ 2
offici@@ 2
produc@@ 2
mor@@ 2
verse 2
buil@@ 2
regi@@ 2
include 2
tures 2
electr@@ 2
night 2
purpose 2
ains 2
acks 2
centr@@ 2
dar@@ 2
them@@ 2
hold 2
production 2
і 2
urch 2
ran 2
Mr 2
Ministry 2
AIDS 2
ordin@@ 2
аллине 2
ement@@ 2
show@@ 2
ands 2
help 2
Republic 2
тсе 2
ears 2
Chin@@ 2
weeks 2
ister 2
Af@@ 2
bra@@ 2
aged 2
nat@@ 2
gir@@ 2
lower 2
sust@@ 2
range 2
туса 2
mental 2
ferred 2
няш@@ 2
memory 2
ows 2
force 2
ending 2
proc@@ 2
ems 2
eter@@ 2
alu@@ 2
On 2
paren@@ 2
ful 2
ainable 2
ership 2
ving 2
management 2
ased 2
than 2
ising 2
appl@@ 2
мелле 2
At 2
fir@@ 2
mem@@ 2
depend@@ 2
bit 2
versity 2
trac@@ 2
value 2
business 2
saf@@ 2
How 2
level 2
cou@@ 2
gation 2
є@@ 2
results 2
coll@@ 2
ref@@ 2
read 2
которы@@ 2
journ@@ 2
Russi@@ 2
хут@@ 2
client 2
ship 2
tice 2
trans@@ 2
Rep@@ 2
reach 2
pop@@ 2
ishing 2
Fir@@ 2
session 2
adv@@ 2
ainst 2
parti@@ 2
Jew@@ 2
ural 2
music 2
трудни@@ 2
tran@@ 2
oring 2
alism 2
fron@@ 2
ners 2
кне 2
love 2
outh 2
plan@@ 2
hy@@ 2
eff@@ 2
gies 2
ze 2
money 2
весь@@ 2
други@@ 2
energy 2
ours 2
writ@@ 2
dings 2
Вени@@ 2
any@@ 2
eps 2
dig@@ 2
meeting 2
people 2
ishment 2
who 2
If 2
trade 2
ern 2
пире 2
ju@@ 2
ders 2
success 2
individu@@ 2
таш@@ 2
сир@@ 2
sia 2
contr@@ 2
we 2
µ 2
connec@@ 2
Ă@@ 2
аван 2
рӑ 2
à 2
тă@@ 2
чӑваш 2
чӑваш@@ 2
ĕр 2
ӑ@@ 2
пек 2
йӑ@@ 2
шыва 2
Чӑваш 2
мӗ 2
ӗ 2
Кӗ@@ 2
тне 2
ӳ@@ 2
ҫ@@ 2
килет 2
шыв 2
¦@@ 2
¦ 2
мӗ@@ 2
масть 2
хура@@ 2
ӗ@@ 2
oph@@ 1
inian 1
Ukraine 1
iting 1
ween 1
ракан 1
curren@@ 1
cies 1
fiel@@ 1
climate 1
clear 1
big 1
will 1
pay 1
demand 1
cles 1
ago 1
thou@@ 1
risti@@ 1
sci@@ 1
wh@@ 1
which 1
pati@@ 1
monit@@ 1
knowledge 1
opportun@@ 1
istic 1
такан 1
ratic 1
sugg@@ 1
self 1
Ira@@ 1
годня 1
implementation 1
better 1
spir@@ 1
0s 1
access 1
funds 1
tural 1
sup@@ 1
ses 1
far 1
less@@ 1
Today 1
Ћ@@ 1
With 1
± 1
design 1
summ@@ 1
til 1
June 1
rates 1
sed 1
ists 1
inking 1
ese 1
ghts 1
sil@@ 1
due 1
rate 1
pow@@ 1
water 1
his 1
fall 1
мран 1
Sovi@@ 1
held 1
invest@@ 1
times 1
ртса 1
related 1
includes 1
former 1
ї@@ 1
town 1
consul@@ 1
power 1
pos@@ 1
differ@@ 1
commun@@ 1
vity 1
ause 1
fam@@ 1
connection 1
nor 1
want 1
gress 1
rules 1
cont@@ 1
lat@@ 1
nor@@ 1
These 1
Our 1
cle@@ 1
gradu@@ 1
clim@@ 1
beli@@ 1
organization 1
administration 1
peti@@ 1
consci@@ 1
offer 1
away 1
done 1
population 1
deb@@ 1
human 1
dev@@ 1
anal@@ 1
amount 1
echan@@ 1
claim@@ 1
correc@@ 1
det@@ 1
alled 1
hind 1
aking 1
after 1
star@@ 1
ben@@ 1
model 1
tru@@ 1
poli@@ 1
common 1
rights 1
десь 1
deal 1
ашне 1
exist@@ 1
pack@@ 1
struc@@ 1
reas@@ 1
reserv@@ 1
weap@@ 1
told 1
ligh@@ 1
Minister 1
analysis 1
ships 1
new@@ 1
rest 1
resi@@ 1
ording 1
month 1
months 1
thing 1
like 1
directly 1
dest@@ 1
liber@@ 1
arian 1
itation 1
парне 1
Japan 1
other 1
prac@@ 1
ye@@ 1
What 1
sing@@ 1
cil 1
respon@@ 1
tax 1
shall 1
German 1
sure 1
чески@@ 1
continued 1
account 1
both 1
used 1
pay@@ 1
rul@@ 1
sty@@ 1
application 1
programm@@ 1
number 1
article 1
staff 1
heart 1
attack 1
pot@@ 1
forms 1
ґ 1
role 1
circum@@ 1
stances 1
activities 1
ќ@@ 1
direct 1
into 1
ener@@ 1
growing 1
aving 1
planning 1
parts 1
Convention 1
dividu@@ 1
view@@ 1
esting 1
factors 1
science 1
gres@@ 1
cid@@ 1
langu@@ 1
tell 1
bel@@ 1
aim 1
lot 1
comput@@ 1
mos@@ 1
cow 1
illing 1
pose 1
real 1
prob@@ 1
мелли 1
head@@ 1
tak@@ 1
usi@@ 1
хула@@ 1
polic@@ 1
ples 1
high 1
innov@@ 1
have 1
stric@@ 1
strate@@ 1
atures 1
step 1
impl@@ 1
safety 1
turn 1
ven 1
pra@@ 1
From 1
expen@@ 1
through 1
ically 1
policy 1
малла 1
free@@ 1
announ@@ 1
order 1
ather 1
making 1
atten@@ 1
care 1
ators 1
remo@@ 1
run 1
stage 1
communic@@ 1
actions 1
ods 1
сас@@ 1
aches 1
institu@@ 1
aliz@@ 1
May 1
mak@@ 1
resol@@ 1
mind 1
posi@@ 1
agre@@ 1
standing 1
lic 1
wanted 1
find 1
spec@@ 1
нума@@ 1
саман@@ 1
hun@@ 1
center 1
alone 1
касса 1
THE 1
mark@@ 1
ulation 1
campai@@ 1
However 1
technologies 1
accoun@@ 1
true 1
кил 1
contrac@@ 1
market 1
cover@@ 1
bal@@ 1
Mini@@ 1
stud@@ 1
say 1
resp@@ 1
thre@@ 1
applic@@ 1
more 1
паян 1
liam@@ 1
around 1
conditions 1
lim@@ 1
gener@@ 1
established 1
dou@@ 1
perf@@ 1
zed 1
exc@@ 1
maj@@ 1
international 1
before 1
aring 1
tries 1
uses 1
Federation 1
ecti@@ 1
indu@@ 1
shi@@ 1
example 1
main 1
ever 1
xed 1
credit 1
acts 1
comes 1
young 1
ming 1
provi@@ 1
pai@@ 1
ained 1
your 1
expres@@ 1
Jewish 1
feder@@ 1
med@@ 1
emb@@ 1
goti@@ 1
ould 1
legal 1
lions 1
icial 1
performance 1
reports 1
Most 1
anted 1
eyes 1
succ@@ 1
ful@@ 1
ening 1
ined 1
plac@@ 1
solutions 1
hand 1
period 1
struction 1
poin@@ 1
term 1
@@@ 1
hope 1
ancing 1
tly 1
perform@@ 1
тума 1
defin@@ 1
shows 1
led 1
mission 1
Afghan@@ 1
ised 1
умне 1
sites 1
organizations 1
nation@@ 1
promo@@ 1
hos@@ 1
long 1
developing 1
countries 1
present@@ 1
assess@@ 1
programme 1
standards 1
stru@@ 1
cultural 1
history 1
lead@@ 1
comm@@ 1
construction 1
gust 1
тупа 1
follow@@ 1
fri@@ 1
arch 1
хуй@@ 1
fic 1
ility 1
hor@@ 1
has 1
image 1
ople 1
Palest@@ 1
areas 1
autom@@ 1
tee 1
resources 1
price 1
compon@@ 1
early 1
reng@@ 1
door 1
beg@@ 1
paid 1
first 1
скер 1
not 1
Amer@@ 1
oura@@ 1
flo@@ 1
bran@@ 1
team 1
{@@ 1
An 1
report 1
main@@ 1
Belar@@ 1
ticle 1
dru@@ 1
jour@@ 1
know@@ 1
allow 1
cer@@ 1
did@@ 1
operations 1
chil@@ 1
ned 1
хуп@@ 1
терт@@ 1
﻿ 1
хӗр 1
ê@@ 1
мӑ@@ 1
вӑ@@ 1
Пӗ@@ 1
чӗ@@ 1
ҫеҫ 1
аран 1
вӗсем 1
хамӑр 1
кӑра 1
кӑна 1
ытти 1
тӑрӑ@@ 1
пурӑнакан 1
ҫит@@ 1
рӗҫ 1
лӗ 1
Сӑ@@ 1
ҫул 1
чул 1
асаплан@@ 1
ü@@ 1
ксене 1
хӗ@@ 1
апат 1
ҫи@@ 1
ӗр 1
кайса 1
é 1
Кунта 1
калаҫ@@ 1
атпӑр 1
ï@@ 1
pris@@ 1
û@@ 1
лă 1
Ҫа@@ 1
мрӑ@@ 1
чӗ 1
хӗрарӑ@@ 1
à@@ 1
–@@ 1
мă@@ 1
ӗнӗ 1
лӗ@@ 1
тесе 1
сӗ@@ 1
ăн 1
Ҫ 1
суй@@ 1
туха@@ 1
чӗн 1
ӗн 1
ý@@ 1
нӑй 1
тӑвакан 1
мсене 1
тӑват@@ 1
пӑр 1
хыт@@ 1
Ё@@ 1
` 1
× 1
è 1
sof@@ 1
desi@@ 1
ҫӗр 1
акан 1
ҫ 1
Ӑ 1
ç 1
ӗм 1
атӑ@@ 1
мӑр 1
куҫ 1
Эпӗ 1
пӗчӗ@@ 1
ҫӗ 1
кӗс@@ 1
Шупашка@@ 1
á 1
тӗл@@ 1
ҫан@@ 1
парса 1
млӗ 1
ҫӗр@@ 1
тытса 1
ăк 1
