{
    "<pad>": 0,
    "<unk>": 1,
    "<s>": 2,
    "</s>": 3,
    ",": 4,
    ".": 5,
    "и": 6,
    "в": 7,
    "на": 8,
    "-": 9,
    "с": 10,
    "не": 11,
    "что": 12,
    "\"": 13,
    "к": 14,
    "по@@": 15,
    "по": 16,
    "для": 17,
    "(": 18,
    "т": 19,
    "не@@": 20,
    "л": 21,
    "я": 22,
    "но": 23,
    "за@@": 24,
    ":": 25,
    "у@@": 26,
    "с@@": 27,
    "ли": 28,
    "а": 29,
    "на@@": 30,
    "ть": 31,
    "о": 32,
    "В": 33,
    "ных": 34,
    "в@@": 35,
    "как": 36,
    "ные": 37,
    "ной": 38,
    "ли@@": 39,
    "или": 40,
    "из": 41,
    "о@@": 42,
    "та": 43,
    "про@@": 44,
    "ного": 45,
    "до@@": 46,
    "при@@": 47,
    "от": 48,
    "ка": 49,
    "у": 50,
    "за": 51,
    "н": 52,
    "м": 53,
    "вы@@": 54,
    "ла": 55,
    "ки": 56,
    "ти@@": 57,
    ")": 58,
    "ный": 59,
    "ты": 60,
    "т@@": 61,
    "со@@": 62,
    "е": 63,
    "ко@@": 64,
    "то": 65,
    "д@@": 66,
    "ни@@": 67,
    "ка@@": 68,
    "С@@": 69,
    "а@@": 70,
    "это": 71,
    "О@@": 72,
    "его": 73,
    "ри@@": 74,
    "ви@@": 75,
    "ным": 76,
    "ре@@": 77,
    "но@@": 78,
    "мы": 79,
    "ра@@": 80,
    "ло@@": 81,
    "ю": 82,
    "ва@@": 83,
    "ют": 84,
    "и@@": 85,
    ";": 86,
    "А@@": 87,
    "И@@": 88,
    "н@@": 89,
    "ться": 90,
    "те": 91,
    "ле@@": 92,
    "ции": 93,
    "м@@": 94,
    "то@@": 95,
    "ное": 96,
    "ро@@": 97,
    "р": 98,
    "их": 99,
    "от@@": 100,
    "ет": 101,
    "ма@@": 102,
    "том": 103,
    "мо@@": 104,
    "ве@@": 105,
    "ке": 106,
    "он": 107,
    "та@@": 108,
    "ди@@": 109,
    "ется": 110,
    "г": 111,
    "ра": 112,
    "да@@": 113,
    "к@@": 114,
    "й@@": 115,
    "ны": 116,
    "де@@": 117,
    "В@@": 118,
    "ми@@": 119,
    "я@@": 120,
    "вы": 121,
    "также": 122,
    "во@@": 123,
    "й": 124,
    "ная": 125,
    "ру@@": 126,
    "пере@@": 127,
    "все": 128,
    "си@@": 129,
    "те@@": 130,
    "чтобы": 131,
    "ном": 132,
    "об@@": 133,
    "ж@@": 134,
    "р@@": 135,
    "д": 136,
    "ку": 137,
    "же": 138,
    "ль@@": 139,
    "з@@": 140,
    "ш@@": 141,
    "се@@": 142,
    "чи@@": 143,
    "па@@": 144,
    "го@@": 145,
    "раз@@": 146,
    "тов": 147,
    "У@@": 148,
    "л@@": 149,
    "ными": 150,
    "которые": 151,
    "е@@": 152,
    "/": 153,
    "до": 154,
    "ности": 155,
    "К@@": 156,
    "1": 157,
    "ста@@": 158,
    "ст@@": 159,
    "ем": 160,
    "ме@@": 161,
    "ров": 162,
    "б@@": 163,
    "ба@@": 164,
    "ную": 165,
    "х": 166,
    "п@@": 167,
    "бы": 168,
    "под@@": 169,
    "бо@@": 170,
    "вать": 171,
    "того": 172,
    "жи@@": 173,
    "бе@@": 174,
    "ф@@": 175,
    "Д@@": 176,
    "ла@@": 177,
    "во": 178,
    "су@@": 179,
    "2": 180,
    "И": 181,
    "?": 182,
    "они": 183,
    "Т@@": 184,
    "га@@": 185,
    "сти@@": 186,
    "ния": 187,
    "ма": 188,
    "так": 189,
    "са@@": 190,
    "да": 191,
    "может": 192,
    "ло": 193,
    "ние": 194,
    "г@@": 195,
    "будет": 196,
    "время": 197,
    "ской": 198,
    "По@@": 199,
    "ского": 200,
    "ность": 201,
    "более": 202,
    "э@@": 203,
    "М@@": 204,
    "при": 205,
    "ы": 206,
    "года": 207,
    "только": 208,
    "Е@@": 209,
    "ция": 210,
    "пи@@": 211,
    "ча@@": 212,
    "Г@@": 213,
    "ми": 214,
    "лся": 215,
    "быть": 216,
    "из@@": 217,
    "ин@@": 218,
    "рас@@": 219,
    "было": 220,
    ").": 221,
    "ются": 222,
    "ва": 223,
    "тся": 224,
    "3": 225,
    "ги@@": 226,
    "лись": 227,
    "На@@": 228,
    "ен@@": 229,
    "са": 230,
    "\".": 231,
    "если": 232,
    "ства": 233,
    "ни": 234,
    "«": 235,
    "Я": 236,
    "),": 237,
    "ч@@": 238,
    "ку@@": 239,
    "вой": 240,
    "Б@@": 241,
    "когда": 242,
    "кон@@": 243,
    "че@@": 244,
    "ей": 245,
    "вер@@": 246,
    "\",": 247,
    "был": 248,
    "ков": 249,
    "жа@@": 250,
    "би@@": 251,
    "ля@@": 252,
    "пре@@": 253,
    "мен@@": 254,
    "ша@@": 255,
    "Л@@": 256,
    "ры": 257,
    "П@@": 258,
    "чем": 259,
    "были": 260,
    "Р@@": 261,
    "ль": 262,
    "ее": 263,
    "ство": 264,
    "Н@@": 265,
    "хо@@": 266,
    "ду@@": 267,
    "ту": 268,
    "зна@@": 269,
    "кой": 270,
    "является": 271,
    "сто@@": 272,
    "му": 273,
    "она": 274,
    "ских": 275,
    "зи@@": 276,
    "А": 277,
    "С": 278,
    "пла@@": 279,
    "ки@@": 280,
    "можно": 281,
    "4": 282,
    "Ка@@": 283,
    "них": 284,
    "который": 285,
    "ис@@": 286,
    "5": 287,
    "бу@@": 288,
    "пе@@": 289,
    "Если": 290,
    "зо@@": 291,
    "–": 292,
    "ле": 293,
    "х@@": 294,
    "вых": 295,
    "ши@@": 296,
    "ский": 297,
    "Это": 298,
    "ь": 299,
    "со": 300,
    "ко": 301,
    "ре": 302,
    "году": 303,
    "Э@@": 304,
    "S@@": 305,
    "ше@@": 306,
    "ту@@": 307,
    "ну@@": 308,
    "ь@@": 309,
    "могут": 310,
    "этого": 311,
    "оста@@": 312,
    "ар@@": 313,
    "ю@@": 314,
    "стра@@": 315,
    "лось": 316,
    "цию": 317,
    "му@@": 318,
    "этом": 319,
    "лет": 320,
    "воз@@": 321,
    "га": 322,
    "ение": 323,
    "пу@@": 324,
    "всех": 325,
    "з": 326,
    "есть": 327,
    "вания": 328,
    "ному": 329,
    "вание": 330,
    "Ф@@": 331,
    "еще": 332,
    "ря@@": 333,
    "ком": 334,
    "лась": 335,
    "телей": 336,
    "лен@@": 337,
    "6": 338,
    "вос@@": 339,
    "ческих": 340,
    "него": 341,
    "уже": 342,
    "же@@": 343,
    "ц": 344,
    "Он": 345,
    "го": 346,
    "сло@@": 347,
    "сть": 348,
    "после": 349,
    "фи@@": 350,
    "ры@@": 351,
    "Но": 352,
    "ление": 353,
    "ней": 354,
    "К": 355,
    "ром": 356,
    "вая": 357,
    "цен@@": 358,
    "D@@": 359,
    "це@@": 360,
    "тель": 361,
    "между": 362,
    "очень": 363,
    "тельно": 364,
    "жен@@": 365,
    "ские": 366,
    "Про@@": 367,
    "ха@@": 368,
    "ющих": 369,
    "P@@": 370,
    "нии": 371,
    "ан@@": 372,
    "ении": 373,
    "сти": 374,
    "рен@@": 375,
    "была": 376,
    "C@@": 377,
    "ор@@": 378,
    "этой": 379,
    "На": 380,
    "вые": 381,
    "!": 382,
    "должны": 383,
    "ско@@": 384,
    "нам": 385,
    "ци@@": 386,
    "7": 387,
    "M@@": 388,
    "ения": 389,
    "ления": 390,
    "ак@@": 391,
    "З@@": 392,
    "ти": 393,
    "ды": 394,
    "%": 395,
    "вает": 396,
    "ям": 397,
    "им": 398,
    "Ко@@": 399,
    "где": 400,
    "там": 401,
    "тели": 402,
    "О": 403,
    "бы@@": 404,
    "Мы": 405,
    "пол@@": 406,
    "ня@@": 407,
    "пред@@": 408,
    "ний": 409,
    "—": 410,
    "Вы": 411,
    "10": 412,
    "будут": 413,
    "вого": 414,
    "ща@@": 415,
    "ением": 416,
    "Ва@@": 417,
    "откры@@": 418,
    "8": 419,
    "данных": 420,
    "тем": 421,
    "ска@@": 422,
    "даже": 423,
    "ля": 424,
    "B@@": 425,
    "ц@@": 426,
    "»": 427,
    "ческие": 428,
    "За@@": 429,
    "других": 430,
    "ском": 431,
    "об": 432,
    "под": 433,
    "дов": 434,
    "сы": 435,
    "себя": 436,
    "бра@@": 437,
    "ций": 438,
    "мой": 439,
    "Со@@": 440,
    "вления": 441,
    "тель@@": 442,
    "име@@": 443,
    "гу@@": 444,
    "Са@@": 445,
    "ями": 446,
    "лу@@": 447,
    "вам": 448,
    "чения": 449,
    "области": 450,
    "Ма@@": 451,
    "которая": 452,
    "нее": 453,
    "всего": 454,
    "При@@": 455,
    "тер@@": 456,
    "ровать": 457,
    "Мо@@": 458,
    "дом": 459,
    "T@@": 460,
    "стве": 461,
    "чение": 462,
    "цы": 463,
    "три@@": 464,
    "аль@@": 465,
    "9": 466,
    "кто": 467,
    "России": 468,
    "больше": 469,
    "он@@": 470,
    "сказал": 471,
    "тра@@": 472,
    "Х@@": 473,
    "ская": 474,
    "Та@@": 475,
    "ме": 476,
    "Для": 477,
    "гра@@": 478,
    "ях": 479,
    "сред@@": 480,
    "ну": 481,
    "нет": 482,
    "б": 483,
    "без": 484,
    "тен@@": 485,
    "важ@@": 486,
    "которых": 487,
    "сы@@": 488,
    "Не@@": 489,
    "де": 490,
    "нен@@": 491,
    "L@@": 492,
    "ос@@": 493,
    "гла@@": 494,
    "ющие": 495,
    "кого": 496,
    "ги": 497,
    "обра@@": 498,
    "той": 499,
    "льной": 500,
    "ете": 501,
    "пер@@": 502,
    "вление": 503,
    "ками": 504,
    "ческой": 505,
    "сла@@": 506,
    "E@@": 507,
    "кар@@": 508,
    "работы": 509,
    "рования": 510,
    "рии": 511,
    "компании": 512,
    "уда@@": 513,
    "тами": 514,
    "лю@@": 515,
    "До@@": 516,
    "высо@@": 517,
    "сов": 518,
    "льного": 519,
    "ы@@": 520,
    "ению": 521,
    "йте": 522,
    "нас": 523,
    "ца": 524,
    "Ре@@": 525,
    "ему": 526,
    "системы": 527,
    "льных": 528,
    "через": 529,
    "эти": 530,
    "созда@@": 531,
    "этот": 532,
    "сте@@": 533,
    "Ш@@": 534,
    "щих": 535,
    "авто@@": 536,
    "США": 537,
    "щения": 538,
    "людей": 539,
    "льный": 540,
    "льные": 541,
    "теля": 542,
    "По": 543,
    "ках": 544,
    "этих": 545,
    "щи@@": 546,
    "хи@@": 547,
    "a": 548,
    "меня": 549,
    "голо@@": 550,
    "ж": 551,
    "пло@@": 552,
    "стро@@": 553,
    "A@@": 554,
    "вается": 555,
    "нем": 556,
    "ством": 557,
    "ру": 558,
    "тив@@": 559,
    "Па@@": 560,
    "...": 561,
    "ст": 562,
    "развития": 563,
    "либо": 564,
    "жизни": 565,
    "образом": 566,
    "доро@@": 567,
    "один": 568,
    "ческого": 569,
    "ге@@": 570,
    "точ@@": 571,
    "ник": 572,
    "показа@@": 573,
    "Ю@@": 574,
    "ван@@": 575,
    "кор@@": 576,
    "щ@@": 577,
    "ческий": 578,
    "ваться": 579,
    "случае": 580,
    "чи": 581,
    "ств": 582,
    "пра@@": 583,
    "G@@": 584,
    "вал": 585,
    "ду": 586,
    "чен@@": 587,
    "страны": 588,
    "человека": 589,
    "мне": 590,
    "много": 591,
    "ники": 592,
    "осно@@": 593,
    "Как": 594,
    "экономи@@": 595,
    "ве": 596,
    "нача@@": 597,
    "R@@": 598,
    "чно": 599,
    "тро@@": 600,
    "ден@@": 601,
    "эк@@": 602,
    "1@@": 603,
    "част@@": 604,
    "нение": 605,
    "Ч@@": 606,
    "лы": 607,
    "нения": 608,
    "F@@": 609,
    "ностью": 610,
    "20": 611,
    "своей": 612,
    "вить": 613,
    "це": 614,
    "стоя@@": 615,
    "жения": 616,
    "чной": 617,
    "нов@@": 618,
    "собствен@@": 619,
    "времени": 620,
    "2@@": 621,
    "кий": 622,
    "тах": 623,
    "вый": 624,
    "Ж@@": 625,
    "приня@@": 626,
    "нов": 627,
    "вым": 628,
    "шен@@": 629,
    "сни@@": 630,
    "тить": 631,
    "несколько": 632,
    "V@@": 633,
    "щен@@": 634,
    "нами": 635,
    "7@@": 636,
    "фак@@": 637,
    "свою": 638,
    "им@@": 639,
    "вод@@": 640,
    "Де@@": 641,
    "своих": 642,
    "вас": 643,
    "день": 644,
    "нию": 645,
    "Вы@@": 646,
    "человек": 647,
    "стран": 648,
    "цией": 649,
    "ста": 650,
    "безопасности": 651,
    "вали": 652,
    "рование": 653,
    "поли@@": 654,
    "ге": 655,
    "стре@@": 656,
    "свои": 657,
    "ев": 658,
    "ским": 659,
    "связи": 660,
    "тных": 661,
    "деятельности": 662,
    "раз": 663,
    "H@@": 664,
    "ди": 665,
    "ющий": 666,
    "способ@@": 667,
    "лич@@": 668,
    "гу": 669,
    "вен@@": 670,
    "У": 671,
    "шение": 672,
    "жение": 673,
    "дела@@": 674,
    "ству": 675,
    "п": 676,
    "отде@@": 677,
    "информации": 678,
    "ников": 679,
    "пар@@": 680,
    "фа@@": 681,
    "вают": 682,
    "Бо@@": 683,
    "следу@@": 684,
    "Ин@@": 685,
    "тя@@": 686,
    "зу@@": 687,
    "призна@@": 688,
    "ход@@": 689,
    "ком@@": 690,
    "От@@": 691,
    "ений": 692,
    "ждения": 693,
    "сси@@": 694,
    "15": 695,
    "ха": 696,
    "имеет": 697,
    "пор@@": 698,
    "кие": 699,
    "тно": 700,
    "мест@@": 701,
    "фор@@": 702,
    "разме@@": 703,
    "лов": 704,
    "3@@": 705,
    "против": 706,
    "теле@@": 707,
    "N@@": 708,
    "управления": 709,
    "6@@": 710,
    "род@@": 711,
    "льно": 712,
    "Е": 713,
    "которое": 714,
    "ника": 715,
    "которой": 716,
    "Однако": 717,
    "производи@@": 718,
    "действия": 719,
    "мер@@": 720,
    "ран@@": 721,
    "тво@@": 722,
    "перед": 723,
    "потому": 724,
    "фо@@": 725,
    "другие": 726,
    "ке@@": 727,
    "ер@@": 728,
    "рабо@@": 729,
    "являются": 730,
    "полу@@": 731,
    "тех": 732,
    "лан@@": 733,
    "чных": 734,
    "указа@@": 735,
    "ним": 736,
    "тие": 737,
    "При": 738,
    "тия": 739,
    "тре@@": 740,
    "вом": 741,
    "кро@@": 742,
    "[": 743,
    "вра@@": 744,
    "ющей": 745,
    "щение": 746,
    "защи@@": 747,
    "8@@": 748,
    "обще@@": 749,
    "ба": 750,
    "Кон@@": 751,
    "ё@@": 752,
    "жда@@": 753,
    "послед@@": 754,
    "челове@@": 755,
    "определен@@": 756,
    "вое": 757,
    "содержа@@": 758,
    "возможность": 759,
    "чув@@": 760,
    "Ба@@": 761,
    "вой@@": 762,
    "стороны": 763,
    "оказа@@": 764,
    "12": 765,
    "вля@@": 766,
    "можете": 767,
    "30": 768,
    "год": 769,
    "ствует": 770,
    "необходимо": 771,
    "уча@@": 772,
    "просто": 773,
    "жела@@": 774,
    "должен": 775,
    "благо@@": 776,
    "рай@@": 777,
    "лет@@": 778,
    "чер@@": 779,
    "лом": 780,
    "вели@@": 781,
    "фе@@": 782,
    "работа@@": 783,
    "ью": 784,
    "A": 785,
    "эффектив@@": 786,
    "тельных": 787,
    "ще@@": 788,
    "спо@@": 789,
    "се": 790,
    "Ме@@": 791,
    "техни@@": 792,
    "тор@@": 793,
    "иде@@": 794,
    "чу@@": 795,
    "течение": 796,
    "например": 797,
    "тии": 798,
    "0": 799,
    "гово@@": 800,
    "всегда": 801,
    "щие": 802,
    "вя@@": 803,
    "право@@": 804,
    "рами": 805,
    "Они": 806,
    "программы": 807,
    "счита@@": 808,
    "причи@@": 809,
    "шения": 810,
    "рия": 811,
    "*": 812,
    "форма@@": 813,
    "рах": 814,
    "дол@@": 815,
    "Ис@@": 816,
    "ших": 817,
    "сле@@": 818,
    "Ц@@": 819,
    "таких": 820,
    "над": 821,
    "использовать": 822,
    "прави@@": 823,
    "ро": 824,
    "кра@@": 825,
    "организации": 826,
    "гре@@": 827,
    "Бе@@": 828,
    "два": 829,
    "Когда": 830,
    "Ра@@": 831,
    "соста@@": 832,
    "ствен@@": 833,
    "Да@@": 834,
    "Но@@": 835,
    "W@@": 836,
    "тные": 837,
    "Го@@": 838,
    "ющим": 839,
    "поста@@": 840,
    "шел": 841,
    "сом": 842,
    "Не": 843,
    "ген@@": 844,
    "Я@@": 845,
    "ющего": 846,
    "возмож@@": 847,
    "рав@@": 848,
    "лу": 849,
    "еди@@": 850,
    "влен@@": 851,
    "качестве": 852,
    "чить": 853,
    "ья": 854,
    "занима@@": 855,
    "Об@@": 856,
    "ров@@": 857,
    "всем": 858,
    "мира": 859,
    "себе": 860,
    "сен@@": 861,
    "место": 862,
    "дости@@": 863,
    "П": 864,
    "тный": 865,
    "O@@": 866,
    "све@@": 867,
    "кре@@": 868,
    "19@@": 869,
    "9@@": 870,
    "Т": 871,
    "щий": 872,
    "ез@@": 873,
    "суще@@": 874,
    "жить": 875,
    "сдела@@": 876,
    "явля@@": 877,
    "цу": 878,
    "кам": 879,
    "мо": 880,
    "ениями": 881,
    "значи@@": 882,
    "дис@@": 883,
    "зе@@": 884,
    "опера@@": 885,
    "участ@@": 886,
    "необходи@@": 887,
    "ок@@": 888,
    "россий@@": 889,
    "измен@@": 890,
    "коми@@": 891,
    "ш": 892,
    "лишь": 893,
    "'": 894,
    "иг@@": 895,
    "соответствии": 896,
    "времен@@": 897,
    "воен@@": 898,
    "ри": 899,
    "луч@@": 900,
    "ча": 901,
    "лей": 902,
    "тной": 903,
    "o": 904,
    "11": 905,
    "Ан@@": 906,
    "цев": 907,
    "гото@@": 908,
    "ем@@": 909,
    "дать": 910,
    "мы@@": 911,
    "люди": 912,
    "кри@@": 913,
    "Все": 914,
    "помощью": 915,
    "рамках": 916,
    "ениях": 917,
    "емых": 918,
    "ких": 919,
    "новых": 920,
    "пози@@": 921,
    "обяза@@": 922,
    "ть@@": 923,
    "зада@@": 924,
    "говорит": 925,
    "электро@@": 926,
    "принима@@": 927,
    "ени@@": 928,
    "обо@@": 929,
    "ност@@": 930,
    "ству@@": 931,
    "обществен@@": 932,
    "жа": 933,
    "менее": 934,
    "своего": 935,
    "продолжа@@": 936,
    "включая": 937,
    "кла@@": 938,
    "цион@@": 939,
    "мето@@": 940,
    "ское": 941,
    "прав@@": 942,
    "писа@@": 943,
    "отношении": 944,
    "нару@@": 945,
    "зем@@": 946,
    "слу@@": 947,
    "понима@@": 948,
    "мере": 949,
    "5@@": 950,
    "I": 951,
    "ман@@": 952,
    "международ@@": 953,
    "тельной": 954,
    "дает": 955,
    "широ@@": 956,
    "принци@@": 957,
    "одной": 958,
    "стандар@@": 959,
    "разви@@": 960,
    "ческим": 961,
    "зы": 962,
    "образ@@": 963,
    "ностей": 964,
    "пода@@": 965,
    "чь": 966,
    "X@@": 967,
    "мина@@": 968,
    "гор@@": 969,
    "сделать": 970,
    "Р": 971,
    "здесь": 972,
    "кая": 973,
    "собой": 974,
    "тар@@": 975,
    "бро@@": 976,
    "низ@@": 977,
    "C": 978,
    "современ@@": 979,
    "данные": 980,
    "связа@@": 981,
    "отве@@": 982,
    "логи@@": 983,
    "После": 984,
    "такие": 985,
    "сторо@@": 986,
    "ч": 987,
    "поч@@": 988,
    "ты@@": 989,
    "кан@@": 990,
    "тельные": 991,
    "па": 992,
    "чные": 993,
    "ды@@": 994,
    "су": 995,
    "повы@@": 996,
    "следует": 997,
    "4@@": 998,
    "графи@@": 999,
    "ходит": 1000,
    "рус@@": 1001,
    "кру@@": 1002,
    "тельства": 1003,
    "бере@@": 1004,
    ".,": 1005,
    "глав@@": 1006,
    "сами": 1007,
    "ье": 1008,
    "части": 1009,
    "практи@@": 1010,
    "боль@@": 1011,
    "вто@@": 1012,
    "Ли@@": 1013,
    "рует": 1014,
    "ся": 1015,
    "Кроме": 1016,
    "50": 1017,
    "ом": 1018,
    "ток": 1019,
    "вз@@": 1020,
    "прода@@": 1021,
    "тельный": 1022,
    "шей": 1023,
    "стов": 1024,
    "посе@@": 1025,
    "клю@@": 1026,
    "чита@@": 1027,
    "бло@@": 1028,
    "предоста@@": 1029,
    "пользова@@": 1030,
    "детей": 1031,
    "американ@@": 1032,
    "Его": 1033,
    "расши@@": 1034,
    "скую": 1035,
    "выбо@@": 1036,
    "потреб@@": 1037,
    "часть": 1038,
    "актив@@": 1039,
    "доба@@": 1040,
    "тому": 1041,
    "емые": 1042,
    "креди@@": 1043,
    "тру@@": 1044,
    "обла@@": 1045,
    "помощи": 1046,
    "нужно": 1047,
    "ф": 1048,
    "жи": 1049,
    "получа@@": 1050,
    "кое": 1051,
    "ву": 1052,
    "Ве@@": 1053,
    "внимание": 1054,
    "тор": 1055,
    "специаль@@": 1056,
    "решение": 1057,
    "роди@@": 1058,
    "нуть": 1059,
    "плани@@": 1060,
    "ствовать": 1061,
    "Windows": 1062,
    "сме@@": 1063,
    "шие": 1064,
    "чего": 1065,
    "держа@@": 1066,
    "бан@@": 1067,
    "K@@": 1068,
    "ственно": 1069,
    "вед@@": 1070,
    "проблемы": 1071,
    "хоро@@": 1072,
    "все@@": 1073,
    "права": 1074,
    "ждение": 1075,
    "спа@@": 1076,
    "каза@@": 1077,
    "мире": 1078,
    "ца@@": 1079,
    "мов": 1080,
    "переда@@": 1081,
    "возможности": 1082,
    "которого": 1083,
    "использо@@": 1084,
    "ше": 1085,
    "тки": 1086,
    "ваются": 1087,
    "дан@@": 1088,
    "объек@@": 1089,
    "мя@@": 1090,
    "ким": 1091,
    "ствия": 1092,
    "чие": 1093,
    "решения": 1094,
    "тран@@": 1095,
    "бли@@": 1096,
    "коман@@": 1097,
    "грани@@": 1098,
    "14": 1099,
    "использу@@": 1100,
    "обеспечения": 1101,
    "E": 1102,
    "i": 1103,
    "Во@@": 1104,
    "много@@": 1105,
    "числе": 1106,
    "гру@@": 1107,
    "тан@@": 1108,
    "организа@@": 1109,
    "сты": 1110,
    "Че@@": 1111,
    "реаль@@": 1112,
    "комплек@@": 1113,
    "группы": 1114,
    "наз@@": 1115,
    "прав": 1116,
    "рой": 1117,
    "ционных": 1118,
    "работ@@": 1119,
    "фици@@": 1120,
    "2008": 1121,
    "внутрен@@": 1122,
    "интере@@": 1123,
    "сейчас": 1124,
    "ша": 1125,
    "тот": 1126,
    "че": 1127,
    "лы@@": 1128,
    "тых": 1129,
    "види@@": 1130,
    "города": 1131,
    "меры": 1132,
    "странах": 1133,
    "кур@@": 1134,
    "вид@@": 1135,
    "другой": 1136,
    "Ми@@": 1137,
    "подоб@@": 1138,
    "рения": 1139,
    "од@@": 1140,
    "СТ@@": 1141,
    "находится": 1142,
    "Раз@@": 1143,
    "зая@@": 1144,
    "Те@@": 1145,
    "чного": 1146,
    "ши": 1147,
    "М": 1148,
    "продук@@": 1149,
    "среди": 1150,
    "]": 1151,
    "Си@@": 1152,
    "\"@@": 1153,
    "тельного": 1154,
    "Га@@": 1155,
    "использования": 1156,
    "хотя": 1157,
    "ят": 1158,
    "дли@@": 1159,
    "рован@@": 1160,
    "0@@": 1161,
    "ющихся": 1162,
    "дер@@": 1163,
    "объя@@": 1164,
    "16": 1165,
    "извест@@": 1166,
    "шее": 1167,
    "кти@@": 1168,
    "физи@@": 1169,
    "шего": 1170,
    "нали@@": 1171,
    "сро@@": 1172,
    "льная": 1173,
    "диа@@": 1174,
    "ствие": 1175,
    "учи@@": 1176,
    "мени@@": 1177,
    "йти": 1178,
    "став@@": 1179,
    "хода": 1180,
    "двух": 1181,
    "Так": 1182,
    "гов": 1183,
    "льным": 1184,
    "полити@@": 1185,
    "льное": 1186,
    "само@@": 1187,
    "состоя@@": 1188,
    "такой": 1189,
    "тации": 1190,
    "населения": 1191,
    "вопро@@": 1192,
    "тек@@": 1193,
    "кто@@": 1194,
    "шко@@": 1195,
    "свой": 1196,
    "пы": 1197,
    "Ни@@": 1198,
    "чный": 1199,
    "миро@@": 1200,
    "жизнь": 1201,
    "ход": 1202,
    "•": 1203,
    "услуг": 1204,
    "три": 1205,
    "пока": 1206,
    "особенно": 1207,
    "ший": 1208,
    "правитель@@": 1209,
    "18": 1210,
    "представи@@": 1211,
    "ходи@@": 1212,
    "стан@@": 1213,
    "социаль@@": 1214,
    "».": 1215,
    "спе@@": 1216,
    "ходя@@": 1217,
    "прош@@": 1218,
    "e": 1219,
    "цве@@": 1220,
    "выми": 1221,
    "e@@": 1222,
    "руковод@@": 1223,
    "нных": 1224,
    "25": 1225,
    "общества": 1226,
    "един@@": 1227,
    "M": 1228,
    "нные": 1229,
    "йся": 1230,
    "средств": 1231,
    "наде@@": 1232,
    "проек@@": 1233,
    "основе": 1234,
    "власти": 1235,
    "13": 1236,
    "произ@@": 1237,
    "2007": 1238,
    "нием": 1239,
    "i@@": 1240,
    "доступ@@": 1241,
    "телем": 1242,
    "выра@@": 1243,
    "пле@@": 1244,
    "одного": 1245,
    "ек@@": 1246,
    "неде@@": 1247,
    "дах": 1248,
    "щей": 1249,
    "Пер@@": 1250,
    "s@@": 1251,
    "ство@@": 1252,
    "выпол@@": 1253,
    "финансо@@": 1254,
    "соответству@@": 1255,
    "называ@@": 1256,
    "информацию": 1257,
    "Ста@@": 1258,
    "Пе@@": 1259,
    "разде@@": 1260,
    "клиен@@": 1261,
    "администра@@": 1262,
    "начала": 1263,
    "вала": 1264,
    "сегодня": 1265,
    "Ви@@": 1266,
    "тин@@": 1267,
    "Се@@": 1268,
    "ствуют": 1269,
    "кую": 1270,
    "заклю@@": 1271,
    "около": 1272,
    "ванию": 1273,
    "работать": 1274,
    "2009": 1275,
    "структу@@": 1276,
    "I@@": 1277,
    "без@@": 1278,
    "ня": 1279,
    "мер": 1280,
    "эту": 1281,
    "дет": 1282,
    "уровне": 1283,
    "тельство": 1284,
    "нять": 1285,
    "пробле@@": 1286,
    "бор@@": 1287,
    "позволяет": 1288,
    "некоторые": 1289,
    "внеш@@": 1290,
    "k@@": 1291,
    "тради@@": 1292,
    "вместе": 1293,
    "работу": 1294,
    "жд@@": 1295,
    "действи@@": 1296,
    "государства": 1297,
    "результате": 1298,
    "многих": 1299,
    "ющее": 1300,
    "независи@@": 1301,
    "поскольку": 1302,
    "тый": 1303,
    "спор@@": 1304,
    "право": 1305,
    "наиболее": 1306,
    "многие": 1307,
    "D": 1308,
    "мом": 1309,
    "улуч@@": 1310,
    "Под@@": 1311,
    "сь": 1312,
    "роль": 1313,
    "новые": 1314,
    "пыта@@": 1315,
    "шим": 1316,
    "докумен@@": 1317,
    "объ@@": 1318,
    "зы@@": 1319,
    "ственных": 1320,
    "служи@@": 1321,
    "дви@@": 1322,
    "ять": 1323,
    "политики": 1324,
    "стано@@": 1325,
    "ъ@@": 1326,
    "мых": 1327,
    "различных": 1328,
    "деся@@": 1329,
    "должна": 1330,
    "мор@@": 1331,
    "щего": 1332,
    "Коми@@": 1333,
    "тета": 1334,
    "вне@@": 1335,
    "шь": 1336,
    "встре@@": 1337,
    "каждый": 1338,
    "Д": 1339,
    "S": 1340,
    "производ@@": 1341,
    "взаимо@@": 1342,
    "d@@": 1343,
    "территории": 1344,
    "пы@@": 1345,
    "тогда": 1346,
    "t@@": 1347,
    "ес@@": 1348,
    "эта@@": 1349,
    "имеют": 1350,
    "17": 1351,
    "этим": 1352,
    "дии": 1353,
    "Пу@@": 1354,
    "»,": 1355,
    "тесь": 1356,
    "Ки@@": 1357,
    "инстру@@": 1358,
    "Б": 1359,
    "выше": 1360,
    "тур@@": 1361,
    "сокра@@": 1362,
    "буду@@": 1363,
    "ены": 1364,
    "ков@@": 1365,
    "Бу@@": 1366,
    "вклю@@": 1367,
    "стал": 1368,
    "свое": 1369,
    "целью": 1370,
    "соответ@@": 1371,
    "котором": 1372,
    "Пре@@": 1373,
    "дро@@": 1374,
    "копи@@": 1375,
    "сам": 1376,
    "получить": 1377,
    "нашей": 1378,
    "именно": 1379,
    "стью": 1380,
    "носи@@": 1381,
    "период": 1382,
    "дума@@": 1383,
    "которую": 1384,
    "дей@@": 1385,
    "Во": 1386,
    "дар@@": 1387,
    "ваний": 1388,
    "региональ@@": 1389,
    "представля@@": 1390,
    "мир": 1391,
    "000": 1392,
    "страни@@": 1393,
    "над@@": 1394,
    "Су@@": 1395,
    "националь@@": 1396,
    "вла@@": 1397,
    "ней@@": 1398,
    "дня": 1399,
    "заня@@": 1400,
    "должно": 1401,
    "мар@@": 1402,
    "вопрос": 1403,
    "ственной": 1404,
    "Что": 1405,
    "значение": 1406,
    "млн": 1407,
    "вле@@": 1408,
    "систе@@": 1409,
    "проводи@@": 1410,
    "форми@@": 1411,
    "истори@@": 1412,
    "проекта": 1413,
    "Республики": 1414,
    "рить": 1415,
    "мости": 1416,
    "пря@@": 1417,
    "ины": 1418,
    "пунк@@": 1419,
    "оцен@@": 1420,
    "возвра@@": 1421,
    "сети": 1422,
    "обсу@@": 1423,
    "годы": 1424,
    "дру@@": 1425,
    "площа@@": 1426,
    "затем": 1427,
    "сооб@@": 1428,
    "поло@@": 1429,
    "ступ@@": 1430,
    "предоставля@@": 1431,
    "интер@@": 1432,
    "жать": 1433,
    "телями": 1434,
    "тного": 1435,
    "друг": 1436,
    "теперь": 1437,
    "бес@@": 1438,
    "бле@@": 1439,
    "ванием": 1440,
    "чей": 1441,
    "часто": 1442,
    "вар@@": 1443,
    "a@@": 1444,
    "достаточно": 1445,
    "лки": 1446,
    "дить": 1447,
    "лению": 1448,
    "предлага@@": 1449,
    "дней": 1450,
    "таким": 1451,
    "подо@@": 1452,
    "фон@@": 1453,
    "лег@@": 1454,
    "Ду@@": 1455,
    "природ@@": 1456,
    "Она": 1457,
    "филь@@": 1458,
    "тора": 1459,
    "влия@@": 1460,
    "вил": 1461,
    "ву@@": 1462,
    "количество": 1463,
    "Г": 1464,
    "води@@": 1465,
    "ениям": 1466,
    "веду@@": 1467,
    "центра@@": 1468,
    "мас@@": 1469,
    "обы@@": 1470,
    "участие": 1471,
    "груп@@": 1472,
    "основ@@": 1473,
    "ясь": 1474,
    "U@@": 1475,
    "возра@@": 1476,
    "уровня": 1477,
    "шли": 1478,
    "воды": 1479,
    "m@@": 1480,
    "долж@@": 1481,
    "жной": 1482,
    "Международ@@": 1483,
    "доступ": 1484,
    "ван": 1485,
    "образования": 1486,
    "торго@@": 1487,
    "догово@@": 1488,
    "мент": 1489,
    "изменения": 1490,
    "ходе": 1491,
    "сою@@": 1492,
    "вода": 1493,
    "жных": 1494,
    "осуществля@@": 1495,
    "нима@@": 1496,
    "ПР@@": 1497,
    "ческое": 1498,
    "ционной": 1499,
    "бри@@": 1500,
    "производства": 1501,
    "завер@@": 1502,
    "ще": 1503,
    "торов": 1504,
    "возможно": 1505,
    "ад@@": 1506,
    "вами": 1507,
    "почти": 1508,
    "Ди@@": 1509,
    "ствами": 1510,
    "игра@@": 1511,
    "дни@@": 1512,
    "лен": 1513,
    "2010": 1514,
    "дами": 1515,
    "полож@@": 1516,
    "вод": 1517,
    "никогда": 1518,
    "мати@@": 1519,
    "рова@@": 1520,
    "стратеги@@": 1521,
    "оди@@": 1522,
    "T": 1523,
    "кло@@": 1524,
    "сте": 1525,
    "успе@@": 1526,
    "действие": 1527,
    "полностью": 1528,
    "потер@@": 1529,
    "обеспечи@@": 1530,
    "язы@@": 1531,
    "приобре@@": 1532,
    "эта": 1533,
    "Ку@@": 1534,
    "рение": 1535,
    "реши@@": 1536,
    "начина@@": 1537,
    "член@@": 1538,
    "цар@@": 1539,
    "пуска@@": 1540,
    "инвести@@": 1541,
    "ограни@@": 1542,
    ".@@": 1543,
    "жден@@": 1544,
    "нах": 1545,
    "лю": 1546,
    "тет": 1547,
    "дой": 1548,
    "ними": 1549,
    "ющая": 1550,
    "свя@@": 1551,
    "мощ@@": 1552,
    "c@@": 1553,
    "ведения": 1554,
    "получи@@": 1555,
    "ступи@@": 1556,
    "мая": 1557,
    "дра@@": 1558,
    "ат@@": 1559,
    "реги@@": 1560,
    "поэтому": 1561,
    "согла@@": 1562,
    "сказать": 1563,
    "предста@@": 1564,
    "стране": 1565,
    "Этот": 1566,
    "реш@@": 1567,
    "вот": 1568,
    "40": 1569,
    "уз@@": 1570,
    "которым": 1571,
    "граждан@@": 1572,
    "установлен@@": 1573,
    "y@@": 1574,
    "следо@@": 1575,
    "сты@@": 1576,
    "шать": 1577,
    "P": 1578,
    "персона@@": 1579,
    "p@@": 1580,
    "хорошо": 1581,
    "верси@@": 1582,
    "наших": 1583,
    "орга@@": 1584,
    "щим": 1585,
    "большой": 1586,
    "глоба@@": 1587,
    "сум@@": 1588,
    "нау@@": 1589,
    "уровень": 1590,
    "сер@@": 1591,
    "пя@@": 1592,
    "жды": 1593,
    "ут@@": 1594,
    "лить": 1595,
    "стали": 1596,
    "зда@@": 1597,
    "али@@": 1598,
    "c": 1599,
    "рам": 1600,
    "печа@@": 1601,
    "зации": 1602,
    "серьез@@": 1603,
    "19": 1604,
    "информа@@": 1605,
    "лиц": 1606,
    "средства": 1607,
    "Лю@@": 1608,
    "строи@@": 1609,
    "Н": 1610,
    "система": 1611,
    "однако": 1612,
    "направл@@": 1613,
    "телям": 1614,
    "люби@@": 1615,
    "вую": 1616,
    "поддержи@@": 1617,
    "кры@@": 1618,
    "вет@@": 1619,
    "официаль@@": 1620,
    "кни@@": 1621,
    "иметь": 1622,
    "технологи@@": 1623,
    "процес@@": 1624,
    "заме@@": 1625,
    "ческая": 1626,
    "держи@@": 1627,
    "момент": 1628,
    "b@@": 1629,
    "ника@@": 1630,
    "случа@@": 1631,
    "опас@@": 1632,
    "закон@@": 1633,
    "вок": 1634,
    "100": 1635,
    "Ар@@": 1636,
    "ян@@": 1637,
    "подтвер@@": 1638,
    "зов": 1639,
    "какой": 1640,
    "смо@@": 1641,
    "веб": 1642,
    "вести": 1643,
    "шая": 1644,
    "чу": 1645,
    "она@@": 1646,
    "рт@@": 1647,
    "вших": 1648,
    "государствен@@": 1649,
    "пис@@": 1650,
    "источ@@": 1651,
    "отсут@@": 1652,
    "докла@@": 1653,
    "ходят": 1654,
    "НИ@@": 1655,
    "своим": 1656,
    "мость": 1657,
    "женщин": 1658,
    "Пред@@": 1659,
    "конкре@@": 1660,
    "вании": 1661,
    "гом": 1662,
    "зыва@@": 1663,
    "угро@@": 1664,
    "создания": 1665,
    "мента": 1666,
    "лож@@": 1667,
    "демокра@@": 1668,
    "свобод@@": 1669,
    "поз@@": 1670,
    "собра@@": 1671,
    "ожида@@": 1672,
    "кли@@": 1673,
    "поме@@": 1674,
    "вол@@": 1675,
    "24": 1676,
    "s": 1677,
    "партне@@": 1678,
    "зма": 1679,
    "институ@@": 1680,
    "уров@@": 1681,
    "назна@@": 1682,
    "сах": 1683,
    "вопросы": 1684,
    "уче@@": 1685,
    "щая": 1686,
    "чная": 1687,
    "хва@@": 1688,
    "Чтобы": 1689,
    "рассматри@@": 1690,
    "няя": 1691,
    "оно": 1692,
    "вопросам": 1693,
    "вов": 1694,
    "тые": 1695,
    "поня@@": 1696,
    "работе": 1697,
    "делать": 1698,
    "ющими": 1699,
    "оп@@": 1700,
    "Ха@@": 1701,
    "2006": 1702,
    "ряд": 1703,
    "тий": 1704,
    "частности": 1705,
    "00": 1706,
    "имен@@": 1707,
    "То@@": 1708,
    "Хо@@": 1709,
    "устрой@@": 1710,
    "позволя@@": 1711,
    "бед@@": 1712,
    "бе": 1713,
    "Бан@@": 1714,
    "вре@@": 1715,
    "дет@@": 1716,
    "нес@@": 1717,
    "счет": 1718,
    "определя@@": 1719,
    "всей": 1720,
    "21": 1721,
    "парамет@@": 1722,
    "оборо@@": 1723,
    "нало@@": 1724,
    "беспла@@": 1725,
    "лле@@": 1726,
    "полни@@": 1727,
    "опы@@": 1728,
    "ООН": 1729,
    "сту@@": 1730,
    "акти@@": 1731,
    "тельное": 1732,
    "пор": 1733,
    "рованных": 1734,
    "чены": 1735,
    "За": 1736,
    "проис@@": 1737,
    "J@@": 1738,
    "Фи@@": 1739,
    "предло@@": 1740,
    "ски": 1741,
    "2005": 1742,
    "назад": 1743,
    "тельным": 1744,
    "лучше": 1745,
    "тельности": 1746,
    "дел": 1747,
    "обе@@": 1748,
    "защиты": 1749,
    "труд@@": 1750,
    "бу": 1751,
    "сво@@": 1752,
    "стать": 1753,
    "Эти": 1754,
    "Господь": 1755,
    "обно@@": 1756,
    "услуги": 1757,
    "увели@@": 1758,
    "стри@@": 1759,
    "некоторых": 1760,
    "месте": 1761,
    "мет@@": 1762,
    "тивных": 1763,
    "ган@@": 1764,
    "соб@@": 1765,
    "сол@@": 1766,
    "циями": 1767,
    "слова": 1768,
    "еже@@": 1769,
    "профессиональ@@": 1770,
    "компаний": 1771,
    "ок": 1772,
    "Поэтому": 1773,
    "Дж@@": 1774,
    "мии": 1775,
    "…": 1776,
    "сотрудни@@": 1777,
    "скими": 1778,
    "пита@@": 1779,
    "НО@@": 1780,
    "ун@@": 1781,
    "год@@": 1782,
    "чески": 1783,
    "дома": 1784,
    "европей@@": 1785,
    "ск": 1786,
    "зву@@": 1787,
    "зако@@": 1788,
    "поко@@": 1789,
    "медицин@@": 1790,
    "побе@@": 1791,
    "науч@@": 1792,
    "примен@@": 1793,
    "пас@@": 1794,
    "60": 1795,
    "тни@@": 1796,
    "настоящее": 1797,
    "имя": 1798,
    "d": 1799,
    "центр": 1800,
    "процесс": 1801,
    "находи@@": 1802,
    "u@@": 1803,
    "er": 1804,
    "чении": 1805,
    "капита@@": 1806,
    "шта@@": 1807,
    "дополнитель@@": 1808,
    "наши": 1809,
    "включа@@": 1810,
    "компания": 1811,
    "ресурсов": 1812,
    "удоб@@": 1813,
    "тил": 1814,
    "пусти@@": 1815,
    "действий": 1816,
    "тического": 1817,
    "ничего": 1818,
    "Боль@@": 1819,
    "двига@@": 1820,
    "руется": 1821,
    "Воз@@": 1822,
    "стана": 1823,
    "18@@": 1824,
    "горо@@": 1825,
    "лли@@": 1826,
    "лин@@": 1827,
    "стви@@": 1828,
    "проблем": 1829,
    "могли": 1830,
    "условиях": 1831,
    "ческими": 1832,
    "рей@@": 1833,
    "g@@": 1834,
    "o@@": 1835,
    "КО@@": 1836,
    "дальней@@": 1837,
    "яви@@": 1838,
    "мся": 1839,
    "государ@@": 1840,
    "тери@@": 1841,
    "пять": 1842,
    "вл@@": 1843,
    "найти": 1844,
    "верну@@": 1845,
    "жу": 1846,
    "Росси@@": 1847,
    "программ": 1848,
    "спосо@@": 1849,
    "город@@": 1850,
    "ваны": 1851,
    "22": 1852,
    "долларов": 1853,
    "самом": 1854,
    "испол@@": 1855,
    "другими": 1856,
    "систем": 1857,
    "путем": 1858,
    "мах": 1859,
    "L": 1860,
    "жно": 1861,
    "лек@@": 1862,
    "экра@@": 1863,
    "уч@@": 1864,
    "Пра@@": 1865,
    "противо@@": 1866,
    "доступа": 1867,
    "вин@@": 1868,
    "пара@@": 1869,
    "преступ@@": 1870,
    "Й@@": 1871,
    "юще@@": 1872,
    "секре@@": 1873,
    "ваш@@": 1874,
    "ядер@@": 1875,
    "сфере": 1876,
    "кну@@": 1877,
    "формы": 1878,
    "одним": 1879,
    "мое": 1880,
    "er@@": 1881,
    "x": 1882,
    "точки": 1883,
    "корпора@@": 1884,
    "Бог": 1885,
    "Ле@@": 1886,
    "ур@@": 1887,
    "стаби@@": 1888,
    "Пере@@": 1889,
    "Европей@@": 1890,
    "кров@@": 1891,
    "цер@@": 1892,
    "целях": 1893,
    "законода@@": 1894,
    "любой": 1895,
    "сторон@@": 1896,
    "ил@@": 1897,
    "реализации": 1898,
    "ственного": 1899,
    "20@@": 1900,
    "приве@@": 1901,
    "произо@@": 1902,
    "тебя": 1903,
    "мую": 1904,
    "пись@@": 1905,
    "лении": 1906,
    "доста@@": 1907,
    "организаций": 1908,
    "говори@@": 1909,
    "щее": 1910,
    "взя@@": 1911,
    "бор": 1912,
    "РА@@": 1913,
    "№": 1914,
    "ющую": 1915,
    "зака@@": 1916,
    "ционные": 1917,
    "деле": 1918,
    "ье@@": 1919,
    "прия@@": 1920,
    "новой": 1921,
    "восстано@@": 1922,
    "Россия": 1923,
    "2003": 1924,
    "t": 1925,
    "новый": 1926,
    "чен": 1927,
    "развитие": 1928,
    "членов": 1929,
    "результа@@": 1930,
    "ющиеся": 1931,
    "жены": 1932,
    "сче@@": 1933,
    "слы@@": 1934,
    "Восто@@": 1935,
    "написа@@": 1936,
    "лица": 1937,
    "Да": 1938,
    "храни@@": 1939,
    "смотреть": 1940,
    "тельность": 1941,
    "рази@@": 1942,
    "обнару@@": 1943,
    "вно": 1944,
    "стоит": 1945,
    "этому": 1946,
    "успеш@@": 1947,
    "энерге@@": 1948,
    "требо@@": 1949,
    "бюдже@@": 1950,
    "Би@@": 1951,
    "см": 1952,
    "усили@@": 1953,
    "Сер@@": 1954,
    "циаль@@": 1955,
    "руководи@@": 1956,
    "механиз@@": 1957,
    "описа@@": 1958,
    "рынке": 1959,
    "пов": 1960,
    "скому": 1961,
    "моло@@": 1962,
    "ешь": 1963,
    "нескольких": 1964,
    "войны": 1965,
    "тным": 1966,
    "уме@@": 1967,
    "последние": 1968,
    "рынка": 1969,
    "служ@@": 1970,
    "анали@@": 1971,
    "норма@@": 1972,
    "игро@@": 1973,
    "зу": 1974,
    "организо@@": 1975,
    "увеличи@@": 1976,
    "дия": 1977,
    "вид": 1978,
    "работает": 1979,
    "можем": 1980,
    "ственные": 1981,
    "масшта@@": 1982,
    "пути": 1983,
    "торы": 1984,
    "лого": 1985,
    "еха@@": 1986,
    "твор@@": 1987,
    "прежде": 1988,
    "шин@@": 1989,
    "минист@@": 1990,
    "бизнес": 1991,
    "бер@@": 1992,
    "тей": 1993,
    "существу@@": 1994,
    "рын@@": 1995,
    "конфлик@@": 1996,
    "самых": 1997,
    "дите": 1998,
    "чет@@": 1999,
    "каждого": 2000,
    "лами": 2001,
    "Эта": 2002,
    "музы@@": 2003,
    "км": 2004,
    "энергии": 2005,
    "промышлен@@": 2006,
    "23": 2007,
    "шем": 2008,
    "ВО@@": 2009,
    "запро@@": 2010,
    "одна": 2011,
    "убе@@": 2012,
    "городе": 2013,
    "мен": 2014,
    "емой": 2015,
    "зер@@": 2016,
    "лой": 2017,
    "нового": 2018,
    "вкла@@": 2019,
    "эле@@": 2020,
    "рий": 2021,
    "Из@@": 2022,
    "циях": 2023,
    "поддержки": 2024,
    "дь": 2025,
    "дело": 2026,
    "места": 2027,
    "сель@@": 2028,
    "совер@@": 2029,
    "провер@@": 2030,
    "нь": 2031,
    "приме@@": 2032,
    "туры": 2033,
    "Организации": 2034,
    "зрения": 2035,
    "казывает": 2036,
    "ден": 2037,
    "конце": 2038,
    "треть@@": 2039,
    "огром@@": 2040,
    "меся@@": 2041,
    "проектов": 2042,
    "деятельность": 2043,
    "тари@@": 2044,
    "разработ@@": 2045,
    "вс@@": 2046,
    "анти@@": 2047,
    "Прави@@": 2048,
    "кими": 2049,
    "люб@@": 2050,
    "устано@@": 2051,
    "тай@@": 2052,
    "менты": 2053,
    "цами": 2054,
    "удо@@": 2055,
    "бога@@": 2056,
    "относительно": 2057,
    "$": 2058,
    "отче@@": 2059,
    "шает": 2060,
    "проведения": 2061,
    "культур@@": 2062,
    "Ро@@": 2063,
    "ником": 2064,
    "ссы@@": 2065,
    "ционного": 2066,
    "директо@@": 2067,
    "вались": 2068,
    "2000": 2069,
    "любы@@": 2070,
    "тон@@": 2071,
    "льном": 2072,
    "Фран@@": 2073,
    "ссии": 2074,
    "устойчи@@": 2075,
    "мента@@": 2076,
    "Вам": 2077,
    "чным": 2078,
    "настоя@@": 2079,
    "число": 2080,
    "информация": 2081,
    "мыш@@": 2082,
    "най@@": 2083,
    "емый": 2084,
    "мини@@": 2085,
    "экономики": 2086,
    "правля@@": 2087,
    "Бы@@": 2088,
    "жерт@@": 2089,
    "ё": 2090,
    "“": 2091,
    "помощь": 2092,
    "дам": 2093,
    "ибо": 2094,
    "представлен@@": 2095,
    "каче@@": 2096,
    "маши@@": 2097,
    "каса@@": 2098,
    "нашего": 2099,
    "Мар@@": 2100,
    "ска": 2101,
    "теку@@": 2102,
    "ую": 2103,
    "X": 2104,
    "помога@@": 2105,
    "первый": 2106,
    "секто@@": 2107,
    "Интернет": 2108,
    "компьютер@@": 2109,
    "Например": 2110,
    "опла@@": 2111,
    "Государ@@": 2112,
    "такого": 2113,
    "вший": 2114,
    "сотрудничества": 2115,
    "ауди@@": 2116,
    "фир@@": 2117,
    "жные": 2118,
    "появи@@": 2119,
    "зе": 2120,
    "ново@@": 2121,
    "одно@@": 2122,
    "станови@@": 2123,
    "утвер@@": 2124,
    "тической": 2125,
    "док": 2126,
    "щает": 2127,
    "положи@@": 2128,
    "умень@@": 2129,
    "гро@@": 2130,
    "син@@": 2131,
    "10@@": 2132,
    "составля@@": 2133,
    "отра@@": 2134,
    "конкурен@@": 2135,
    "положение": 2136,
    "дают": 2137,
    "совмест@@": 2138,
    "технологии": 2139,
    "избе@@": 2140,
    "своем": 2141,
    "восто@@": 2142,
    "роста": 2143,
    "нной": 2144,
    "тоже": 2145,
    "дал": 2146,
    "тол@@": 2147,
    "прове@@": 2148,
    "вариан@@": 2149,
    "ственный": 2150,
    "слишком": 2151,
    "нер@@": 2152,
    "направлен@@": 2153,
    "B": 2154,
    "v@@": 2155,
    "отношения": 2156,
    "закры@@": 2157,
    "решений": 2158,
    "спорта": 2159,
    "l@@": 2160,
    "кому": 2161,
    "создать": 2162,
    "проект": 2163,
    "республи@@": 2164,
    "прожи@@": 2165,
    "чки": 2166,
    "бо": 2167,
    "действительно": 2168,
    "существует": 2169,
    "силу": 2170,
    "качества": 2171,
    "круп@@": 2172,
    "присут@@": 2173,
    "хи": 2174,
    "собы@@": 2175,
    "сня@@": 2176,
    "оде@@": 2177,
    "лений": 2178,
    "опреде@@": 2179,
    "обычно": 2180,
    "проси@@": 2181,
    "валю@@": 2182,
    "взгля@@": 2183,
    "быстро": 2184,
    "2004": 2185,
    "програм@@": 2186,
    "использование": 2187,
    "затра@@": 2188,
    "чению": 2189,
    "правительства": 2190,
    "шему": 2191,
    "мир@@": 2192,
    "силы": 2193,
    "пли@@": 2194,
    "международных": 2195,
    "управля@@": 2196,
    "обеспе@@": 2197,
    "вили": 2198,
    "кси@@": 2199,
    "образо@@": 2200,
    "on": 2201,
    "среды": 2202,
    "Ру@@": 2203,
    "истории": 2204,
    "цент@@": 2205,
    "моби@@": 2206,
    "вся@@": 2207,
    "шу@@": 2208,
    "пен@@": 2209,
    "одно": 2210,
    "какие": 2211,
    "Моск@@": 2212,
    "дки": 2213,
    "собира@@": 2214,
    "сор@@": 2215,
    "лый": 2216,
    "З": 2217,
    "прес@@": 2218,
    "льную": 2219,
    "сил": 2220,
    "зация": 2221,
    "198@@": 2222,
    "экологи@@": 2223,
    "пове@@": 2224,
    "возник@@": 2225,
    "вной": 2226,
    "емого": 2227,
    "совет@@": 2228,
    "n@@": 2229,
    "парта@@": 2230,
    "F": 2231,
    "сове@@": 2232,
    "означает": 2233,
    "Microsoft": 2234,
    "труда": 2235,
    "рост": 2236,
    "благодаря": 2237,
    "Генера@@": 2238,
    "юсь": 2239,
    "простран@@": 2240,
    "вшие": 2241,
    "Програм@@": 2242,
    "повто@@": 2243,
    "Господ@@": 2244,
    "рез@@": 2245,
    "укреп@@": 2246,
    "чис@@": 2247,
    "наблюда@@": 2248,
    "стом": 2249,
    "консульта@@": 2250,
    "лах": 2251,
    "тная": 2252,
    "принять": 2253,
    "обеспечить": 2254,
    "al@@": 2255,
    "запре@@": 2256,
    "стей": 2257,
    "выс@@": 2258,
    "ченных": 2259,
    "сса@@": 2260,
    "нный": 2261,
    "условия": 2262,
    "подклю@@": 2263,
    "тю@@": 2264,
    "чать": 2265,
    "контак@@": 2266,
    "визи@@": 2267,
    "вки": 2268,
    "применя@@": 2269,
    "мог": 2270,
    "две": 2271,
    "шить": 2272,
    "ЕС": 2273,
    "чает": 2274,
    "строен@@": 2275,
    "ческую": 2276,
    "меня@@": 2277,
    "жении": 2278,
    "нуж@@": 2279,
    "получения": 2280,
    "вана": 2281,
    "шу": 2282,
    "номер": 2283,
    "продукции": 2284,
    "отме@@": 2285,
    "Й": 2286,
    "никами": 2287,
    "ванных": 2288,
    "скоро@@": 2289,
    "мым": 2290,
    "продуктов": 2291,
    "государств": 2292,
    "выз@@": 2293,
    "степен@@": 2294,
    "коммер@@": 2295,
    "вляет": 2296,
    "бума@@": 2297,
    "следующие": 2298,
    "пери@@": 2299,
    "доб@@": 2300,
    "l": 2301,
    "отеля": 2302,
    "виде": 2303,
    "сли": 2304,
    "дела": 2305,
    "стало": 2306,
    "гри@@": 2307,
    "ходов": 2308,
    "поддержку": 2309,
    "ведение": 2310,
    "лых": 2311,
    "рак@@": 2312,
    "кана@@": 2313,
    "выде@@": 2314,
    "тики": 2315,
    "систему": 2316,
    "свобо@@": 2317,
    "ал@@": 2318,
    "сай@@": 2319,
    "степени": 2320,
    "меж@@": 2321,
    "пу": 2322,
    "туаль@@": 2323,
    "стар@@": 2324,
    "дж@@": 2325,
    "ню": 2326,
    "статьи": 2327,
    "мигра@@": 2328,
    "страхо@@": 2329,
    "тура": 2330,
    "спис@@": 2331,
    "ситуации": 2332,
    "большин@@": 2333,
    "28": 2334,
    "Российской": 2335,
    "народ@@": 2336,
    "зии": 2337,
    "бизнеса": 2338,
    "Наций": 2339,
    "надо": 2340,
    "выполня@@": 2341,
    "ствах": 2342,
    "ран": 2343,
    "оцени@@": 2344,
    "существо@@": 2345,
    "ито@@": 2346,
    "O": 2347,
    "Ла@@": 2348,
    "шими": 2349,
    "структуры": 2350,
    "_@@": 2351,
    "учеб@@": 2352,
    "тысяч": 2353,
    "en@@": 2354,
    "влении": 2355,
    "коле@@": 2356,
    "Объединенных": 2357,
    "тыся@@": 2358,
    "рей": 2359,
    "Европы": 2360,
    "уде@@": 2361,
    "Тур@@": 2362,
    "ква@@": 2363,
    "преде@@": 2364,
    "случаях": 2365,
    "основных": 2366,
    "говорить": 2367,
    "автомоби@@": 2368,
    "преимуще@@": 2369,
    "коллек@@": 2370,
    "строй@@": 2371,
    "пля@@": 2372,
    "осуществ@@": 2373,
    "G": 2374,
    "результаты": 2375,
    "жений": 2376,
    "Также": 2377,
    "цели": 2378,
    "регули@@": 2379,
    "верх@@": 2380,
    "ради@@": 2381,
    "целом": 2382,
    "созна@@": 2383,
    "полага@@": 2384,
    "In@@": 2385,
    "26": 2386,
    "нибудь": 2387,
    "технологий": 2388,
    "хранения": 2389,
    "мами": 2390,
    "Х": 2391,
    "любо@@": 2392,
    "дут": 2393,
    "движения": 2394,
    "пользу@@": 2395,
    "ниже": 2396,
    "болез@@": 2397,
    "заболе@@": 2398,
    "тер": 2399,
    "студен@@": 2400,
    "дво@@": 2401,
    "положения": 2402,
    "такое": 2403,
    "Од@@": 2404,
    "мень@@": 2405,
    "компонен@@": 2406,
    "другим": 2407,
    "емся": 2408,
    "изда@@": 2409,
    "Server": 2410,
    "доби@@": 2411,
    "службы": 2412,
    "чном": 2413,
    "циональ@@": 2414,
    "потреби@@": 2415,
    "N": 2416,
    "реали@@": 2417,
    "пад@@": 2418,
    "70": 2419,
    "почему": 2420,
    "отобра@@": 2421,
    "инициа@@": 2422,
    "составляет": 2423,
    "тически": 2424,
    "?@@": 2425,
    "контроля": 2426,
    "дек@@": 2427,
    "распростра@@": 2428,
    "соеди@@": 2429,
    "млрд": 2430,
    "ору@@": 2431,
    "мпи@@": 2432,
    "данной": 2433,
    "оби@@": 2434,
    "жению": 2435,
    "Му@@": 2436,
    "b": 2437,
    "оте@@": 2438,
    "ментов": 2439,
    "p": 2440,
    "27": 2441,
    "ходить": 2442,
    "ски@@": 2443,
    "месяцев": 2444,
    "Федерации": 2445,
    "Таким": 2446,
    "h@@": 2447,
    "сем@@": 2448,
    "руют": 2449,
    "комна@@": 2450,
    "объеди@@": 2451,
    "пе": 2452,
    "хра@@": 2453,
    "ранее": 2454,
    "тивы": 2455,
    "тивные": 2456,
    "Цен@@": 2457,
    "R": 2458,
    "тр": 2459,
    "др": 2460,
    ".)": 2461,
    "происходит": 2462,
    "бой": 2463,
    "Дру@@": 2464,
    "согласи@@": 2465,
    "контро@@": 2466,
    "мые": 2467,
    "тебе": 2468,
    "ви": 2469,
    "процесса": 2470,
    "поя@@": 2471,
    "гами": 2472,
    "типа": 2473,
    "рок": 2474,
    "зывает": 2475,
    "Ира@@": 2476,
    "услови@@": 2477,
    "материа@@": 2478,
    "числен@@": 2479,
    "высоко@@": 2480,
    "необходимости": 2481,
    "ведом@@": 2482,
    "сколько": 2483,
    "мого": 2484,
    "утвержда@@": 2485,
    "снова": 2486,
    "хозяй@@": 2487,
    "уг@@": 2488,
    "цов": 2489,
    "начале": 2490,
    "предпринима@@": 2491,
    "стала": 2492,
    "Совета": 2493,
    "евре@@": 2494,
    "лии": 2495,
    "подвер@@": 2496,
    "исследования": 2497,
    "фа": 2498,
    "удовлетво@@": 2499,
    "ошиб@@": 2500,
    "массо@@": 2501,
    "добро@@": 2502,
    "жен": 2503,
    "прибы@@": 2504,
    "ожи@@": 2505,
    "шо@@": 2506,
    "самым": 2507,
    "насе@@": 2508,
    "покры@@": 2509,
    "сом@@": 2510,
    "трех": 2511,
    "Пи@@": 2512,
    "подписа@@": 2513,
    "чное": 2514,
    "рода": 2515,
    "реда@@": 2516,
    "серве@@": 2517,
    "лизации": 2518,
    "сфе@@": 2519,
    "in@@": 2520,
    "щении": 2521,
    "си": 2522,
    "оконча@@": 2523,
    "Украины": 2524,
    "стреми@@": 2525,
    "цать": 2526,
    "гаранти@@": 2527,
    "чай@@": 2528,
    "требу@@": 2529,
    "исследо@@": 2530,
    "АТ@@": 2531,
    "31": 2532,
    "попа@@": 2533,
    "шло": 2534,
    "Кита@@": 2535,
    "рекоменда@@": 2536,
    "разработа@@": 2537,
    "r@@": 2538,
    "выберите": 2539,
    "тра": 2540,
    "ред@@": 2541,
    "веден@@": 2542,
    "ся@@": 2543,
    "емо@@": 2544,
    "Шта@@": 2545,
    "холо@@": 2546,
    "большинство": 2547,
    "остро@@": 2548,
    "мя": 2549,
    "очередь": 2550,
    "заинтересо@@": 2551,
    "максима@@": 2552,
    "СК@@": 2553,
    "зависимости": 2554,
    "сно": 2555,
    "правительство": 2556,
    "цам": 2557,
    "согласно": 2558,
    "интерес@@": 2559,
    "нор@@": 2560,
    "зм": 2561,
    "город": 2562,
    "действу@@": 2563,
    "постоян@@": 2564,
    "легко": 2565,
    "дело@@": 2566,
    "Север@@": 2567,
    "рованные": 2568,
    "жит": 2569,
    "x@@": 2570,
    "учре@@": 2571,
    "малень@@": 2572,
    "забо@@": 2573,
    "юриди@@": 2574,
    "оценки": 2575,
    "живо@@": 2576,
    "ьте": 2577,
    "ческом": 2578,
    "циям": 2579,
    "куда": 2580,
    "ститу@@": 2581,
    "отли@@": 2582,
    "гар@@": 2583,
    "управл@@": 2584,
    "подготов@@": 2585,
    ");": 2586,
    "стане": 2587,
    "близ@@": 2588,
    "an@@": 2589,
    "обре@@": 2590,
    "бран@@": 2591,
    "мули@@": 2592,
    "глубо@@": 2593,
    "Националь@@": 2594,
    "тельная": 2595,
    "наме@@": 2596,
    "вич": 2597,
    "участников": 2598,
    "пото@@": 2599,
    "стен@@": 2600,
    "Из": 2601,
    "особен@@": 2602,
    "опыт": 2603,
    "коло@@": 2604,
    "тиче@@": 2605,
    "распреде@@": 2606,
    "пти@@": 2607,
    "Хотя": 2608,
    "воору@@": 2609,
    "запа@@": 2610,
    "спи@@": 2611,
    "Бога": 2612,
    "разных": 2613,
    "органов": 2614,
    "st@@": 2615,
    "настояще@@": 2616,
    "спек@@": 2617,
    "Вот": 2618,
    "стер@@": 2619,
    "системе": 2620,
    "чено": 2621,
    "деньги": 2622,
    "+": 2623,
    "установ@@": 2624,
    "провод@@": 2625,
    "нок": 2626,
    "ху@@": 2627,
    "номера": 2628,
    "журна@@": 2629,
    "ятся": 2630,
    "центра": 2631,
    "тым": 2632,
    "пользователей": 2633,
    "вез@@": 2634,
    "целей": 2635,
    "вался": 2636,
    "g": 2637,
    "шки": 2638,
    "рес@@": 2639,
    "груз@@": 2640,
    "ванные": 2641,
    "рекла@@": 2642,
    "шению": 2643,
    "тивного": 2644,
    "тили": 2645,
    "частью": 2646,
    "вест@@": 2647,
    "яр@@": 2648,
    "сто": 2649,
    "тяже@@": 2650,
    "представляет": 2651,
    "гло@@": 2652,
    "воль@@": 2653,
    "Ти@@": 2654,
    "ото@@": 2655,
    "процеду@@": 2656,
    "экспер@@": 2657,
    "вит": 2658,
    "эн@@": 2659,
    "прекрас@@": 2660,
    "объе@@": 2661,
    "Республи@@": 2662,
    "покупа@@": 2663,
    "нажмите": 2664,
    "сообщи@@": 2665,
    "льными": 2666,
    "внед@@": 2667,
    "Ты": 2668,
    "ar@@": 2669,
    "чную": 2670,
    "важно": 2671,
    "ими": 2672,
    "стату@@": 2673,
    "голов@@": 2674,
    "ологи@@": 2675,
    "Рабо@@": 2676,
    "Все@@": 2677,
    "наш@@": 2678,
    "Дан@@": 2679,
    "клас@@": 2680,
    "пользо@@": 2681,
    "расположен@@": 2682,
    "создание": 2683,
    "весь": 2684,
    "онах": 2685,
    "жает": 2686,
    "щать": 2687,
    "меню": 2688,
    "вше@@": 2689,
    "финанси@@": 2690,
    "потом": 2691,
    "досто@@": 2692,
    "ум@@": 2693,
    "перегово@@": 2694,
    "воро@@": 2695,
    "Рас@@": 2696,
    "постоянно": 2697,
    "Ком@@": 2698,
    "кроме": 2699,
    "находя@@": 2700,
    "англи@@": 2701,
    "тное": 2702,
    "жил": 2703,
    "шла": 2704,
    "сравнению": 2705,
    "ченные": 2706,
    "данного": 2707,
    "окружающей": 2708,
    "нему": 2709,
    "работа": 2710,
    "оказыва@@": 2711,
    "ключе@@": 2712,
    "Свя@@": 2713,
    "n": 2714,
    "es": 2715,
    "80": 2716,
    "гер@@": 2717,
    "выда@@": 2718,
    "an": 2719,
    "обеспечение": 2720,
    "тера": 2721,
    "стой": 2722,
    "фон": 2723,
    "эти@@": 2724,
    "резер@@": 2725,
    "оборудования": 2726,
    "судеб@@": 2727,
    "запис@@": 2728,
    "стин@@": 2729,
    "позиции": 2730,
    "шед@@": 2731,
    "данным": 2732,
    "относи@@": 2733,
    "Ча@@": 2734,
    "неф@@": 2735,
    "заседа@@": 2736,
    "пожа@@": 2737,
    "окру@@": 2738,
    "ситуа@@": 2739,
    "становится": 2740,
    "имени": 2741,
    "раб@@": 2742,
    "вари@@": 2743,
    "форме": 2744,
    "тивной": 2745,
    "подчер@@": 2746,
    "кнопку": 2747,
    "ене@@": 2748,
    "Интер@@": 2749,
    "практически": 2750,
    "ваш": 2751,
    "сайта": 2752,
    "инфра@@": 2753,
    "НА@@": 2754,
    "совершен@@": 2755,
    "Вер@@": 2756,
    "f@@": 2757,
    "Основ@@": 2758,
    "находятся": 2759,
    "бур@@": 2760,
    "прекра@@": 2761,
    "превра@@": 2762,
    "ПО": 2763,
    "реа@@": 2764,
    "тем@@": 2765,
    "иностран@@": 2766,
    "вшись": 2767,
    "привле@@": 2768,
    "запад@@": 2769,
    "развива@@": 2770,
    "сохрани@@": 2771,
    "отношений": 2772,
    "второй": 2773,
    "мни@@": 2774,
    "различные": 2775,
    "зор@@": 2776,
    "вши@@": 2777,
    "недоста@@": 2778,
    "вери@@": 2779,
    "культуры": 2780,
    "щений": 2781,
    "подроб@@": 2782,
    "экономического": 2783,
    "материалов": 2784,
    "выполнения": 2785,
    "аэропор@@": 2786,
    "ули@@": 2787,
    "вопросов": 2788,
    "Пла@@": 2789,
    "крас@@": 2790,
    "развитию": 2791,
    "полномо@@": 2792,
    "ОБ@@": 2793,
    "гии": 2794,
    "32": 2795,
    "торговли": 2796,
    "чений": 2797,
    "состоянии": 2798,
    "предприя@@": 2799,
    "харак@@": 2800,
    "диало@@": 2801,
    "свой@@": 2802,
    "руки": 2803,
    "29": 2804,
    "поле": 2805,
    "Ри@@": 2806,
    "стан": 2807,
    "номе@@": 2808,
    "есте@@": 2809,
    "рабаты@@": 2810,
    "ственным": 2811,
    "выстав@@": 2812,
    "страда@@": 2813,
    "подгото@@": 2814,
    "on@@": 2815,
    "щихся": 2816,
    "выя@@": 2817,
    "избира@@": 2818,
    "группа": 2819,
    "серви@@": 2820,
    "функции": 2821,
    "ствам": 2822,
    "ктор": 2823,
    "стол@@": 2824,
    "федера@@": 2825,
    "рованы": 2826,
    "меди@@": 2827,
    "конференции": 2828,
    "игры": 2829,
    "ресур@@": 2830,
    "дей": 2831,
    "Ф": 2832,
    "АО": 2833,
    "предполага@@": 2834,
    "зво@@": 2835,
    "предприятия": 2836,
    "Евро@@": 2837,
    "%.": 2838,
    "процентов": 2839,
    "условий": 2840,
    "путь": 2841,
    "освобо@@": 2842,
    "ровки": 2843,
    "предме@@": 2844,
    "попы@@": 2845,
    "меньше": 2846,
    "онов": 2847,
    "дере@@": 2848,
    "чет": 2849,
    "напря@@": 2850,
    "Азербайджа@@": 2851,
    "полез@@": 2852,
    "специали@@": 2853,
    "вало": 2854,
    "ЕН@@": 2855,
    "вани@@": 2856,
    "раст@@": 2857,
    "расска@@": 2858,
    "бом": 2859,
    "Поль@@": 2860,
    "коне@@": 2861,
    "Теперь": 2862,
    "гиб@@": 2863,
    "прилож@@": 2864,
    "председа@@": 2865,
    "потре@@": 2866,
    "чист@@": 2867,
    "тка": 2868,
    "сфер@@": 2869,
    "сразу": 2870,
    "Услуги": 2871,
    "йского": 2872,
    "своими": 2873,
    "тыс": 2874,
    "вашей": 2875,
    "2002": 2876,
    "предприятий": 2877,
    "используется": 2878,
    "возду@@": 2879,
    "позна@@": 2880,
    "уве@@": 2881,
    "обу@@": 2882,
    "вашего": 2883,
    "дерев@@": 2884,
    "заста@@": 2885,
    "дь@@": 2886,
    "уди@@": 2887,
    "разру@@": 2888,
    "президен@@": 2889,
    "лежа@@": 2890,
    "станет": 2891,
    "публи@@": 2892,
    "здоровья": 2893,
    "гла": 2894,
    "генера@@": 2895,
    "авиа@@": 2896,
    "слыша@@": 2897,
    "объектов": 2898,
    "уника@@": 2899,
    "первых": 2900,
    "Пар@@": 2901,
    ">": 2902,
    "установки": 2903,
    "лага@@": 2904,
    "предлагает": 2905,
    "мена": 2906,
    "лиде@@": 2907,
    "каждой": 2908,
    "конструк@@": 2909,
    "данный": 2910,
    "разработки": 2911,
    "лые": 2912,
    "золо@@": 2913,
    "женщи@@": 2914,
    "режи@@": 2915,
    "спу@@": 2916,
    "влен": 2917,
    "хран@@": 2918,
    "дели@@": 2919,
    "чия": 2920,
    "поро@@": 2921,
    "сков": 2922,
    "it@@": 2923,
    "так@@": 2924,
    "лай@@": 2925,
    "стой@@": 2926,
    "исследований": 2927,
    "журнали@@": 2928,
    "35": 2929,
    "состоит": 2930,
    "ата@@": 2931,
    "конечно": 2932,
    "хими@@": 2933,
    "твер@@": 2934,
    "сей": 2935,
    "паке@@": 2936,
    "минут": 2937,
    "жного": 2938,
    "зал": 2939,
    "табли@@": 2940,
    "перво@@": 2941,
    "ощу@@": 2942,
    "ключа@@": 2943,
    "изу@@": 2944,
    "вей@@": 2945,
    "щается": 2946,
    "здравоохранения": 2947,
    "нного": 2948,
    "йдет": 2949,
    "y": 2950,
    "эффек@@": 2951,
    "чик": 2952,
    "водо@@": 2953,
    "возника@@": 2954,
    "рави@@": 2955,
    "документов": 2956,
    "друз@@": 2957,
    "стать@@": 2958,
    "куль@@": 2959,
    "арен@@": 2960,
    "гля@@": 2961,
    "ступа@@": 2962,
    "слуша@@": 2963,
    "миллионов": 2964,
    "!@@": 2965,
    "самого": 2966,
    "ВИЧ": 2967,
    "ристи@@": 2968,
    "кос@@": 2969,
    "чему": 2970,
    "заяви@@": 2971,
    "разли@@": 2972,
    "веще@@": 2973,
    "ами": 2974,
    "Ал@@": 2975,
    "вет": 2976,
    "религиоз@@": 2977,
    "моде@@": 2978,
    "лением": 2979,
    "клиентов": 2980,
    "выступа@@": 2981,
    "аспек@@": 2982,
    "ны@@": 2983,
    "Сегодня": 2984,
    "части@@": 2985,
    "худо@@": 2986,
    "лем": 2987,
    "касается": 2988,
    "полови@@": 2989,
    "наи@@": 2990,
    "Министер@@": 2991,
    "связанных": 2992,
    "насили@@": 2993,
    "пить": 2994,
    "тенден@@": 2995,
    "предназна@@": 2996,
    "мно@@": 2997,
    "Европе": 2998,
    "Груп@@": 2999,
    "президент": 3000,
    "--": 3001,
    "уни@@": 3002,
    "предыду@@": 3003,
    "всю": 3004,
    "бора": 3005,
    "базы": 3006,
    "нении": 3007,
    "кажется": 3008,
    "изо@@": 3009,
    "безопас@@": 3010,
    "Кар@@": 3011,
    "Тем": 3012,
    "тром": 3013,
    "ссия": 3014,
    "процессе": 3015,
    "ницы": 3016,
    "креп@@": 3017,
    "различ@@": 3018,
    "Казах@@": 3019,
    "био@@": 3020,
    "усилия": 3021,
    "газо@@": 3022,
    "фотографи@@": 3023,
    "популяр@@": 3024,
    "целе@@": 3025,
    "узна@@": 3026,
    "привлека@@": 3027,
    "реб@@": 3028,
    "Израи@@": 3029,
    "воло@@": 3030,
    "дно": 3031,
    "тео@@": 3032,
    "Некоторые": 3033,
    "совершенно": 3034,
    "сведения": 3035,
    "дин": 3036,
    "милли@@": 3037,
    "стоимость": 3038,
    "профи@@": 3039,
    "мимо": 3040,
    "бар@@": 3041,
    "дже@@": 3042,
    "центре": 3043,
    "перспек@@": 3044,
    "обслужи@@": 3045,
    "предупре@@": 3046,
    "гостей": 3047,
    "которыми": 3048,
    "что@@": 3049,
    "гося": 3050,
    "проведен@@": 3051,
    "приз@@": 3052,
    "мам": 3053,
    "гли": 3054,
    "самое": 3055,
    "устанавли@@": 3056,
    "ман": 3057,
    "искус@@": 3058,
    "священ@@": 3059,
    "наш": 3060,
    "телю": 3061,
    "одну": 3062,
    "тических": 3063,
    "лены": 3064,
    "предотвра@@": 3065,
    "поис@@": 3066,
    "иска@@": 3067,
    "форм": 3068,
    "превы@@": 3069,
    "кви": 3070,
    "земли": 3071,
    "ванной": 3072,
    "k": 3073,
    "al": 3074,
    "часов": 3075,
    "чий": 3076,
    "виде@@": 3077,
    "регистрации": 3078,
    "изобра@@": 3079,
    "поставщи@@": 3080,
    "рабочих": 3081,
    "аппара@@": 3082,
    "общество": 3083,
    "первой": 3084,
    "микро@@": 3085,
    "куп@@": 3086,
    "тья": 3087,
    "памя@@": 3088,
    "международного": 3089,
    "записи": 3090,
    "отлича@@": 3091,
    "всему": 3092,
    "ственное": 3093,
    "последова@@": 3094,
    "вшего": 3095,
    "вокруг": 3096,
    "лия": 3097,
    "правило": 3098,
    "программа": 3099,
    "духов@@": 3100,
    "транспорт@@": 3101,
    "делает": 3102,
    "функ@@": 3103,
    "весьма": 3104,
    "доказа@@": 3105,
    "Це@@": 3106,
    "питания": 3107,
    "V": 3108,
    "учиты@@": 3109,
    "рых": 3110,
    "групп": 3111,
    "вали@@": 3112,
    "ЕР@@": 3113,
    "симво@@": 3114,
    "пригла@@": 3115,
    "мый": 3116,
    "видов": 3117,
    "бира@@": 3118,
    "Эк@@": 3119,
    "памяти": 3120,
    "Стра@@": 3121,
    "рынок": 3122,
    "рядом": 3123,
    "Более": 3124,
    "жей": 3125,
    "ющи@@": 3126,
    "Ван@@": 3127,
    "общего": 3128,
    "вах": 3129,
    "список": 3130,
    "ен": 3131,
    "това@@": 3132,
    "значительно": 3133,
    "гео@@": 3134,
    "Влади@@": 3135,
    "сказа@@": 3136,
    "влению": 3137,
    "сайте": 3138,
    "лять": 3139,
    "цах": 3140,
    "дене@@": 3141,
    "народа": 3142,
    "фе": 3143,
    "лам": 3144,
    "иностранных": 3145,
    "модели": 3146,
    "дея@@": 3147,
    "говорят": 3148,
    "идет": 3149,
    "упа@@": 3150,
    "добы@@": 3151,
    "ляции": 3152,
    "фек@@": 3153,
    "учен@@": 3154,
    "лов@@": 3155,
    "тури@@": 3156,
    "тную": 3157,
    "Конвенции": 3158,
    "рен": 3159,
    "пользоваться": 3160,
    "2001": 3161,
    "стер": 3162,
    "пользователя": 3163,
    "обрати@@": 3164,
    "жест@@": 3165,
    "никам": 3166,
    "кух@@": 3167,
    "500": 3168,
    "действовать": 3169,
    "века": 3170,
    "тей@@": 3171,
    "значения": 3172,
    "Теле@@": 3173,
    "государственных": 3174,
    "ходы": 3175,
    "Мин@@": 3176,
    "or@@": 3177,
    "щую": 3178,
    "сить": 3179,
    "подготовки": 3180,
    "ющем": 3181,
    "револю@@": 3182,
    "Фа@@": 3183,
    "похо@@": 3184,
    "дя": 3185,
    "сентября": 3186,
    "балан@@": 3187,
    "заявил": 3188,
    "пора@@": 3189,
    "случаев": 3190,
    "Зако@@": 3191,
    "национальных": 3192,
    "помочь": 3193,
    "суб@@": 3194,
    "рассмот@@": 3195,
    "нарко@@": 3196,
    "кандида@@": 3197,
    "нужда@@": 3198,
    "рев@@": 3199,
    "чества": 3200,
    "мной": 3201,
    "людьми": 3202,
    "200": 3203,
    "вече@@": 3204,
    "тию": 3205,
    "нако@@": 3206,
    "достижения": 3207,
    "ционный": 3208,
    "примерно": 3209,
    "граждан": 3210,
    "писы@@": 3211,
    "коммуника@@": 3212,
    "хотите": 3213,
    "разделе": 3214,
    "ница": 3215,
    "основном": 3216,
    "фер@@": 3217,
    "колле@@": 3218,
    "устройства": 3219,
    "Афри@@": 3220,
    "соз@@": 3221,
    "работ": 3222,
    "мене@@": 3223,
    "90": 3224,
    "мину@@": 3225,
    "нить": 3226,
    "четы@@": 3227,
    "уго@@": 3228,
    "строить": 3229,
    "клу@@": 3230,
    "бю@@": 3231,
    "ближай@@": 3232,
    "количе@@": 3233,
    "выпус@@": 3234,
    "Компания": 3235,
    "шка": 3236,
    "уби@@": 3237,
    "одном": 3238,
    "чена": 3239,
    "народ": 3240,
    "отды@@": 3241,
    "обви@@": 3242,
    "ностями": 3243,
    "мало": 3244,
    "Ге@@": 3245,
    "Всемир@@": 3246,
    "ti@@": 3247,
    "статисти@@": 3248,
    "справедли@@": 3249,
    "Фе@@": 3250,
    "Азии": 3251,
    "at@@": 3252,
    "выпла@@": 3253,
    "опублико@@": 3254,
    "смот@@": 3255,
    "поез@@": 3256,
    "бов": 3257,
    "территори@@": 3258,
    "тором": 3259,
    "ори@@": 3260,
    "всеми": 3261,
    "кварти@@": 3262,
    "исто@@": 3263,
    "несмотря": 3264,
    "дета@@": 3265,
    "am@@": 3266,
    "ря": 3267,
    "возможностей": 3268,
    "роб@@": 3269,
    "дизай@@": 3270,
    "декабря": 3271,
    "включает": 3272,
    "Y@@": 3273,
    "учетом": 3274,
    "сли@@": 3275,
    "остается": 3276,
    "точно": 3277,
    "топли@@": 3278,
    "общей": 3279,
    "гражда@@": 3280,
    "уничто@@": 3281,
    "доволь@@": 3282,
    "(@@": 3283,
    "применения": 3284,
    "мета@@": 3285,
    "ПО@@": 3286,
    "переме@@": 3287,
    "спокой@@": 3288,
    "пон@@": 3289,
    "осуществления": 3290,
    "национальной": 3291,
    "хом": 3292,
    "тельную": 3293,
    "нельзя": 3294,
    "ровали": 3295,
    "китай@@": 3296,
    "мыс@@": 3297,
    "гам": 3298,
    "принимать": 3299,
    "испыта@@": 3300,
    "внутри": 3301,
    "in": 3302,
    "смерти": 3303,
    "директор": 3304,
    "четвер@@": 3305,
    "com": 3306,
    "спорт": 3307,
    "семьи": 3308,
    "говорил": 3309,
    "словам": 3310,
    "ща": 3311,
    "озна@@": 3312,
    "нюю": 3313,
    "сохран@@": 3314,
    "относя@@": 3315,
    "напо@@": 3316,
    "влияние": 3317,
    "версии": 3318,
    "серд@@": 3319,
    "динами@@": 3320,
    "чиков": 3321,
    "множество": 3322,
    "гос@@": 3323,
    "ваши": 3324,
    "будем": 3325,
    "ствии": 3326,
    "регионе": 3327,
    "тельством": 3328,
    "изменений": 3329,
    "результатов": 3330,
    "приводи@@": 3331,
    "необ@@": 3332,
    "экономической": 3333,
    "отправи@@": 3334,
    "обстоя@@": 3335,
    "джи@@": 3336,
    "конферен@@": 3337,
    "дной": 3338,
    "большое": 3339,
    "ОАО": 3340,
    "ам": 3341,
    "стол": 3342,
    "2012": 3343,
    "гах": 3344,
    "сосе@@": 3345,
    "измени@@": 3346,
    "m": 3347,
    "Ав@@": 3348,
    "прошлом": 3349,
    "радо@@": 3350,
    "Мак@@": 3351,
    "тив": 3352,
    "гг": 3353,
    "квали@@": 3354,
    "стратегии": 3355,
    "прямо": 3356,
    "налого@@": 3357,
    "требуется": 3358,
    "вспо@@": 3359,
    "предвари@@": 3360,
    "цены": 3361,
    "сон": 3362,
    "чка": 3363,
    "ствий": 3364,
    "президента": 3365,
    "террори@@": 3366,
    "самой": 3367,
    "файлов": 3368,
    "сотрудников": 3369,
    "лко@@": 3370,
    "Алексан@@": 3371,
    "полнить": 3372,
    "НЫ@@": 3373,
    "местных": 3374,
    "чек": 3375,
    "очевид@@": 3376,
    "пане@@": 3377,
    "рон@@": 3378,
    "дит": 3379,
    "дин@@": 3380,
    "as@@": 3381,
    "Здесь": 3382,
    "дре@@": 3383,
    "следующих": 3384,
    "рый": 3385,
    "льности": 3386,
    "конец": 3387,
    "задач": 3388,
    "двер@@": 3389,
    "участия": 3390,
    "парла@@": 3391,
    "тая": 3392,
    "свиде@@": 3393,
    "расположен": 3394,
    "могу": 3395,
    "четыре": 3396,
    "жили": 3397,
    "ляет": 3398,
    "РО@@": 3399,
    "сообщения": 3400,
    "никто": 3401,
    "ложен@@": 3402,
    "комму@@": 3403,
    "хот@@": 3404,
    "контроли@@": 3405,
    "рестора@@": 3406,
    "йский": 3407,
    "Мне": 3408,
    "Сво@@": 3409,
    "&": 3410,
    "трудо@@": 3411,
    "индивидуаль@@": 3412,
    "газе@@": 3413,
    "Сторо@@": 3414,
    "мест": 3415,
    "лик@@": 3416,
    "кле@@": 3417,
    "смотре@@": 3418,
    "Несмотря": 3419,
    "en": 3420,
    "протяжении": 3421,
    "влены": 3422,
    "Ы@@": 3423,
    "щению": 3424,
    "будущем": 3425,
    "ско": 3426,
    "тифика@@": 3427,
    "зарегистри@@": 3428,
    "далеко": 3429,
    "дву@@": 3430,
    "охва@@": 3431,
    "молоды@@": 3432,
    "большо@@": 3433,
    "препят@@": 3434,
    "Ша@@": 3435,
    "срок": 3436,
    "соблюд@@": 3437,
    "сек@@": 3438,
    "тин": 3439,
    "демонстри@@": 3440,
    "виду": 3441,
    "газа": 3442,
    "стру@@": 3443,
    "проте@@": 3444,
    "промышленности": 3445,
    "Авто@@": 3446,
    "собо@@": 3447,
    "тием": 3448,
    "передачи": 3449,
    "домаш@@": 3450,
    "гряз@@": 3451,
    "протоко@@": 3452,
    "потенциаль@@": 3453,
    "интегра@@": 3454,
    "влением": 3455,
    "ствовал": 3456,
    "Вас": 3457,
    "приложения": 3458,
    "использованием": 3459,
    "гне@@": 3460,
    "реак@@": 3461,
    "ответственность": 3462,
    "магази@@": 3463,
    "уро@@": 3464,
    "льник": 3465,
    "первого": 3466,
    "Многие": 3467,
    "жу@@": 3468,
    "жный": 3469,
    "предусмотрен@@": 3470,
    "клави@@": 3471,
    "располага@@": 3472,
    "концеп@@": 3473,
    "шан@@": 3474,
    "очеред@@": 3475,
    "желез@@": 3476,
    "темпера@@": 3477,
    "лях": 3478,
    "дка": 3479,
    "197@@": 3480,
    "отвеча@@": 3481,
    "понять": 3482,
    "электронной": 3483,
    "сигна@@": 3484,
    "режиме": 3485,
    "2011": 3486,
    "лка": 3487,
    "прогно@@": 3488,
    "поверх@@": 3489,
    "обязан@@": 3490,
    "хов@@": 3491,
    "Щ@@": 3492,
    "международной": 3493,
    "йтесь": 3494,
    "молоде@@": 3495,
    "ad@@": 3496,
    "файл": 3497,
    "регуляр@@": 3498,
    "представителей": 3499,
    "отда@@": 3500,
    "45": 3501,
    "роли": 3502,
    "отношение": 3503,
    "посредством": 3504,
    "факт": 3505,
    "увиде@@": 3506,
    "истин@@": 3507,
    "ответ": 3508,
    "РФ": 3509,
    "христи@@": 3510,
    "жная": 3511,
    "област@@": 3512,
    "гораздо": 3513,
    "ровал": 3514,
    "июня": 3515,
    "дне@@": 3516,
    "ведь": 3517,
    "Лу@@": 3518,
    "партии": 3519,
    "ЛЬ@@": 3520,
    "раза": 3521,
    "Спе@@": 3522,
    "II": 3523,
    "зло@@": 3524,
    "ас@@": 3525,
    "другом": 3526,
    "уста@@": 3527,
    "связанные": 3528,
    "поддерж@@": 3529,
    "ответственности": 3530,
    "жду": 3531,
    "большие": 3532,
    "приорите@@": 3533,
    "отеле": 3534,
    "финансовых": 3535,
    "считы@@": 3536,
    "принадлежности": 3537,
    "состояния": 3538,
    "вместо": 3539,
    "региона": 3540,
    "файлы": 3541,
    "политических": 3542,
    "координа@@": 3543,
    "числа": 3544,
    "%,": 3545,
    "сту": 3546,
    "собственности": 3547,
    "украин@@": 3548,
    "поле@@": 3549,
    "выгля@@": 3550,
    "требует": 3551,
    "сков@@": 3552,
    "клима@@": 3553,
    "рь": 3554,
    "рованной": 3555,
    "мин": 3556,
    "живу@@": 3557,
    "вайте": 3558,
    "щими": 3559,
    "чением": 3560,
    "культу@@": 3561,
    "ева": 3562,
    ")@@": 3563,
    "скры@@": 3564,
    "et@@": 3565,
    "хо": 3566,
    "согласо@@": 3567,
    "моли@@": 3568,
    "играть": 3569,
    "объем": 3570,
    "немного": 3571,
    "слово": 3572,
    "пус@@": 3573,
    "пес@@": 3574,
    "интерфей@@": 3575,
    "МО@@": 3576,
    "хе": 3577,
    "скорее": 3578,
    "обеспечивает": 3579,
    "Господа": 3580,
    "эффективности": 3581,
    "энерги@@": 3582,
    "требовани@@": 3583,
    "библиоте@@": 3584,
    "смотри@@": 3585,
    "цель": 3586,
    "программ@@": 3587,
    "блю@@": 3588,
    "агент@@": 3589,
    "ro@@": 3590,
    "цен": 3591,
    "устра@@": 3592,
    "СМИ": 3593,
    "сайт": 3594,
    "Гла@@": 3595,
    "члены": 3596,
    "статье": 3597,
    "борьбе": 3598,
    "Отель": 3599,
    "хро@@": 3600,
    "Л": 3601,
    "дети": 3602,
    "спон@@": 3603,
    "нул": 3604,
    "друга": 3605,
    "помо@@": 3606,
    "глу@@": 3607,
    "мужчи@@": 3608,
    "ию@@": 3609,
    "выбор": 3610,
    "жет": 3611,
    "вновь": 3612,
    "нынеш@@": 3613,
    "использовании": 3614,
    "транс@@": 3615,
    "мировой": 3616,
    "женщины": 3617,
    "свидетель@@": 3618,
    "допол@@": 3619,
    "состояние": 3620,
    "прос": 3621,
    "уверен@@": 3622,
    "z@@": 3623,
    "Ио@@": 3624,
    "совсем": 3625,
    "сделал": 3626,
    "пан@@": 3627,
    "банков@@": 3628,
    "сердце": 3629,
    "ой": 3630,
    "Арм@@": 3631,
    "самый": 3632,
    "мнению": 3633,
    "крупней@@": 3634,
    "Есть": 3635,
    "управление": 3636,
    "сервера": 3637,
    ".\"": 3638,
    "нете": 3639,
    "видео": 3640,
    "Хри@@": 3641,
    "ic@@": 3642,
    "щены": 3643,
    "иден@@": 3644,
    "мониторин@@": 3645,
    "земле": 3646,
    "кампа@@": 3647,
    "Германии": 3648,
    "сотрудниче@@": 3649,
    "иногда": 3650,
    "Кре@@": 3651,
    "циали@@": 3652,
    "государственной": 3653,
    "съ@@": 3654,
    "силь@@": 3655,
    "крова@@": 3656,
    "осозна@@": 3657,
    "инвестиций": 3658,
    "имеется": 3659,
    "бре@@": 3660,
    "ЕНИ@@": 3661,
    "умолчанию": 3662,
    "сегодняш@@": 3663,
    "партнер@@": 3664,
    "плат@@": 3665,
    "операции": 3666,
    "инте@@": 3667,
    "октября": 3668,
    "коро@@": 3669,
    "Тогда": 3670,
    "тельными": 3671,
    "рекоменду@@": 3672,
    "фай@@": 3673,
    "миру": 3674,
    "марта": 3675,
    "товаров": 3676,
    "спроси@@": 3677,
    "and": 3678,
    "российских": 3679,
    "начал": 3680,
    "вообще": 3681,
    "дни": 3682,
    "адре@@": 3683,
    "исход@@": 3684,
    "экс@@": 3685,
    "участи@@": 3686,
    "соответствующих": 3687,
    "правила": 3688,
    "нести": 3689,
    "обновления": 3690,
    "мож@@": 3691,
    "инвесто@@": 3692,
    "гости@@": 3693,
    "Зем@@": 3694,
    "задачи": 3695,
    "адрес": 3696,
    "путеше@@": 3697,
    "обучения": 3698,
    "вь": 3699,
    "вероя@@": 3700,
    "СП@@": 3701,
    "плате@@": 3702,
    "качество": 3703,
    "суд": 3704,
    "данном": 3705,
    "север@@": 3706,
    "il@@": 3707,
    "знаю": 3708,
    "местах": 3709,
    "менить": 3710,
    "считает": 3711,
    "довольно": 3712,
    "января": 3713,
    "чика": 3714,
    "реша@@": 3715,
    "голосо@@": 3716,
    "ВА@@": 3717,
    "рь@@": 3718,
    "мероприятий": 3719,
    "ing": 3720,
    "замеча@@": 3721,
    "перен@@": 3722,
    "краси@@": 3723,
    "сеть": 3724,
    "пута@@": 3725,
    "вью": 3726,
    "хотел": 3727,
    "производство": 3728,
    "принятия": 3729,
    "долгосро@@": 3730,
    "думаю": 3731,
    "Япо@@": 3732,
    "тью": 3733,
    "политической": 3734,
    "долго": 3735,
    "ые": 3736,
    "программу": 3737,
    "провед@@": 3738,
    "пациен@@": 3739,
    "зом": 3740,
    "re@@": 3741,
    "ственная": 3742,
    "роваться": 3743,
    "класси@@": 3744,
    "Петербур@@": 3745,
    "дав@@": 3746,
    "рин@@": 3747,
    "метров": 3748,
    "глаза": 3749,
    "Чер@@": 3750,
    "смер@@": 3751,
    "районе": 3752,
    "больших": 3753,
    "бое@@": 3754,
    "ствовали": 3755,
    "предусматри@@": 3756,
    "убий@@": 3757,
    "требования": 3758,
    "днев@@": 3759,
    "33": 3760,
    "контроль": 3761,
    "компа@@": 3762,
    "годно": 3763,
    "Мен@@": 3764,
    "станов@@": 3765,
    "государство": 3766,
    "is@@": 3767,
    "руются": 3768,
    "многочислен@@": 3769,
    "ью@@": 3770,
    "кости": 3771,
    "одновременно": 3772,
    "обраща@@": 3773,
    "новая": 3774,
    "сказала": 3775,
    "гой": 3776,
    "Фон@@": 3777,
    "тела": 3778,
    "борьбы": 3779,
    "поддержа@@": 3780,
    "нению": 3781,
    "каких": 3782,
    "телефон@@": 3783,
    "ступления": 3784,
    "вятся": 3785,
    "el@@": 3786,
    "совеща@@": 3787,
    "руп@@": 3788,
    "изменить": 3789,
    "рации": 3790,
    "жало@@": 3791,
    "привести": 3792,
    "нным": 3793,
    "большая": 3794,
    "ЦИ@@": 3795,
    "банка": 3796,
    "поль@@": 3797,
    "Амери@@": 3798,
    "отказа@@": 3799,
    "нений": 3800,
    "постав@@": 3801,
    "другого": 3802,
    "фору@@": 3803,
    "социальной": 3804,
    "Сто@@": 3805,
    "ac@@": 3806,
    "рек@@": 3807,
    "первую": 3808,
    "крат@@": 3809,
    "содержит": 3810,
    "ъя@@": 3811,
    "ребенка": 3812,
    "необходимость": 3813,
    "вающих": 3814,
    "До": 3815,
    "*@@": 3816,
    "нес": 3817,
    "тании": 3818,
    "отрас@@": 3819,
    "архи@@": 3820,
    "тические": 3821,
    "стоимости": 3822,
    "прежнему": 3823,
    "Ги@@": 3824,
    "IP": 3825,
    "совершенство@@": 3826,
    "людям": 3827,
    "каж@@": 3828,
    "Совет@@": 3829,
    "большим": 3830,
    "план": 3831,
    "начи@@": 3832,
    "ката@@": 3833,
    "жением": 3834,
    "стара@@": 3835,
    "специалистов": 3836,
    "завтра@@": 3837,
    "моей": 3838,
    "зависит": 3839,
    "чество": 3840,
    "порядке": 3841,
    "Ы": 3842,
    "лока@@": 3843,
    "состав": 3844,
    "охра@@": 3845,
    "процен@@": 3846,
    "большую": 3847,
    "способ": 3848,
    "повышения": 3849,
    "кварта@@": 3850,
    "имуще@@": 3851,
    "закона": 3852,
    "нут": 3853,
    "тон": 3854,
    "ада@@": 3855,
    "Тво@@": 3856,
    "бассейн": 3857,
    "стить": 3858,
    "позволит": 3859,
    "17@@": 3860,
    "нях": 3861,
    "жности": 3862,
    "Созда@@": 3863,
    "тивный": 3864,
    "нефти": 3865,
    "счаст@@": 3866,
    "шении": 3867,
    "гие": 3868,
    "образование": 3869,
    "значит": 3870,
    "Вто@@": 3871,
    "стои@@": 3872,
    "рая": 3873,
    "шений": 3874,
    "универси@@": 3875,
    "тными": 3876,
    "офи@@": 3877,
    "гли@@": 3878,
    "ri@@": 3879,
    "семина@@": 3880,
    "хождения": 3881,
    "ск@@": 3882,
    "влений": 3883,
    "сете@@": 3884,
    "отка@@": 3885,
    "вшихся": 3886,
    "владель@@": 3887,
    "служа@@": 3888,
    "St@@": 3889,
    "класса": 3890,
    "известно": 3891,
    "Май@@": 3892,
    "маршру@@": 3893,
    "заключается": 3894,
    "вила": 3895,
    "способности": 3896,
    "фикации": 3897,
    "необходимые": 3898,
    "давно": 3899,
    "тическая": 3900,
    "возгла@@": 3901,
    "оф@@": 3902,
    "кт": 3903,
    "тивно": 3904,
    "пап@@": 3905,
    "»@@": 3906,
    "вме@@": 3907,
    "u": 3908,
    "препода@@": 3909,
    "импор@@": 3910,
    "говари@@": 3911,
    "лицензи@@": 3912,
    "лей@@": 3913,
    "ционе@@": 3914,
    "строительства": 3915,
    "Объ@@": 3916,
    "проблема": 3917,
    "отчет@@": 3918,
    "иннова@@": 3919,
    "фун@@": 3920,
    "льти@@": 3921,
    "поводу": 3922,
    "тите": 3923,
    "МА@@": 3924,
    "цеп@@": 3925,
    "денег": 3926,
    "сертифика@@": 3927,
    "етесь": 3928,
    "емая": 3929,
    "посо@@": 3930,
    "подразде@@": 3931,
    "дипло@@": 3932,
    "предложения": 3933,
    "абсолю@@": 3934,
    "смыс@@": 3935,
    "вано": 3936,
    "лицо": 3937,
    "будете": 3938,
    "Согласно": 3939,
    "Конферен@@": 3940,
    "оз@@": 3941,
    "позво@@": 3942,
    "ограничен@@": 3943,
    "Нет": 3944,
    "хе@@": 3945,
    "загру@@": 3946,
    "Каждый": 3947,
    "каким": 3948,
    "язык": 3949,
    "иско@@": 3950,
    "инду@@": 3951,
    "соче@@": 3952,
    "летия": 3953,
    "финансирования": 3954,
    "сын": 3955,
    "правления": 3956,
    "комната": 3957,
    "инди@@": 3958,
    "НАТО": 3959,
    "определить": 3960,
    "ждении": 3961,
    "десяти@@": 3962,
    "Затем": 3963,
    "Ту@@": 3964,
    "ресто@@": 3965,
    "внимания": 3966,
    "недвижи@@": 3967,
    "установить": 3968,
    "ровании": 3969,
    "следова@@": 3970,
    "ев@@": 3971,
    "веща@@": 3972,
    "самые": 3973,
    "подня@@": 3974,
    "хочет": 3975,
    "видеть": 3976,
    "ум": 3977,
    "рованного": 3978,
    "оны": 3979,
    "сохраня@@": 3980,
    "организ@@": 3981,
    "тим": 3982,
    "Ь": 3983,
    "событий": 3984,
    "рого": 3985,
    "материаль@@": 3986,
    "моду@@": 3987,
    "материалы": 3988,
    "своему": 3989,
    "дил": 3990,
    "говой": 3991,
    "рели@@": 3992,
    "исклю@@": 3993,
    "которому": 3994,
    "цик@@": 3995,
    "тения": 3996,
    "сих": 3997,
    "апреля": 3998,
    "анализа": 3999,
    "ресурсы": 4000,
    "любого": 4001,
    "РЕ@@": 4002,
    "..@@": 4003,
    "говоря": 4004,
    "сторону": 4005,
    "двумя": 4006,
    "усло@@": 4007,
    "увидеть": 4008,
    "станции": 4009,
    "встреча@@": 4010,
    "Ло@@": 4011,
    "семей@@": 4012,
    "продукты": 4013,
    "периода": 4014,
    "кова": 4015,
    "государственного": 4016,
    "связ@@": 4017,
    "посла@@": 4018,
    "далее": 4019,
    "ждений": 4020,
    "видео@@": 4021,
    "Еще": 4022,
    "мены": 4023,
    "дох@@": 4024,
    "странами": 4025,
    "школы": 4026,
    "пси@@": 4027,
    "ов": 4028,
    "миллиар@@": 4029,
    "Цер@@": 4030,
    "Федера@@": 4031,
    "столь": 4032,
    "землю": 4033,
    "сет": 4034,
    "тина": 4035,
    "облада@@": 4036,
    "каждо@@": 4037,
    "держ@@": 4038,
    "аналоги@@": 4039,
    "пребы@@": 4040,
    "йских": 4041,
    "Даже": 4042,
    "сильно": 4043,
    "расходы": 4044,
    "Только": 4045,
    "То": 4046,
    "разнообрази@@": 4047,
    "нан@@": 4048,
    "Суще@@": 4049,
    "чень": 4050,
    "цио@@": 4051,
    "раскры@@": 4052,
    "постро@@": 4053,
    "жесто@@": 4054,
    "нная": 4055,
    "кноп@@": 4056,
    "Дополнитель@@": 4057,
    "пункт": 4058,
    "настро@@": 4059,
    "рос@@": 4060,
    "плен@@": 4061,
    "оборудо@@": 4062,
    "достаточ@@": 4063,
    "контек@@": 4064,
    "of": 4065,
    "j@@": 4066,
    "новую": 4067,
    "ленных": 4068,
    "сен": 4069,
    "ИК@@": 4070,
    "ждать": 4071,
    "выбрать": 4072,
    "отмеча@@": 4073,
    "организация": 4074,
    "ждая": 4075,
    "ОО@@": 4076,
    "сор": 4077,
    "лев@@": 4078,
    "большей": 4079,
    "Великобри@@": 4080,
    "экономических": 4081,
    "ый": 4082,
    "месяца": 4083,
    "определения": 4084,
    "валось": 4085,
    "em@@": 4086,
    "фика@@": 4087,
    "команды": 4088,
    "Москве": 4089,
    "первые": 4090,
    "разработке": 4091,
    "вполне": 4092,
    "употреб@@": 4093,
    "Следу@@": 4094,
    "линии": 4095,
    "содержи@@": 4096,
    "расходов": 4097,
    "чрезвычай@@": 4098,
    "никаких": 4099,
    "документы": 4100,
    "00@@": 4101,
    "работников": 4102,
    "животных": 4103,
    "вне": 4104,
    "базе": 4105,
    "стра": 4106,
    "раньше": 4107,
    "позволи@@": 4108,
    "отнош@@": 4109,
    "Z@@": 4110,
    "пропа@@": 4111,
    "нное": 4112,
    "законо@@": 4113,
    "ориенти@@": 4114,
    "Сейчас": 4115,
    "семь": 4116,
    "интернет": 4117,
    "акций": 4118,
    "крайней": 4119,
    "вости": 4120,
    "сервер@@": 4121,
    "последни@@": 4122,
    "море": 4123,
    "ьер@@": 4124,
    "обслуживания": 4125,
    "мон@@": 4126,
    "захва@@": 4127,
    "ень": 4128,
    "непосредственно": 4129,
    "грузки": 4130,
    "сторон": 4131,
    "непре@@": 4132,
    "суда": 4133,
    "рованный": 4134,
    "зами": 4135,
    "языке": 4136,
    "емым": 4137,
    "ан": 4138,
    "лове@@": 4139,
    "катало@@": 4140,
    "каждом": 4141,
    "недо@@": 4142,
    "движение": 4143,
    "основные": 4144,
    "Крас@@": 4145,
    "представители": 4146,
    "сят": 4147,
    "туа@@": 4148,
    "гло": 4149,
    "ху": 4150,
    "решить": 4151,
    "сектора": 4152,
    "получил": 4153,
    "www": 4154,
    "прово@@": 4155,
    "количества": 4156,
    "циона@@": 4157,
    "праши@@": 4158,
    "отдельных": 4159,
    "хоте@@": 4160,
    "ноября": 4161,
    "us": 4162,
    "эксплуа@@": 4163,
    "удалось": 4164,
    "тера@@": 4165,
    "компани@@": 4166,
    "оружия": 4167,
    "издели@@": 4168,
    "посети@@": 4169,
    "лью": 4170,
    "владе@@": 4171,
    "марке@@": 4172,
    "вел": 4173,
    "убеди@@": 4174,
    "невозможно": 4175,
    "зацию": 4176,
    "гая": 4177,
    "оборудование": 4178,
    "кат": 4179,
    "режим": 4180,
    "немец@@": 4181,
    "СПИ@@": 4182,
    "Кор@@": 4183,
    "16@@": 4184,
    "характер": 4185,
    "un@@": 4186,
    "сии": 4187,
    "пера@@": 4188,
    "атмо@@": 4189,
    "сотрудничество": 4190,
    "нк@@": 4191,
    "курса": 4192,
    "впечат@@": 4193,
    "om@@": 4194,
    "подход": 4195,
    "новое": 4196,
    "лена": 4197,
    "%@@": 4198,
    "операций": 4199,
    "недавно": 4200,
    "женных": 4201,
    "Обще@@": 4202,
    "способность": 4203,
    "рованию": 4204,
    "праздни@@": 4205,
    "вещи": 4206,
    "Сло@@": 4207,
    "Re@@": 4208,
    "базо@@": 4209,
    "Организа@@": 4210,
    "реди@@": 4211,
    "..": 4212,
    "исче@@": 4213,
    "тическое": 4214,
    "насколько": 4215,
    "гаран@@": 4216,
    "повед@@": 4217,
    "ТО@@": 4218,
    "сексуаль@@": 4219,
    "ниях": 4220,
    "контрак@@": 4221,
    "Э": 4222,
    "моз@@": 4223,
    "ину": 4224,
    "достигну@@": 4225,
    "чными": 4226,
    "катего@@": 4227,
    "цем": 4228,
    "гори@@": 4229,
    "автоматически": 4230,
    "грам@@": 4231,
    "ена": 4232,
    "свободы": 4233,
    "рован": 4234,
    "зре@@": 4235,
    "яся": 4236,
    "публика@@": 4237,
    "корот@@": 4238,
    "зировать": 4239,
    "лизо@@": 4240,
    "компьюте@@": 4241,
    "архитек@@": 4242,
    "1999": 4243,
    "прием@@": 4244,
    "следования": 4245,
    "образова@@": 4246,
    "34": 4247,
    "таль@@": 4248,
    "мера": 4249,
    "ых": 4250,
    "тут": 4251,
    "оке@@": 4252,
    "ag@@": 4253,
    "одоб@@": 4254,
    "край@@": 4255,
    "присоеди@@": 4256,
    "повре@@": 4257,
    "прогрес@@": 4258,
    "Украине": 4259,
    "Можно": 4260,
    "связь": 4261,
    "ущер@@": 4262,
    "сможете": 4263,
    "безу@@": 4264,
    "Запа@@": 4265,
    "казыва@@": 4266,
    "вероятно": 4267,
    "альтерна@@": 4268,
    "щу@@": 4269,
    "туда": 4270,
    "продолжи@@": 4271,
    "стами": 4272,
    "ab@@": 4273,
    "книги": 4274,
    "ребен@@": 4275,
    "работают": 4276,
    "энерго@@": 4277,
    "спорт@@": 4278,
    "полно@@": 4279,
    "бла@@": 4280,
    "лки@@": 4281,
    "щем": 4282,
    "соглашения": 4283,
    "сожа@@": 4284,
    "равно@@": 4285,
    "маль@@": 4286,
    "сных": 4287,
    "долго@@": 4288,
    "Иисус": 4289,
    "хочу": 4290,
    "трен@@": 4291,
    "нефте@@": 4292,
    "языка": 4293,
    "услу@@": 4294,
    "(\"": 4295,
    "куро@@": 4296,
    "Чи@@": 4297,
    "мяг@@": 4298,
    "кните": 4299,
    "ограничи@@": 4300,
    "СССР": 4301,
    "упомя@@": 4302,
    "посвящен@@": 4303,
    "крест@@": 4304,
    "бир@@": 4305,
    "сообщение": 4306,
    "июля": 4307,
    "жер@@": 4308,
    "банк": 4309,
    "момента": 4310,
    "финансовой": 4311,
    "офор@@": 4312,
    "Дже@@": 4313,
    "просто@@": 4314,
    "сопрово@@": 4315,
    "аф@@": 4316,
    "совме@@": 4317,
    "пой@@": 4318,
    "кс": 4319,
    "сной": 4320,
    "Бер@@": 4321,
    "зен@@": 4322,
    "гну@@": 4323,
    "здоров@@": 4324,
    "вка": 4325,
    "медленно": 4326,
    "36": 4327,
    "привы@@": 4328,
    "можен@@": 4329,
    "аб@@": 4330,
    "ющейся": 4331,
    "знать": 4332,
    "главным": 4333,
    "Систе@@": 4334,
    "курс": 4335,
    "гать": 4336,
    "зави@@": 4337,
    "жителей": 4338,
    "проверки": 4339,
    "учени@@": 4340,
    "трудно": 4341,
    "поря@@": 4342,
    "отрасли": 4343,
    "емое": 4344,
    "Ак@@": 4345,
    "свет": 4346,
    "валась": 4347,
    "тность": 4348,
    "сюда": 4349,
    "проекты": 4350,
    "покуп@@": 4351,
    "получили": 4352,
    "рублей": 4353,
    "влека@@": 4354,
    "файла": 4355,
    "приложений": 4356,
    "лиц@@": 4357,
    "r": 4358,
    "ужа@@": 4359,
    "самостоя@@": 4360,
    "мои": 4361,
    "ждены": 4362,
    "провести": 4363,
    "двад@@": 4364,
    "тыми": 4365,
    "словами": 4366,
    "щел@@": 4367,
    "мьер": 4368,
    "концер@@": 4369,
    "Чувашской": 4370,
    "el": 4371,
    "регистра@@": 4372,
    "настройки": 4373,
    "крупных": 4374,
    "источников": 4375,
    "Божи@@": 4376,
    "ува@@": 4377,
    "клад@@": 4378,
    "годо@@": 4379,
    "благоприя@@": 4380,
    "Президен@@": 4381,
    "Глав@@": 4382,
    "et": 4383,
    "ян": 4384,
    "судь@@": 4385,
    "Согла@@": 4386,
    "196@@": 4387,
    "правил": 4388,
    "щен": 4389,
    "проведение": 4390,
    "ответствен@@": 4391,
    "нской": 4392,
    "The": 4393,
    "события": 4394,
    "радио@@": 4395,
    "начать": 4396,
    "вида": 4397,
    "правильно": 4398,
    "ментом": 4399,
    "боро@@": 4400,
    "Конечно": 4401,
    "окружа@@": 4402,
    "K": 4403,
    "впервые": 4404,
    "15@@": 4405,
    "тое": 4406,
    "лосо@@": 4407,
    "лечения": 4408,
    "знает": 4409,
    "закон": 4410,
    "диционе@@": 4411,
    "IS@@": 4412,
    "незакон@@": 4413,
    "йской": 4414,
    "виру@@": 4415,
    "ЭС": 4416,
    "отметил": 4417,
    "исключением": 4418,
    "воду": 4419,
    "сам@@": 4420,
    "професси@@": 4421,
    "полной": 4422,
    "СН@@": 4423,
    "Поскольку": 4424,
    "высокой": 4425,
    "взро@@": 4426,
    "свет@@": 4427,
    "дали": 4428,
    "ствием": 4429,
    "рыно@@": 4430,
    "ряда": 4431,
    "Сек@@": 4432,
    "вии": 4433,
    "”": 4434,
    "элементов": 4435,
    "перевоз@@": 4436,
    "ванная": 4437,
    "тябре": 4438,
    "нется": 4439,
    "зия": 4440,
    "анализ": 4441,
    "пред": 4442,
    "ваших": 4443,
    "бизне@@": 4444,
    "Фак@@": 4445,
    "такая": 4446,
    "предлож@@": 4447,
    "характеристи@@": 4448,
    "правл@@": 4449,
    "поступа@@": 4450,
    "ложения": 4451,
    "специализи@@": 4452,
    "оптими@@": 4453,
    "вызо@@": 4454,
    "кость": 4455,
    "сия": 4456,
    "наро@@": 4457,
    "зор": 4458,
    "жена": 4459,
    "300": 4460,
    "замет@@": 4461,
    "форму": 4462,
    "Америки": 4463,
    "совместно": 4464,
    "психо@@": 4465,
    "процессов": 4466,
    "Слу@@": 4467,
    "категории": 4468,
    "ремон@@": 4469,
    "информацией": 4470,
    "изгото@@": 4471,
    "выбра@@": 4472,
    "SQL": 4473,
    "процедуры": 4474,
    "программе": 4475,
    "отлич@@": 4476,
    "новым": 4477,
    "тности": 4478,
    "карты": 4479,
    "услугам": 4480,
    "соли@@": 4481,
    "жите": 4482,
    "быстро@@": 4483,
    "университе@@": 4484,
    "Доб@@": 4485,
    "ческому": 4486,
    "хов": 4487,
    "рению": 4488,
    "визор": 4489,
    "автома@@": 4490,
    "потенциа@@": 4491,
    "политика": 4492,
    "сде@@": 4493,
    "Соединен@@": 4494,
    "маш@@": 4495,
    "ер": 4496,
    "ведений": 4497,
    "распространя@@": 4498,
    "лым": 4499,
    "предоставляет": 4500,
    "следующий": 4501,
    "нар@@": 4502,
    "жается": 4503,
    "вных": 4504,
    "слож@@": 4505,
    "нач@@": 4506,
    "другое": 4507,
    "тит": 4508,
    "народов": 4509,
    "НЕ@@": 4510,
    "Именно": 4511,
    "ниями": 4512,
    "соба@@": 4513,
    "Афгани@@": 4514,
    "метал@@": 4515,
    "проя@@": 4516,
    "моего": 4517,
    "минима@@": 4518,
    "выбро@@": 4519,
    "напи@@": 4520,
    "зависи@@": 4521,
    "чил": 4522,
    "щиеся": 4523,
    "бре": 4524,
    "чности": 4525,
    "тать": 4526,
    "представить": 4527,
    "КА@@": 4528,
    "соответствующие": 4529,
    "СО@@": 4530,
    "реализо@@": 4531,
    "Грузии": 4532,
    "хле@@": 4533,
    "начали": 4534,
    "расче@@": 4535,
    "казывать": 4536,
    "выста@@": 4537,
    "субъек@@": 4538,
    "создании": 4539,
    "рейтин@@": 4540,
    "мися": 4541,
    "разо@@": 4542,
    "чь@@": 4543,
    "пой": 4544,
    "миниму@@": 4545,
    "лок": 4546,
    "функциональ@@": 4547,
    "мыми": 4548,
    "езда": 4549,
    "вир@@": 4550,
    "лега@@": 4551,
    "буду": 4552,
    "оружи@@": 4553,
    "мероприятия": 4554,
    "борь@@": 4555,
    "платы": 4556,
    "отношению": 4557,
    "наконец": 4558,
    "тировать": 4559,
    "социальных": 4560,
    "знаний": 4561,
    "днее": 4562,
    "ваемых": 4563,
    "евро": 4564,
    "стую": 4565,
    "настолько": 4566,
    "осна@@": 4567,
    "час": 4568,
    "интеллектуаль@@": 4569,
    "электри@@": 4570,
    "потенциала": 4571,
    "хотят": 4572,
    "кам@@": 4573,
    "принадлежа@@": 4574,
    "правление": 4575,
    "измер@@": 4576,
    "поддерживает": 4577,
    "ья@@": 4578,
    "сцена@@": 4579,
    "противоре@@": 4580,
    "дополнительные": 4581,
    "словно": 4582,
    "обработки": 4583,
    "чая": 4584,
    "показыва@@": 4585,
    "распоря@@": 4586,
    "ционная": 4587,
    "страницы": 4588,
    "осве@@": 4589,
    "лекар@@": 4590,
    "препара@@": 4591,
    "пустить": 4592,
    "кризи@@": 4593,
    "194@@": 4594,
    "создавать": 4595,
    "конца": 4596,
    "компьютер": 4597,
    "зелен@@": 4598,
    "вну@@": 4599,
    "Среди": 4600,
    "Кри@@": 4601,
    "цифро@@": 4602,
    "функциони@@": 4603,
    "обеща@@": 4604,
    "надлежа@@": 4605,
    "w@@": 4606,
    "ситуация": 4607,
    "равно": 4608,
    "основной": 4609,
    "настоящего": 4610,
    "жизнен@@": 4611,
    "ation": 4612,
    "тип": 4613,
    "ряду": 4614,
    "луйста": 4615,
    "ваем": 4616,
    "испыты@@": 4617,
    "используются": 4618,
    "ид@@": 4619,
    "глуб@@": 4620,
    "мусуль@@": 4621,
    "сезо@@": 4622,
    "берите": 4623,
    "последних": 4624,
    "грес@@": 4625,
    "законодательства": 4626,
    "Con@@": 4627,
    "просмот@@": 4628,
    "удиви@@": 4629,
    "проз@@": 4630,
    "еся": 4631,
    "влено": 4632,
    "ol@@": 4633,
    "тение": 4634,
    "помни@@": 4635,
    "страна": 4636,
    "разрешения": 4637,
    "наше": 4638,
    "кризиса": 4639,
    "знания": 4640,
    "Китай": 4641,
    "ковых": 4642,
    "вызыва@@": 4643,
    "Аль@@": 4644,
    "тает": 4645,
    "считают": 4646,
    "основании": 4647,
    "методы": 4648,
    "логии": 4649,
    "ковые": 4650,
    "автомобилей": 4651,
    "нега@@": 4652,
    "Гор@@": 4653,
    "37": 4654,
    "сказали": 4655,
    "органы": 4656,
    "доно@@": 4657,
    "ыр@@": 4658,
    "сно@@": 4659,
    "наблюд@@": 4660,
    "Сред@@": 4661,
    "стр": 4662,
    "рю@@": 4663,
    "пом": 4664,
    "вающие": 4665,
    "бора@@": 4666,
    "февраля": 4667,
    "компьютера": 4668,
    "ПК": 4669,
    "служб": 4670,
    "программного": 4671,
    "обходи@@": 4672,
    "смогут": 4673,
    "расту@@": 4674,
    "моря": 4675,
    "Нью": 4676,
    "француз@@": 4677,
    "Руко@@": 4678,
    "забы@@": 4679,
    "видел": 4680,
    "Узбеки@@": 4681,
    "th@@": 4682,
    "is": 4683,
    "тариа@@": 4684,
    "ума": 4685,
    "просты@@": 4686,
    "прео@@": 4687,
    "отвер@@": 4688,
    "нашим": 4689,
    "приняли": 4690,
    "совета": 4691,
    "поддержке": 4692,
    "нтов": 4693,
    "льность": 4694,
    "рию": 4695,
    "отметить": 4696,
    "гене@@": 4697,
    "виды": 4698,
    "тельств": 4699,
    "любое": 4700,
    "ложение": 4701,
    "кет": 4702,
    "новения": 4703,
    "власть": 4704,
    "смы@@": 4705,
    "жиз@@": 4706,
    "вшим": 4707,
    "клады@@": 4708,
    "ur@@": 4709,
    "снизи@@": 4710,
    "встречи": 4711,
    "AS@@": 4712,
    "пяти": 4713,
    "проводить": 4714,
    "нашем": 4715,
    "вырази@@": 4716,
    "используя": 4717,
    "Президент": 4718,
    "ску@@": 4719,
    "наша": 4720,
    "интересов": 4721,
    "тном": 4722,
    "дильник": 4723,
    "активно": 4724,
    "тиях": 4725,
    "обмена": 4726,
    "защите": 4727,
    "рые": 4728,
    "каз@@": 4729,
    "документ": 4730,
    "Уни@@": 4731,
    "ющимся": 4732,
    "горя@@": 4733,
    "скор@@": 4734,
    "минутах": 4735,
    "Санкт": 4736,
    "носит": 4737,
    "влять": 4738,
    "видом": 4739,
    "срав@@": 4740,
    "крити@@": 4741,
    "li@@": 4742,
    "тила": 4743,
    "ЮНЕ@@": 4744,
    "результат": 4745,
    "пределах": 4746,
    "капитала": 4747,
    "сс@@": 4748,
    "би": 4749,
    "сможет": 4750,
    "поиска": 4751,
    "экспери@@": 4752,
    "воде": 4753,
    "Проек@@": 4754,
    "An@@": 4755,
    "предоставить": 4756,
    "лку": 4757,
    "38": 4758,
    "хозяйства": 4759,
    "привет@@": 4760,
    "бассей@@": 4761,
    "Запад@@": 4762,
    "слов": 4763,
    "след@@": 4764,
    "комиссии": 4765,
    "каналы": 4766,
    "сами@@": 4767,
    "запус@@": 4768,
    "ваясь": 4769,
    "Исто@@": 4770,
    "зарубе@@": 4771,
    "трени@@": 4772,
    "единенных": 4773,
    "Совет": 4774,
    "навы@@": 4775,
    "бар": 4776,
    "элементы": 4777,
    "телевид@@": 4778,
    "литера@@": 4779,
    "древ@@": 4780,
    "готовы": 4781,
    "беспровод@@": 4782,
    "осуществляется": 4783,
    "Израиля": 4784,
    "исследователь@@": 4785,
    "здоро@@": 4786,
    "дили": 4787,
    "следствие": 4788,
    "лями": 4789,
    "Откры@@": 4790,
    "ch@@": 4791,
    "снаб@@": 4792,
    "самоле@@": 4793,
    "Туа@@": 4794,
    "Тре@@": 4795,
    "сок": 4796,
    "плане": 4797,
    "модель": 4798,
    "вного": 4799,
    "средо@@": 4800,
    "продажи": 4801,
    "направлении": 4802,
    "мора@@": 4803,
    "ведо@@": 4804,
    "разгово@@": 4805,
    "пользу": 4806,
    "комп@@": 4807,
    "думать": 4808,
    "размер": 4809,
    "первом": 4810,
    "жду@@": 4811,
    "земе@@": 4812,
    "Ну": 4813,
    "регулирования": 4814,
    "двух@@": 4815,
    "ровано": 4816,
    "красо@@": 4817,
    "39": 4818,
    "ровая": 4819,
    "ar": 4820,
    "шением": 4821,
    "рована": 4822,
    "обязательств": 4823,
    "такими": 4824,
    "няет": 4825,
    "разум@@": 4826,
    "чики": 4827,
    "национального": 4828,
    "кун@@": 4829,
    "выбира@@": 4830,
    "рю": 4831,
    "любом": 4832,
    "изображения": 4833,
    "говорили": 4834,
    "сцен@@": 4835,
    "предложение": 4836,
    "наказа@@": 4837,
    "ждает": 4838,
    "вому": 4839,
    "Институ@@": 4840,
    "поможет": 4841,
    "отрица@@": 4842,
    "награ@@": 4843,
    "исполнитель@@": 4844,
    "экспертов": 4845,
    "зай@@": 4846,
    "порядка": 4847,
    "получать": 4848,
    "исключительно": 4849,
    "августа": 4850,
    "Ac@@": 4851,
    "Центральной": 4852,
    "распространения": 4853,
    "против@@": 4854,
    "конфигу@@": 4855,
    "зри@@": 4856,
    "После@@": 4857,
    "строительство": 4858,
    "):": 4859,
    "Еги@@": 4860,
    "ковь": 4861,
    "какое": 4862,
    "использует": 4863,
    "Иерусали@@": 4864,
    "указыва@@": 4865,
    "речь": 4866,
    "рам@@": 4867,
    "воздуш@@": 4868,
    "Пос@@": 4869,
    "рил": 4870,
    "сле": 4871,
    "рез": 4872,
    "приходится": 4873,
    "мия": 4874,
    "группе": 4875,
    "Тран@@": 4876,
    "деву@@": 4877,
    "ванный": 4878,
    "лам@@": 4879,
    "бок": 4880,
    "стива@@": 4881,
    "прось@@": 4882,
    "общи@@": 4883,
    "науки": 4884,
    "тания": 4885,
    "мужчин": 4886,
    "биологи@@": 4887,
    "контра@@": 4888,
    "вшиеся": 4889,
    "Благодаря": 4890,
    "Ад@@": 4891,
    "тельном": 4892,
    "упо@@": 4893,
    "резолю@@": 4894,
    "будто": 4895,
    "худ@@": 4896,
    "оправ@@": 4897,
    "Пор@@": 4898,
    "надеж@@": 4899,
    "компанией": 4900,
    "замести@@": 4901,
    "тепло@@": 4902,
    "музыка@@": 4903,
    "политику": 4904,
    "информи@@": 4905,
    "отель": 4906,
    "инструк@@": 4907,
    "шинство": 4908,
    "аген@@": 4909,
    "Беларуси": 4910,
    "W": 4911,
    "моно@@": 4912,
    "девя@@": 4913,
    "Зна@@": 4914,
    "щи": 4915,
    "теат@@": 4916,
    "скло@@": 4917,
    "заво@@": 4918,
    "Кто": 4919,
    "14@@": 4920,
    "распространен@@": 4921,
    "охраны": 4922,
    "дополнительных": 4923,
    "дискримина@@": 4924,
    "безопасность": 4925,
    "ассоциа@@": 4926,
    "сов@@": 4927,
    "сельскохозяй@@": 4928,
    "меч@@": 4929,
    "низации": 4930,
    "годов": 4931,
    "пусты@@": 4932,
    "пру@@": 4933,
    "искусства": 4934,
    "Центра@@": 4935,
    "темати@@": 4936,
    "приблизи@@": 4937,
    "оши@@": 4938,
    "вленных": 4939,
    "Союза": 4940,
    "поощ@@": 4941,
    "модер@@": 4942,
    "юри@@": 4943,
    "смерт@@": 4944,
    "нета": 4945,
    "функций": 4946,
    "пира@@": 4947,
    "сессии": 4948,
    "Председа@@": 4949,
    "H": 4950,
    "посы@@": 4951,
    "петен@@": 4952,
    "вшей": 4953,
    "приведен@@": 4954,
    "av@@": 4955,
    "министер@@": 4956,
    "делега@@": 4957,
    "верх": 4958,
    "Бес@@": 4959,
    "узнать": 4960,
    "сравни@@": 4961,
    "придется": 4962,
    "дальше": 4963,
    "бюро": 4964,
    "техники": 4965,
    "кабе@@": 4966,
    "выступи@@": 4967,
    "сан@@": 4968,
    "разреш@@": 4969,
    "опро@@": 4970,
    "дю@@": 4971,
    "учреждений": 4972,
    "специ@@": 4973,
    "Казахстан": 4974,
    "f": 4975,
    "грузо@@": 4976,
    "гумани@@": 4977,
    "шек": 4978,
    "Поли@@": 4979,
    "навли@@": 4980,
    "схе@@": 4981,
    "DVD": 4982,
    "ответ@@": 4983,
    "веро@@": 4984,
    "инжен@@": 4985,
    "внима@@": 4986,
    "v": 4987,
    "].": 4988,
    "комби@@": 4989,
    "зывать": 4990,
    "сажи@@": 4991,
    "органи@@": 4992,
    "рех": 4993,
    "лла": 4994,
    "1998": 4995,
    "сре@@": 4996,
    "купа@@": 4997,
    "Ch@@": 4998,
    "фото@@": 4999,
    "пах": 5000,
    "циони@@": 5001,
    "акаде@@": 5002,
    "джа@@": 5003,
    "Ц": 5004,
    "ia": 5005,
    "os@@": 5006,
    "учрежд@@": 5007,
    "долла@@": 5008,
    "циф@@": 5009,
    "принадле@@": 5010,
    "Миха@@": 5011,
    "le": 5012,
    "Exchange": 5013,
    "пала@@": 5014,
    "э": 5015,
    "Герма@@": 5016,
    "единен@@": 5017,
    "сматри@@": 5018,
    "щины": 5019,
    "мл@@": 5020,
    "Украи@@": 5021,
    "струк@@": 5022,
    "Ев@@": 5023,
    "III": 5024,
    "профес@@": 5025,
    "жде": 5026,
    "Гру@@": 5027,
    "баты@@": 5028,
    "фигу@@": 5029,
    "ap@@": 5030,
    "прин@@": 5031,
    "ed": 5032,
    "проти@@": 5033,
    "Вели@@": 5034,
    "дра": 5035,
    "75": 5036,
    "ВИ@@": 5037,
    "уя@@": 5038,
    "укра@@": 5039,
    "Office": 5040,
    "мол@@": 5041,
    "гром@@": 5042,
    "U": 5043,
    "IN@@": 5044,
    "гна@@": 5045,
    "to": 5046,
    ",@@": 5047,
    "рем": 5048,
    "лин": 5049,
    "ил": 5050,
    "Сы@@": 5051,
    "око@@": 5052,
    "сим@@": 5053,
    "располо@@": 5054,
    "64": 5055,
    "ML": 5056,
    "di@@": 5057,
    "Сою@@": 5058,
    "Никола@@": 5059,
    "проро@@": 5060,
    "досту@@": 5061,
    "продол@@": 5062,
    "z": 5063,
    "Сове@@": 5064,
    "вза@@": 5065,
    "мони@@": 5066,
    "at": 5067,
    "опти@@": 5068,
    "эксплу@@": 5069,
    "ou@@": 5070,
    "муж@@": 5071,
    ".).": 5072,
    "многи@@": 5073,
    "195@@": 5074,
    "терро@@": 5075,
    "мла@@": 5076,
    "муниципа@@": 5077,
    "множе@@": 5078,
    "CO@@": 5079,
    "Компа@@": 5080,
    "CD": 5081,
    "дека@@": 5082,
    "Иисуса": 5083,
    "ir@@": 5084,
    "es@@": 5085,
    "посред@@": 5086,
    "Ас@@": 5087,
    "тери": 5088,
    "демон@@": 5089,
    "Ше@@": 5090,
    "тех@@": 5091,
    "Бела@@": 5092,
    "ляр@@": 5093,
    "Ю": 5094,
    "эпи@@": 5095,
    "трах": 5096,
    "01": 5097,
    "le@@": 5098,
    "de": 5099,
    "цес@@": 5100,
    "рубе@@": 5101,
    "раи@@": 5102,
    "споко@@": 5103,
    "1990": 5104,
    "вли@@": 5105,
    "волю@@": 5106,
    "пример": 5107,
    "Bl@@": 5108,
    "AT@@": 5109,
    "ru": 5110,
    "Ex@@": 5111,
    "RE@@": 5112,
    "разнообраз@@": 5113,
    "приходи@@": 5114,
    "социа@@": 5115,
    "семь@@": 5116,
    "преж@@": 5117,
    "мери@@": 5118,
    "h": 5119,
    "мероприя@@": 5120,
    "СС@@": 5121,
    "Мини@@": 5122,
    "AP": 5123,
    "мпа@@": 5124,
    "лез@@": 5125,
    "ot@@": 5126,
    "ec@@": 5127,
    "55": 5128,
    "разно@@": 5129,
    "коно@@": 5130,
    "um": 5131,
    "мед@@": 5132,
    "48": 5133,
    "as": 5134,
    "42": 5135,
    "временно": 5136,
    "\\": 5137,
    "Ar@@": 5138,
    "Fi": 5139,
    "предела@@": 5140,
    "ональ@@": 5141,
    "Ma@@": 5142,
    "AR@@": 5143,
    "65": 5144,
    "ow@@": 5145,
    "ay": 5146,
    "Al@@": 5147,
    "сма@@": 5148,
    "обработ@@": 5149,
    "щ": 5150,
    "мите": 5151,
    "кин@@": 5152,
    "хла@@": 5153,
    "://": 5154,
    "MS": 5155,
    "En@@": 5156,
    "si@@": 5157,
    "Израиль": 5158,
    "\")": 5159,
    "сей@@": 5160,
    "мани@@": 5161,
    "рабочи@@": 5162,
    "ав@@": 5163,
    "Y": 5164,
    "яза@@": 5165,
    "AN@@": 5166,
    "?\"": 5167,
    "op@@": 5168,
    "сут@@": 5169,
    "ard": 5170,
    "заключа@@": 5171,
    "ER@@": 5172,
    "ul@@": 5173,
    "ra@@": 5174,
    "Li@@": 5175,
    "44": 5176,
    ".),": 5177,
    "зя@@": 5178,
    "http": 5179,
    "age": 5180,
    "Web": 5181,
    "1997": 5182,
    "лее": 5183,
    "жмите": 5184,
    "lo@@": 5185,
    "упра@@": 5186,
    "Google": 5187,
    "меха@@": 5188,
    "ави@@": 5189,
    "or": 5190,
    "фра@@": 5191,
    "пример@@": 5192,
    "SP@@": 5193,
    "Pro@@": 5194,
    "the": 5195,
    "HT@@": 5196,
    "IC@@": 5197,
    "кура@@": 5198,
    "<": 5199,
    "400": 5200,
    "личе@@": 5201,
    "осуще@@": 5202,
    "Pl@@": 5203,
    "41": 5204,
    "низа@@": 5205,
    "43": 5206,
    "ферен@@": 5207,
    "быст@@": 5208,
    "95": 5209,
    "tr@@": 5210,
    "вро@@": 5211,
    "проф@@": 5212,
    "настрой@@": 5213,
    "нова@@": 5214,
    "ho@@": 5215,
    "финан@@": 5216,
    "семе@@": 5217,
    "люд@@": 5218,
    "зопас@@": 5219,
    "No@@": 5220,
    "Wi": 5221,
    "министра@@": 5222,
    "Mar@@": 5223,
    "рекомен@@": 5224,
    "ers": 5225,
    "емы@@": 5226,
    "2013": 5227,
    "столько": 5228,
    "особ@@": 5229,
    "Чу@@": 5230,
    "матери@@": 5231,
    "Ие@@": 5232,
    "непосред@@": 5233,
    "Рос@@": 5234,
    "Ор@@": 5235,
    "Сей@@": 5236,
    "qu@@": 5237,
    "предо@@": 5238,
    "бай@@": 5239,
    "ter": 5240,
    "ex@@": 5241,
    "гут": 5242,
    "обес@@": 5243,
    "ник@@": 5244,
    "зульта@@": 5245,
    "ent": 5246,
    "нологи@@": 5247,
    "Мои@@": 5248,
    "Ген@@": 5249,
    "ut@@": 5250,
    "наб@@": 5251,
    "USB": 5252,
    "верен@@": 5253,
    "Par@@": 5254,
    "Вла@@": 5255,
    "56": 5256,
    "Su@@": 5257,
    "тен": 5258,
    "деятель@@": 5259,
    "мана": 5260,
    "смотрен@@": 5261,
    "1996": 5262,
    "даль@@": 5263,
    "1995": 5264,
    "тр@@": 5265,
    "Mo@@": 5266,
    "150": 5267,
    "1000": 5268,
    "Конвен@@": 5269,
    "ell": 5270,
    "im@@": 5271,
    "консу@@": 5272,
    "ректо@@": 5273,
    "комен@@": 5274,
    "Сан@@": 5275,
    "апре@@": 5276,
    "ter@@": 5277,
    "религи@@": 5278,
    "ii": 5279,
    "ent@@": 5280,
    "несколь@@": 5281,
    "PS": 5282,
    "Алексей": 5283,
    "200@@": 5284,
    "деб@@": 5285,
    "ad": 5286,
    "49": 5287,
    "исследова@@": 5288,
    "рд": 5289,
    "02": 5290,
    "кономи@@": 5291,
    "лла@@": 5292,
    "RA@@": 5293,
    "мерикан@@": 5294,
    "IP@@": 5295,
    "ера@@": 5296,
    "Ху@@": 5297,
    "прак@@": 5298,
    "pl@@": 5299,
    "токо@@": 5300,
    "ev@@": 5301,
    "De@@": 5302,
    "сем": 5303,
    "эко@@": 5304,
    "ноя@@": 5305,
    "um@@": 5306,
    "__@@": 5307,
    "медлен@@": 5308,
    "сь@@": 5309,
    "51": 5310,
    "46": 5311,
    "ID@@": 5312,
    "!\"": 5313,
    "люда@@": 5314,
    "характери@@": 5315,
    "террито@@": 5316,
    "52": 5317,
    "праз@@": 5318,
    "рат@@": 5319,
    "дется": 5320,
    "=": 5321,
    "-@@": 5322,
    "NE@@": 5323,
    "12@@": 5324,
    "Q@@": 5325,
    "ch": 5326,
    "Sy@@": 5327,
    "Христо@@": 5328,
    "Мно@@": 5329,
    "RO@@": 5330,
    "читы@@": 5331,
    "изне@@": 5332,
    "Укра@@": 5333,
    "демо@@": 5334,
    "ed@@": 5335,
    "имо@@": 5336,
    "Wor@@": 5337,
    "авгу@@": 5338,
    "OS": 5339,
    "Ad@@": 5340,
    "кин": 5341,
    "рую": 5342,
    "47": 5343,
    "цени@@": 5344,
    "am": 5345,
    "ing@@": 5346,
    "Сле@@": 5347,
    "кер": 5348,
    "стоян@@": 5349,
    "us@@": 5350,
    "Linux": 5351,
    "For@@": 5352,
    "54": 5353,
    "tion": 5354,
    "план@@": 5355,
    "85": 5356,
    "попу@@": 5357,
    "53": 5358,
    "ay@@": 5359,
    "Ман@@": 5360,
    "do@@": 5361,
    "ak@@": 5362,
    "ID": 5363,
    "1992": 5364,
    "de@@": 5365,
    "ate": 5366,
    "],": 5367,
    "друго@@": 5368,
    "Pr@@": 5369,
    "AP@@": 5370,
    "800": 5371,
    "ура@@": 5372,
    "IX": 5373,
    "сили@@": 5374,
    "TP": 5375,
    "AM@@": 5376,
    "99": 5377,
    "вара": 5378,
    "Иу@@": 5379,
    "сю@@": 5380,
    "Гер@@": 5381,
    "ST@@": 5382,
    "MP@@": 5383,
    "/@@": 5384,
    "ногда": 5385,
    "id@@": 5386,
    "600": 5387,
    "февра@@": 5388,
    "ап@@": 5389,
    "te@@": 5390,
    "Net@@": 5391,
    "пят@@": 5392,
    "рят": 5393,
    "кризис@@": 5394,
    "it": 5395,
    ":@@": 5396,
    "09": 5397,
    "циа@@": 5398,
    "Услу@@": 5399,
    "and@@": 5400,
    "Sp@@": 5401,
    "ine": 5402,
    "UR@@": 5403,
    "хозя@@": 5404,
    "vi@@": 5405,
    "XP": 5406,
    "IS": 5407,
    "ve": 5408,
    "Com@@": 5409,
    "храня@@": 5410,
    "янва@@": 5411,
    "здо@@": 5412,
    "ill@@": 5413,
    "правед@@": 5414,
    "Me@@": 5415,
    "IT@@": 5416,
    "ись": 5417,
    "Том": 5418,
    "IB@@": 5419,
    "05": 5420,
    "торгов@@": 5421,
    "ьми": 5422,
    "Qu@@": 5423,
    "кус@@": 5424,
    "исключи@@": 5425,
    "мышлен@@": 5426,
    "1991": 5427,
    "07": 5428,
    "­": 5429,
    "медици@@": 5430,
    "58": 5431,
    "1993": 5432,
    "1994": 5433,
    "08": 5434,
    "°": 5435,
    "oo@@": 5436,
    "Direc@@": 5437,
    "06": 5438,
    "бя": 5439,
    "буд@@": 5440,
    "энер@@": 5441,
    "зиден@@": 5442,
    "57": 5443,
    "Алек@@": 5444,
    "Internet": 5445,
    "be": 5446,
    "ts": 5447,
    "буде@@": 5448,
    "PC": 5449,
    "каде@@": 5450,
    "SharePoint": 5451,
    "%)": 5452,
    "эф@@": 5453,
    "ver@@": 5454,
    "AC@@": 5455,
    "ack@@": 5456,
    "чах": 5457,
    "неш@@": 5458,
    "EC@@": 5459,
    "полнитель@@": 5460,
    "дале@@": 5461,
    "est@@": 5462,
    "org": 5463,
    "30@@": 5464,
    "лли": 5465,
    "СР": 5466,
    "98": 5467,
    "осво@@": 5468,
    "62": 5469,
    "молча@@": 5470,
    "HP": 5471,
    "руко@@": 5472,
    "дина@@": 5473,
    "Ч": 5474,
    "for": 5475,
    "лта@@": 5476,
    "Group": 5477,
    "Sh@@": 5478,
    "250": 5479,
    "'.": 5480,
    "лицен@@": 5481,
    "эро@@": 5482,
    "боле@@": 5483,
    "der": 5484,
    "…@@": 5485,
    "больш@@": 5486,
    "sp@@": 5487,
    "IV": 5488,
    ">@@": 5489,
    "all@@": 5490,
    "круг": 5491,
    "преду@@": 5492,
    "+@@": 5493,
    "тан": 5494,
    "втра@@": 5495,
    "ню@@": 5496,
    "Каза@@": 5497,
    "перио@@": 5498,
    "ista": 5499,
    "ds": 5500,
    "ig@@": 5501,
    "Po@@": 5502,
    "ite": 5503,
    "te": 5504,
    "se": 5505,
    "Intel": 5506,
    "окон@@": 5507,
    "Di@@": 5508,
    "net": 5509,
    "рее": 5510,
    "будь": 5511,
    "Outlook": 5512,
    "Госпо@@": 5513,
    "IM@@": 5514,
    "дера@@": 5515,
    "макси@@": 5516,
    "помощ@@": 5517,
    "Ro@@": 5518,
    "@": 5519,
    "регистри@@": 5520,
    "кер@@": 5521,
    "az@@": 5522,
    "Apple": 5523,
    "теля@@": 5524,
    "май@@": 5525,
    "]@@": 5526,
    "Q": 5527,
    "dio": 5528,
    "SC@@": 5529,
    "International": 5530,
    "Cl@@": 5531,
    "AD@@": 5532,
    "зербайджа@@": 5533,
    "рет": 5534,
    "Благо@@": 5535,
    "льта@@": 5536,
    "ближа@@": 5537,
    "EN@@": 5538,
    "Vis@@": 5539,
    "SE@@": 5540,
    "',": 5541,
    "se@@": 5542,
    "co": 5543,
    "протя@@": 5544,
    "Mon@@": 5545,
    "ber@@": 5546,
    "Manager": 5547,
    "Fl@@": 5548,
    "кир@@": 5549,
    "Bo@@": 5550,
    "MS@@": 5551,
    "tive": 5552,
    "SS": 5553,
    "ук@@": 5554,
    "AL@@": 5555,
    "To@@": 5556,
    "праведли@@": 5557,
    "sh@@": 5558,
    "Win@@": 5559,
    "AN": 5560,
    "проду@@": 5561,
    "ore@@": 5562,
    "Stu@@": 5563,
    "шком": 5564,
    "ell@@": 5565,
    "US": 5566,
    "hi@@": 5567,
    "iz@@": 5568,
    "конф@@": 5569,
    "ини@@": 5570,
    "два@@": 5571,
    "la@@": 5572,
    "son": 5573,
    "сса": 5574,
    "росси@@": 5575,
    "US@@": 5576,
    "AC": 5577,
    "Services": 5578,
    "·": 5579,
    "AS": 5580,
    "ориен@@": 5581,
    "чрез@@": 5582,
    "мот@@": 5583,
    "ств@@": 5584,
    "au@@": 5585,
    "Fi@@": 5586,
    "”@@": 5587,
    "str@@": 5588,
    "рите": 5589,
    "Th@@": 5590,
    "”.": 5591,
    "регу@@": 5592,
    "to@@": 5593,
    "gr@@": 5594,
    "pe@@": 5595,
    "ru@@": 5596,
    "Phone": 5597,
    "uc@@": 5598,
    "Cor@@": 5599,
    "ge": 5600,
    "ence": 5601,
    "ual": 5602,
    "кан": 5603,
    "mail": 5604,
    "tory": 5605,
    "ob@@": 5606,
    "ha@@": 5607,
    "NS": 5608,
    "сколь@@": 5609,
    "®": 5610,
    "page": 5611,
    "ї": 5612,
    "разу": 5613,
    "евро@@": 5614,
    "CP": 5615,
    "пей@@": 5616,
    "oc@@": 5617,
    "ash": 5618,
    "Lo@@": 5619,
    "дово@@": 5620,
    "book": 5621,
    "J": 5622,
    "день@@": 5623,
    "МИ": 5624,
    "хорош@@": 5625,
    "We@@": 5626,
    "ир@@": 5627,
    "Иису@@": 5628,
    "od": 5629,
    "ess@@": 5630,
    "ER": 5631,
    "Ь@@": 5632,
    "----@@": 5633,
    "ity": 5634,
    "est": 5635,
    "all": 5636,
    "кумен@@": 5637,
    "SS@@": 5638,
    "после@@": 5639,
    "ment": 5640,
    "pro@@": 5641,
    "Гос@@": 5642,
    "Tr@@": 5643,
    "dia": 5644,
    "su@@": 5645,
    "ance": 5646,
    "UN@@": 5647,
    "стати@@": 5648,
    "per@@": 5649,
    "Or@@": 5650,
    "AB@@": 5651,
    "оне": 5652,
    "ai@@": 5653,
    "ore": 5654,
    "ub@@": 5655,
    "ьер": 5656,
    "are": 5657,
    "поддер@@": 5658,
    "IT": 5659,
    "муни@@": 5660,
    "здравоо@@": 5661,
    "ун": 5662,
    "Vi@@": 5663,
    "”,": 5664,
    "id": 5665,
    "PC@@": 5666,
    "Le@@": 5667,
    "Si@@": 5668,
    "ене": 5669,
    "ast@@": 5670,
    "IF@@": 5671,
    "Exc@@": 5672,
    "™": 5673,
    "OR@@": 5674,
    "co@@": 5675,
    "SO@@": 5676,
    "фран@@": 5677,
    "Expl@@": 5678,
    "ace": 5679,
    "Wi@@": 5680,
    "ue": 5681,
    "ce": 5682,
    "самы@@": 5683,
    "ждан@@": 5684,
    "изи@@": 5685,
    "sion": 5686,
    "ker": 5687,
    "Кро@@": 5688,
    "ov@@": 5689,
    "Col@@": 5690,
    "ордина@@": 5691,
    "Z": 5692,
    "Res@@": 5693,
    "TV": 5694,
    "mar@@": 5695,
    "снов@@": 5696,
    "res@@": 5697,
    "ph@@": 5698,
    "Per@@": 5699,
    "IA": 5700,
    "резо@@": 5701,
    "gi@@": 5702,
    "ep@@": 5703,
    "менно": 5704,
    "ure": 5705,
    "LE@@": 5706,
    "cri@@": 5707,
    "Be@@": 5708,
    "New": 5709,
    "DE@@": 5710,
    "Dis@@": 5711,
    "Op@@": 5712,
    "Co@@": 5713,
    "понен@@": 5714,
    "po@@": 5715,
    "one": 5716,
    "ew@@": 5717,
    "bi@@": 5718,
    "гря@@": 5719,
    "ne@@": 5720,
    "каш@@": 5721,
    "интересо@@": 5722,
    "ай@@": 5723,
    "ren@@": 5724,
    "os": 5725,
    "Gu@@": 5726,
    "pe": 5727,
    "мага@@": 5728,
    "ks": 5729,
    "ack": 5730,
    "\\@@": 5731,
    "our@@": 5732,
    "суль@@": 5733,
    "вил@@": 5734,
    "ic": 5735,
    "лько": 5736,
    "tor": 5737,
    "ach@@": 5738,
    "World": 5739,
    "экспе@@": 5740,
    "[@@": 5741,
    "конку@@": 5742,
    "здра@@": 5743,
    "ft": 5744,
    "сур@@": 5745,
    "w": 5746,
    "ther@@": 5747,
    "ot": 5748,
    "by": 5749,
    "€": 5750,
    "ton": 5751,
    "ital": 5752,
    "Au@@": 5753,
    "AT": 5754,
    "ase": 5755,
    "ci@@": 5756,
    "bo@@": 5757,
    "RC": 5758,
    "pt": 5759,
    "mo@@": 5760,
    "ony": 5761,
    "блиоте@@": 5762,
    "ki@@": 5763,
    "Ж": 5764,
    "рито@@": 5765,
    "ps": 5766,
    "Am@@": 5767,
    "печат@@": 5768,
    "ана@@": 5769,
    "man": 5770,
    "стойчи@@": 5771,
    "port": 5772,
    "ooth": 5773,
    "вш@@": 5774,
    "IO@@": 5775,
    "IN": 5776,
    "........@@": 5777,
    "Орга@@": 5778,
    "Ђ@@": 5779,
    "th": 5780,
    "no@@": 5781,
    "ff@@": 5782,
    "Car@@": 5783,
    "лле": 5784,
    "ly": 5785,
    "аэро@@": 5786,
    "ies": 5787,
    "Comp@@": 5788,
    "вмест@@": 5789,
    "MO@@": 5790,
    "кно@@": 5791,
    ",\"": 5792,
    "der@@": 5793,
    "ass@@": 5794,
    "рать": 5795,
    "ool": 5796,
    "Tim@@": 5797,
    "Aut@@": 5798,
    "бас@@": 5799,
    "up": 5800,
    "PO@@": 5801,
    "места@@": 5802,
    "con@@": 5803,
    "Rec@@": 5804,
    "IE@@": 5805,
    "поряд@@": 5806,
    "ati@@": 5807,
    "Se@@": 5808,
    "Inter@@": 5809,
    "поку@@": 5810,
    "ort": 5811,
    "ail": 5812,
    "be@@": 5813,
    "man@@": 5814,
    "’": 5815,
    "bu@@": 5816,
    "System": 5817,
    "'@@": 5818,
    "Sol@@": 5819,
    "ve@@": 5820,
    "Ap@@": 5821,
    "My@@": 5822,
    "line": 5823,
    "enti@@": 5824,
    "ES": 5825,
    "ist@@": 5826,
    "com@@": 5827,
    "gh@@": 5828,
    "ису@@": 5829,
    "интеллек@@": 5830,
    "оче@@": 5831,
    "for@@": 5832,
    "Sam@@": 5833,
    "Un@@": 5834,
    "Sch@@": 5835,
    "пла": 5836,
    "om": 5837,
    "ings": 5838,
    "суаль@@": 5839,
    "кая@@": 5840,
    "Sof@@": 5841,
    "Im@@": 5842,
    "ens": 5843,
    "Access": 5844,
    "фей@@": 5845,
    "публико@@": 5846,
    "Te@@": 5847,
    "Management": 5848,
    "§": 5849,
    "ner": 5850,
    "USD": 5851,
    "tu@@": 5852,
    "we@@": 5853,
    "obile": 5854,
    "Fre@@": 5855,
    "ty": 5856,
    "Sk@@": 5857,
    "ud@@": 5858,
    "ry": 5859,
    "gu@@": 5860,
    "ics": 5861,
    "Add": 5862,
    "On@@": 5863,
    "Gr@@": 5864,
    "Bu@@": 5865,
    "ron@@": 5866,
    "CE@@": 5867,
    "ъек@@": 5868,
    "AL": 5869,
    "Business": 5870,
    "Fin@@": 5871,
    "ware": 5872,
    "tic@@": 5873,
    "ver": 5874,
    "web": 5875,
    "ber": 5876,
    "ame": 5877,
    "Ph@@": 5878,
    "coo@@": 5879,
    "UR": 5880,
    "седа@@": 5881,
    "приори@@": 5882,
    "pen@@": 5883,
    "прибли@@": 5884,
    "ric@@": 5885,
    "pr@@": 5886,
    "LO@@": 5887,
    "Center": 5888,
    "Bank": 5889,
    "Uni@@": 5890,
    "ke": 5891,
    "ey": 5892,
    "por@@": 5893,
    "пат@@": 5894,
    "лар@@": 5895,
    "IC": 5896,
    "кото@@": 5897,
    "press": 5898,
    "плу@@": 5899,
    "ile": 5900,
    "fi@@": 5901,
    "ill": 5902,
    "ME@@": 5903,
    "TE@@": 5904,
    "king": 5905,
    "TR@@": 5906,
    "ice": 5907,
    "Nor@@": 5908,
    "me": 5909,
    "Point": 5910,
    "гда": 5911,
    "уще@@": 5912,
    "he@@": 5913,
    "eri@@": 5914,
    "TS": 5915,
    "Pi@@": 5916,
    "CH@@": 5917,
    "сона@@": 5918,
    "mi@@": 5919,
    "Service": 5920,
    "воо@@": 5921,
    "ate@@": 5922,
    "Ri@@": 5923,
    "ator": 5924,
    "Cap@@": 5925,
    "ллек@@": 5926,
    "Fore@@": 5927,
    "Cre@@": 5928,
    "sch@@": 5929,
    "кала@@": 5930,
    "ick@@": 5931,
    "end@@": 5932,
    "New@@": 5933,
    "ari@@": 5934,
    "Hotel": 5935,
    "Hol@@": 5936,
    "льзя": 5937,
    "min@@": 5938,
    "dge": 5939,
    "Met@@": 5940,
    "lan@@": 5941,
    "Stre@@": 5942,
    "Fr@@": 5943,
    "удовле@@": 5944,
    "ain": 5945,
    "UNE@@": 5946,
    "Pan@@": 5947,
    "ran@@": 5948,
    "Ш": 5949,
    "Vol@@": 5950,
    "ьше": 5951,
    "блей": 5952,
    "ain@@": 5953,
    "Trans@@": 5954,
    "внут@@": 5955,
    "Нико@@": 5956,
    "Ver@@": 5957,
    "Pal@@": 5958,
    "out@@": 5959,
    "af@@": 5960,
    "Security": 5961,
    "ire": 5962,
    "индивиду@@": 5963,
    "Fil@@": 5964,
    "иму@@": 5965,
    "me@@": 5966,
    "Ste@@": 5967,
    "Pre@@": 5968,
    "ade": 5969,
    "ik@@": 5970,
    "box": 5971,
    "Dat@@": 5972,
    "work": 5973,
    "sy@@": 5974,
    "Ge@@": 5975,
    "элек@@": 5976,
    "km": 5977,
    "ant": 5978,
    "He@@": 5979,
    "Gre@@": 5980,
    "onal": 5981,
    "st": 5982,
    "mm": 5983,
    "fig@@": 5984,
    "ory": 5985,
    "du@@": 5986,
    "рас": 5987,
    "go@@": 5988,
    "able": 5989,
    "ant@@": 5990,
    "sun@@": 5991,
    "#": 5992,
    "ni@@": 5993,
    "da": 5994,
    "ans@@": 5995,
    "ace@@": 5996,
    "Cam@@": 5997,
    "●": 5998,
    "za": 5999,
    "ta": 6000,
    "oun@@": 6001,
    "ail@@": 6002,
    "_": 6003,
    "wi@@": 6004,
    "par@@": 6005,
    "„": 6006,
    "dro@@": 6007,
    "Jo@@": 6008,
    "tel": 6009,
    "la": 6010,
    ";@@": 6011,
    "IL@@": 6012,
    "Del@@": 6013,
    "den": 6014,
    "Techn@@": 6015,
    "per": 6016,
    "ka": 6017,
    "Ab@@": 6018,
    "ast": 6019,
    "Sec@@": 6020,
    "мар": 6021,
    "land": 6022,
    "Por@@": 6023,
    "■": 6024,
    "ino": 6025,
    "ina": 6026,
    "ary": 6027,
    "лень@@": 6028,
    "IG@@": 6029,
    "обще": 6030,
    "dition": 6031,
    "size": 6032,
    "fo@@": 6033,
    "As@@": 6034,
    "ул@@": 6035,
    "re": 6036,
    "pp@@": 6037,
    "ge@@": 6038,
    "ear@@": 6039,
    "//": 6040,
    "prise": 6041,
    "Ob@@": 6042,
    "ик@@": 6043,
    "tware": 6044,
    "Pri@@": 6045,
    "ten@@": 6046,
    "ick": 6047,
    "SC": 6048,
    "Rem@@": 6049,
    "<@@": 6050,
    "uration": 6051,
    "ow": 6052,
    "old": 6053,
    "go": 6054,
    "sk@@": 6055,
    "ey@@": 6056,
    "Ber@@": 6057,
    "ost": 6058,
    "int@@": 6059,
    "ide@@": 6060,
    "ress": 6061,
    "Data": 6062,
    "ong": 6063,
    "int": 6064,
    "Do@@": 6065,
    "Bi@@": 6066,
    "q": 6067,
    "so@@": 6068,
    "mon@@": 6069,
    "ger": 6070,
    "Ag@@": 6071,
    "anc@@": 6072,
    "AG@@": 6073,
    "ime": 6074,
    "Ser@@": 6075,
    "ting": 6076,
    "ler": 6077,
    "Mul@@": 6078,
    "Man@@": 6079,
    "avi@@": 6080,
    "NO@@": 6081,
    "ti": 6082,
    "ome": 6083,
    "Des@@": 6084,
    "are@@": 6085,
    "ale": 6086,
    "ai": 6087,
    "Project": 6088,
    "he": 6089,
    "Str@@": 6090,
    "Oper@@": 6091,
    "ub": 6092,
    "смотря": 6093,
    "кай@@": 6094,
    "ath": 6095,
    "−": 6096,
    "сан": 6097,
    "our": 6098,
    "j": 6099,
    "ei@@": 6100,
    "Set@@": 6101,
    "Ne@@": 6102,
    "Elec@@": 6103,
    "ley": 6104,
    "El@@": 6105,
    "=@@": 6106,
    "уса@@": 6107,
    "ro": 6108,
    "Lu@@": 6109,
    "out": 6110,
    "each": 6111,
    "do": 6112,
    "ayer": 6113,
    "q@@": 6114,
    "DV@@": 6115,
    "Air@@": 6116,
    "оск@@": 6117,
    "квар@@": 6118,
    "зя": 6119,
    "зис@@": 6120,
    "ations": 6121,
    "err@@": 6122,
    "bl@@": 6123,
    "франц@@": 6124,
    "Аф@@": 6125,
    "~": 6126,
    "Nov@@": 6127,
    "DP": 6128,
    "il": 6129,
    "Val@@": 6130,
    "So@@": 6131,
    "ding": 6132,
    "ake": 6133,
    "mer@@": 6134,
    "ook": 6135,
    "Min@@": 6136,
    "Gol@@": 6137,
    "up@@": 6138,
    "sc@@": 6139,
    "ical": 6140,
    "cl@@": 6141,
    "br@@": 6142,
    "пур": 6143,
    "ir": 6144,
    "Can@@": 6145,
    "цеду@@": 6146,
    "ult": 6147,
    "fin@@": 6148,
    "act": 6149,
    "Wh@@": 6150,
    "Red": 6151,
    "Bar@@": 6152,
    "ouble": 6153,
    "aw@@": 6154,
    "Har@@": 6155,
    "tions": 6156,
    "ple": 6157,
    "View": 6158,
    "Pet@@": 6159,
    "Appl@@": 6160,
    "Чуваш@@": 6161,
    "тата": 6162,
    "мец@@": 6163,
    "Global": 6164,
    "виду@@": 6165,
    "Коне@@": 6166,
    "Lin@@": 6167,
    "nam@@": 6168,
    "att@@": 6169,
    "ars": 6170,
    "Mi@@": 6171,
    "ry@@": 6172,
    "кримина@@": 6173,
    "Ty@@": 6174,
    "Sup@@": 6175,
    "tic": 6176,
    "ностран@@": 6177,
    "row@@": 6178,
    "amework": 6179,
    "простра@@": 6180,
    "ites": 6181,
    "dy": 6182,
    "$@@": 6183,
    "надле@@": 6184,
    "ys@@": 6185,
    "ower": 6186,
    "ke@@": 6187,
    "Mic@@": 6188,
    "In": 6189,
    "vo@@": 6190,
    "ass": 6191,
    "Stand@@": 6192,
    "ili@@": 6193,
    "fe@@": 6194,
    "ang@@": 6195,
    "ang": 6196,
    "путе@@": 6197,
    "gn@@": 6198,
    "form@@": 6199,
    "erc@@": 6200,
    "і@@": 6201,
    "lin@@": 6202,
    "les": 6203,
    ".”": 6204,
    "partner": 6205,
    "ex": 6206,
    "ak": 6207,
    "Up@@": 6208,
    "Sal@@": 6209,
    "отри@@": 6210,
    "ication": 6211,
    "Pol@@": 6212,
    "пин": 6213,
    "май": 6214,
    "tel@@": 6215,
    "stems": 6216,
    "har@@": 6217,
    "ave": 6218,
    "жур@@": 6219,
    "ology": 6220,
    "Ti@@": 6221,
    "Fe@@": 6222,
    "sw@@": 6223,
    "сак@@": 6224,
    "fl@@": 6225,
    "Prof@@": 6226,
    "nec@@": 6227,
    "\u0007": 6228,
    "Pe@@": 6229,
    "Her@@": 6230,
    "шне": 6231,
    "aster": 6232,
    "art": 6233,
    "хся": 6234,
    "Нес@@": 6235,
    "ket": 6236,
    "dit": 6237,
    "au": 6238,
    "ma@@": 6239,
    "ect": 6240,
    "cre@@": 6241,
    "One": 6242,
    "ord@@": 6243,
    "ax": 6244,
    "way": 6245,
    "ink": 6246,
    "hn@@": 6247,
    "ons": 6248,
    "ech": 6249,
    "ma": 6250,
    "els": 6251,
    "City": 6252,
    "торин@@": 6253,
    "port@@": 6254,
    "ess": 6255,
    "Foundation": 6256,
    "Commun@@": 6257,
    "трудни@@": 6258,
    "ght": 6259,
    "top": 6260,
    "ans": 6261,
    "ana": 6262,
    "Mor@@": 6263,
    "res": 6264,
    "op": 6265,
    "ga": 6266,
    "OR": 6267,
    "пур@@": 6268,
    "«@@": 6269,
    "eng@@": 6270,
    "als": 6271,
    "Gar@@": 6272,
    "–@@": 6273,
    "tion@@": 6274,
    "ki": 6275,
    "ff": 6276,
    "York": 6277,
    "Loc@@": 6278,
    "199@@": 6279,
    "ven@@": 6280,
    "un": 6281,
    "sid@@": 6282,
    "essi@@": 6283,
    "Bal@@": 6284,
    "Br@@": 6285,
    "wh@@": 6286,
    "сист@@": 6287,
    "ur": 6288,
    "dis@@": 6289,
    "ates": 6290,
    "Sm@@": 6291,
    "Eng@@": 6292,
    "кате@@": 6293,
    "tics": 6294,
    "rec@@": 6295,
    "va": 6296,
    "No": 6297,
    "Company": 6298,
    "Bri@@": 6299,
    "ача@@": 6300,
    "ser@@": 6301,
    "ky": 6302,
    "движи@@": 6303,
    "part@@": 6304,
    "House": 6305,
    "Euro@@": 6306,
    "шут@@": 6307,
    "nal": 6308,
    "mp@@": 6309,
    "....@@": 6310,
    "ne": 6311,
    "na": 6312,
    "eli@@": 6313,
    "Is@@": 6314,
    "сси": 6315,
    "ated": 6316,
    "Dr": 6317,
    "asi@@": 6318,
    "Sim@@": 6319,
    "Med@@": 6320,
    "прог@@": 6321,
    "onic": 6322,
    "ek": 6323,
    "cont@@": 6324,
    "ols": 6325,
    "At@@": 6326,
    "cor@@": 6327,
    "ash@@": 6328,
    "ION": 6329,
    "Air": 6330,
    "ine@@": 6331,
    "General": 6332,
    "роприя@@": 6333,
    "ited": 6334,
    "enc@@": 6335,
    "ls": 6336,
    "han@@": 6337,
    "ster": 6338,
    "лаго@@": 6339,
    "ove": 6340,
    "od@@": 6341,
    "ms": 6342,
    "ery": 6343,
    "ap": 6344,
    "Tur@@": 6345,
    "Mem@@": 6346,
    "Inv@@": 6347,
    "tra": 6348,
    "ly@@": 6349,
    "ist": 6350,
    "Mat@@": 6351,
    "very": 6352,
    "tec@@": 6353,
    "jec@@": 6354,
    "терна@@": 6355,
    "инве@@": 6356,
    "ste@@": 6357,
    "ser": 6358,
    "ere": 6359,
    "TH@@": 6360,
    "fer@@": 6361,
    "ood": 6362,
    "era": 6363,
    "win@@": 6364,
    "ust": 6365,
    "ef@@": 6366,
    "del": 6367,
    "ative": 6368,
    "ut": 6369,
    "elec@@": 6370,
    "Em@@": 6371,
    "Doc@@": 6372,
    "etc": 6373,
    "end": 6374,
    "ement": 6375,
    "University": 6376,
    "Hi@@": 6377,
    "wit@@": 6378,
    "ture": 6379,
    "Tel@@": 6380,
    "Micro@@": 6381,
    "ich": 6382,
    "National": 6383,
    "pa@@": 6384,
    "lis@@": 6385,
    "itor": 6386,
    "→": 6387,
    "даря": 6388,
    "can@@": 6389,
    "○": 6390,
    "ty@@": 6391,
    "que": 6392,
    "ock": 6393,
    "ext": 6394,
    "ada": 6395,
    "™@@": 6396,
    "date": 6397,
    "Ta@@": 6398,
    "inf@@": 6399,
    "Saf@@": 6400,
    "MEN@@": 6401,
    "ъ": 6402,
    "рах@@": 6403,
    "дида@@": 6404,
    "pre@@": 6405,
    "Europe": 6406,
    "ysis": 6407,
    "pol@@": 6408,
    "ert": 6409,
    "dr@@": 6410,
    "ann@@": 6411,
    "air@@": 6412,
    "GO@@": 6413,
    "time": 6414,
    "ted": 6415,
    "fe": 6416,
    "col@@": 6417,
    "asic": 6418,
    "Go@@": 6419,
    "ith": 6420,
    "ents": 6421,
    "Ci@@": 6422,
    "солю@@": 6423,
    "wor@@": 6424,
    "so": 6425,
    "une": 6426,
    "low@@": 6427,
    "Out@@": 6428,
    "Fran@@": 6429,
    "Control": 6430,
    "micro@@": 6431,
    "United": 6432,
    "Research": 6433,
    "can": 6434,
    "Russian": 6435,
    "ini@@": 6436,
    "boo@@": 6437,
    "art@@": 6438,
    "anced": 6439,
    "American": 6440,
    "ep": 6441,
    "ble": 6442,
    "ject": 6443,
    "earch": 6444,
    "‘": 6445,
    "ation@@": 6446,
    "tim@@": 6447,
    "sul@@": 6448,
    "sel@@": 6449,
    "ater": 6450,
    "ta@@": 6451,
    "let": 6452,
    "Cont@@": 6453,
    "All": 6454,
    "usic": 6455,
    "ental": 6456,
    "Russia": 6457,
    "ors": 6458,
    "Sun@@": 6459,
    "John": 6460,
    "Bre@@": 6461,
    "ise": 6462,
    "ali@@": 6463,
    "sol@@": 6464,
    "soft": 6465,
    "no": 6466,
    "ames": 6467,
    "Sci@@": 6468,
    "Ra@@": 6469,
    "парт@@": 6470,
    "лесе": 6471,
    "©": 6472,
    "ports": 6473,
    "peri@@": 6474,
    "ones": 6475,
    "ications": 6476,
    "полне": 6477,
    "rel@@": 6478,
    "fa@@": 6479,
    "Ho@@": 6480,
    "sign": 6481,
    "ish": 6482,
    "ian": 6483,
    "ce@@": 6484,
    "pri@@": 6485,
    "own": 6486,
    "ning": 6487,
    "inter@@": 6488,
    "dian": 6489,
    "пир@@": 6490,
    "АТО": 6491,
    "tt@@": 6492,
    "red": 6493,
    "pi@@": 6494,
    "low": 6495,
    "ins": 6496,
    "gan@@": 6497,
    "ded": 6498,
    "ath@@": 6499,
    "тербур@@": 6500,
    "the@@": 6501,
    "ris@@": 6502,
    "mer": 6503,
    "Def@@": 6504,
    "ties": 6505,
    "set": 6506,
    "pres@@": 6507,
    "ource": 6508,
    "air": 6509,
    "Cy@@": 6510,
    "хуш@@": 6511,
    "рине": 6512,
    "des@@": 6513,
    "confi@@": 6514,
    "Ъ@@": 6515,
    "eci@@": 6516,
    "Gi@@": 6517,
    "ous": 6518,
    "name": 6519,
    "itch": 6520,
    "car@@": 6521,
    "ound": 6522,
    "Room": 6523,
    "On": 6524,
    "ys": 6525,
    "light": 6526,
    "Gen@@": 6527,
    "Energy": 6528,
    "серь@@": 6529,
    "вычай@@": 6530,
    "ish@@": 6531,
    "ING": 6532,
    "Af@@": 6533,
    "zz@@": 6534,
    "stri@@": 6535,
    "ya": 6536,
    "tor@@": 6537,
    "lig@@": 6538,
    "hel@@": 6539,
    "em": 6540,
    "day": 6541,
    "ah": 6542,
    "Len@@": 6543,
    "Free": 6544,
    "Development": 6545,
    "vol@@": 6546,
    "rit@@": 6547,
    "reless": 6548,
    "ption": 6549,
    "сана": 6550,
    "ure@@": 6551,
    "gre@@": 6552,
    "bank": 6553,
    "ame@@": 6554,
    "ush": 6555,
    "Rel@@": 6556,
    "╚": 6557,
    "ll": 6558,
    "Geor@@": 6559,
    "vir@@": 6560,
    "ee": 6561,
    "cu@@": 6562,
    "over": 6563,
    "nect": 6564,
    "ines": 6565,
    "sign@@": 6566,
    "унта": 6567,
    "plo@@": 6568,
    "ments": 6569,
    "atic": 6570,
    "Mil@@": 6571,
    "English": 6572,
    "Bel@@": 6573,
    "with": 6574,
    "tri@@": 6575,
    "tegr@@": 6576,
    "net@@": 6577,
    "ha": 6578,
    "WH@@": 6579,
    "Fri@@": 6580,
    "ici@@": 6581,
    "ense": 6582,
    "ele@@": 6583,
    "ality": 6584,
    "off@@": 6585,
    "media": 6586,
    "ach": 6587,
    "The@@": 6588,
    "Coun@@": 6589,
    "Char@@": 6590,
    "works": 6591,
    "uni@@": 6592,
    "sti@@": 6593,
    "set@@": 6594,
    "loc@@": 6595,
    "fac@@": 6596,
    "duc@@": 6597,
    "cc@@": 6598,
    "bus": 6599,
    "Chec@@": 6600,
    "jects": 6601,
    "Ter@@": 6602,
    "Cha@@": 6603,
    "my@@": 6604,
    "evi@@": 6605,
    "Protec@@": 6606,
    "Так@@": 6607,
    "val@@": 6608,
    "sub@@": 6609,
    "bor@@": 6610,
    "My": 6611,
    "ze": 6612,
    "olo@@": 6613,
    "inal": 6614,
    "ban@@": 6615,
    "Western": 6616,
    "TO": 6617,
    "Sub@@": 6618,
    "é@@": 6619,
    "±": 6620,
    "tain@@": 6621,
    "field": 6622,
    "wall": 6623,
    "utions": 6624,
    "tur@@": 6625,
    "ko": 6626,
    "gy": 6627,
    "Information": 6628,
    "China": 6629,
    "это@@": 6630,
    "циен@@": 6631,
    "group": 6632,
    "get": 6633,
    "assi@@": 6634,
    "Of": 6635,
    "High": 6636,
    "Central": 6637,
    "ight": 6638,
    "нса": 6639,
    "ree": 6640,
    "Sha@@": 6641,
    "Program": 6642,
    "Health": 6643,
    "Airport": 6644,
    "ologies": 6645,
    "gg@@": 6646,
    "clu@@": 6647,
    "cli@@": 6648,
    "chi@@": 6649,
    "Institute": 6650,
    "European": 6651,
    "“@@": 6652,
    "годняш@@": 6653,
    "ution": 6654,
    "ays": 6655,
    "aker": 6656,
    "Ju@@": 6657,
    "ü@@": 6658,
    "ward": 6659,
    "usin@@": 6660,
    "tual": 6661,
    "sm@@": 6662,
    "met@@": 6663,
    "ew": 6664,
    "cat@@": 6665,
    "ama": 6666,
    "aci@@": 6667,
    "Bul@@": 6668,
    "потен@@": 6669,
    "bur@@": 6670,
    "pers@@": 6671,
    "ext@@": 6672,
    "gen@@": 6673,
    "des": 6674,
    "cape": 6675,
    "ams": 6676,
    "SR": 6677,
    "Produc@@": 6678,
    "Уз@@": 6679,
    "ght@@": 6680,
    "gh": 6681,
    "chan@@": 6682,
    "Ger@@": 6683,
    "Centre": 6684,
    "log@@": 6685,
    "file": 6686,
    "Fac@@": 6687,
    "tre@@": 6688,
    "rap@@": 6689,
    "ond": 6690,
    "mat@@": 6691,
    "зад": 6692,
    "word": 6693,
    "tal": 6694,
    "server": 6695,
    "sen@@": 6696,
    "ling": 6697,
    "aya": 6698,
    "arm@@": 6699,
    "ages": 6700,
    "tin@@": 6701,
    "play": 6702,
    "gl@@": 6703,
    "get@@": 6704,
    "dow@@": 6705,
    "bar": 6706,
    "London": 6707,
    "Dec@@": 6708,
    "Беларус@@": 6709,
    "mit@@": 6710,
    "let@@": 6711,
    "ide": 6712,
    "how": 6713,
    "cop@@": 6714,
    "AND": 6715,
    "ципа@@": 6716,
    "view": 6717,
    "ou": 6718,
    "now@@": 6719,
    "coun@@": 6720,
    "aim@@": 6721,
    "West": 6722,
    "ощ@@": 6723,
    "tra@@": 6724,
    "right": 6725,
    "fil@@": 6726,
    "dre@@": 6727,
    "del@@": 6728,
    "Rom@@": 6729,
    "Mol@@": 6730,
    "®@@": 6731,
    "ye@@": 6732,
    "tors": 6733,
    "ship": 6734,
    "lob@@": 6735,
    "To": 6736,
    "Acc@@": 6737,
    "І": 6738,
    "read@@": 6739,
    "lin": 6740,
    "her": 6741,
    "fer": 6742,
    "Policy": 6743,
    "Fun@@": 6744,
    "Cur@@": 6745,
    "ury": 6746,
    "tan@@": 6747,
    "run@@": 6748,
    "lu@@": 6749,
    "fu@@": 6750,
    "form": 6751,
    "fic@@": 6752,
    "cha@@": 6753,
    "Regi@@": 6754,
    "Off@@": 6755,
    "шру@@": 6756,
    "tiv@@": 6757,
    "ney": 6758,
    "ners": 6759,
    "nel": 6760,
    "life": 6761,
    "its": 6762,
    "hu@@": 6763,
    "cr@@": 6764,
    "Ki@@": 6765,
    "Econom@@": 6766,
    "ori@@": 6767,
    "ome@@": 6768,
    "eld": 6769,
    "ck": 6770,
    "Cour@@": 6771,
    "--@@": 6772,
    "‐": 6773,
    "гораз@@": 6774,
    "{": 6775,
    "rent": 6776,
    "jo@@": 6777,
    "Dem@@": 6778,
    "well": 6779,
    "gs": 6780,
    "acc@@": 6781,
    "you": 6782,
    "support": 6783,
    "key": 6784,
    "dat@@": 6785,
    "acy": 6786,
    "Cu@@": 6787,
    "£": 6788,
    "world": 6789,
    "ancial": 6790,
    "rou@@": 6791,
    "men@@": 6792,
    "from": 6793,
    "fr@@": 6794,
    "ete": 6795,
    "ational": 6796,
    "St": 6797,
    "¨": 6798,
    "wards": 6799,
    "vis@@": 6800,
    "tw@@": 6801,
    "rain@@": 6802,
    "more": 6803,
    "lim@@": 6804,
    "eting": 6805,
    "UN": 6806,
    "Sel@@": 6807,
    "’@@": 6808,
    "тса": 6809,
    "stry": 6810,
    "porting": 6811,
    "ind": 6812,
    "ering": 6813,
    "ean": 6814,
    "back": 6815,
    "aut@@": 6816,
    "Tw@@": 6817,
    "SQ@@": 6818,
    "ves": 6819,
    "tal@@": 6820,
    "stre@@": 6821,
    "ror": 6822,
    "inde@@": 6823,
    "hib@@": 6824,
    "front": 6825,
    "ature": 6826,
    "ating": 6827,
    "Washington": 6828,
    "Centr@@": 6829,
    "неско@@": 6830,
    "І@@": 6831,
    "wood": 6832,
    "of@@": 6833,
    "bri@@": 6834,
    "Sum@@": 6835,
    "Mal@@": 6836,
    "America": 6837,
    "AO": 6838,
    "war@@": 6839,
    "lock": 6840,
    "link": 6841,
    "board": 6842,
    "bar@@": 6843,
    "true": 6844,
    "sions": 6845,
    "ret@@": 6846,
    "ns": 6847,
    "Tre@@": 6848,
    "Oc@@": 6849,
    "try": 6850,
    "station": 6851,
    "side": 6852,
    "post": 6853,
    "point": 6854,
    "ize": 6855,
    "ange": 6856,
    "Serv@@": 6857,
    "Lon@@": 6858,
    "vil@@": 6859,
    "use": 6860,
    "ters": 6861,
    "ose": 6862,
    "lab@@": 6863,
    "ird": 6864,
    "ind@@": 6865,
    "ety": 6866,
    "╩": 6867,
    "ыду@@": 6868,
    "тав@@": 6869,
    "новь": 6870,
    "кен": 6871,
    "uro@@": 6872,
    "dom": 6873,
    "You": 6874,
    "serv@@": 6875,
    "now": 6876,
    "`": 6877,
    "Rep@@": 6878,
    "qui@@": 6879,
    "oom": 6880,
    "news": 6881,
    "load": 6882,
    "ld": 6883,
    "inc@@": 6884,
    "fore@@": 6885,
    "South": 6886,
    "Kar@@": 6887,
    "It": 6888,
    "Human": 6889,
    "сали@@": 6890,
    "испы@@": 6891,
    "ov": 6892,
    "ound@@": 6893,
    "lear@@": 6894,
    "ens@@": 6895,
    "ection": 6896,
    "alo@@": 6897,
    "твра@@": 6898,
    "Ъ": 6899,
    "Узбе@@": 6900,
    "ric": 6901,
    "play@@": 6902,
    "ova": 6903,
    "open": 6904,
    "ness": 6905,
    "mark": 6906,
    "lines": 6907,
    "lic@@": 6908,
    "gic": 6909,
    "ally": 6910,
    "ux": 6911,
    "tric": 6912,
    "ton@@": 6913,
    "sur@@": 6914,
    "oud": 6915,
    "ner@@": 6916,
    "emp@@": 6917,
    "dic@@": 6918,
    "cul@@": 6919,
    "aily": 6920,
    "add@@": 6921,
    "USA": 6922,
    "нине": 6923,
    "ласа": 6924,
    "versal": 6925,
    "ute": 6926,
    "sit@@": 6927,
    "pos@@": 6928,
    "ping": 6929,
    "ous@@": 6930,
    "cal@@": 6931,
    "Public": 6932,
    "Ir@@": 6933,
    "my": 6934,
    "Custom@@": 6935,
    "═": 6936,
    "компью@@": 6937,
    "manag@@": 6938,
    "dri@@": 6939,
    "ank": 6940,
    "Association": 6941,
    "tro@@": 6942,
    "stan@@": 6943,
    "hy@@": 6944,
    "hard": 6945,
    "craft": 6946,
    "ading": 6947,
    "North": 6948,
    "Contro@@": 6949,
    "Christi@@": 6950,
    "tain": 6951,
    "face": 6952,
    "ef": 6953,
    "burg": 6954,
    "East": 6955,
    "×": 6956,
    "}": 6957,
    "source": 6958,
    "scri@@": 6959,
    "online": 6960,
    "kers": 6961,
    "fication": 6962,
    "cur@@": 6963,
    "aur@@": 6964,
    "ago": 6965,
    "Soci@@": 6966,
    "Goo@@": 6967,
    "страте@@": 6968,
    "reg@@": 6969,
    "mul@@": 6970,
    "fied": 6971,
    "Rights": 6972,
    "Associ@@": 6973,
    "tle": 6974,
    "text": 6975,
    "table": 6976,
    "sive": 6977,
    "phone": 6978,
    "blo@@": 6979,
    "asp@@": 6980,
    "State": 6981,
    "SCO": 6982,
    "For": 6983,
    "Administr@@": 6984,
    "²": 6985,
    "type": 6986,
    "ten": 6987,
    "ole": 6988,
    "ny": 6989,
    "less": 6990,
    "den@@": 6991,
    "Gener@@": 6992,
    "ures": 6993,
    "thers": 6994,
    "sts": 6995,
    "bes": 6996,
    "Asia": 6997,
    "tocol": 6998,
    "this": 6999,
    "count": 7000,
    "aria": 7001,
    "aint": 7002,
    "Cri@@": 7003,
    "і": 7004,
    "ush@@": 7005,
    "start": 7006,
    "sha@@": 7007,
    "pho@@": 7008,
    "over@@": 7009,
    "night": 7010,
    "new": 7011,
    "hol@@": 7012,
    "gle": 7013,
    "Union": 7014,
    "ä@@": 7015,
    "under@@": 7016,
    "ox@@": 7017,
    "ken": 7018,
    "ails": 7019,
    "Code": 7020,
    "#@@": 7021,
    "tou@@": 7022,
    "ities": 7023,
    "dow": 7024,
    "которо@@": 7025,
    "ources": 7026,
    "large": 7027,
    "fic": 7028,
    "aging": 7029,
    "First": 7030,
    "Chil@@": 7031,
    "Рес@@": 7032,
    "lar@@": 7033,
    "ghts": 7034,
    "bit": 7035,
    "France": 7036,
    "ye": 7037,
    "tem@@": 7038,
    "nov@@": 7039,
    "fre@@": 7040,
    "force": 7041,
    "ets": 7042,
    "any@@": 7043,
    "ability": 7044,
    "tom": 7045,
    "state": 7046,
    "not": 7047,
    "head": 7048,
    "ences": 7049,
    "‑": 7050,
    "ö@@": 7051,
    "wa@@": 7052,
    "space": 7053,
    "site": 7054,
    "off": 7055,
    "fast": 7056,
    "esp@@": 7057,
    "doc@@": 7058,
    "ca@@": 7059,
    "°@@": 7060,
    "viron@@": 7061,
    "syn@@": 7062,
    "ord": 7063,
    "list": 7064,
    "fol@@": 7065,
    "cho@@": 7066,
    "bs": 7067,
    "atur@@": 7068,
    "ats": 7069,
    "Hum@@": 7070,
    "╩@@": 7071,
    "web@@": 7072,
    "user": 7073,
    "system": 7074,
    "new@@": 7075,
    "ground": 7076,
    "gas": 7077,
    "erv@@": 7078,
    "ere@@": 7079,
    "Sea": 7080,
    "Mus@@": 7081,
    "ѐ@@": 7082,
    "vision": 7083,
    "ussi@@": 7084,
    "tes": 7085,
    "row": 7086,
    "mit": 7087,
    "host": 7088,
    "cy": 7089,
    "aun@@": 7090,
    "^": 7091,
    "War": 7092,
    "mor@@": 7093,
    "ily": 7094,
    "ills": 7095,
    "house": 7096,
    "her@@": 7097,
    "gy@@": 7098,
    "ges": 7099,
    "ers@@": 7100,
    "dec@@": 7101,
    "data": 7102,
    "arch@@": 7103,
    "alia": 7104,
    "Ky@@": 7105,
    "work@@": 7106,
    "put": 7107,
    "gar@@": 7108,
    "ever@@": 7109,
    "ards": 7110,
    "ç@@": 7111,
    "ving": 7112,
    "mod@@": 7113,
    "hal@@": 7114,
    "eva": 7115,
    "don": 7116,
    "cer@@": 7117,
    "bed": 7118,
    "Note": 7119,
    "Develop@@": 7120,
    "Bud@@": 7121,
    "скохозяй@@": 7122,
    "room": 7123,
    "phere": 7124,
    "non": 7125,
    "loo@@": 7126,
    "hon@@": 7127,
    "cle": 7128,
    "bon@@": 7129,
    "back@@": 7130,
    "OF": 7131,
    "British": 7132,
    "As": 7133,
    "tical": 7134,
    "lit@@": 7135,
    "htt@@": 7136,
    "code": 7137,
    "EU": 7138,
    "□": 7139,
    "ƒ": 7140,
    "á@@": 7141,
    "via": 7142,
    "oul@@": 7143,
    "mag@@": 7144,
    "ingdom": 7145,
    "eria": 7146,
    "ders": 7147,
    "bro@@": 7148,
    "Dep@@": 7149,
    "тября": 7150,
    "rest@@": 7151,
    "pic@@": 7152,
    "order": 7153,
    "ju@@": 7154,
    "fy": 7155,
    "free": 7156,
    "Ital@@": 7157,
    "version": 7158,
    "systems": 7159,
    "stant": 7160,
    "pan@@": 7161,
    "ev": 7162,
    "Lat@@": 7163,
    "Executive": 7164,
    "•@@": 7165,
    "кун": 7166,
    "your": 7167,
    "map": 7168,
    "if": 7169,
    "dows": 7170,
    "ampi@@": 7171,
    "Bec@@": 7172,
    "﻿": 7173,
    "Ё@@": 7174,
    "ă@@": 7175,
    "ways": 7176,
    "that": 7177,
    "strict": 7178,
    "pat@@": 7179,
    "pass@@": 7180,
    "mil@@": 7181,
    "esti@@": 7182,
    "anti@@": 7183,
    "active": 7184,
    "Ukraine": 7185,
    "Council": 7186,
    "себ@@": 7187,
    "wat@@": 7188,
    "uments": 7189,
    "sky": 7190,
    "ington": 7191,
    "enter": 7192,
    "base": 7193,
    "ants": 7194,
    "Secon@@": 7195,
    "Nations": 7196,
    "►": 7197,
    "}@@": 7198,
    "sl@@": 7199,
    "sing": 7200,
    "range": 7201,
    "ask": 7202,
    "Conference": 7203,
    "Ун@@": 7204,
    "test": 7205,
    "mode": 7206,
    "ign": 7207,
    "hou@@": 7208,
    "even": 7209,
    "ement@@": 7210,
    "come": 7211,
    "install": 7212,
    "depend@@": 7213,
    "cy@@": 7214,
    "brary": 7215,
    "bas@@": 7216,
    "action": 7217,
    "Alex@@": 7218,
    "сир": 7219,
    "~@@": 7220,
    "useum": 7221,
    "ours": 7222,
    "lik@@": 7223,
    "estiv@@": 7224,
    "dule": 7225,
    "down": 7226,
    "arm": 7227,
    "This": 7228,
    "Moscow": 7229,
    "Grou@@": 7230,
    "Foreign": 7231,
    "―": 7232,
    "судар@@": 7233,
    "рса": 7234,
    "yer": 7235,
    "strong": 7236,
    "service": 7237,
    "read": 7238,
    "print": 7239,
    "place": 7240,
    "make": 7241,
    "high": 7242,
    "flow": 7243,
    "enge": 7244,
    "ander": 7245,
    "airs": 7246,
    "aff@@": 7247,
    "Social": 7248,
    "And": 7249,
    "€@@": 7250,
    "٧": 7251,
    "ı@@": 7252,
    "home": 7253,
    "hn": 7254,
    "ga@@": 7255,
    "class": 7256,
    "Education": 7257,
    "ї@@": 7258,
    "туса": 7259,
    "we": 7260,
    "val": 7261,
    "timate": 7262,
    "sk": 7263,
    "ories": 7264,
    "mun@@": 7265,
    "files": 7266,
    "add": 7267,
    "Is": 7268,
    "─": 7269,
    "лса": 7270,
    "ÿ@@": 7271,
    "pu@@": 7272,
    "pel@@": 7273,
    "mut@@": 7274,
    "live": 7275,
    "ition": 7276,
    "gate": 7277,
    "bil@@": 7278,
    "ball": 7279,
    "■@@": 7280,
    "ĕ@@": 7281,
    "é": 7282,
    "↑": 7283,
    "ӗ@@": 7284,
    "ó@@": 7285,
    "º@@": 7286,
    "‚": 7287,
    "&@@": 7288,
    "ߛ@@": 7289,
    "í@@": 7290,
    "¬": 7291,
    "№@@": 7292,
    "ѕ": 7293,
    "è@@": 7294,
    "à": 7295,
    "ӑ@@": 7296,
    "̆": 7297,
    "́": 7298,
    "£@@": 7299,
    "‡": 7300,
    "є": 7301,
    "Û": 7302,
    "­@@": 7303,
    "\u0001": 7304,
    "ë@@": 7305,
    "º": 7306,
    "\b": 7307,
    "●@@": 7308,
    "α": 7309,
    "ĕ": 7310,
    "ô@@": 7311,
    "╗@@": 7312,
    "╗": 7313,
    "`@@": 7314,
    "）": 7315,
    "（": 7316,
    "≤": 7317,
    "‰": 7318,
    "╣@@": 7319,
    "≈": 7320,
    "Ž": 7321,
    "◆": 7322,
    "â@@": 7323,
    "▪": 7324,
    "ñ@@": 7325,
    "є@@": 7326,
    "ī@@": 7327,
    "Ø": 7328,
    "^@@": 7329,
    "ѐ": 7330,
    "å@@": 7331,
    "ß@@": 7332,
    "{@@": 7333,
    "≥": 7334,
    "ѓ": 7335,
    "č@@": 7336,
    "✘": 7337,
    "✓": 7338,
    "†": 7339,
    "Қ@@": 7340,
    "ł@@": 7341,
    "┴@@": 7342,
    "‣": 7343,
    "‎": 7344,
    "ഀ": 7345,
    "Щ": 7346,
    "Ђ": 7347,
    "ă": 7348,
    "ā@@": 7349,
    "½@@": 7350,
    "¡": 7351,
    "♦": 7352,
    "›": 7353,
    "ѣ@@": 7354,
    "ı": 7355,
    "à@@": 7356,
    "³": 7357,
    "\u0018": 7358,
    "ў": 7359,
    "á": 7360,
    "µ@@": 7361,
    "・": 7362,
    "、": 7363,
    "░": 7364,
    "╞@@": 7365,
    "′": 7366,
    "Δ@@": 7367,
    "ğ@@": 7368,
    "ä": 7369,
    "½": 7370,
    "´": 7371,
    "☐": 7372,
    "╛@@": 7373,
    "∙": 7374,
    "⇒": 7375,
    "ó": 7376,
    "â": 7377,
    "¾": 7378,
    "§@@": 7379,
    "♫": 7380,
    "″": 7381,
    "—@@": 7382,
    "ا@@": 7383,
    "ҫ@@": 7384,
    "š@@": 7385,
    "ş@@": 7386,
    "ú@@": 7387,
    "❏": 7388,
    "╔@@": 7389,
    "‘@@": 7390,
    "қ@@": 7391,
    "τ@@": 7392,
    "μ@@": 7393,
    "β": 7394,
    "Š@@": 7395,
    "İ@@": 7396,
    "ø@@": 7397,
    "ñ": 7398,
    "ã@@": 7399,
    "Ä@@": 7400,
    "Á@@": 7401,
    "": 7402,
    "": 7403,
    "\u0001@@": 7404,
    "╬": 7405,
    "╟@@": 7406,
    "℃": 7407,
    "Ћ@@": 7408,
    "˝": 7409,
    "˚": 7410,
    "Č@@": 7411,
    "Ø@@": 7412,
    "@@@": 7413,
    "▼@@": 7414,
    "„@@": 7415,
    "Ў": 7416,
    "˜": 7417,
    "ü": 7418,
    "è": 7419,
    "▲@@": 7420,
    "╪@@": 7421,
    "╦@@": 7422,
    "∞": 7423,
    "ӗ": 7424,
    "ғ@@": 7425,
    "ν": 7426,
    "ū@@": 7427,
    "ť": 7428,
    "š": 7429,
    "ř@@": 7430,
    "ń@@": 7431,
    "í": 7432,
    "ê@@": 7433,
    "Â": 7434,
    "✕": 7435,
    "◊": 7436,
    "►@@": 7437,
    "Ω": 7438,
    "қ": 7439,
    "џ": 7440,
    "Ј@@": 7441,
    "ω": 7442,
    "θ@@": 7443,
    "ņ@@": 7444,
    "Ü@@": 7445,
    "\u000f": 7446,
    "▶": 7447,
    "▪@@": 7448,
    "╦": 7449,
    "╟": 7450,
    "├@@": 7451,
    "∫": 7452,
    "∗": 7453,
    "‰@@": 7454,
    "‚@@": 7455,
    "‖": 7456,
    "‍": 7457,
    "ұ@@": 7458,
    "Ѕ": 7459,
    "ε@@": 7460,
    "δ": 7461,
    "ə@@": 7462,
    "ů@@": 7463,
    "ě@@": 7464,
    "ý": 7465,
    "î@@": 7466,
    "å": 7467,
    "Ñ": 7468,
    "¶": 7469,
    "": 7470,
    "\u0010@@": 7471,
    "\u0003": 7472,
    "大@@": 7473,
    "✜@@": 7474,
    "✜": 7475,
    "☞": 7476,
    "☆": 7477,
    "◄@@": 7478,
    "‧": 7479,
    "؛@@": 7480,
    "ә@@": 7481,
    "ѣ": 7482,
    "Љ": 7483,
    "Ј": 7484,
    "Є": 7485,
    "Ё": 7486,
    "ω@@": 7487,
    "γ": 7488,
    "ž@@": 7489,
    "ţ@@": 7490,
    "ş": 7491,
    "ē@@": 7492,
    "Ö@@": 7493,
    "Ð@@": 7494,
    "¯": 7495,
    "\u0007@@": 7496,
    "市": 7497,
    "南@@": 7498,
    "中@@": 7499,
    "▼": 7500,
    "╚@@": 7501,
    "│": 7502,
    "≪": 7503,
    "√": 7504,
    "‹": 7505,
    "‖@@": 7506,
    "‒": 7507,
    "‎@@": 7508,
    "ჭ@@": 7509,
    "უ@@": 7510,
    "ن@@": 7511,
    "ل@@": 7512,
    "ر@@": 7513,
    "ќ@@": 7514,
    "Џ": 7515,
    "Ї@@": 7516,
    "Ї": 7517,
    "λ": 7518,
    "Ω": 7519,
    "Σ": 7520,
    "Ÿ": 7521,
    "Ō@@": 7522,
    "õ@@": 7523,
    "ë": 7524,
    "É@@": 7525,
    "@@": 7526,
    "\u0004@@": 7527,
    "：": 7528,
    "★": 7529,
    "▲": 7530,
    "░@@": 7531,
    "╪": 7532,
    "╖": 7533,
    "─@@": 7534,
    "⌧": 7535,
    "≫": 7536,
    "∼": 7537,
    "−@@": 7538,
    "∈": 7539,
    "Ⅲ": 7540,
    "⁄": 7541,
    "›@@": 7542,
    "‡@@": 7543,
    "‒@@": 7544,
    "ე@@": 7545,
    "و@@": 7546,
    "ن": 7547,
    "ӑ": 7548,
    "Ҫ@@": 7549,
    "ң@@": 7550,
    "ј": 7551,
    "ђ": 7552,
    "ρ@@": 7553,
    "ε": 7554,
    "˝@@": 7555,
    "ˆ": 7556,
    "Ʋ@@": 7557,
    "Ʋ": 7558,
    "Œ@@": 7559,
    "ő@@": 7560,
    "ŏ@@": 7561,
    "ŉ@@": 7562,
    "ø": 7563,
    "÷": 7564,
    "ö": 7565,
    "Ù@@": 7566,
    "Æ@@": 7567,
    "±@@": 7568,
    "¢": 7569,
    "": 7570,
    "\u0011@@": 7571,
    "路": 7572,
    "上@@": 7573,
    "「": 7574,
    "➜": 7575,
    "✔": 7576,
    "◼": 7577,
    "◦": 7578,
    "╨@@": 7579,
    "╞": 7580,
    "⌠": 7581,
    "≡": 7582,
    "≠": 7583,
    "↙": 7584,
    "℃@@": 7585,
    "्": 7586,
    "ा": 7587,
    "ߛ": 7588,
    "ي@@": 7589,
    "م@@": 7590,
    "ت@@": 7591,
    "ب@@": 7592,
    "ҫ": 7593,
    "ғ": 7594,
    "ј@@": 7595,
    "ѓ@@": 7596,
    "Ѕ@@": 7597,
    "σ": 7598,
    "π@@": 7599,
    "π": 7600,
    "ο@@": 7601,
    "η": 7602,
    "α@@": 7603,
    "ˆ@@": 7604,
    "Š": 7605,
    "Ř": 7606,
    "Ŗ@@": 7607,
    "ģ@@": 7608,
    "ė@@": 7609,
    "ÿ": 7610,
    "ý@@": 7611,
    "û@@": 7612,
    "ù": 7613,
    "ò": 7614,
    "ç": 7615,
    "æ@@": 7616,
    "Ý@@": 7617,
    "Ð": 7618,
    "Ï": 7619,
    "Æ": 7620,
    "µ": 7621,
    "¤": 7622,
    "@@": 7623,
    "": 7624,
    "": 7625,
    "\u0015": 7626,
    "\u0013@@": 7627,
    "\u0013": 7628,
    "\u0011": 7629,
    "\u0004": 7630,
    "馆": 7631,
    "町": 7632,
    "海@@": 7633,
    "海": 7634,
    "天@@": 7635,
    "国@@": 7636,
    "园": 7637,
    "【": 7638,
    "》": 7639,
    "《": 7640,
    "➪": 7641,
    "➥": 7642,
    "➀": 7643,
    "✓@@": 7644,
    "▄": 7645,
    "╠": 7646,
    "╜@@": 7647,
    "╘": 7648,
    "║@@": 7649,
    "┼@@": 7650,
    "┬@@": 7651,
    "└@@": 7652,
    "∗@@": 7653,
    "∆": 7654,
    "→@@": 7655,
    "⁰": 7656,
    "″@@": 7657,
    "‛@@": 7658,
    "‏": 7659,
    "ჰ@@": 7660,
    "ჯ@@": 7661,
    "฿": 7662,
    "ර": 7663,
    "ک@@": 7664,
    "س@@": 7665,
    "ز@@": 7666,
    "ج@@": 7667,
    "ة": 7668,
    "؛": 7669,
    "ե@@": 7670,
    "ґ": 7671,
    "њ@@": 7672,
    "љ": 7673,
    "ђ@@": 7674,
    "Џ@@": 7675,
    "Њ@@": 7676,
    "Є@@": 7677,
    "ό@@": 7678,
    "χ@@": 7679,
    "τ": 7680,
    "σ@@": 7681,
    "ς": 7682,
    "ρ": 7683,
    "ι": 7684,
    "Δ": 7685,
    "·": 7686,
    "˙": 7687,
    "Ž@@": 7688,
    "Ş@@": 7689,
    "Ş": 7690,
    "Ś@@": 7691,
    "Ř@@": 7692,
    "Ŕ@@": 7693,
    "ļ@@": 7694,
    "İ": 7695,
    "Į@@": 7696,
    "ę@@": 7697,
    "đ": 7698,
    "č": 7699,
    "ð@@": 7700,
    "Ü": 7701,
    "Ó@@": 7702,
    "¢@@": 7703,
    "\u0018@@": 7704,
    "\u0012@@": 7705,
    "\u000f@@": 7706,
    "\u0005": 7707,
    "﻿@@": 7708,
    "院": 7709,
    "阿@@": 7710,
    "阪@@": 7711,
    "长@@": 7712,
    "金@@": 7713,
    "重@@": 7714,
    "车@@": 7715,
    "财@@": 7716,
    "象@@": 7717,
    "览@@": 7718,
    "西@@": 7719,
    "经@@": 7720,
    "章": 7721,
    "站": 7722,
    "町@@": 7723,
    "田@@": 7724,
    "王@@": 7725,
    "汽@@": 7726,
    "校@@": 7727,
    "星@@": 7728,
    "庆": 7729,
    "广@@": 7730,
    "山@@": 7731,
    "展@@": 7732,
    "小@@": 7733,
    "学@@": 7734,
    "学": 7735,
    "太@@": 7736,
    "城": 7737,
    "场": 7738,
    "台": 7739,
    "古@@": 7740,
    "原@@": 7741,
    "医@@": 7742,
    "北@@": 7743,
    "北": 7744,
    "公@@": 7745,
    "京@@": 7746,
    "イ@@": 7747,
    "で@@": 7748,
    "し@@": 7749,
    "】@@": 7750,
    "」@@": 7751,
    "」": 7752,
    "➢": 7753,
    "❖": 7754,
    "❄": 7755,
    "✶": 7756,
    "☺@@": 7757,
    "▒": 7758,
    "╬@@": 7759,
    "╧": 7760,
    "╣": 7761,
    "╝": 7762,
    "╒@@": 7763,
    "═@@": 7764,
    "┐@@": 7765,
    "⌀": 7766,
    "⋅": 7767,
    "∪": 7768,
    "∨": 7769,
    "∞@@": 7770,
    "√@@": 7771,
    "∆@@": 7772,
    "∅@@": 7773,
    "※": 7774,
    "′@@": 7775,
    "‥": 7776,
    "†@@": 7777,
    "‍@@": 7778,
    "ụ@@": 7779,
    "ᕆ": 7780,
    "ᕅ": 7781,
    "ჵ@@": 7782,
    "ჴ": 7783,
    "ჱ@@": 7784,
    "ჭ": 7785,
    "ჟ@@": 7786,
    "්": 7787,
    "ට": 7788,
    "य": 7789,
    "ي": 7790,
    "ه": 7791,
    "ل": 7792,
    "ق@@": 7793,
    "ع@@": 7794,
    "ع": 7795,
    "ط@@": 7796,
    "ش@@": 7797,
    "ر": 7798,
    "د@@": 7799,
    "ն@@": 7800,
    "լ@@": 7801,
    "ӳ@@": 7802,
    "ө@@": 7803,
    "Ө@@": 7804,
    "Ұ@@": 7805,
    "ү@@": 7806,
    "ү": 7807,
    "ң": 7808,
    "ґ@@": 7809,
    "ѳ": 7810,
    "Ѧ": 7811,
    "Ѣ@@": 7812,
    "ў@@": 7813,
    "ќ": 7814,
    "љ@@": 7815,
    "Ќ@@": 7816,
    "Љ@@": 7817,
    "Ѓ@@": 7818,
    "Ѓ": 7819,
    "φ@@": 7820,
    "ο": 7821,
    "κ": 7822,
    "η@@": 7823,
    "δ@@": 7824,
    "γ@@": 7825,
    "Φ@@": 7826,
    "Λ": 7827,
    "Ε@@": 7828,
    "̃": 7829,
    "̀": 7830,
    "˛@@": 7831,
    "˛": 7832,
    "˚@@": 7833,
    "ʼ@@": 7834,
    "ə": 7835,
    "ț": 7836,
    "ƽ": 7837,
    "ž": 7838,
    "ų": 7839,
    "Ū": 7840,
    "ŕ@@": 7841,
    "ŕ": 7842,
    "Œ": 7843,
    "ő": 7844,
    "ō@@": 7845,
    "ŋ@@": 7846,
    "Ņ@@": 7847,
    "ł": 7848,
    "Ł@@": 7849,
    "Ī@@": 7850,
    "ě": 7851,
    "đ@@": 7852,
    "ć": 7853,
    "ą@@": 7854,
    "Ă@@": 7855,
    "þ": 7856,
    "õ": 7857,
    "ï@@": 7858,
    "ì@@": 7859,
    "ì": 7860,
    "æ": 7861,
    "ß": 7862,
    "Þ": 7863,
    "Ú@@": 7864,
    "Ú": 7865,
    "×@@": 7866,
    "Ò": 7867,
    "Ñ@@": 7868,
    "Â@@": 7869,
    "¾@@": 7870,
    "³@@": 7871,
    "¦@@": 7872,
    "¦": 7873,
    "¥@@": 7874,
    "": 7875,
    "\u0019": 7876,
    "\u0016@@": 7877,
    "\u0016": 7878,
    "\u0014": 7879,
    "\u0012": 7880,
    "\u0010": 7881,
    "\u0006@@": 7882,
    "\u0005@@": 7883,
    "\u0003@@": 7884,
    "￠": 7885,
    "｜": 7886,
    "３": 7887,
    "，": 7888,
    "）@@": 7889,
    "﹡": 7890,
    "﹚@@": 7891,
    "﹙": 7892,
    "포": 7893,
    "평@@": 7894,
    "양": 7895,
    "아@@": 7896,
    "시": 7897,
    "산@@": 7898,
    "남@@": 7899,
    "龙@@": 7900,
    "龍@@": 7901,
    "鼓@@": 7902,
    "黄@@": 7903,
    "鹿@@": 7904,
    "鵄@@": 7905,
    "高@@": 7906,
    "馬@@": 7907,
    "香@@": 7908,
    "飯@@": 7909,
    "领@@": 7910,
    "降@@": 7911,
    "陂@@": 7912,
    "镇@@": 7913,
    "锣@@": 7914,
    "郎": 7915,
    "達": 7916,
    "途@@": 7917,
    "运@@": 7918,
    "路@@": 7919,
    "贸@@": 7920,
    "货@@": 7921,
    "账": 7922,
    "豫@@": 7923,
    "谷@@": 7924,
    "语": 7925,
    "語": 7926,
    "观@@": 7927,
    "观": 7928,
    "裏@@": 7929,
    "藏@@": 7930,
    "英@@": 7931,
    "航@@": 7932,
    "舘@@": 7933,
    "舎@@": 7934,
    "臺@@": 7935,
    "自@@": 7936,
    "联@@": 7937,
    "红@@": 7938,
    "箕@@": 7939,
    "筲@@": 7940,
    "站@@": 7941,
    "福@@": 7942,
    "祖@@": 7943,
    "相@@": 7944,
    "目": 7945,
    "益": 7946,
    "的@@": 7947,
    "百@@": 7948,
    "疲@@": 7949,
    "疏@@": 7950,
    "用": 7951,
    "瑞@@": 7952,
    "玄@@": 7953,
    "烏@@": 7954,
    "灯@@": 7955,
    "灣": 7956,
    "瀬@@": 7957,
    "漢@@": 7958,
    "源@@": 7959,
    "港": 7960,
    "深@@": 7961,
    "浪@@": 7962,
    "津": 7963,
    "江@@": 7964,
    "汉": 7965,
    "气@@": 7966,
    "武@@": 7967,
    "武": 7968,
    "機": 7969,
    "楼": 7970,
    "林@@": 7971,
    "村": 7972,
    "本@@": 7973,
    "木": 7974,
    "春": 7975,
    "旦@@": 7976,
    "文@@": 7977,
    "效@@": 7978,
    "政@@": 7979,
    "损@@": 7980,
    "指@@": 7981,
    "拉@@": 7982,
    "戦@@": 7983,
    "成@@": 7984,
    "意@@": 7985,
    "思": 7986,
    "待@@": 7987,
    "府": 7988,
    "布@@": 7989,
    "市@@": 7990,
    "巾@@": 7991,
    "巷": 7992,
    "州": 7993,
    "崎@@": 7994,
    "島@@": 7995,
    "峰@@": 7996,
    "山": 7997,
    "屋@@": 7998,
    "局": 7999,
    "宿@@": 8000,
    "宮@@": 8001,
    "宣@@": 8002,
    "宝@@": 8003,
    "失@@": 8004,
    "央@@": 8005,
    "复@@": 8006,
    "坪@@": 8007,
    "坟@@": 8008,
    "回@@": 8009,
    "四@@": 8010,
    "咏@@": 8011,
    "告": 8012,
    "后@@": 8013,
    "口": 8014,
    "千@@": 8015,
    "区": 8016,
    "務": 8017,
    "到@@": 8018,
    "利@@": 8019,
    "农@@": 8020,
    "八@@": 8021,
    "低": 8022,
    "伊@@": 8023,
    "仙@@": 8024,
    "京": 8025,
    "五@@": 8026,
    "五": 8027,
    "中": 8028,
    "严@@": 8029,
    "业@@": 8030,
    "三": 8031,
    "丁@@": 8032,
    "一": 8033,
    "ー@@": 8034,
    "ー": 8035,
    "ン@@": 8036,
    "ン": 8037,
    "レ@@": 8038,
    "リ@@": 8039,
    "ラ@@": 8040,
    "ム": 8041,
    "マ@@": 8042,
    "デ@@": 8043,
    "ッ@@": 8044,
    "ダ@@": 8045,
    "ス@@": 8046,
    "グ": 8047,
    "ク@@": 8048,
    "オ@@": 8049,
    "ア@@": 8050,
    "れ": 8051,
    "ょ@@": 8052,
    "ょ": 8053,
    "ぽ@@": 8054,
    "の@@": 8055,
    "っ@@": 8056,
    "う": 8057,
    "い": 8058,
    "➤": 8059,
    "➏": 8060,
    "➋@@": 8061,
    "➃": 8062,
    "➁": 8063,
    "❷": 8064,
    "❶": 8065,
    "❚": 8066,
    "⚠": 8067,
    "♠": 8068,
    "☺": 8069,
    "☛@@": 8070,
    "☛": 8071,
    "☉": 8072,
    "◎": 8073,
    "◈": 8074,
    "◆@@": 8075,
    "◄": 8076,
    "◀": 8077,
    "▫": 8078,
    "╫@@": 8079,
    "╠@@": 8080,
    "╝@@": 8081,
    "╖@@": 8082,
    "╓": 8083,
    "└": 8084,
    "⌥@@": 8085,
    "⌘@@": 8086,
    "⌘": 8087,
    "⌐": 8088,
    "⌃@@": 8089,
    "⊥": 8090,
    "≫@@": 8091,
    "∙@@": 8092,
    "∕": 8093,
    "∓": 8094,
    "∅": 8095,
    "⇨": 8096,
    "⇆": 8097,
    "↔": 8098,
    "↓@@": 8099,
    "↓": 8100,
    "↑@@": 8101,
    "←@@": 8102,
    "⅞": 8103,
    "⅝@@": 8104,
    "ℑ": 8105,
    "₪@@": 8106,
    "₪": 8107,
    "₧@@": 8108,
    "₄": 8109,
    "₂@@": 8110,
    "₂": 8111,
    "‹@@": 8112,
    "‬": 8113,
    "‫@@": 8114,
    "‥@@": 8115,
    "‗@@": 8116,
    "‐@@": 8117,
    "‏@@": 8118,
    "‌": 8119,
    "῱@@": 8120,
    "΅@@": 8121,
    "ύ@@": 8122,
    "ὁ": 8123,
    "ữ@@": 8124,
    "ử": 8125,
    "ủ@@": 8126,
    "ắ@@": 8127,
    "ạ@@": 8128,
    "ẞ@@": 8129,
    "ṣ@@": 8130,
    "ḥ@@": 8131,
    "Ḥ@@": 8132,
    "ᕄ": 8133,
    "ᕃ": 8134,
    "ᔢ": 8135,
    "ብ": 8136,
    "ባ": 8137,
    "ჴ@@": 8138,
    "ჰ": 8139,
    "ჯ": 8140,
    "ෝ": 8141,
    "ේ@@": 8142,
    "ු": 8143,
    "ී": 8144,
    "්@@": 8145,
    "ශ": 8146,
    "ව@@": 8147,
    "ය@@": 8148,
    "ප": 8149,
    "න@@": 8150,
    "ධ@@": 8151,
    "ජ@@": 8152,
    "ක": 8153,
    "े": 8154,
    "ु": 8155,
    "ी@@": 8156,
    "ि@@": 8157,
    "ि": 8158,
    "ह": 8159,
    "ष": 8160,
    "व": 8161,
    "ल@@": 8162,
    "ल": 8163,
    "र": 8164,
    "प": 8165,
    "न": 8166,
    "ध": 8167,
    "ण": 8168,
    "ट": 8169,
    "ङ": 8170,
    "क": 8171,
    "अ@@": 8172,
    "۞": 8173,
    "ې@@": 8174,
    "ی@@": 8175,
    "ډ@@": 8176,
    "ه@@": 8177,
    "م": 8178,
    "س": 8179,
    "د": 8180,
    "خ@@": 8181,
    "ר": 8182,
    "ד@@": 8183,
    "ב@@": 8184,
    "։": 8185,
    "ք": 8186,
    "ւ": 8187,
    "ր@@": 8188,
    "ռ@@": 8189,
    "ո@@": 8190,
    "մ@@": 8191,
    "թ": 8192,
    "ե": 8193,
    "ա@@": 8194,
    "Չ@@": 8195,
    "Կ@@": 8196,
    "ӯ": 8197,
    "ө": 8198,
    "ӥ": 8199,
    "Ә@@": 8200,
    "Ӑ": 8201,
    "Ҫ": 8202,
    "Қ": 8203,
    "Ґ@@": 8204,
    "Ґ": 8205,
    "Ѳ@@": 8206,
    "Ѭ@@": 8207,
    "Ѭ": 8208,
    "ћ@@": 8209,
    "ћ": 8210,
    "њ": 8211,
    "ѕ@@": 8212,
    "Ў@@": 8213,
    "Ϯ": 8214,
    "ϫ@@": 8215,
    "Ϙ@@": 8216,
    "Ϙ": 8217,
    "ύ@@": 8218,
    "ψ": 8219,
    "φ": 8220,
    "υ@@": 8221,
    "υ": 8222,
    "ξ": 8223,
    "μ": 8224,
    "λ@@": 8225,
    "ι@@": 8226,
    "θ": 8227,
    "β@@": 8228,
    "Ψ": 8229,
    "Χ@@": 8230,
    "Χ": 8231,
    "Ν": 8232,
    "Λ@@": 8233,
    "Κ@@": 8234,
    "Κ": 8235,
    "Ι@@": 8236,
    "Ζ": 8237,
    "Β": 8238,
    "Α@@": 8239,
    "΄@@": 8240,
    "̕": 8241,
    "̔": 8242,
    "̓@@": 8243,
    "̓": 8244,
    "̒@@": 8245,
    "̒": 8246,
    "̑": 8247,
    "˘": 8248,
    "ˋ": 8249,
    "ʿ@@": 8250,
    "ʿ": 8251,
    "ʺ@@": 8252,
    "ʺ": 8253,
    "ɭ@@": 8254,
    "ɥ@@": 8255,
    "ɢ": 8256,
    "ɝ@@": 8257,
    "ɚ": 8258,
    "ș": 8259,
    "ǎ@@": 8260,
    "ż@@": 8261,
    "Ÿ@@": 8262,
    "ų@@": 8263,
    "ů": 8264,
    "ū": 8265,
    "Ť@@": 8266,
    "Ţ@@": 8267,
    "ś@@": 8268,
    "Ś": 8269,
    "ř": 8270,
    "Ŗ": 8271,
    "Ŕ": 8272,
    "œ": 8273,
    "Ő@@": 8274,
    "ŉ": 8275,
    "ń": 8276,
    "Ł": 8277,
    "ķ@@": 8278,
    "Ĵ@@": 8279,
    "Ģ@@": 8280,
    "Ğ@@": 8281,
    "Ę": 8282,
    "ė": 8283,
    "Ē@@": 8284,
    "Ď@@": 8285,
    "Č": 8286,
    "ć@@": 8287,
    "ą": 8288,
    "ā": 8289,
    "ò@@": 8290,
    "Õ@@": 8291,
    "Ô": 8292,
    "Î": 8293,
    "Í@@": 8294,
    "Í": 8295,
    "Ê": 8296,
    "È": 8297,
    "Ç@@": 8298,
    "Å": 8299,
    "Ä": 8300,
    "¼": 8301,
    "¹": 8302,
    "¸": 8303,
    "´@@": 8304,
    "²@@": 8305,
    "¯@@": 8306,
    "¬@@": 8307,
    "©@@": 8308,
    "¥": 8309,
    "": 8310,
    "": 8311,
    "": 8312,
    "": 8313,
    "": 8314,
    "@@": 8315,
    "\u0017@@": 8316,
    "\u0017": 8317,
    "\u0015@@": 8318,
    "\u000e": 8319,
    "\b@@": 8320,
    "\u0006": 8321,
    "\u0002@@": 8322
}