{
    "<pad>": 0,
    "<unk>": 1,
    "<s>": 2,
    "</s>": 3,
    "the": 4,
    ",": 5,
    ".": 6,
    "of": 7,
    "and": 8,
    "to": 9,
    "in": 10,
    "a": 11,
    "-": 12,
    "is": 13,
    "for": 14,
    "that": 15,
    "on": 16,
    "s": 17,
    "The": 18,
    "with": 19,
    "'": 20,
    "as": 21,
    "are": 22,
    "be": 23,
    "or": 24,
    "it": 25,
    "(": 26,
    "\"": 27,
    "an": 28,
    "by": 29,
    "ing": 30,
    ":": 31,
    "you": 32,
    "at": 33,
    "S@@": 34,
    "was": 35,
    "from": 36,
    "not": 37,
    "s@@": 38,
    "in@@": 39,
    "I": 40,
    "re@@": 41,
    "have": 42,
    "this": 43,
    "ed": 44,
    "will": 45,
    "t@@": 46,
    ")": 47,
    "C@@": 48,
    "g@@": 49,
    "es": 50,
    "f@@": 51,
    "b@@": 52,
    "t": 53,
    "ers": 54,
    "B@@": 55,
    "P@@": 56,
    "T@@": 57,
    "M@@": 58,
    "d@@": 59,
    "D@@": 60,
    ";": 61,
    "can": 62,
    "which": 63,
    "ation": 64,
    "p@@": 65,
    "all": 66,
    "al": 67,
    "has": 68,
    "er": 69,
    "m@@": 70,
    "c@@": 71,
    "k@@": 72,
    "y": 73,
    "e@@": 74,
    "e": 75,
    "their": 76,
    "its": 77,
    "L@@": 78,
    "y@@": 79,
    "one": 80,
    "en@@": 81,
    "E@@": 82,
    "v@@": 83,
    "In": 84,
    "we": 85,
    "i@@": 86,
    "un@@": 87,
    "r@@": 88,
    "R@@": 89,
    "your": 90,
    "F@@": 91,
    "l@@": 92,
    "st@@": 93,
    "n@@": 94,
    "u@@": 95,
    "N@@": 96,
    "o@@": 97,
    "they": 98,
    "A@@": 99,
    "al@@": 100,
    "H@@": 101,
    "K@@": 102,
    "but": 103,
    "more": 104,
    "w@@": 105,
    "h@@": 106,
    "he": 107,
    "ar@@": 108,
    "/": 109,
    "ate": 110,
    "our": 111,
    "his": 112,
    "G@@": 113,
    "an@@": 114,
    "on@@": 115,
    "A": 116,
    "other": 117,
    "were": 118,
    "i": 119,
    "O@@": 120,
    "1": 121,
    "ti@@": 122,
    "ts": 123,
    "ent": 124,
    "ated": 125,
    "able": 126,
    "er@@": 127,
    "a@@": 128,
    "m": 129,
    "at@@": 130,
    "also": 131,
    "li@@": 132,
    "o": 133,
    "or@@": 134,
    "dis@@": 135,
    "am@@": 136,
    "di@@": 137,
    "time": 138,
    "ad@@": 139,
    "2": 140,
    "ac@@": 141,
    "It": 142,
    "ted": 143,
    "been": 144,
    "?": 145,
    "as@@": 146,
    "W@@": 147,
    "d": 148,
    "who": 149,
    "about": 150,
    "it@@": 151,
    "th@@": 152,
    "el@@": 153,
    "V@@": 154,
    "up": 155,
    "had": 156,
    "ting": 157,
    "tion": 158,
    "ro@@": 159,
    "pro@@": 160,
    "т@@": 161,
    "only": 162,
    "ur@@": 163,
    "de@@": 164,
    "con@@": 165,
    "ly": 166,
    "не": 167,
    "en": 168,
    "ations": 169,
    "out": 170,
    "there": 171,
    "ab@@": 172,
    "new": 173,
    "il@@": 174,
    "This": 175,
    "us": 176,
    "z@@": 177,
    "3": 178,
    "л@@": 179,
    "into": 180,
    "ds": 181,
    "n": 182,
    "people": 183,
    "k": 184,
    "them": 185,
    "ex@@": 186,
    "any": 187,
    "would": 188,
    "ol@@": 189,
    "те": 190,
    "if": 191,
    "such": 192,
    "than": 193,
    "ri@@": 194,
    "when": 195,
    "—": 196,
    "si@@": 197,
    "та": 198,
    "ag@@": 199,
    "so": 200,
    "l": 201,
    "age": 202,
    "use": 203,
    "сем": 204,
    "em@@": 205,
    "U@@": 206,
    "do": 207,
    "ic@@": 208,
    "no": 209,
    "ap@@": 210,
    "I@@": 211,
    "ла@@": 212,
    "th": 213,
    "is@@": 214,
    "may": 215,
    "lo@@": 216,
    "should": 217,
    "sh@@": 218,
    "ally": 219,
    "р@@": 220,
    "these": 221,
    ").": 222,
    "me": 223,
    "p": 224,
    "om@@": 225,
    "In@@": 226,
    "tions": 227,
    "g": 228,
    "ine": 229,
    "ҫ@@": 230,
    "very": 231,
    "first": 232,
    "ch@@": 233,
    "some": 234,
    "4": 235,
    "et": 236,
    "ar": 237,
    "р": 238,
    "most": 239,
    "work": 240,
    "ment": 241,
    "red": 242,
    "pl@@": 243,
    "ence": 244,
    "tr@@": 245,
    "тӑ@@": 246,
    "ul@@": 247,
    "co@@": 248,
    "ding": 249,
    "ating": 250,
    "ance": 251,
    "We": 252,
    "5": 253,
    "та@@": 254,
    "im@@": 255,
    "os@@": 256,
    "нӑ": 257,
    "information": 258,
    "well": 259,
    "ш@@": 260,
    "my": 261,
    "pre@@": 262,
    "sp@@": 263,
    "what": 264,
    "over": 265,
    "su@@": 266,
    "j@@": 267,
    "к@@": 268,
    "es@@": 269,
    "If": 270,
    "Russian": 271,
    "be@@": 272,
    "no@@": 273,
    "J@@": 274,
    "ter": 275,
    "ity": 276,
    "ic": 277,
    "gr@@": 278,
    "),": 279,
    "sion": 280,
    "са": 281,
    "Russia": 282,
    "ous": 283,
    "ха@@": 284,
    "ӗ@@": 285,
    "two": 286,
    "years": 287,
    "world": 288,
    "way": 289,
    "а@@": 290,
    "ant": 291,
    "E": 292,
    "se@@": 293,
    "where": 294,
    "like": 295,
    "et@@": 296,
    "said": 297,
    "ve": 298,
    "ded": 299,
    "system": 300,
    "per@@": 301,
    "хӑ@@": 302,
    "der": 303,
    "als": 304,
    "ir@@": 305,
    "used": 306,
    ".\"": 307,
    "many": 308,
    "Con@@": 309,
    "н": 310,
    "king": 311,
    "then": 312,
    "le": 313,
    "sub@@": 314,
    "ху@@": 315,
    "day": 316,
    "н@@": 317,
    "mo@@": 318,
    "le@@": 319,
    "6": 320,
    "ма": 321,
    "ent@@": 322,
    "х@@": 323,
    "’": 324,
    "year": 325,
    "countries": 326,
    "between": 327,
    "through": 328,
    "ту@@": 329,
    "her": 330,
    "ak@@": 331,
    "um": 332,
    "ӑ@@": 333,
    "Y@@": 334,
    "S": 335,
    "h": 336,
    "ec@@": 337,
    "after": 338,
    "est": 339,
    "ies": 340,
    "qu@@": 341,
    "op@@": 342,
    "even": 343,
    "ans": 344,
    "на": 345,
    "could": 346,
    "x": 347,
    "м@@": 348,
    "ary": 349,
    "development": 350,
    "ed@@": 351,
    "gu@@": 352,
    "how": 353,
    "make": 354,
    "ings": 355,
    "You": 356,
    "ks": 357,
    "um@@": 358,
    "па@@": 359,
    "й@@": 360,
    "But": 361,
    "7": 362,
    "those": 363,
    "п@@": 364,
    "inter@@": 365,
    "For": 366,
    "x@@": 367,
    "ty": 368,
    "He": 369,
    "made": 370,
    "And": 371,
    "ob@@": 372,
    "C": 373,
    "min@@": 374,
    "just": 375,
    "ӗ": 376,
    "!": 377,
    "b": 378,
    "el": 379,
    "%": 380,
    "сене": 381,
    "us@@": 382,
    "now": 383,
    "ut@@": 384,
    "ра@@": 385,
    "because": 386,
    "ev@@": 387,
    "must": 388,
    "я@@": 389,
    "same": 390,
    "с@@": 391,
    "ative": 392,
    "8": 393,
    "у@@": 394,
    "ra@@": 395,
    "end": 396,
    "him": 397,
    "10": 398,
    "res@@": 399,
    "under": 400,
    "D": 401,
    "right": 402,
    "c": 403,
    "ch": 404,
    "Re@@": 405,
    "trans@@": 406,
    "am": 407,
    "х": 408,
    "part": 409,
    "ates": 410,
    "рӑ@@": 411,
    "ad": 412,
    "see": 413,
    "чӗ": 414,
    "се": 415,
    "T": 416,
    "ite": 417,
    "лӗ": 418,
    "An@@": 419,
    "id@@": 420,
    "number": 421,
    "being": 422,
    "international": 423,
    "ӑн": 424,
    "country": 425,
    "de": 426,
    "enti@@": 427,
    "life": 428,
    "take": 429,
    "ure": 430,
    "Ch@@": 431,
    "including": 432,
    "ical": 433,
    "get": 434,
    "те@@": 435,
    "place": 436,
    "ph@@": 437,
    "each": 438,
    "ments": 439,
    "te@@": 440,
    "ра": 441,
    "ents": 442,
    "need": 443,
    "кӑ@@": 444,
    "data": 445,
    "tive": 446,
    "M": 447,
    "ка@@": 448,
    "ha@@": 449,
    "state": 450,
    "к": 451,
    "set": 452,
    "fi@@": 453,
    "9": 454,
    "own": 455,
    "As": 456,
    "fe@@": 457,
    ",\"": 458,
    "ement": 459,
    "ability": 460,
    "par@@": 461,
    "ved": 462,
    "per": 463,
    "ain": 464,
    "str@@": 465,
    "There": 466,
    "ho@@": 467,
    "St@@": 468,
    "1@@": 469,
    "less": 470,
    "ne@@": 471,
    "ӑ": 472,
    "т": 473,
    "cl@@": 474,
    "sive": 475,
    "кӗ@@": 476,
    "па": 477,
    "bo@@": 478,
    "bl@@": 479,
    "se": 480,
    "re": 481,
    "during": 482,
    "Ar@@": 483,
    "different": 484,
    "high": 485,
    "man@@": 486,
    "support": 487,
    "ons": 488,
    "before": 489,
    "ely": 490,
    "sts": 491,
    "la@@": 492,
    "est@@": 493,
    "shall": 494,
    "te": 495,
    "business": 496,
    "ors": 497,
    "2@@": 498,
    "services": 499,
    "market": 500,
    "old": 501,
    "fin@@": 502,
    "we@@": 503,
    "av@@": 504,
    "ou@@": 505,
    "for@@": 506,
    "go": 507,
    "“": 508,
    "company": 509,
    "ass@@": 510,
    "Pro@@": 511,
    "vi@@": 512,
    "са@@": 513,
    "public": 514,
    "O": 515,
    "ма@@": 516,
    "Al@@": 517,
    "against": 518,
    "dec@@": 519,
    "ay": 520,
    "res": 521,
    "service": 522,
    "ow@@": 523,
    "ast@@": 524,
    "much": 525,
    "both": 526,
    "without": 527,
    "order": 528,
    "To": 529,
    "while": 530,
    "ver@@": 531,
    "rec@@": 532,
    "fac@@": 533,
    "using": 534,
    "They": 535,
    "ӗн": 536,
    "good": 537,
    "comp@@": 538,
    "long": 539,
    "вӑл": 540,
    "v": 541,
    "within": 542,
    "лӑ@@": 543,
    "нӗ": 544,
    "ay@@": 545,
    "to@@": 546,
    "economic": 547,
    "ӗн@@": 548,
    "come": 549,
    "form": 550,
    "oc@@": 551,
    "important": 552,
    "power": 553,
    "ле@@": 554,
    "up@@": 555,
    "ю@@": 556,
    "gi@@": 557,
    "man": 558,
    "government": 559,
    "he@@": 560,
    "пӑ@@": 561,
    "hi@@": 562,
    "gh@@": 563,
    "she": 564,
    "level": 565,
    "po@@": 566,
    "br@@": 567,
    "сен": 568,
    "Z@@": 569,
    "ice": 570,
    "3@@": 571,
    "fl@@": 572,
    "know": 573,
    "ties": 574,
    "land": 575,
    "пе": 576,
    "back": 577,
    "tly": 578,
    "ying": 579,
    "national": 580,
    "ч@@": 581,
    "7@@": 582,
    "лӗ@@": 583,
    "r": 584,
    "ge": 585,
    "ep@@": 586,
    "ter@@": 587,
    "ants": 588,
    "ӳ@@": 589,
    "Th@@": 590,
    "20": 591,
    "When": 592,
    "human": 593,
    "пӗ@@": 594,
    "based": 595,
    "ism": 596,
    "pe@@": 597,
    "...": 598,
    "ver": 599,
    "three": 600,
    "[": 601,
    "tor": 602,
    "рӗ": 603,
    "port": 604,
    "following": 605,
    "л": 606,
    "does": 607,
    "P": 608,
    "On": 609,
    "ov@@": 610,
    "ҫу@@": 611,
    "ist": 612,
    "want": 613,
    "process": 614,
    "case": 615,
    "United": 616,
    "Par@@": 617,
    "вӑ@@": 618,
    "ast": 619,
    "ness": 620,
    "ful": 621,
    "м": 622,
    "6@@": 623,
    "acc@@": 624,
    "sol@@": 625,
    "compl@@": 626,
    "last": 627,
    "ses": 628,
    "all@@": 629,
    "cont@@": 630,
    "dr@@": 631,
    "car@@": 632,
    "available": 633,
    "st": 634,
    "B": 635,
    "ati@@": 636,
    "ten@@": 637,
    "sk@@": 638,
    "с": 639,
    "sing": 640,
    "лӑ": 641,
    "and@@": 642,
    "help": 643,
    "example": 644,
    "пул@@": 645,
    "water": 646,
    "les": 647,
    "vis@@": 648,
    "down": 649,
    "children": 650,
    "did": 651,
    "8@@": 652,
    "pri@@": 653,
    "mar@@": 654,
    "access": 655,
    "still": 656,
    "free": 657,
    "ences": 658,
    "«": 659,
    "rights": 660,
    "ory": 661,
    "possible": 662,
    "ill@@": 663,
    "sec@@": 664,
    "under@@": 665,
    "au@@": 666,
    "me@@": 667,
    "sur@@": 668,
    "project": 669,
    "15": 670,
    "ку@@": 671,
    "every": 672,
    "–": 673,
    "line": 674,
    "ual": 675,
    "U": 676,
    "cre@@": 677,
    "here": 678,
    "mon@@": 679,
    "$": 680,
    "ing@@": 681,
    "led": 682,
    "pos@@": 683,
    "form@@": 684,
    "ving": 685,
    "ҫа@@": 686,
    "States": 687,
    "political": 688,
    "tic": 689,
    "har@@": 690,
    "шӑ@@": 691,
    "rel@@": 692,
    "Li@@": 693,
    "ages": 694,
    "000": 695,
    "ре@@": 696,
    "ator": 697,
    "u": 698,
    "law": 699,
    "At": 700,
    "body": 701,
    "пу@@": 702,
    "ӑна": 703,
    "на@@": 704,
    "uni@@": 705,
    "els": 706,
    "ess@@": 707,
    "ture": 708,
    "тӗ@@": 709,
    "great": 710,
    "view": 711,
    "local": 712,
    "control": 713,
    "another": 714,
    "God": 715,
    "Ex@@": 716,
    "do@@": 717,
    "social": 718,
    "ia": 719,
    "fied": 720,
    "security": 721,
    "the@@": 722,
    "ran@@": 723,
    "bi@@": 724,
    "met@@": 725,
    "area": 726,
    "ist@@": 727,
    "name": 728,
    "sc@@": 729,
    "find": 730,
    "ble": 731,
    "low": 732,
    "*": 733,
    "sions": 734,
    "ics": 735,
    "30": 736,
    "ot@@": 737,
    "R": 738,
    "working": 739,
    "12": 740,
    "production": 741,
    "]": 742,
    "пи@@": 743,
    "ps": 744,
    "change": 745,
    "action": 746,
    "provide": 747,
    "ки@@": 748,
    "9@@": 749,
    "over@@": 750,
    "group": 751,
    "и@@": 752,
    "European": 753,
    "out@@": 754,
    "become": 755,
    "ace": 756,
    "ru@@": 757,
    "tic@@": 758,
    "ess": 759,
    "der@@": 760,
    "0": 761,
    "5@@": 762,
    "ни@@": 763,
    "ever": 764,
    "F": 765,
    "tors": 766,
    "пӗр": 767,
    "financial": 768,
    "ӗҫ@@": 769,
    "ен@@": 770,
    "19@@": 771,
    "--": 772,
    "ked": 773,
    "date": 774,
    "tu@@": 775,
    "ong": 776,
    "ther@@": 777,
    "ves": 778,
    "room": 779,
    "million": 780,
    "ff@@": 781,
    "и": 782,
    "means": 783,
    "ҫи@@": 784,
    "gen@@": 785,
    "health": 786,
    "ited": 787,
    "best": 788,
    "end@@": 789,
    "ard": 790,
    "companies": 791,
    "energy": 792,
    "тата": 793,
    "ҫы@@": 794,
    "ters": 795,
    "side": 796,
    "ill": 797,
    "Ac@@": 798,
    "management": 799,
    "war@@": 800,
    "w": 801,
    "her@@": 802,
    "ren@@": 803,
    "activities": 804,
    "ish": 805,
    "sel@@": 806,
    "eng@@": 807,
    "sed": 808,
    "main": 809,
    "our@@": 810,
    "table": 811,
    "cri@@": 812,
    "say": 813,
    "around": 814,
    "However": 815,
    "city": 816,
    "fy": 817,
    "since": 818,
    "tri@@": 819,
    "кала@@": 820,
    "large": 821,
    "чӗ@@": 822,
    "ality": 823,
    "State": 824,
    "think": 825,
    "products": 826,
    "inv@@": 827,
    "4@@": 828,
    "pr@@": 829,
    "En@@": 830,
    "id": 831,
    "ov": 832,
    "wor@@": 833,
    "ail": 834,
    "sen@@": 835,
    "ination": 836,
    "Moscow": 837,
    "necessary": 838,
    "ise": 839,
    "pen@@": 840,
    "present": 841,
    "ла": 842,
    "small": 843,
    "por@@": 844,
    "кан": 845,
    "Ad@@": 846,
    "А@@": 847,
    "tional": 848,
    "Sh@@": 849,
    "point": 850,
    "ран": 851,
    "az@@": 852,
    "ling": 853,
    "ect": 854,
    "ell": 855,
    "light": 856,
    "ear@@": 857,
    "All": 858,
    "ai@@": 859,
    "сӑ@@": 860,
    "ci@@": 861,
    "policy": 862,
    "L": 863,
    "called": 864,
    "fact": 865,
    "already": 866,
    "bu@@": 867,
    "aw@@": 868,
    "International": 869,
    "site": 870,
    "quality": 871,
    "wh@@": 872,
    "den": 873,
    "pres@@": 874,
    "ni@@": 875,
    "Mar@@": 876,
    "always": 877,
    "ell@@": 878,
    "ari@@": 879,
    "11": 880,
    "»": 881,
    "ke": 882,
    "йӑ@@": 883,
    "ering": 884,
    "N": 885,
    "Europe": 886,
    "hol@@": 887,
    "among": 888,
    "ft": 889,
    "put": 890,
    "person": 891,
    "going": 892,
    "z": 893,
    "ry": 894,
    "тер@@": 895,
    "What": 896,
    "fully": 897,
    "ms": 898,
    "oo@@": 899,
    "ҫын@@": 900,
    "ged": 901,
    "мӑ@@": 902,
    "region": 903,
    "air@@": 904,
    "ines": 905,
    "ре": 906,
    "ici@@": 907,
    "att@@": 908,
    "course": 909,
    "members": 910,
    "period": 911,
    "ake": 912,
    "рт@@": 913,
    "пек": 914,
    "days": 915,
    "times": 916,
    "”": 917,
    "X@@": 918,
    "ently": 919,
    "ian": 920,
    "off": 921,
    "problems": 922,
    "ub@@": 923,
    "е": 924,
    "ain@@": 925,
    "Com@@": 926,
    "Be@@": 927,
    "ни": 928,
    "men": 929,
    "don": 930,
    "Windows": 931,
    "future": 932,
    "women": 933,
    "experience": 934,
    "mat@@": 935,
    "several": 936,
    "legal": 937,
    "too": 938,
    "mi@@": 939,
    "K": 940,
    "iz@@": 941,
    "foreign": 942,
    "found": 943,
    "вара": 944,
    "val@@": 945,
    "мӗ@@": 946,
    "в@@": 947,
    "fication": 948,
    "ти@@": 949,
    "conditions": 950,
    "рса": 951,
    "0@@": 952,
    "President": 953,
    "adv@@": 954,
    "ological": 955,
    "ть": 956,
    "full": 957,
    "US": 958,
    "ҫҫӗ": 959,
    "second": 960,
    "few": 961,
    "ized": 962,
    "next": 963,
    "пы@@": 964,
    "systems": 965,
    "ade": 966,
    "мӗн": 967,
    "ning": 968,
    "non": 969,
    "give": 970,
    "du@@": 971,
    "Pl@@": 972,
    "ви@@": 973,
    "rest": 974,
    "real": 975,
    "ns": 976,
    "ва@@": 977,
    "oun@@": 978,
    "Un@@": 979,
    "нине": 980,
    "program": 981,
    "й": 982,
    "atic": 983,
    "Sp@@": 984,
    "off@@": 985,
    "50": 986,
    "special": 987,
    "open": 988,
    "ҫӗ@@": 989,
    "ship": 990,
    "ports": 991,
    "include": 992,
    "ме": 993,
    "ately": 994,
    "result": 995,
    "One": 996,
    "These": 997,
    "serv@@": 998,
    "often": 999,
    "uc@@": 1000,
    "ize": 1001,
    "current": 1002,
    "ery": 1003,
    "thing": 1004,
    "Ukraine": 1005,
    "col@@": 1006,
    "вӗ@@": 1007,
    "Di@@": 1008,
    "f": 1009,
    "gre@@": 1010,
    "value": 1011,
    "so@@": 1012,
    "\".": 1013,
    "never": 1014,
    "G": 1015,
    "file": 1016,
    "ри": 1017,
    "taken": 1018,
    "ained": 1019,
    "key": 1020,
    "provided": 1021,
    "tor@@": 1022,
    "create": 1023,
    "aff@@": 1024,
    "given": 1025,
    "det@@": 1026,
    "might": 1027,
    "resources": 1028,
    "lin@@": 1029,
    "sted": 1030,
    "2008": 1031,
    "self": 1032,
    "results": 1033,
    "away": 1034,
    "af@@": 1035,
    "act": 1036,
    "oil": 1037,
    "ҫӑ@@": 1038,
    "known": 1039,
    "mis@@": 1040,
    "ack": 1041,
    "things": 1042,
    "initi@@": 1043,
    "clo@@": 1044,
    "building": 1045,
    "ators": 1046,
    "head": 1047,
    "areas": 1048,
    "problem": 1049,
    "си@@": 1050,
    "des@@": 1051,
    "tre@@": 1052,
    "cha@@": 1053,
    "together": 1054,
    "RE@@": 1055,
    "tur@@": 1056,
    "better": 1057,
    "cap@@": 1058,
    "ir": 1059,
    "14": 1060,
    "cu@@": 1061,
    "•": 1062,
    "Republic": 1063,
    "п": 1064,
    "situation": 1065,
    "den@@": 1066,
    "position": 1067,
    "ge@@": 1068,
    "sha@@": 1069,
    "sup@@": 1070,
    "report": 1071,
    "hel@@": 1072,
    "De@@": 1073,
    "ger": 1074,
    "sign@@": 1075,
    "jo@@": 1076,
    "ban@@": 1077,
    "ones": 1078,
    "ue": 1079,
    "increase": 1080,
    "identi@@": 1081,
    "top": 1082,
    "ore": 1083,
    "ali@@": 1084,
    "further": 1085,
    "2007": 1086,
    "education": 1087,
    "Le@@": 1088,
    "хи@@": 1089,
    "IC@@": 1090,
    "issues": 1091,
    "cannot": 1092,
    "uses": 1093,
    "application": 1094,
    "computer": 1095,
    "ман": 1096,
    "gn@@": 1097,
    "making": 1098,
    "money": 1099,
    "dro@@": 1100,
    "ă@@": 1101,
    "ution": 1102,
    "list": 1103,
    "global": 1104,
    "ned": 1105,
    "type": 1106,
    "today": 1107,
    "gas": 1108,
    "row@@": 1109,
    "gs": 1110,
    "rou@@": 1111,
    "Internet": 1112,
    "New": 1113,
    "лан@@": 1114,
    "в": 1115,
    "ption": 1116,
    "others": 1117,
    "family": 1118,
    "il": 1119,
    "upon": 1120,
    "mer@@": 1121,
    "After": 1122,
    "tical": 1123,
    "ik@@": 1124,
    "Y": 1125,
    "16": 1126,
    "main@@": 1127,
    "needs": 1128,
    "ash@@": 1129,
    "air": 1130,
    "again": 1131,
    "particular": 1132,
    "tics": 1133,
    "account": 1134,
    "general": 1135,
    "For@@": 1136,
    "не@@": 1137,
    "coun@@": 1138,
    "certain": 1139,
    "home": 1140,
    ".@@": 1141,
    "term": 1142,
    "network": 1143,
    "growth": 1144,
    "coll@@": 1145,
    "little": 1146,
    "ун@@": 1147,
    "meeting": 1148,
    "25": 1149,
    "ber@@": 1150,
    "V": 1151,
    "&": 1152,
    "ght": 1153,
    "пуҫ@@": 1154,
    "comm@@": 1155,
    "18": 1156,
    "pol@@": 1157,
    "ӗнче": 1158,
    "2009": 1159,
    "mil@@": 1160,
    "ats": 1161,
    "bro@@": 1162,
    "changes": 1163,
    "ke@@": 1164,
    "Fin@@": 1165,
    "So": 1166,
    "held": 1167,
    "various": 1168,
    "impro@@": 1169,
    "field": 1170,
    "look": 1171,
    "comb@@": 1172,
    "com@@": 1173,
    "13": 1174,
    "ta@@": 1175,
    "тар@@": 1176,
    "elec@@": 1177,
    "ig@@": 1178,
    "projects": 1179,
    "press": 1180,
    "regional": 1181,
    "gation": 1182,
    "media": 1183,
    "dic@@": 1184,
    "ens": 1185,
    "face": 1186,
    "ped": 1187,
    "That": 1188,
    "sw@@": 1189,
    "ust": 1190,
    "General": 1191,
    "private": 1192,
    "start": 1193,
    "ily": 1194,
    "\",": 1195,
    "took": 1196,
    "oper@@": 1197,
    "ology": 1198,
    "win@@": 1199,
    "ри@@": 1200,
    "pass@@": 1201,
    "art": 1202,
    "training": 1203,
    "dri@@": 1204,
    "Ҫ@@": 1205,
    "Su@@": 1206,
    "Ҫӳлхуҫа": 1207,
    "Mo@@": 1208,
    "AT@@": 1209,
    "arm@@": 1210,
    "gl@@": 1211,
    "Mr": 1212,
    "due": 1213,
    "char@@": 1214,
    "whole": 1215,
    "inc@@": 1216,
    "related": 1217,
    "lic@@": 1218,
    "hy@@": 1219,
    "let": 1220,
    "ste@@": 1221,
    "ational": 1222,
    "семпе": 1223,
    "вӗсем": 1224,
    "onal": 1225,
    "hand": 1226,
    "actions": 1227,
    "equipment": 1228,
    "something": 1229,
    "World": 1230,
    "expl@@": 1231,
    "sk": 1232,
    "prof@@": 1233,
    "produc@@": 1234,
    "лӑх@@": 1235,
    "Pol@@": 1236,
    "role": 1237,
    "far": 1238,
    "research": 1239,
    "ests": 1240,
    "Au@@": 1241,
    "war": 1242,
    "trade": 1243,
    "ll": 1244,
    "industry": 1245,
    "fo@@": 1246,
    "ef": 1247,
    "interest": 1248,
    "above": 1249,
    "IN@@": 1250,
    "int@@": 1251,
    "technology": 1252,
    "server": 1253,
    "vo@@": 1254,
    "least": 1255,
    "China": 1256,
    "tion@@": 1257,
    "natural": 1258,
    "commit@@": 1259,
    "ил@@": 1260,
    "ase": 1261,
    "organizations": 1262,
    "indic@@": 1263,
    "click": 1264,
    "society": 1265,
    "user": 1266,
    "anc@@": 1267,
    "кай@@": 1268,
    "ection": 1269,
    "ve@@": 1270,
    "лен@@": 1271,
    "lar@@": 1272,
    "ground": 1273,
    "real@@": 1274,
    "groups": 1275,
    "major": 1276,
    "left": 1277,
    "pi@@": 1278,
    "works": 1279,
    "ot": 1280,
    "Per@@": 1281,
    "stri@@": 1282,
    "software": 1283,
    "ner": 1284,
    "24": 1285,
    "17": 1286,
    "ization": 1287,
    "ically": 1288,
    "пур@@": 1289,
    "ins": 1290,
    "sure": 1291,
    "cooperation": 1292,
    "Wh@@": 1293,
    "came": 1294,
    "Committee": 1295,
    "нӑ@@": 1296,
    "Pr@@": 1297,
    "Council": 1298,
    "says": 1299,
    "developed": 1300,
    "эпӗ": 1301,
    "according": 1302,
    "TV": 1303,
    "вы@@": 1304,
    "He@@": 1305,
    "range": 1306,
    "wi@@": 1307,
    "military": 1308,
    "National": 1309,
    "With": 1310,
    "vir@@": 1311,
    "Bo@@": 1312,
    "until": 1313,
    "Bank": 1314,
    "ы@@": 1315,
    "lot": 1316,
    "forms": 1317,
    "ша@@": 1318,
    "def@@": 1319,
    "common": 1320,
    "ӗҫ": 1321,
    "ҫине": 1322,
    "bre@@": 1323,
    "measures": 1324,
    "2010": 1325,
    "authorities": 1326,
    "sum@@": 1327,
    "ches": 1328,
    "tal@@": 1329,
    "protection": 1330,
    "ges": 1331,
    "property": 1332,
    "CO@@": 1333,
    "fer@@": 1334,
    "ӗр@@": 1335,
    "Вӑл": 1336,
    "why": 1337,
    "ili@@": 1338,
    "eri@@": 1339,
    "construction": 1340,
    "really": 1341,
    "No": 1342,
    "AR@@": 1343,
    "row": 1344,
    "iting": 1345,
    "spe@@": 1346,
    "operation": 1347,
    "half": 1348,
    "dre@@": 1349,
    "terms": 1350,
    "ire": 1351,
    "whether": 1352,
    "чӑ@@": 1353,
    "book": 1354,
    "men@@": 1355,
    "plan@@": 1356,
    "Gu@@": 1357,
    "arti@@": 1358,
    "Mon@@": 1359,
    "months": 1360,
    "ҫинчен": 1361,
    "ER@@": 1362,
    "ei@@": 1363,
    "American": 1364,
    "ys": 1365,
    "os": 1366,
    "тан": 1367,
    "basis": 1368,
    "100": 1369,
    "тӑр": 1370,
    "force": 1371,
    "price": 1372,
    "UN@@": 1373,
    "wide": 1374,
    "son": 1375,
    "community": 1376,
    "users": 1377,
    "percent": 1378,
    "decision": 1379,
    "required": 1380,
    "located": 1381,
    "су@@": 1382,
    "ail@@": 1383,
    "ча@@": 1384,
    "total": 1385,
    "ха": 1386,
    "specific": 1387,
    "ping": 1388,
    "contribu@@": 1389,
    "play": 1390,
    "aster": 1391,
    "ied": 1392,
    "tory": 1393,
    "cases": 1394,
    "later": 1395,
    "food": 1396,
    "е@@": 1397,
    "Pri@@": 1398,
    "four": 1399,
    "having": 1400,
    "ples": 1401,
    "words": 1402,
    "dem@@": 1403,
    "care": 1404,
    "history": 1405,
    "sti@@": 1406,
    "especially": 1407,
    "economy": 1408,
    "acy": 1409,
    "ple": 1410,
    "knowledge": 1411,
    "ce": 1412,
    "Wor@@": 1413,
    "hard": 1414,
    "40": 1415,
    "ets": 1416,
    "ensure": 1417,
    "house": 1418,
    "Ҫа@@": 1419,
    "cop@@": 1420,
    "rate": 1421,
    "тух@@": 1422,
    "head@@": 1423,
    "fu@@": 1424,
    "кун@@": 1425,
    "exc@@": 1426,
    "defin@@": 1427,
    "low@@": 1428,
    "ening": 1429,
    "kind": 1430,
    "ca@@": 1431,
    "activity": 1432,
    "кан@@": 1433,
    "show": 1434,
    "20@@": 1435,
    "mission": 1436,
    "И@@": 1437,
    "Me@@": 1438,
    "Soviet": 1439,
    "лӑх": 1440,
    "pris@@": 1441,
    "word": 1442,
    "ile": 1443,
    "implementation": 1444,
    "mul@@": 1445,
    "vic@@": 1446,
    "close": 1447,
    "X": 1448,
    "ities": 1449,
    "exten@@": 1450,
    "пулнӑ": 1451,
    "ud@@": 1452,
    "пӗл@@": 1453,
    "тенӗ": 1454,
    "once": 1455,
    "ick": 1456,
    "AN@@": 1457,
    "technical": 1458,
    "environment": 1459,
    "space": 1460,
    "мар": 1461,
    "cle@@": 1462,
    "try": 1463,
    "higher": 1464,
    "population": 1465,
    "past": 1466,
    "speci@@": 1467,
    "issue": 1468,
    "dra@@": 1469,
    "пат@@": 1470,
    "cost": 1471,
    "young": 1472,
    "IT@@": 1473,
    "page": 1474,
    "cent@@": 1475,
    "By": 1476,
    "ack@@": 1477,
    "sky": 1478,
    "pt": 1479,
    "spec@@": 1480,
    "ls": 1481,
    "gener@@": 1482,
    "рӑн@@": 1483,
    "ach@@": 1484,
    "performance": 1485,
    "bur@@": 1486,
    "early": 1487,
    "tle": 1488,
    "amount": 1489,
    "ered": 1490,
    "active": 1491,
    "cor@@": 1492,
    "avi@@": 1493,
    "taking": 1494,
    "ging": 1495,
    "product": 1496,
    "effective": 1497,
    "ases": 1498,
    "risk": 1499,
    "rit@@": 1500,
    "offer": 1501,
    "design": 1502,
    "organization": 1503,
    "ually": 1504,
    "facilities": 1505,
    "хӑй@@": 1506,
    "18@@": 1507,
    "live": 1508,
    "Government": 1509,
    "ication": 1510,
    "equ@@": 1511,
    "tain": 1512,
    "H": 1513,
    "either": 1514,
    "2006": 1515,
    "тӳ@@": 1516,
    "living": 1517,
    "love": 1518,
    "five": 1519,
    "provides": 1520,
    "jud@@": 1521,
    "itself": 1522,
    "tran@@": 1523,
    "ories": 1524,
    "however": 1525,
    "personal": 1526,
    "created": 1527,
    "grad@@": 1528,
    "ther": 1529,
    "del@@": 1530,
    "ished": 1531,
    "language": 1532,
    "hun@@": 1533,
    "almost": 1534,
    "lab@@": 1535,
    "became": 1536,
    "bri@@": 1537,
    "val": 1538,
    "offers": 1539,
    "sm@@": 1540,
    "унӑн": 1541,
    "remo@@": 1542,
    "Im@@": 1543,
    "ang@@": 1544,
    "child": 1545,
    "third": 1546,
    "investment": 1547,
    "box": 1548,
    "IS@@": 1549,
    "ҫ": 1550,
    "assi@@": 1551,
    "Ma@@": 1552,
    "ach": 1553,
    "ме@@": 1554,
    "rather": 1555,
    "party": 1556,
    "size": 1557,
    "believe": 1558,
    "ish@@": 1559,
    "His": 1560,
    "des": 1561,
    "Эпӗ": 1562,
    "Union": 1563,
    "question": 1564,
    "single": 1565,
    "team": 1566,
    "addition": 1567,
    "direc@@": 1568,
    "mor@@": 1569,
    "sector": 1570,
    "school": 1571,
    "ards": 1572,
    "suppl@@": 1573,
    "ways": 1574,
    "anti@@": 1575,
    "inf@@": 1576,
    "fun@@": 1577,
    "done": 1578,
    "loc@@": 1579,
    "developing": 1580,
    "Our": 1581,
    "2005": 1582,
    "expen@@": 1583,
    "ago": 1584,
    "тса": 1585,
    "ose": 1586,
    "Group": 1587,
    "go@@": 1588,
    "ак@@": 1589,
    "Regi@@": 1590,
    "plan": 1591,
    "member": 1592,
    "wat@@": 1593,
    "individual": 1594,
    "ey": 1595,
    "tel@@": 1596,
    "stan@@": 1597,
    "clear": 1598,
    "ris@@": 1599,
    "ress": 1600,
    "ements": 1601,
    "represent@@": 1602,
    "comes": 1603,
    "exp@@": 1604,
    "хӗ@@": 1605,
    "Microsoft": 1606,
    "leg@@": 1607,
    "э@@": 1608,
    "capital": 1609,
    "game": 1610,
    "Se@@": 1611,
    "etc": 1612,
    "address": 1613,
    "19": 1614,
    "ӗнтӗ": 1615,
    "mark@@": 1616,
    "fil@@": 1617,
    "ame": 1618,
    "are@@": 1619,
    "share": 1620,
    "тӗр@@": 1621,
    "continue": 1622,
    "ications": 1623,
    "…": 1624,
    "themselves": 1625,
    "trac@@": 1626,
    "respon@@": 1627,
    "ined": 1628,
    "ected": 1629,
    "commun@@": 1630,
    "ven@@": 1631,
    "coming": 1632,
    "jec@@": 1633,
    "bar@@": 1634,
    "mind": 1635,
    "started": 1636,
    "ars": 1637,
    "yet": 1638,
    "modern": 1639,
    "established": 1640,
    "teach@@": 1641,
    "чен": 1642,
    "road": 1643,
    "fol@@": 1644,
    "тесе": 1645,
    "manufac@@": 1646,
    "хи": 1647,
    "additional": 1648,
    "According": 1649,
    "work@@": 1650,
    "chan@@": 1651,
    "door": 1652,
    "enough": 1653,
    "run": 1654,
    "21": 1655,
    "ists": 1656,
    "received": 1657,
    "files": 1658,
    "olo@@": 1659,
    "version": 1660,
    "hold": 1661,
    "ders": 1662,
    "tim@@": 1663,
    "Service": 1664,
    "ously": 1665,
    "sou@@": 1666,
    "ave": 1667,
    "Ro@@": 1668,
    "features": 1669,
    "ber": 1670,
    "capacity": 1671,
    "keep": 1672,
    "Ab@@": 1673,
    "pe": 1674,
    "got": 1675,
    "Server": 1676,
    "chi@@": 1677,
    "Qu@@": 1678,
    "potential": 1679,
    "ices": 1680,
    "atory": 1681,
    "via": 1682,
    "institutions": 1683,
    "шӑн": 1684,
    "mit": 1685,
    "вӗсене": 1686,
    "ues": 1687,
    "ш": 1688,
    "ҫав": 1689,
    "events": 1690,
    "Some": 1691,
    "Convention": 1692,
    "documents": 1693,
    "2003": 1694,
    "peri@@": 1695,
    "back@@": 1696,
    "call": 1697,
    "ghts": 1698,
    "bank": 1699,
    "ласа": 1700,
    "ale": 1701,
    "nuclear": 1702,
    "ath": 1703,
    "inten@@": 1704,
    "tice": 1705,
    "aged": 1706,
    "Company": 1707,
    "cur@@": 1708,
    "ze": 1709,
    "emp@@": 1710,
    "cam@@": 1711,
    "00": 1712,
    "ret@@": 1713,
    "outh": 1714,
    "dio": 1715,
    "че": 1716,
    "fr@@": 1717,
    "ster": 1718,
    "чу@@": 1719,
    "ле": 1720,
    "co": 1721,
    "ти": 1722,
    "exam@@": 1723,
    "кил@@": 1724,
    "test": 1725,
    "Kazakhstan": 1726,
    "22": 1727,
    "tw@@": 1728,
    "RO@@": 1729,
    "efforts": 1730,
    "Nations": 1731,
    "cip@@": 1732,
    "billion": 1733,
    "Article": 1734,
    "went": 1735,
    "though": 1736,
    "ched": 1737,
    "60": 1738,
    "To@@": 1739,
    "mag@@": 1740,
    "materials": 1741,
    "aid": 1742,
    "ital": 1743,
    "ҫӗр@@": 1744,
    "nature": 1745,
    "ли@@": 1746,
    "arch@@": 1747,
    "sent": 1748,
    "makes": 1749,
    "Central": 1750,
    "ori@@": 1751,
    "lim@@": 1752,
    "acts": 1753,
    "ты@@": 1754,
    "ort": 1755,
    "increased": 1756,
    "ten": 1757,
    "ency": 1758,
    "mit@@": 1759,
    "Min@@": 1760,
    "шӗ": 1761,
    "ide@@": 1762,
    "treatment": 1763,
    "material": 1764,
    "Web": 1765,
    "persons": 1766,
    "Tr@@": 1767,
    "10@@": 1768,
    "Co@@": 1769,
    "ман@@": 1770,
    "exper@@": 1771,
    "ably": 1772,
    "hand@@": 1773,
    "event": 1774,
    "content": 1775,
    "ev": 1776,
    "ables": 1777,
    "turned": 1778,
    "Inter@@": 1779,
    "тӑра@@": 1780,
    "рӗҫ": 1781,
    "Am@@": 1782,
    "century": 1783,
    "sy@@": 1784,
    "ops": 1785,
    "каланӑ": 1786,
    "Rec@@": 1787,
    "мӗш": 1788,
    "ҫавӑ@@": 1789,
    "ҫапла": 1790,
    "han@@": 1791,
    "tes": 1792,
    "bed": 1793,
    "Э@@": 1794,
    "short": 1795,
    "Now": 1796,
    "states": 1797,
    "considered": 1798,
    "source": 1799,
    "How": 1800,
    "W": 1801,
    "music": 1802,
    "ка": 1803,
    "ash": 1804,
    "шӗн": 1805,
    "cul@@": 1806,
    "ased": 1807,
    "ere": 1808,
    "чи@@": 1809,
    "Res@@": 1810,
    "ects": 1811,
    "car": 1812,
    "turn": 1813,
    "attention": 1814,
    "itation": 1815,
    "achiev@@": 1816,
    "tural": 1817,
    "prin@@": 1818,
    "tual": 1819,
    "strong": 1820,
    "told": 1821,
    "appropriate": 1822,
    "requirements": 1823,
    "ina": 1824,
    "study": 1825,
    "centre": 1826,
    ".,": 1827,
    "hours": 1828,
    "existing": 1829,
    "relations": 1830,
    "levels": 1831,
    "ron@@": 1832,
    "ingly": 1833,
    "рах": 1834,
    "пар@@": 1835,
    "along": 1836,
    "mp@@": 1837,
    "ised": 1838,
    "parties": 1839,
    "shi@@": 1840,
    "ass": 1841,
    "Dis@@": 1842,
    "seen": 1843,
    "read": 1844,
    "screen": 1845,
    "included": 1846,
    "US@@": 1847,
    "се@@": 1848,
    "understand": 1849,
    "appe@@": 1850,
    "ool": 1851,
    "ар@@": 1852,
    "staff": 1853,
    "198@@": 1854,
    "former": 1855,
    "ak": 1856,
    "article": 1857,
    "my@@": 1858,
    "University": 1859,
    "regul@@": 1860,
    "allow": 1861,
    "reason": 1862,
    "Ministry": 1863,
    "reli@@": 1864,
    "phone": 1865,
    "ested": 1866,
    "true": 1867,
    "feel": 1868,
    "EU": 1869,
    "select": 1870,
    "subject": 1871,
    "мана": 1872,
    "aries": 1873,
    "quite": 1874,
    "visit": 1875,
    "develop": 1876,
    "began": 1877,
    "approach": 1878,
    "complete": 1879,
    "ring": 1880,
    "EN@@": 1881,
    "ute": 1882,
    "significant": 1883,
    "23": 1884,
    "dist@@": 1885,
    "dly": 1886,
    "recogn@@": 1887,
    "IS": 1888,
    "ref@@": 1889,
    "includes": 1890,
    "ath@@": 1891,
    "text": 1892,
    "big": 1893,
    "cent": 1894,
    "ense": 1895,
    "я": 1896,
    "standards": 1897,
    "emer@@": 1898,
    "tem@@": 1899,
    "She": 1900,
    "pay": 1901,
    "official": 1902,
    "mechan@@": 1903,
    "everything": 1904,
    "viol@@": 1905,
    "agreement": 1906,
    "difficult": 1907,
    "tax": 1908,
    "qui@@": 1909,
    "office": 1910,
    "Or@@": 1911,
    "sch@@": 1912,
    "ented": 1913,
    "workers": 1914,
    "2000": 1915,
    "2004": 1916,
    "respect": 1917,
    "crisis": 1918,
    "sible": 1919,
    "During": 1920,
    "gar@@": 1921,
    "An": 1922,
    "similar": 1923,
    "ser": 1924,
    "bar": 1925,
    "cles": 1926,
    "ential": 1927,
    "class": 1928,
    "rap@@": 1929,
    "anim@@": 1930,
    "likely": 1931,
    "Development": 1932,
    "built": 1933,
    "AS@@": 1934,
    "atives": 1935,
    "South": 1936,
    "nothing": 1937,
    "leading": 1938,
    "pan@@": 1939,
    "appro@@": 1940,
    "connection": 1941,
    "hor@@": 1942,
    "prices": 1943,
    "cour@@": 1944,
    "points": 1945,
    "eting": 1946,
    "directly": 1947,
    "cr@@": 1948,
    "December": 1949,
    "document": 1950,
    "death": 1951,
    "Services": 1952,
    "board": 1953,
    "ather": 1954,
    "ӗсем": 1955,
    "lock": 1956,
    "ҫак@@": 1957,
    "depen@@": 1958,
    "Sy@@": 1959,
    "mun@@": 1960,
    "ҫын": 1961,
    "operating": 1962,
    "resid@@": 1963,
    "applications": 1964,
    "\"@@": 1965,
    "К@@": 1966,
    "EC@@": 1967,
    "Federation": 1968,
    "Col@@": 1969,
    "lower": 1970,
    "port@@": 1971,
    "parts": 1972,
    "conc@@": 1973,
    "fav@@": 1974,
    "tro@@": 1975,
    "resp@@": 1976,
    "fic@@": 1977,
    "чи": 1978,
    "May": 1979,
    "sugg@@": 1980,
    "show@@": 1981,
    "ju@@": 1982,
    "ays": 1983,
    "part@@": 1984,
    "September": 1985,
    "Office": 1986,
    "June": 1987,
    "effect": 1988,
    "students": 1989,
    "П@@": 1990,
    "conclu@@": 1991,
    "fore@@": 1992,
    "Germany": 1993,
    "ya": 1994,
    "Bl@@": 1995,
    "ka": 1996,
    "night": 1997,
    "Si@@": 1998,
    "migr@@": 1999,
    "relevant": 2000,
    "views": 2001,
    "uring": 2002,
    "receive": 2003,
    "od@@": 2004,
    "model": 2005,
    "ams": 2006,
    "programs": 2007,
    "exchange": 2008,
    "purpose": 2009,
    "йӗр@@": 2010,
    "medi@@": 2011,
    "ich": 2012,
    "thy": 2013,
    "sting": 2014,
    "matter": 2015,
    "pa@@": 2016,
    "direct": 2017,
    "consum@@": 2018,
    "standard": 2019,
    "tation": 2020,
    "structure": 2021,
    "easy": 2022,
    "хӗр@@": 2023,
    "posed": 2024,
    "idea": 2025,
    "costs": 2026,
    "ask": 2027,
    "operations": 2028,
    "bel@@": 2029,
    "thought": 2030,
    "stage": 2031,
    "recent": 2032,
    "hab@@": 2033,
    "пур": 2034,
    "cle": 2035,
    "tures": 2036,
    "promo@@": 2037,
    "ҫӳ@@": 2038,
    "video": 2039,
    "aut@@": 2040,
    "heart": 2041,
    "cy@@": 2042,
    "physical": 2043,
    "km": 2044,
    "Bu@@": 2045,
    "minutes": 2046,
    "drive": 2047,
    "ann@@": 2048,
    "ush": 2049,
    "requ@@": 2050,
    "tan@@": 2051,
    "laun@@": 2052,
    "From": 2053,
    "status": 2054,
    "cultural": 2055,
    "Nor@@": 2056,
    "рӑм": 2057,
    "ens@@": 2058,
    "clu@@": 2059,
    "sem@@": 2060,
    "manag@@": 2061,
    "America": 2062,
    "forces": 2063,
    "signed": 2064,
    "beginning": 2065,
    "Хӑ@@": 2066,
    "markets": 2067,
    "demand": 2068,
    "fir@@": 2069,
    "regions": 2070,
    "Турӑ": 2071,
    "meet": 2072,
    "consul@@": 2073,
    "ST@@": 2074,
    "draw@@": 2075,
    "location": 2076,
    "contact": 2077,
    "near": 2078,
    "vers@@": 2079,
    "needed": 2080,
    "ending": 2081,
    "himself": 2082,
    "Then": 2083,
    "March": 2084,
    "aving": 2085,
    "search": 2086,
    "across": 2087,
    "шы@@": 2088,
    "formed": 2089,
    "divi@@": 2090,
    "ners": 2091,
    "types": 2092,
    "meas@@": 2093,
    "Is@@": 2094,
    "ӗр": 2095,
    "ывӑ@@": 2096,
    "estim@@": 2097,
    "assistance": 2098,
    "professional": 2099,
    "desi@@": 2100,
    "bran@@": 2101,
    "ҫит@@": 2102,
    "safety": 2103,
    "scri@@": 2104,
    "Hol@@": 2105,
    "тӑрӑ@@": 2106,
    "investi@@": 2107,
    "хы@@": 2108,
    "rules": 2109,
    "+": 2110,
    "code": 2111,
    "towards": 2112,
    "customers": 2113,
    "complex": 2114,
    "малла": 2115,
    "descri@@": 2116,
    "ition": 2117,
    "vol@@": 2118,
    "read@@": 2119,
    "lan@@": 2120,
    "Gre@@": 2121,
    "om": 2122,
    "ligh@@": 2123,
    "supply": 2124,
    "gue": 2125,
    "кур@@": 2126,
    "ке@@": 2127,
    "return": 2128,
    "pay@@": 2129,
    "nor@@": 2130,
    "reg@@": 2131,
    "October": 2132,
    "pp@@": 2133,
    "na": 2134,
    "bit": 2135,
    "OR@@": 2136,
    "ever@@": 2137,
    "illing": 2138,
    "bring": 2139,
    "ounds": 2140,
    "ety": 2141,
    "mitted": 2142,
    "asked": 2143,
    "goods": 2144,
    "expected": 2145,
    "vers": 2146,
    "questions": 2147,
    "sto@@": 2148,
    "image": 2149,
    "limited": 2150,
    "cause": 2151,
    "hon@@": 2152,
    "stor@@": 2153,
    "В@@": 2154,
    "вӑр@@": 2155,
    "Q@@": 2156,
    "observ@@": 2157,
    "esses": 2158,
    "eli@@": 2159,
    "invol@@": 2160,
    "28": 2161,
    "ччӗ": 2162,
    "terror@@": 2163,
    "outside": 2164,
    "wa@@": 2165,
    "tou@@": 2166,
    "center": 2167,
    "Belarus": 2168,
    "mail": 2169,
    "week": 2170,
    "ick@@": 2171,
    "хӑйӗн": 2172,
    "sites": 2173,
    "solution": 2174,
    "laws": 2175,
    "тӑп": 2176,
    "eral": 2177,
    "Ser@@": 2178,
    "While": 2179,
    "down@@": 2180,
    "medical": 2181,
    "looking": 2182,
    "acks": 2183,
    "ric@@": 2184,
    "placed": 2185,
    "ан@@": 2186,
    "step": 2187,
    "refer@@": 2188,
    "message": 2189,
    "front": 2190,
    "refl@@": 2191,
    "interests": 2192,
    "contin@@": 2193,
    "longer": 2194,
    "26": 2195,
    "stry": 2196,
    "istic": 2197,
    "practice": 2198,
    "asi@@": 2199,
    "ances": 2200,
    "incre@@": 2201,
    "лар@@": 2202,
    "soci@@": 2203,
    "simply": 2204,
    "lines": 2205,
    "_@@": 2206,
    "policies": 2207,
    "see@@": 2208,
    "rely": 2209,
    "gg@@": 2210,
    "No@@": 2211,
    "ыт@@": 2212,
    "dy": 2213,
    "claim@@": 2214,
    "sal@@": 2215,
    "opportunity": 2216,
    "allows": 2217,
    "January": 2218,
    "27": 2219,
    "technologies": 2220,
    "participants": 2221,
    "ek": 2222,
    "pat@@": 2223,
    "пӗр@@": 2224,
    "dev@@": 2225,
    "сан": 2226,
    "vision": 2227,
    "therefore": 2228,
    "protec@@": 2229,
    "moun@@": 2230,
    "star@@": 2231,
    "particularly": 2232,
    "played": 2233,
    "boo@@": 2234,
    "photo@@": 2235,
    "ун": 2236,
    "St": 2237,
    "reports": 2238,
    "ан": 2239,
    "THE": 2240,
    "erous": 2241,
    "month": 2242,
    "RA@@": 2243,
    "ate@@": 2244,
    "Op@@": 2245,
    "suff@@": 2246,
    "сы@@": 2247,
    "eption": 2248,
    "хӑй": 2249,
    "Cor@@": 2250,
    "tively": 2251,
    "attemp@@": 2252,
    "ES": 2253,
    "ature": 2254,
    "written": 2255,
    ">": 2256,
    "Ма@@": 2257,
    "doc@@": 2258,
    "dom@@": 2259,
    "sense": 2260,
    "culture": 2261,
    "analysis": 2262,
    "ective": 2263,
    "check": 2264,
    "ҫӗр": 2265,
    "new@@": 2266,
    "cer@@": 2267,
    "section": 2268,
    "ну@@": 2269,
    "session": 2270,
    "ree": 2271,
    "promis@@": 2272,
    "income": 2273,
    "lead": 2274,
    "тӑн": 2275,
    "leaders": 2276,
    "scientific": 2277,
    "рӗ@@": 2278,
    "ур@@": 2279,
    "stre@@": 2280,
    "патне": 2281,
    "choose": 2282,
    "build": 2283,
    "ths": 2284,
    "designed": 2285,
    "сӑр": 2286,
    "applic@@": 2287,
    "ulation": 2288,
    "ound": 2289,
    "plans": 2290,
    "ĕ@@": 2291,
    "unique": 2292,
    "ву@@": 2293,
    "whose": 2294,
    "improve": 2295,
    "heav@@": 2296,
    "care@@": 2297,
    "bal@@": 2298,
    "April": 2299,
    "request": 2300,
    "alist": 2301,
    "ven": 2302,
    "accordance": 2303,
    "wit@@": 2304,
    "Since": 2305,
    "ӗнчен": 2306,
    "aci@@": 2307,
    "aning": 2308,
    "ready": 2309,
    "Vi@@": 2310,
    "bor@@": 2311,
    "charge": 2312,
    "Ri@@": 2313,
    "Bi@@": 2314,
    "Bal@@": 2315,
    "Т@@": 2316,
    "device": 2317,
    "31": 2318,
    "erv@@": 2319,
    "хуш@@": 2320,
    "Security": 2321,
    "consider@@": 2322,
    "band": 2323,
    "Israel": 2324,
    "пурӑн@@": 2325,
    "simple": 2326,
    "cat@@": 2327,
    "que": 2328,
    "pool": 2329,
    "uty": 2330,
    "move": 2331,
    "impact": 2332,
    "brought": 2333,
    "pul@@": 2334,
    "verse": 2335,
    "era": 2336,
    "ular": 2337,
    "doing": 2338,
    "alism": 2339,
    "saw": 2340,
    "basic": 2341,
    "dol@@": 2342,
    "aking": 2343,
    "Minister": 2344,
    "Commission": 2345,
    "independent": 2346,
    "Asia": 2347,
    "values": 2348,
    "guaran@@": 2349,
    "лла": 2350,
    "six": 2351,
    "sides": 2352,
    "ounded": 2353,
    "ware": 2354,
    "environmental": 2355,
    "med": 2356,
    "Sci@@": 2357,
    "added": 2358,
    "uration": 2359,
    "?@@": 2360,
    "categ@@": 2361,
    "methods": 2362,
    "load": 2363,
    "develop@@": 2364,
    "Ukrainian": 2365,
    "ҫул@@": 2366,
    "em": 2367,
    "ap": 2368,
    "ру@@": 2369,
    "usually": 2370,
    "loo@@": 2371,
    "ord@@": 2372,
    "average": 2373,
    "prec@@": 2374,
    "peace": 2375,
    "aging": 2376,
    "ships": 2377,
    "Center": 2378,
    "fast": 2379,
    "police": 2380,
    "stu@@": 2381,
    "involved": 2382,
    "transport": 2383,
    "positive": 2384,
    "uti@@": 2385,
    "progress": 2386,
    "bil@@": 2387,
    "ayer": 2388,
    "OF": 2389,
    "Cl@@": 2390,
    "fa@@": 2391,
    "Board": 2392,
    "ells": 2393,
    "paid": 2394,
    "Cre@@": 2395,
    "traditional": 2396,
    "nam@@": 2397,
    "пӑх@@": 2398,
    "My": 2399,
    "Car@@": 2400,
    "president": 2401,
    "arm": 2402,
    "ching": 2403,
    "Trans@@": 2404,
    "Hi@@": 2405,
    "cir@@": 2406,
    "ains": 2407,
    "arri@@": 2408,
    "consider": 2409,
    "English": 2410,
    "moment": 2411,
    "thern": 2412,
    "streng@@": 2413,
    "court": 2414,
    "ound@@": 2415,
    "ming": 2416,
    "ese": 2417,
    "zed": 2418,
    "Fi@@": 2419,
    "programme": 2420,
    "чухне": 2421,
    "As@@": 2422,
    "Ка@@": 2423,
    "town": 2424,
    "ower": 2425,
    "che@@": 2426,
    "abilities": 2427,
    "Sch@@": 2428,
    "card": 2429,
    "xed": 2430,
    "Cha@@": 2431,
    "connec@@": 2432,
    "чӗҫ": 2433,
    "ler": 2434,
    "analy@@": 2435,
    "prepar@@": 2436,
    "territory": 2437,
    "Е@@": 2438,
    "ly@@": 2439,
    "ush@@": 2440,
    "struc@@": 2441,
    "below": 2442,
    "aun@@": 2443,
    "ites": 2444,
    "dates": 2445,
    "tru@@": 2446,
    "tioning": 2447,
    "processes": 2448,
    "thre@@": 2449,
    "function": 2450,
    "carried": 2451,
    "alls": 2452,
    "soon": 2453,
    "70": 2454,
    "responsible": 2455,
    "itable": 2456,
    "econom@@": 2457,
    "IP": 2458,
    "providing": 2459,
    "wel@@": 2460,
    "Commun@@": 2461,
    "super@@": 2462,
    "bodies": 2463,
    "ental": 2464,
    "Director": 2465,
    "industrial": 2466,
    "Institute": 2467,
    "Can@@": 2468,
    "representatives": 2469,
    "Turk@@": 2470,
    "budget": 2471,
    "istan": 2472,
    "enh@@": 2473,
    "stay": 2474,
    "мӑр": 2475,
    "accep@@": 2476,
    "East": 2477,
    "civil": 2478,
    "takes": 2479,
    "alter@@": 2480,
    "method": 2481,
    "jus@@": 2482,
    "citizens": 2483,
    "рӑн": 2484,
    "changed": 2485,
    "vari@@": 2486,
    "web": 2487,
    "conflict": 2488,
    "German": 2489,
    "successful": 2490,
    "science": 2491,
    "ner@@": 2492,
    "Med@@": 2493,
    "July": 2494,
    "tell": 2495,
    "apart@@": 2496,
    "нах": 2497,
    "ere@@": 2498,
    "Ob@@": 2499,
    ",@@": 2500,
    "вӑхӑ@@": 2501,
    "yer": 2502,
    "previous": 2503,
    "poli@@": 2504,
    "sales": 2505,
    "competi@@": 2506,
    "com": 2507,
    "uments": 2508,
    "shows": 2509,
    "ah": 2510,
    "add": 2511,
    "versity": 2512,
    "Ph@@": 2513,
    "ey@@": 2514,
    "believ@@": 2515,
    "comfor@@": 2516,
    "growing": 2517,
    "cal@@": 2518,
    "2002": 2519,
    ");": 2520,
    "recei@@": 2521,
    "exclu@@": 2522,
    "ket": 2523,
    "First": 2524,
    "32": 2525,
    "ining": 2526,
    "experts": 2527,
    "design@@": 2528,
    "aling": 2529,
    "Man@@": 2530,
    "bir@@": 2531,
    "Techn@@": 2532,
    "cover": 2533,
    "Many": 2534,
    "domestic": 2535,
    "ys@@": 2536,
    "alization": 2537,
    "get@@": 2538,
    "conference": 2539,
    "ant@@": 2540,
    "анчах": 2541,
    "won": 2542,
    "HIV": 2543,
    "nership": 2544,
    "success": 2545,
    "ep": 2546,
    "serious": 2547,
    "пула@@": 2548,
    "ful@@": 2549,
    "contr@@": 2550,
    "partners": 2551,
    "client": 2552,
    "view@@": 2553,
    "organis@@": 2554,
    "ater": 2555,
    "Party": 2556,
    "November": 2557,
    "ew@@": 2558,
    "thus": 2559,
    "илсе": 2560,
    "religious": 2561,
    "strategy": 2562,
    "actually": 2563,
    "principles": 2564,
    "dialo@@": 2565,
    "sul@@": 2566,
    "ries": 2567,
    "entire": 2568,
    "izing": 2569,
    "dit": 2570,
    "Room": 2571,
    "dge": 2572,
    "Direc@@": 2573,
    "North": 2574,
    "Court": 2575,
    "covered": 2576,
    "experi@@": 2577,
    "database": 2578,
    "uation": 2579,
    "freedom": 2580,
    "special@@": 2581,
    "ша": 2582,
    "participation": 2583,
    "Chinese": 2584,
    "places": 2585,
    "ee": 2586,
    "va": 2587,
    "tra@@": 2588,
    "ech": 2589,
    "29": 2590,
    "author@@": 2591,
    "officials": 2592,
    "central": 2593,
    "base": 2594,
    "ши": 2595,
    "Са@@": 2596,
    "IM@@": 2597,
    "Azerbaijan": 2598,
    "ION": 2599,
    "frequ@@": 2600,
    "ми@@": 2601,
    "graph@@": 2602,
    "steps": 2603,
    "Of": 2604,
    "ior": 2605,
    "Your": 2606,
    "nal": 2607,
    "Putin": 2608,
    "remain": 2609,
    "эсӗ": 2610,
    "online": 2611,
    "Ва@@": 2612,
    "didn": 2613,
    "pu@@": 2614,
    "funds": 2615,
    "multi@@": 2616,
    "hope": 2617,
    "0s": 2618,
    "particip@@": 2619,
    "gets": 2620,
    "80": 2621,
    "thousand": 2622,
    "anything": 2623,
    "greater": 2624,
    "addres@@": 2625,
    "The@@": 2626,
    "че@@": 2627,
    "credit": 2628,
    "option": 2629,
    "500": 2630,
    "pain@@": 2631,
    "evol@@": 2632,
    "Pre@@": 2633,
    "Ital@@": 2634,
    "reserv@@": 2635,
    "vention": 2636,
    "ink": 2637,
    "friends": 2638,
    "config@@": 2639,
    "pic@@": 2640,
    "connected": 2641,
    "explo@@": 2642,
    "attrac@@": 2643,
    "spo@@": 2644,
    "published": 2645,
    "employment": 2646,
    "eval@@": 2647,
    "payment": 2648,
    "sequ@@": 2649,
    "aring": 2650,
    "encour@@": 2651,
    "resi@@": 2652,
    "rates": 2653,
    "ker": 2654,
    "banks": 2655,
    "тӑм": 2656,
    "tar@@": 2657,
    "itors": 2658,
    "Ta@@": 2659,
    "concer@@": 2660,
    "station": 2661,
    "ER": 2662,
    "ер@@": 2663,
    "series": 2664,
    "plant": 2665,
    "memory": 2666,
    "func@@": 2667,
    "follow": 2668,
    "tee": 2669,
    "scen@@": 2670,
    "rain": 2671,
    "activ@@": 2672,
    "Po@@": 2673,
    "lands": 2674,
    "enc@@": 2675,
    "stance": 2676,
    "eria": 2677,
    "stop": 2678,
    "influence": 2679,
    "сассӑн": 2680,
    "tives": 2681,
    "Lu@@": 2682,
    "sor@@": 2683,
    "oph@@": 2684,
    "popular": 2685,
    "impl@@": 2686,
    "occup@@": 2687,
    "enced": 2688,
    "35": 2689,
    "expan@@": 2690,
    "Department": 2691,
    "у": 2692,
    "deli@@": 2693,
    "decided": 2694,
    "lost": 2695,
    "lives": 2696,
    "ising": 2697,
    "website": 2698,
    "broad@@": 2699,
    "Ne@@": 2700,
    "sign": 2701,
    "control@@": 2702,
    "running": 2703,
    "standing": 2704,
    "enter": 2705,
    "ore@@": 2706,
    "AC@@": 2707,
    "ini@@": 2708,
    "final": 2709,
    "innov@@": 2710,
    "object": 2711,
    "ishing": 2712,
    "radi@@": 2713,
    "confir@@": 2714,
    "focus": 2715,
    "ef@@": 2716,
    "II": 2717,
    "gir@@": 2718,
    "organiz@@": 2719,
    "sym@@": 2720,
    "deal": 2721,
    "ads": 2722,
    "lack": 2723,
    "administration": 2724,
    "largest": 2725,
    "commercial": 2726,
    "Te@@": 2727,
    "SC@@": 2728,
    "Western": 2729,
    "ҫак": 2730,
    "Str@@": 2731,
    "mentioned": 2732,
    "ст@@": 2733,
    "framework": 2734,
    "(@@": 2735,
    "duc@@": 2736,
    "contrac@@": 2737,
    "IP@@": 2738,
    "Jesus": 2739,
    "tt@@": 2740,
    "нса": 2741,
    "fur@@": 2742,
    "electr@@": 2743,
    "Lord": 2744,
    "Ха@@": 2745,
    "post": 2746,
    "рать": 2747,
    "Do": 2748,
    "Ste@@": 2749,
    "paper": 2750,
    "autom@@": 2751,
    "mean": 2752,
    "foo@@": 2753,
    "ood": 2754,
    "anced": 2755,
    "leave": 2756,
    "anti": 2757,
    "Conference": 2758,
    "AL@@": 2759,
    "esting": 2760,
    "ҫинче": 2761,
    "сенчен": 2762,
    "вырӑн@@": 2763,
    "aya": 2764,
    "sources": 2765,
    "UN": 2766,
    "August": 2767,
    "ID@@": 2768,
    "sea": 2769,
    "mass": 2770,
    "understanding": 2771,
    "aches": 2772,
    "Even": 2773,
    "aste": 2774,
    "tra": 2775,
    "expres@@": 2776,
    "let@@": 2777,
    "importance": 2778,
    "gave": 2779,
    "behind": 2780,
    "died": 2781,
    "rule": 2782,
    "West": 2783,
    "demonstr@@": 2784,
    "assets": 2785,
    "sus@@": 2786,
    "AL": 2787,
    "Fl@@": 2788,
    "pressure": 2789,
    "legislation": 2790,
    "note": 2791,
    "orders": 2792,
    "кӳ@@": 2793,
    "communication": 2794,
    "tour@@": 2795,
    "machine": 2796,
    "hom@@": 2797,
    "continued": 2798,
    "ces": 2799,
    "airs": 2800,
    "priv@@": 2801,
    "icial": 2802,
    "original": 2803,
    "internal": 2804,
    "speed": 2805,
    "orig@@": 2806,
    "2001": 2807,
    "syn@@": 2808,
    "More": 2809,
    "require": 2810,
    "situ@@": 2811,
    "mos@@": 2812,
    "responsibility": 2813,
    "Georgia": 2814,
    "ton": 2815,
    "itch@@": 2816,
    "agricul@@": 2817,
    "vement": 2818,
    "apply": 2819,
    "character@@": 2820,
    "noted": 2821,
    "joint": 2822,
    "ff": 2823,
    "movement": 2824,
    "remain@@": 2825,
    "Comp@@": 2826,
    "ures": 2827,
    "mode": 2828,
    "met": 2829,
    "correspon@@": 2830,
    "200": 2831,
    "them@@": 2832,
    "рӗн": 2833,
    "presented": 2834,
    "porting": 2835,
    "ti": 2836,
    "struction": 2837,
    "programmes": 2838,
    "late": 2839,
    "Thus": 2840,
    "вар@@": 2841,
    "stron@@": 2842,
    "Sup@@": 2843,
    "loss": 2844,
    "197@@": 2845,
    "mental": 2846,
    "infrastructure": 2847,
    "eless": 2848,
    "creation": 2849,
    "woman": 2850,
    "nation@@": 2851,
    "journ@@": 2852,
    "appear": 2853,
    "style": 2854,
    "atten@@": 2855,
    "ama": 2856,
    "human@@": 2857,
    "native": 2858,
    "preci@@": 2859,
    "hotel": 2860,
    "вл@@": 2861,
    "options": 2862,
    "scale": 2863,
    "oms": 2864,
    "ль@@": 2865,
    "stitu@@": 2866,
    "!@@": 2867,
    "тӑр@@": 2868,
    "kin@@": 2869,
    "Rem@@": 2870,
    "learn": 2871,
    "throughout": 2872,
    "serve": 2873,
    "eyes": 2874,
    "tradi@@": 2875,
    "yed": 2876,
    "elements": 2877,
    "sound": 2878,
    "planning": 2879,
    "tools": 2880,
    "regard": 2881,
    "eling": 2882,
    "Тур@@": 2883,
    "reduce": 2884,
    "reach": 2885,
    "currently": 2886,
    "confid@@": 2887,
    "February": 2888,
    "task": 2889,
    "recor@@": 2890,
    "prevent": 2891,
    "auc@@": 2892,
    "ury": 2893,
    "alists": 2894,
    "tained": 2895,
    "reported": 2896,
    "ome": 2897,
    "ur": 2898,
    "trying": 2899,
    "2012": 2900,
    "ллӑ": 2901,
    "Чӑваш": 2902,
    "top@@": 2903,
    "processing": 2904,
    "choice": 2905,
    "рен": 2906,
    "increasing": 2907,
    "Management": 2908,
    "parti@@": 2909,
    "sil@@": 2910,
    "happ@@": 2911,
    "У@@": 2912,
    "пӗтӗм": 2913,
    "hands": 2914,
    "лта@@": 2915,
    "forward": 2916,
    "май": 2917,
    "wanted": 2918,
    "Law": 2919,
    "associ@@": 2920,
    "allowed": 2921,
    "ession": 2922,
    "job": 2923,
    "aining": 2924,
    "Each": 2925,
    "consi@@": 2926,
    "тӑва@@": 2927,
    "Rights": 2928,
    "Alex@@": 2929,
    "easily": 2930,
    "cities": 2931,
    "although": 2932,
    "consequ@@": 2933,
    "response": 2934,
    "revol@@": 2935,
    "books": 2936,
    "modi@@": 2937,
    "insurance": 2938,
    "Rom@@": 2939,
    "France": 2940,
    "xes": 2941,
    "enjoy": 2942,
    "law@@": 2943,
    ".)": 2944,
    "ind": 2945,
    "entation": 2946,
    "ma": 2947,
    "decisions": 2948,
    "blood": 2949,
    "пе@@": 2950,
    "setting": 2951,
    "PC": 2952,
    "review": 2953,
    "ki@@": 2954,
    "any@@": 2955,
    "foc@@": 2956,
    "ин@@": 2957,
    "asp@@": 2958,
    "engine@@": 2959,
    "transfer": 2960,
    "custom@@": 2961,
    "Most": 2962,
    "вӑн": 2963,
    "worked": 2964,
    "holders": 2965,
    "Gr@@": 2966,
    "plac@@": 2967,
    "functions": 2968,
    "cro@@": 2969,
    "exerc@@": 2970,
    "lat@@": 2971,
    "Information": 2972,
    "Stu@@": 2973,
    "сан@@": 2974,
    "clients": 2975,
    "ony": 2976,
    "settings": 2977,
    "default": 2978,
    "nation": 2979,
    "tren@@": 2980,
    "net": 2981,
    "Pet@@": 2982,
    "00@@": 2983,
    "produced": 2984,
    "mus@@": 2985,
    "neigh@@": 2986,
    "Petersburg": 2987,
    "сана": 2988,
    "сӗ@@": 2989,
    "pow@@": 2990,
    "ва": 2991,
    "лле@@": 2992,
    "CD": 2993,
    "govern@@": 2994,
    "aren@@": 2995,
    "opinion": 2996,
    "majority": 2997,
    "fying": 2998,
    "dar@@": 2999,
    "optim@@": 3000,
    "Ap@@": 3001,
    "bas@@": 3002,
    "Christ": 3003,
    "squ@@": 3004,
    "lies": 3005,
    "?\"": 3006,
    "solutions": 3007,
    "satis@@": 3008,
    "reasons": 3009,
    "nel": 3010,
    "supported": 3011,
    "doesn": 3012,
    "display": 3013,
    "Church": 3014,
    "poor": 3015,
    "opportunities": 3016,
    "illed": 3017,
    "ide": 3018,
    "cou@@": 3019,
    "arran@@": 3020,
    "Kar@@": 3021,
    "instead": 3022,
    "effects": 3023,
    "shown": 3024,
    "йы@@": 3025,
    "inde@@": 3026,
    "don@@": 3027,
    "М@@": 3028,
    "рех": 3029,
    "volume": 3030,
    "resolution": 3031,
    "mobile": 3032,
    "dest@@": 3033,
    "ban": 3034,
    "asses": 3035,
    "French": 3036,
    "monitoring": 3037,
    "ai": 3038,
    "Bar@@": 3039,
    "seems": 3040,
    "effec@@": 3041,
    "useum": 3042,
    "reached": 3043,
    "protect": 3044,
    "itor": 3045,
    "leader": 3046,
    "distribution": 3047,
    "Today": 3048,
    "sometimes": 3049,
    "floor": 3050,
    "Sec@@": 3051,
    "lin": 3052,
    "enterprises": 3053,
    "depend@@": 3054,
    "atter@@": 3055,
    "recently": 3056,
    "gy@@": 3057,
    "consci@@": 3058,
    "can@@": 3059,
    "Des@@": 3060,
    "ecting": 3061,
    "AM@@": 3062,
    "eding": 3063,
    "accoun@@": 3064,
    "lu@@": 3065,
    "goal": 3066,
    "OR": 3067,
    "elling": 3068,
    "ward": 3069,
    "сессӗн": 3070,
    "violence": 3071,
    "factors": 3072,
    "Па@@": 3073,
    "тарса": 3074,
    "num@@": 3075,
    "Iran": 3076,
    "details": 3077,
    "differ@@": 3078,
    "tal": 3079,
    "od": 3080,
    "employees": 3081,
    "cy": 3082,
    "born": 3083,
    "Jo@@": 3084,
    "record": 3085,
    "produce": 3086,
    "fall": 3087,
    "external": 3088,
    "Human": 3089,
    "competition": 3090,
    "ас@@": 3091,
    "ҫук": 3092,
    "negoti@@": 3093,
    "crimin@@": 3094,
    "completely": 3095,
    "ades": 3096,
    "button": 3097,
    "devices": 3098,
    "gres@@": 3099,
    "viously": 3100,
    "fer": 3101,
    "quickly": 3102,
    "church": 3103,
    "election": 3104,
    "Business": 3105,
    "ирт@@": 3106,
    "resol@@": 3107,
    "deci@@": 3108,
    "sav@@": 3109,
    "publ@@": 3110,
    "conv@@": 3111,
    "45": 3112,
    "hear@@": 3113,
    "getting": 3114,
    "рай@@": 3115,
    "corporate": 3116,
    "benefits": 3117,
    "С@@": 3118,
    "vehic@@": 3119,
    "esp@@": 3120,
    "adopted": 3121,
    "ended": 3122,
    "adap@@": 3123,
    "ada": 3124,
    "evidence": 3125,
    "propos@@": 3126,
    "contains": 3127,
    "everyone": 3128,
    "safe": 3129,
    "news": 3130,
    "highly": 3131,
    "Although": 3132,
    "piec@@": 3133,
    "nor": 3134,
    "ight": 3135,
    "separate": 3136,
    "prev@@": 3137,
    "pose": 3138,
    "ывӑлӗ@@": 3139,
    "promote": 3140,
    "agreed": 3141,
    "storage": 3142,
    "appl@@": 3143,
    "IO@@": 3144,
    "ut": 3145,
    "integr@@": 3146,
    "ank": 3147,
    "Chil@@": 3148,
    "whom": 3149,
    "Net@@": 3150,
    "interesting": 3151,
    "fuel": 3152,
    "fire": 3153,
    "imp@@": 3154,
    "procedure": 3155,
    "mother": 3156,
    "UR@@": 3157,
    "People": 3158,
    "2011": 3159,
    "objects": 3160,
    "Africa": 3161,
    "ннӑ": 3162,
    "liber@@": 3163,
    "hum@@": 3164,
    "calcul@@": 3165,
    "answer": 3166,
    "walk": 3167,
    "continu@@": 3168,
    "organized": 3169,
    "white": 3170,
    "cru@@": 3171,
    "present@@": 3172,
    "arly": 3173,
    "ф@@": 3174,
    "probably": 3175,
    "doub@@": 3176,
    "thers": 3177,
    "athroom": 3178,
    "17@@": 3179,
    "mark": 3180,
    "hour": 3181,
    "Em@@": 3182,
    "ци@@": 3183,
    "ser@@": 3184,
    "procedures": 3185,
    "dry": 3186,
    "authority": 3187,
    "ands": 3188,
    "кун": 3189,
    "ours": 3190,
    "adver@@": 3191,
    "Bel@@": 3192,
    "cover@@": 3193,
    "вӗрен@@": 3194,
    "plo@@": 3195,
    "institu@@": 3196,
    "SP@@": 3197,
    "guid@@": 3198,
    "agencies": 3199,
    "shor@@": 3200,
    "remains": 3201,
    "ӑн@@": 3202,
    "sition": 3203,
    "feature": 3204,
    "atively": 3205,
    "maximum": 3206,
    "behavi@@": 3207,
    "India": 3208,
    "prepared": 3209,
    "associated": 3210,
    "ки": 3211,
    "veness": 3212,
    "IL@@": 3213,
    "menu": 3214,
    "tivity": 3215,
    "System": 3216,
    "Member": 3217,
    "Japan": 3218,
    "сӑмах@@": 3219,
    "тӗ": 3220,
    "wid@@": 3221,
    "installed": 3222,
    "busin@@": 3223,
    "creating": 3224,
    "Exchange": 3225,
    "compared": 3226,
    "enter@@": 3227,
    "players": 3228,
    "AN": 3229,
    "registered": 3230,
    "immediately": 3231,
    "appeared": 3232,
    "Free": 3233,
    "ideas": 3234,
    "Lo@@": 3235,
    "instance": 3236,
    "antly": 3237,
    "achieve": 3238,
    "ый@@": 3239,
    "ке": 3240,
    "Other": 3241,
    "err@@": 3242,
    "selected": 3243,
    "fail@@": 3244,
    "уйӑ@@": 3245,
    "turing": 3246,
    "relationship": 3247,
    "plat@@": 3248,
    "caused": 3249,
    "tin@@": 3250,
    "ga": 3251,
    "ert": 3252,
    "usi@@": 3253,
    "ик@@": 3254,
    "alized": 3255,
    "We@@": 3256,
    "yourself": 3257,
    "provisions": 3258,
    "offered": 3259,
    "father": 3260,
    "strategic": 3261,
    "cho@@": 3262,
    "кайнӑ": 3263,
    "rich": 3264,
    "climate": 3265,
    "beautiful": 3266,
    "tis@@": 3267,
    "porary": 3268,
    "tiv@@": 3269,
    "gives": 3270,
    "certain@@": 3271,
    "ц@@": 3272,
    "пӑр": 3273,
    "stant": 3274,
    "rise": 3275,
    "requires": 3276,
    "LE@@": 3277,
    "won@@": 3278,
    "occur@@": 3279,
    "some@@": 3280,
    "restric@@": 3281,
    "individuals": 3282,
    "arms": 3283,
    "know@@": 3284,
    "irman": 3285,
    "truth": 3286,
    "less@@": 3287,
    "Dep@@": 3288,
    "Fac@@": 3289,
    "schools": 3290,
    "buy": 3291,
    "кен": 3292,
    "ander": 3293,
    "кая@@": 3294,
    "deb@@": 3295,
    "ames": 3296,
    "concerned": 3297,
    "canc@@": 3298,
    "stood": 3299,
    "customer": 3300,
    "send": 3301,
    "IN": 3302,
    "*@@": 3303,
    "rest@@": 3304,
    "defined": 3305,
    "ҫӗ": 3306,
    "parents": 3307,
    "meetings": 3308,
    "items": 3309,
    "ӗпе": 3310,
    "heal@@": 3311,
    "ky": 3312,
    "command": 3313,
    "alone": 3314,
    "passed": 3315,
    "compar@@": 3316,
    "wish": 3317,
    "regular": 3318,
    "ло@@": 3319,
    "possibility": 3320,
    "pet@@": 3321,
    "Ӑ@@": 3322,
    "exec@@": 3323,
    "ty@@": 3324,
    "dom": 3325,
    "provi@@": 3326,
    "employ@@": 3327,
    "adem@@": 3328,
    "16@@": 3329,
    "famous": 3330,
    "weight": 3331,
    "stand": 3332,
    "ye@@": 3333,
    "list@@": 3334,
    "daily": 3335,
    "rooms": 3336,
    "forced": 3337,
    "separ@@": 3338,
    "gies": 3339,
    "Is": 3340,
    "comput@@": 3341,
    "talk": 3342,
    "hed": 3343,
    "contract": 3344,
    "So@@": 3345,
    "tude": 3346,
    "powerful": 3347,
    "balance": 3348,
    "War": 3349,
    "IT": 3350,
    "туса": 3351,
    "Armenia": 3352,
    "break@@": 3353,
    "regi@@": 3354,
    "release": 3355,
    "collection": 3356,
    "concerning": 3357,
    "тунӑ": 3358,
    "secon@@": 3359,
    "registration": 3360,
    "bad": 3361,
    "objec@@": 3362,
    "fre@@": 3363,
    "лӑха": 3364,
    "tool": 3365,
    "Sol@@": 3366,
    "ete": 3367,
    "ened": 3368,
    "Not": 3369,
    "weapons": 3370,
    "vely": 3371,
    "formation": 3372,
    "every@@": 3373,
    "statement": 3374,
    "auth@@": 3375,
    "33": 3376,
    "stitution": 3377,
    "destro@@": 3378,
    "adop@@": 3379,
    "repe@@": 3380,
    "regarding": 3381,
    "construc@@": 3382,
    "Sea": 3383,
    "gy": 3384,
    "educational": 3385,
    "сӗр": 3386,
    "sle@@": 3387,
    "inside": 3388,
    "round": 3389,
    "applied": 3390,
    "player": 3391,
    "El@@": 3392,
    "unit": 3393,
    "typ@@": 3394,
    "AP@@": 3395,
    "units": 3396,
    "fields": 3397,
    "ry@@": 3398,
    "decre@@": 3399,
    "brow@@": 3400,
    "beyond": 3401,
    "great@@": 3402,
    "ange": 3403,
    "offic@@": 3404,
    "Centre": 3405,
    "interested": 3406,
    "person@@": 3407,
    "Val@@": 3408,
    "Ra@@": 3409,
    "тӑнӑ": 3410,
    "window": 3411,
    "stly": 3412,
    "paramet@@": 3413,
    "Such": 3414,
    "someone": 3415,
    "opened": 3416,
    "ility": 3417,
    "Organization": 3418,
    "secre@@": 3419,
    "installation": 3420,
    "flow": 3421,
    "dered": 3422,
    "ck": 3423,
    "reven@@": 3424,
    "proce@@": 3425,
    "export": 3426,
    "пӗрле": 3427,
    "ken": 3428,
    "presence": 3429,
    "ephone": 3430,
    "hosp@@": 3431,
    "AIDS": 3432,
    "Use": 3433,
    "film": 3434,
    "currency": 3435,
    "names": 3436,
    "abled": 3437,
    "wal@@": 3438,
    "psych@@": 3439,
    "15@@": 3440,
    "Анчах": 3441,
    "distribu@@": 3442,
    "90": 3443,
    "scienti@@": 3444,
    "TO": 3445,
    "spiritual": 3446,
    "fru@@": 3447,
    "essential": 3448,
    "dule": 3449,
    "condition": 3450,
    "йӗн": 3451,
    "lear@@": 3452,
    "lob@@": 3453,
    "generation": 3454,
    "chec@@": 3455,
    "carry": 3456,
    "DP": 3457,
    "story": 3458,
    "issued": 3459,
    "trav@@": 3460,
    "benefit": 3461,
    "лет@@": 3462,
    "minute": 3463,
    "City": 3464,
    "тӗр": 3465,
    "pursu@@": 3466,
    "elections": 3467,
    "partner": 3468,
    "Республи@@": 3469,
    "dian": 3470,
    "sex@@": 3471,
    "resul@@": 3472,
    "вӗсен": 3473,
    "paren@@": 3474,
    "CE@@": 3475,
    "AND": 3476,
    "success@@": 3477,
    "black": 3478,
    "sian": 3479,
    "termin@@": 3480,
    "strugg@@": 3481,
    "save": 3482,
    "liter@@": 3483,
    "erve": 3484,
    "д@@": 3485,
    "geo@@": 3486,
    "commis@@": 3487,
    "pointed": 3488,
    "hn@@": 3489,
    "candi@@": 3490,
    "context": 3491,
    "ртнӑ": 3492,
    "ana": 3493,
    "write": 3494,
    "bers": 3495,
    "Х@@": 3496,
    "restaurant": 3497,
    "эпир": 3498,
    "мӗншӗн": 3499,
    "annual": 3500,
    "playing": 3501,
    "ma@@": 3502,
    "Saf@@": 3503,
    "corru@@": 3504,
    "tric": 3505,
    "enable": 3506,
    "aint": 3507,
    "эсир": 3508,
    "мӗ": 3509,
    "fic": 3510,
    "ING": 3511,
    "with@@": 3512,
    "shop": 3513,
    "highest": 3514,
    "concentr@@": 3515,
    "AP": 3516,
    "normal": 3517,
    "mut@@": 3518,
    "..@@": 3519,
    "bility": 3520,
    "Ber@@": 3521,
    "seas@@": 3522,
    "Therefore": 3523,
    "кӗр@@": 3524,
    "enty": 3525,
    "Loc@@": 3526,
    "run@@": 3527,
    "ply": 3528,
    "pages": 3529,
    "ley": 3530,
    "begin": 3531,
    "мӗнле": 3532,
    "gate": 3533,
    "reality": 3534,
    "quali@@": 3535,
    "governments": 3536,
    "character": 3537,
    "Turkey": 3538,
    "Lat@@": 3539,
    "Assembly": 3540,
    "primary": 3541,
    "automatically": 3542,
    "Only": 3543,
    "лле": 3544,
    "integration": 3545,
    "Because": 3546,
    "irs": 3547,
    "bit@@": 3548,
    "ure@@": 3549,
    "atur@@": 3550,
    "Eng@@": 3551,
    "панӑ": 3552,
    "studies": 3553,
    "practices": 3554,
    "pass": 3555,
    "appears": 3556,
    "acked": 3557,
    "рат@@": 3558,
    "flow@@": 3559,
    "correct": 3560,
    "Har@@": 3561,
    "Administr@@": 3562,
    "inner": 3563,
    "NE@@": 3564,
    "tations": 3565,
    "solid@@": 3566,
    "inated": 3567,
    "tocol": 3568,
    "aper": 3569,
    "heard": 3570,
    "avoid": 3571,
    "skills": 3572,
    "196@@": 3573,
    "giving": 3574,
    "emed": 3575,
    "capit@@": 3576,
    "кӑмӑ@@": 3577,
    "she@@": 3578,
    "religi@@": 3579,
    "deliver@@": 3580,
    "Cap@@": 3581,
    "тет": 3582,
    "bul@@": 3583,
    "border": 3584,
    "saying": 3585,
    "rati@@": 3586,
    "ех": 3587,
    "log@@": 3588,
    "huge": 3589,
    "dam@@": 3590,
    "мне": 3591,
    "signific@@": 3592,
    "ook": 3593,
    "ball": 3594,
    "Q": 3595,
    "versi@@": 3596,
    "сси@@": 3597,
    "voice": 3598,
    "equal": 3599,
    "Ty@@": 3600,
    "adequ@@": 3601,
    "summer": 3602,
    "friend@@": 3603,
    "direction": 3604,
    "gest": 3605,
    "Fund": 3606,
    "oned": 3607,
    "терӗ": 3608,
    "described": 3609,
    "ку": 3610,
    "efficiency": 3611,
    "мар@@": 3612,
    "Израиль": 3613,
    "hood": 3614,
    "нӑҫ@@": 3615,
    "efficient": 3616,
    "disease": 3617,
    "utes": 3618,
    "тив@@": 3619,
    "principle": 3620,
    "newsp@@": 3621,
    "becomes": 3622,
    ")@@": 3623,
    "rub@@": 3624,
    "хыҫҫӑн": 3625,
    "мен": 3626,
    "statis@@": 3627,
    "iness": 3628,
    "NATO": 3629,
    "унта": 3630,
    "numbers": 3631,
    "effort": 3632,
    "cut": 3633,
    "brary": 3634,
    "ро@@": 3635,
    "link": 3636,
    "fri@@": 3637,
    "damage": 3638,
    "cred@@": 3639,
    "Uni@@": 3640,
    "gh": 3641,
    "speak": 3642,
    "mach@@": 3643,
    "goes": 3644,
    "stan": 3645,
    "perc@@": 3646,
    "governmental": 3647,
    "ean": 3648,
    "campaign": 3649,
    "ек@@": 3650,
    "agreements": 3651,
    "administrative": 3652,
    "SE@@": 3653,
    "Cur@@": 3654,
    "techni@@": 3655,
    "ҫур@@": 3656,
    "пулӑ@@": 3657,
    "ince": 3658,
    "hard@@": 3659,
    "Health": 3660,
    "Bre@@": 3661,
    "techn@@": 3662,
    "acqui@@": 3663,
    "village": 3664,
    "nov@@": 3665,
    "Inv@@": 3666,
    "Ag@@": 3667,
    "Also": 3668,
    "ҫеҫ": 3669,
    "ome@@": 3670,
    "remember": 3671,
    "ney": 3672,
    "ails": 3673,
    "enko": 3674,
    "ania": 3675,
    "ailed": 3676,
    "www": 3677,
    "dep@@": 3678,
    "Here": 3679,
    "ҫул": 3680,
    "ҫав@@": 3681,
    "mir@@": 3682,
    "else": 3683,
    "Por@@": 3684,
    "plants": 3685,
    "халӑх@@": 3686,
    "пулса": 3687,
    "there@@": 3688,
    "Parties": 3689,
    "ign@@": 3690,
    "ums": 3691,
    "put@@": 3692,
    "ols": 3693,
    "author": 3694,
    "aves": 3695,
    "weeks": 3696,
    "tribu@@": 3697,
    "entary": 3698,
    "пекех": 3699,
    "ght@@": 3700,
    "малли": 3701,
    "fight": 3702,
    "earth": 3703,
    "conducted": 3704,
    "Dec@@": 3705,
    "taining": 3706,
    "ope": 3707,
    "families": 3708,
    "ран@@": 3709,
    "MS": 3710,
    "Gen@@": 3711,
    "ç@@": 3712,
    "wall": 3713,
    "1999": 3714,
    "reve@@": 3715,
    "anks": 3716,
    "ouldn": 3717,
    "Her@@": 3718,
    "organ@@": 3719,
    "negative": 3720,
    "felt": 3721,
    "пирӗн": 3722,
    "components": 3723,
    "Produc@@": 3724,
    "eth@@": 3725,
    "useful": 3726,
    "approved": 3727,
    "alia": 3728,
    "..": 3729,
    "big@@": 3730,
    "stock": 3731,
    "ought": 3732,
    "director": 3733,
    "land@@": 3734,
    "патша@@": 3735,
    "кӑна": 3736,
    "ough": 3737,
    "aded": 3738,
    "earlier": 3739,
    "discus@@": 3740,
    "communities": 3741,
    "34": 3742,
    "Эсӗ": 3743,
    "pleas@@": 3744,
    "target": 3745,
    "risks": 3746,
    "independ@@": 3747,
    "eds": 3748,
    "Rep@@": 3749,
    "craft": 3750,
    "Iraq": 3751,
    "tically": 3752,
    "tains": 3753,
    "perform": 3754,
    "Kyrgy@@": 3755,
    "investments": 3756,
    "Fi": 3757,
    "dynam@@": 3758,
    "Chec@@": 3759,
    "color": 3760,
    "orities": 3761,
    "drug": 3762,
    "difference": 3763,
    "orial": 3764,
    "nit@@": 3765,
    "USA": 3766,
    "ҫҫ@@": 3767,
    "ends": 3768,
    "toward": 3769,
    "bio@@": 3770,
    "With@@": 3771,
    "cash": 3772,
    "instruc@@": 3773,
    "chance": 3774,
    "writing": 3775,
    "ча": 3776,
    "purposes": 3777,
    "please": 3778,
    "bon@@": 3779,
    "SR": 3780,
    "чен@@": 3781,
    "tasks": 3782,
    "ind@@": 3783,
    "copy": 3784,
    "announced": 3785,
    "Vol@@": 3786,
    "Soci@@": 3787,
    "Ҫӳлхуҫа@@": 3788,
    "ga@@": 3789,
    "fas@@": 3790,
    "Mic@@": 3791,
    "au": 3792,
    "proposed": 3793,
    "establish": 3794,
    "calls": 3795,
    "Sof@@": 3796,
    "лли": 3797,
    "goals": 3798,
    "ro": 3799,
    "posit": 3800,
    "пулта@@": 3801,
    "install": 3802,
    "Mem@@": 3803,
    "faith": 3804,
    "closed": 3805,
    "Oper@@": 3806,
    "tain@@": 3807,
    "stud@@": 3808,
    "determine": 3809,
    "degree": 3810,
    "At@@": 3811,
    "corpor@@": 3812,
    "icity": 3813,
    "condi@@": 3814,
    "astic": 3815,
    "absol@@": 3816,
    "мӗн@@": 3817,
    "imag@@": 3818,
    "ement@@": 3819,
    "conver@@": 3820,
    "clearly": 3821,
    "сенче": 3822,
    "Dem@@": 3823,
    "akes": 3824,
    "concept": 3825,
    "Agreement": 3826,
    "шут@@": 3827,
    "tionally": 3828,
    "facilit@@": 3829,
    "dia": 3830,
    "ен": 3831,
    "istics": 3832,
    "except": 3833,
    "criminal": 3834,
    "alities": 3835,
    "advanced": 3836,
    "esti@@": 3837,
    "шу@@": 3838,
    "UNE@@": 3839,
    "determined": 3840,
    "aching": 3841,
    "specified": 3842,
    "mani@@": 3843,
    "phere": 3844,
    "exhibition": 3845,
    "Ti@@": 3846,
    "ny": 3847,
    "Elec@@": 3848,
    "ost": 3849,
    "non@@": 3850,
    "messages": 3851,
    "atellite": 3852,
    "sun@@": 3853,
    "correc@@": 3854,
    "чӗр@@": 3855,
    "тӑ": 3856,
    "Win@@": 3857,
    "circumstances": 3858,
    "named": 3859,
    "kov": 3860,
    "introduc@@": 3861,
    "йывӑ@@": 3862,
    "fair": 3863,
    "sit": 3864,
    "variety": 3865,
    "Great": 3866,
    "ыр@@": 3867,
    "алли@@": 3868,
    "path": 3869,
    "monit@@": 3870,
    "sustainable": 3871,
    "surface": 3872,
    "pair": 3873,
    "managed": 3874,
    "GO@@": 3875,
    "300": 3876,
    "stated": 3877,
    "q@@": 3878,
    "Sub@@": 3879,
    "deplo@@": 3880,
    "critical": 3881,
    "reless": 3882,
    "пурӑна@@": 3883,
    "sibilities": 3884,
    "domain": 3885,
    "district": 3886,
    "ени@@": 3887,
    "exist": 3888,
    "ading": 3889,
    "Project": 3890,
    "Please": 3891,
    "лек@@": 3892,
    "versal": 3893,
    "settl@@": 3894,
    "consist@@": 3895,
    "civil@@": 3896,
    "Set@@": 3897,
    "Jewish": 3898,
    "moder@@": 3899,
    "dies": 3900,
    "тарнӑ": 3901,
    "knew": 3902,
    "follow@@": 3903,
    "output": 3904,
    "iance": 3905,
    "historical": 3906,
    "travel": 3907,
    "ague": 3908,
    "JSC": 3909,
    "tenance": 3910,
    "oblig@@": 3911,
    "essor": 3912,
    "кин": 3913,
    "dele@@": 3914,
    "Let": 3915,
    "Char@@": 3916,
    "Secretary": 3917,
    "hib@@": 3918,
    "profit": 3919,
    "completed": 3920,
    "Coun@@": 3921,
    "consumption": 3922,
    "un": 3923,
    "сире": 3924,
    "сак@@": 3925,
    "SQL": 3926,
    "strict": 3927,
    "event@@": 3928,
    "zone": 3929,
    "ӗсене": 3930,
    "writ@@": 3931,
    "ult": 3932,
    "tried": 3933,
    "happen@@": 3934,
    "post@@": 3935,
    "integrated": 3936,
    "nect": 3937,
    "establishment": 3938,
    "каласа": 3939,
    "тӗп": 3940,
    "performed": 3941,
    "host": 3942,
    "fortun@@": 3943,
    "AT": 3944,
    "AD@@": 3945,
    "лса": 3946,
    "enem@@": 3947,
    "purchase": 3948,
    "High": 3949,
    "released": 3950,
    "discussed": 3951,
    "democratic": 3952,
    "attack": 3953,
    "ferred": 3954,
    "games": 3955,
    "Academ@@": 3956,
    "нпа": 3957,
    "exce@@": 3958,
    "aria": 3959,
    "шкӑ@@": 3960,
    "хӑва@@": 3961,
    "rol@@": 3962,
    "positions": 3963,
    "eter@@": 3964,
    "deep": 3965,
    "Do@@": 3966,
    "Gi@@": 3967,
    "reduc@@": 3968,
    "practical": 3969,
    "ises": 3970,
    "acqu@@": 3971,
    "Kore@@": 3972,
    "thinking": 3973,
    "raise": 3974,
    "Air": 3975,
    "overall": 3976,
    "lions": 3977,
    "British": 3978,
    "models": 3979,
    "interpre@@": 3980,
    "certific@@": 3981,
    "36": 3982,
    "wr@@": 3983,
    "рас": 3984,
    "advantage": 3985,
    "Economic": 3986,
    "кӗ": 3987,
    "recommendations": 3988,
    "arity": 3989,
    "map": 3990,
    "structures": 3991,
    "determin@@": 3992,
    "SO@@": 3993,
    "reading": 3994,
    "pel@@": 3995,
    "ye": 3996,
    "opening": 3997,
    "gor@@": 3998,
    "aware": 3999,
    "aled": 4000,
    "leng@@": 4001,
    "mod@@": 4002,
    "ine@@": 4003,
    "gress": 4004,
    "cid@@": 4005,
    "тра": 4006,
    "ric": 4007,
    "followed": 4008,
    "letter": 4009,
    "paragraph": 4010,
    "ччен": 4011,
    "вӗ": 4012,
    "now@@": 4013,
    "multiple": 4014,
    "missi@@": 4015,
    "maintain": 4016,
    "expressed": 4017,
    "ele@@": 4018,
    "high@@": 4019,
    "Dr": 4020,
    "пуҫла@@": 4021,
    "tici@@": 4022,
    "los@@": 4023,
    "tured": 4024,
    "morning": 4025,
    "enterprise": 4026,
    "London": 4027,
    "impossible": 4028,
    "figh@@": 4029,
    "exac@@": 4030,
    "Cy@@": 4031,
    "thousands": 4032,
    "picture": 4033,
    "happy": 4034,
    "TS": 4035,
    "TH@@": 4036,
    "ki": 4037,
    "hal@@": 4038,
    "evision": 4039,
    "рах@@": 4040,
    "о@@": 4041,
    "oring": 4042,
    "nations": 4043,
    "labour": 4044,
    "ID": 4045,
    "eight": 4046,
    "traffic": 4047,
    "icking": 4048,
    "da": 4049,
    "Fur@@": 4050,
    "poverty": 4051,
    "Why": 4052,
    "survi@@": 4053,
    "planned": 4054,
    "omet@@": 4055,
    "ger@@": 4056,
    "Est@@": 4057,
    "stanti@@": 4058,
    "reason@@": 4059,
    "docum@@": 4060,
    "pil@@": 4061,
    "personnel": 4062,
    "looked": 4063,
    "discussion": 4064,
    "delivery": 4065,
    "architec@@": 4066,
    "medic@@": 4067,
    "itch": 4068,
    "guests": 4069,
    "extent": 4070,
    "aimed": 4071,
    "latest": 4072,
    "пара@@": 4073,
    "itarian": 4074,
    "NO@@": 4075,
    "илт@@": 4076,
    "pack@@": 4077,
    "collabor@@": 4078,
    "electronic": 4079,
    "Vladimir": 4080,
    "нипе": 4081,
    "bes": 4082,
    "Cri@@": 4083,
    "bot@@": 4084,
    "лӗш@@": 4085,
    "assessment": 4086,
    "ordinary": 4087,
    "ellec@@": 4088,
    "comprehen@@": 4089,
    "elim@@": 4090,
    "double": 4091,
    "ouble": 4092,
    "mer": 4093,
    "aspects": 4094,
    "pun@@": 4095,
    "ow": 4096,
    "operate": 4097,
    "instr@@": 4098,
    "patients": 4099,
    "ousness": 4100,
    "Gaz@@": 4101,
    "sufficient": 4102,
    "gri@@": 4103,
    "ation@@": 4104,
    "skin": 4105,
    "reform": 4106,
    "Once": 4107,
    "Note": 4108,
    "ton@@": 4109,
    "amoun@@": 4110,
    "Nov@@": 4111,
    "Met@@": 4112,
    "AB@@": 4113,
    "ль": 4114,
    "quar@@": 4115,
    "predic@@": 4116,
    "liament": 4117,
    "digital": 4118,
    "albu@@": 4119,
    "Federal": 4120,
    "валли": 4121,
    "AS": 4122,
    "ртса": 4123,
    "илнӗ": 4124,
    "isation": 4125,
    "Special": 4126,
    "Ci@@": 4127,
    "dru@@": 4128,
    "count": 4129,
    "break": 4130,
    "images": 4131,
    "department": 4132,
    "colle@@": 4133,
    "York": 4134,
    "hop@@": 4135,
    "ear": 4136,
    "Musli@@": 4137,
    "tow@@": 4138,
    "mm": 4139,
    "Wi@@": 4140,
    "apers": 4141,
    "ӗнчи": 4142,
    "шне": 4143,
    "threat": 4144,
    "necess@@": 4145,
    "impres@@": 4146,
    "dated": 4147,
    "challenges": 4148,
    "Mal@@": 4149,
    "Foreign": 4150,
    "opposition": 4151,
    "gment": 4152,
    "Prof@@": 4153,
    "ҫирӗ@@": 4154,
    "dang@@": 4155,
    "publis@@": 4156,
    "agree": 4157,
    "пулсан": 4158,
    "specialists": 4159,
    "ills": 4160,
    "strength@@": 4161,
    "investors": 4162,
    "Palest@@": 4163,
    "Out@@": 4164,
    "ural": 4165,
    "ules": 4166,
    "answ@@": 4167,
    "accept": 4168,
    "generally": 4169,
    "ussi@@": 4170,
    "сӑр@@": 4171,
    "spent": 4172,
    "happened": 4173,
    "accounts": 4174,
    "surr@@": 4175,
    "nec@@": 4176,
    "лнӑ": 4177,
    "emis@@": 4178,
    "Br@@": 4179,
    "reduction": 4180,
    "Sam@@": 4181,
    "Its": 4182,
    "marri@@": 4183,
    "ancient": 4184,
    "purch@@": 4185,
    "perhaps": 4186,
    "Aut@@": 4187,
    "popul@@": 4188,
    "gic": 4189,
    "laration": 4190,
    "concern": 4191,
    "format": 4192,
    "194@@": 4193,
    "secure": 4194,
    "shares": 4195,
    "trading": 4196,
    "sex": 4197,
    "priority": 4198,
    "perfect": 4199,
    "networks": 4200,
    "intellig@@": 4201,
    "implemented": 4202,
    "seven": 4203,
    "estiv@@": 4204,
    "Mat@@": 4205,
    "Govern@@": 4206,
    "sparen@@": 4207,
    "regulations": 4208,
    "hou@@": 4209,
    "Afghanistan": 4210,
    "mak@@": 4211,
    "сен@@": 4212,
    "кер": 4213,
    "approxim@@": 4214,
    "OS": 4215,
    "тӗл@@": 4216,
    "presents": 4217,
    "mal@@": 4218,
    "мелле": 4219,
    "plays": 4220,
    "perform@@": 4221,
    "ians": 4222,
    "лайӑ@@": 4223,
    "Go@@": 4224,
    "Bul@@": 4225,
    "properties": 4226,
    "eva": 4227,
    "сах": 4228,
    "portation": 4229,
    "audi@@": 4230,
    "Association": 4231,
    "of@@": 4232,
    "lose": 4233,
    "internet": 4234,
    "gol@@": 4235,
    "gical": 4236,
    "asing": 4237,
    "Custom@@": 4238,
    "regime": 4239,
    "equipped": 4240,
    "starting": 4241,
    "inal": 4242,
    "friend": 4243,
    "Agency": 4244,
    "тен": 4245,
    "exi@@": 4246,
    "eases": 4247,
    "AO": 4248,
    "Social": 4249,
    "пулӗ": 4250,
    "pati@@": 4251,
    "influ@@": 4252,
    "store": 4253,
    "ror": 4254,
    "савӑ@@": 4255,
    "isms": 4256,
    "celebr@@": 4257,
    "лесе": 4258,
    "phil@@": 4259,
    "oud": 4260,
    "existence": 4261,
    "MP@@": 4262,
    "participate": 4263,
    "accur@@": 4264,
    "пех": 4265,
    "ults": 4266,
    "ported": 4267,
    "emo@@": 4268,
    "batt@@": 4269,
    "ino": 4270,
    "flo@@": 4271,
    "Ki@@": 4272,
    "process@@": 4273,
    "kers": 4274,
    "int": 4275,
    "манӑн": 4276,
    "leadership": 4277,
    "zer@@": 4278,
    "pre": 4279,
    "imming": 4280,
    "conveni@@": 4281,
    "Appl@@": 4282,
    "strate@@": 4283,
    "ans@@": 4284,
    "manner": 4285,
    "essed": 4286,
    "debt": 4287,
    "cial": 4288,
    "Armenian": 4289,
    "resource": 4290,
    "figure": 4291,
    "View": 4292,
    "Code": 4293,
    "ce@@": 4294,
    "anger": 4295,
    "Program@@": 4296,
    "quarter": 4297,
    "moving": 4298,
    "middle": 4299,
    "excell@@": 4300,
    "ko": 4301,
    "ister": 4302,
    "diag@@": 4303,
    "contain": 4304,
    "%.": 4305,
    "umn": 4306,
    "houses": 4307,
    "graphic": 4308,
    "democracy": 4309,
    "Унӑн": 4310,
    "holding": 4311,
    "Sal@@": 4312,
    "statements": 4313,
    "compet@@": 4314,
    "37": 4315,
    "тыт@@": 4316,
    "vements": 4317,
    "tract": 4318,
    "disci@@": 4319,
    "Sim@@": 4320,
    "served": 4321,
    "patter@@": 4322,
    "ox@@": 4323,
    "entered": 4324,
    "bour@@": 4325,
    "Georgi@@": 4326,
    "ta": 4327,
    "expect": 4328,
    "diplom@@": 4329,
    "bs": 4330,
    "atti@@": 4331,
    "reporting": 4332,
    "kept": 4333,
    "Mor@@": 4334,
    "Another": 4335,
    "Earth": 4336,
    "acti@@": 4337,
    "essions": 4338,
    "assem@@": 4339,
    "aker": 4340,
    "ши@@": 4341,
    "умӗнче": 4342,
    "куҫ@@": 4343,
    "мах": 4344,
    "sid@@": 4345,
    "radio": 4346,
    "buildings": 4347,
    "Organ@@": 4348,
    "John": 4349,
    "tees": 4350,
    "Off@@": 4351,
    "sely": 4352,
    "member@@": 4353,
    "ils": 4354,
    "icate": 4355,
    "sam@@": 4356,
    "Islam@@": 4357,
    "reference": 4358,
    "ova": 4359,
    "jects": 4360,
    "арӑ@@": 4361,
    "pped": 4362,
    "package": 4363,
    "financing": 4364,
    "tho@@": 4365,
    "counter@@": 4366,
    "anyone": 4367,
    "Select": 4368,
    "aim": 4369,
    "House": 4370,
    "14@@": 4371,
    "son@@": 4372,
    "raised": 4373,
    "Up@@": 4374,
    "selves": 4375,
    "entry": 4376,
    "Secon@@": 4377,
    "mem@@": 4378,
    "claim": 4379,
    "SS": 4380,
    "Fe@@": 4381,
    "tionary": 4382,
    "till": 4383,
    "languages": 4384,
    "conduct": 4385,
    "тав@@": 4386,
    "lets": 4387,
    "distance": 4388,
    "changing": 4389,
    "Global": 4390,
    "learning": 4391,
    "actual": 4392,
    "pot@@": 4393,
    "Gol@@": 4394,
    "fis@@": 4395,
    "bing": 4396,
    "Yes": 4397,
    "ured": 4398,
    "spirit": 4399,
    "fear": 4400,
    "fam@@": 4401,
    "chemical": 4402,
    "Z": 4403,
    "IF@@": 4404,
    "ӳ": 4405,
    "хушшин@@": 4406,
    "ored": 4407,
    "detailed": 4408,
    "IA": 4409,
    "Doc@@": 4410,
    "peace@@": 4411,
    "consideration": 4412,
    "spread": 4413,
    "reduced": 4414,
    "ached": 4415,
    "schem@@": 4416,
    "ocr@@": 4417,
    "minimum": 4418,
    "fundamental": 4419,
    "filled": 4420,
    "classi@@": 4421,
    "Uzbekistan": 4422,
    "Tre@@": 4423,
    "provision": 4424,
    "масть": 4425,
    "tims": 4426,
    "gency": 4427,
    "за@@": 4428,
    "ques": 4429,
    "тах": 4430,
    "nearly": 4431,
    "икӗ": 4432,
    "пысӑ@@": 4433,
    "histor@@": 4434,
    "мух@@": 4435,
    "implement": 4436,
    "hear": 4437,
    "Cam@@": 4438,
    "vul@@": 4439,
    "seem": 4440,
    "recommended": 4441,
    "aud@@": 4442,
    "нисем": 4443,
    "лет": 4444,
    "print": 4445,
    "WH@@": 4446,
    "Ун@@": 4447,
    "territ@@": 4448,
    "aught": 4449,
    "fine": 4450,
    "enforc@@": 4451,
    "introduced": 4452,
    "Click": 4453,
    "presid@@": 4454,
    "Ман@@": 4455,
    "graphy": 4456,
    "fications": 4457,
    "wife": 4458,
    "micro@@": 4459,
    "LO@@": 4460,
    "Ir@@": 4461,
    "lation": 4462,
    "insp@@": 4463,
    "рен@@": 4464,
    "timate": 4465,
    "infl@@": 4466,
    "desp@@": 4467,
    "Airport": 4468,
    "rul@@": 4469,
    "keeping": 4470,
    "hot": 4471,
    "рин@@": 4472,
    "temperature": 4473,
    "federal": 4474,
    "Mil@@": 4475,
    "cast@@": 4476,
    "Washington": 4477,
    "Ter@@": 4478,
    "Executive": 4479,
    "Data": 4480,
    "sli@@": 4481,
    "incid@@": 4482,
    "affected": 4483,
    "accommod@@": 4484,
    "ariat": 4485,
    "Sun@@": 4486,
    "eth": 4487,
    "etary": 4488,
    "chron@@": 4489,
    "Sum@@": 4490,
    "38": 4491,
    "ial": 4492,
    "stable": 4493,
    "intended": 4494,
    "ampi@@": 4495,
    "Public": 4496,
    "recognized": 4497,
    "Pe@@": 4498,
    "species": 4499,
    "fres@@": 4500,
    "Area": 4501,
    "sale": 4502,
    "movi@@": 4503,
    "cross": 4504,
    "халӑх": 4505,
    "remove": 4506,
    "coordin@@": 4507,
    "extremely": 4508,
    "Pan@@": 4509,
    "missions": 4510,
    "ethnic": 4511,
    "enda": 4512,
    "world@@": 4513,
    "sl@@": 4514,
    "links": 4515,
    "rote": 4516,
    "core": 4517,
    "шухӑш@@": 4518,
    "phys@@": 4519,
    "objective": 4520,
    "UR": 4521,
    "USD": 4522,
    "sets": 4523,
    "bloc@@": 4524,
    "otherwise": 4525,
    "carri@@": 4526,
    "Jews": 4527,
    "error": 4528,
    "enjo@@": 4529,
    "Ш@@": 4530,
    "ears": 4531,
    "Two": 4532,
    "More@@": 4533,
    "rela@@": 4534,
    "agency": 4535,
    "195@@": 4536,
    "ority": 4537,
    "evi@@": 4538,
    "atures": 4539,
    "contro@@": 4540,
    "cars": 4541,
    "Bud@@": 4542,
    "street": 4543,
    "stances": 4544,
    "ne": 4545,
    "gold": 4546,
    "пла": 4547,
    "Kaz@@": 4548,
    "ста@@": 4549,
    "easi@@": 4550,
    "сси": 4551,
    "scre@@": 4552,
    "breakfast": 4553,
    "Eastern": 4554,
    "Moldo@@": 4555,
    "CH@@": 4556,
    "39": 4557,
    "enge": 4558,
    "ang": 4559,
    "Meeting": 4560,
    "bly": 4561,
    "fish": 4562,
    "SCO": 4563,
    "Christian": 4564,
    "oods": 4565,
    "ancing": 4566,
    "establish@@": 4567,
    "ingu@@": 4568,
    "succ@@": 4569,
    "compan@@": 4570,
    "Fran@@": 4571,
    "stop@@": 4572,
    "Access": 4573,
    "ь@@": 4574,
    "DE@@": 4575,
    "rent": 4576,
    "nar@@": 4577,
    "mes": 4578,
    "Education": 4579,
    "fore": 4580,
    "ison": 4581,
    "wood": 4582,
    "Speci@@": 4583,
    "NS": 4584,
    "1998": 4585,
    "eld": 4586,
    "dition": 4587,
    "ha": 4588,
    "Pal@@": 4589,
    "recomm@@": 4590,
    "DVD": 4591,
    "allow@@": 4592,
    "Manager": 4593,
    "arian": 4594,
    "becom@@": 4595,
    "alo@@": 4596,
    "Protec@@": 4597,
    "ди@@": 4598,
    "Len@@": 4599,
    "ingdom": 4600,
    "Pi@@": 4601,
    "з@@": 4602,
    "ener@@": 4603,
    "Def@@": 4604,
    "ecu@@": 4605,
    "Research": 4606,
    "stric@@": 4607,
    "beli@@": 4608,
    "ax": 4609,
    "diffic@@": 4610,
    "вла@@": 4611,
    "wards": 4612,
    "tom": 4613,
    "regar@@": 4614,
    "ача@@": 4615,
    "Да@@": 4616,
    "program@@": 4617,
    "dren": 4618,
    "рас@@": 4619,
    "Си@@": 4620,
    "sim@@": 4621,
    "Fre@@": 4622,
    "Tel@@": 4623,
    "рине": 4624,
    "sit@@": 4625,
    "тӗм": 4626,
    "Mi@@": 4627,
    "кам": 4628,
    "zz@@": 4629,
    "кар@@": 4630,
    "za": 4631,
    "entr@@": 4632,
    "Fri@@": 4633,
    "hous@@": 4634,
    "MO@@": 4635,
    "med@@": 4636,
    "ван@@": 4637,
    "saf@@": 4638,
    "invest@@": 4639,
    "Energy": 4640,
    "ве@@": 4641,
    "cape": 4642,
    "ML": 4643,
    "Policy": 4644,
    "ond": 4645,
    "ME@@": 4646,
    "пла@@": 4647,
    "sia": 4648,
    "vill@@": 4649,
    "sib@@": 4650,
    "industri@@": 4651,
    ".”": 4652,
    "Stand@@": 4653,
    "мо@@": 4654,
    "uro@@": 4655,
    "viron@@": 4656,
    "New@@": 4657,
    "lon@@": 4658,
    "тан@@": 4659,
    "Rel@@": 4660,
    "HT@@": 4661,
    "Program": 4662,
    "equi@@": 4663,
    "ben@@": 4664,
    "Wi": 4665,
    "Belar@@": 4666,
    "ҫа": 4667,
    "сем@@": 4668,
    "Cont@@": 4669,
    "ii": 4670,
    "пир@@": 4671,
    "whe@@": 4672,
    "AC": 4673,
    "Red": 4674,
    "но@@": 4675,
    "Vis@@": 4676,
    "bus": 4677,
    "sing@@": 4678,
    "perf@@": 4679,
    "Russi@@": 4680,
    "PS": 4681,
    "ross": 4682,
    "75": 4683,
    "advant@@": 4684,
    "ove": 4685,
    "тра@@": 4686,
    "вра@@": 4687,
    "IB@@": 4688,
    "ван": 4689,
    "ул@@": 4690,
    "Gar@@": 4691,
    "64": 4692,
    "reco@@": 4693,
    "professi@@": 4694,
    "уса@@": 4695,
    "pho@@": 4696,
    "grap@@": 4697,
    "Isra@@": 4698,
    "blo@@": 4699,
    "oul@@": 4700,
    "№@@": 4701,
    "rain@@": 4702,
    "vious": 4703,
    "essi@@": 4704,
    "ous@@": 4705,
    "Control": 4706,
    "MEN@@": 4707,
    "onic": 4708,
    "Sm@@": 4709,
    "ес@@": 4710,
    "Hotel": 4711,
    "iddle": 4712,
    "abor@@": 4713,
    "meth@@": 4714,
    "ace@@": 4715,
    "Bri@@": 4716,
    "aying": 4717,
    "nei@@": 4718,
    "chem@@": 4719,
    "лин": 4720,
    "administr@@": 4721,
    "ӳл@@": 4722,
    "spir@@": 4723,
    "beg@@": 4724,
    "Ky@@": 4725,
    "IC": 4726,
    "minim@@": 4727,
    "extre@@": 4728,
    "Ver@@": 4729,
    "stitute": 4730,
    "Пу@@": 4731,
    "Sha@@": 4732,
    "grow@@": 4733,
    "Afric@@": 4734,
    "fe": 4735,
    "lis@@": 4736,
    "disc@@": 4737,
    "Jap@@": 4738,
    "да@@": 4739,
    "мен@@": 4740,
    "J": 4741,
    "г@@": 4742,
    "ird": 4743,
    "!\"": 4744,
    "май@@": 4745,
    "Foundation": 4746,
    "Fil@@": 4747,
    "лли@@": 4748,
    "каш@@": 4749,
    "thou@@": 4750,
    "cies": 4751,
    "Del@@": 4752,
    "ене": 4753,
    "itary": 4754,
    "compon@@": 4755,
    "PC@@": 4756,
    "пин": 4757,
    "AG@@": 4758,
    "chall@@": 4759,
    "%,": 4760,
    "ub": 4761,
    "tun@@": 4762,
    "norm@@": 4763,
    "):": 4764,
    "TE@@": 4765,
    "‘": 4766,
    "aim@@": 4767,
    "тем": 4768,
    "кир@@": 4769,
    "fel@@": 4770,
    "stration": 4771,
    "seri@@": 4772,
    "bud@@": 4773,
    "IG@@": 4774,
    "pub@@": 4775,
    "cra@@": 4776,
    "вил@@": 4777,
    "01": 4778,
    "ска@@": 4779,
    "vil@@": 4780,
    "alth": 4781,
    "Tim@@": 4782,
    "Stre@@": 4783,
    "Google": 4784,
    "treat@@": 4785,
    "stand@@": 4786,
    "Exc@@": 4787,
    "aur@@": 4788,
    "coo@@": 4789,
    "atic@@": 4790,
    "42": 4791,
    "Christi@@": 4792,
    "stru@@": 4793,
    "jour@@": 4794,
    "Mul@@": 4795,
    "Americ@@": 4796,
    "practic@@": 4797,
    "RC": 4798,
    "ал@@": 4799,
    "ew": 4800,
    "шан@@": 4801,
    "фа@@": 4802,
    "stit@@": 4803,
    "la": 4804,
    "%@@": 4805,
    "чух@@": 4806,
    "certi@@": 4807,
    "44": 4808,
    "hu@@": 4809,
    "PO@@": 4810,
    "ай@@": 4811,
    "fron@@": 4812,
    "ock": 4813,
    "prise": 4814,
    "anted": 4815,
    "liam@@": 4816,
    "400": 4817,
    "Сан@@": 4818,
    "proc@@": 4819,
    "Ио@@": 4820,
    "48": 4821,
    "obile": 4822,
    "implement@@": 4823,
    "estern": 4824,
    "65": 4825,
    "://": 4826,
    "ут@@": 4827,
    "ко@@": 4828,
    "ooth": 4829,
    "ф": 4830,
    "sty@@": 4831,
    "1997": 4832,
    "б@@": 4833,
    "»,": 4834,
    "лла@@": 4835,
    "inst@@": 4836,
    "рет": 4837,
    "stems": 4838,
    "install@@": 4839,
    "ared": 4840,
    "ecutive": 4841,
    "TR@@": 4842,
    "ту": 4843,
    "Ра@@": 4844,
    "ex": 4845,
    "пах": 4846,
    "12@@": 4847,
    "ext": 4848,
    "ян": 4849,
    "http": 4850,
    "Tur@@": 4851,
    "benef@@": 4852,
    "Иисус": 4853,
    "Sk@@": 4854,
    "ск@@": 4855,
    "My@@": 4856,
    "Add": 4857,
    "ир@@": 4858,
    "tware": 4859,
    "IE@@": 4860,
    "ference": 4861,
    "ancial": 4862,
    "Та@@": 4863,
    "Ю@@": 4864,
    "тен@@": 4865,
    "set@@": 4866,
    "Ч@@": 4867,
    "lam@@": 4868,
    "\\": 4869,
    "III": 4870,
    "ян@@": 4871,
    "ease": 4872,
    "tually": 4873,
    "55": 4874,
    "dings": 4875,
    "gan@@": 4876,
    "call@@": 4877,
    "traff@@": 4878,
    "lit@@": 4879,
    "cli@@": 4880,
    "41": 4881,
    "bet@@": 4882,
    "legis@@": 4883,
    "тур@@": 4884,
    "О@@": 4885,
    "avail@@": 4886,
    "pur@@": 4887,
    "ime": 4888,
    "SS@@": 4889,
    "ис@@": 4890,
    "CP": 4891,
    "а": 4892,
    "conflic@@": 4893,
    "43": 4894,
    ":@@": 4895,
    "net@@": 4896,
    "кер@@": 4897,
    "stat@@": 4898,
    "ign": 4899,
    "95": 4900,
    "де@@": 4901,
    "play@@": 4902,
    "lik@@": 4903,
    "utions": 4904,
    "ou": 4905,
    "Secret@@": 4906,
    "”.": 4907,
    "”,": 4908,
    "USB": 4909,
    "ми": 4910,
    "ouse": 4911,
    "proper@@": 4912,
    "posi@@": 4913,
    "tiz@@": 4914,
    "ould": 4915,
    "ilities": 4916,
    "mini@@": 4917,
    "citiz@@": 4918,
    "Geor@@": 4919,
    "Ju@@": 4920,
    "д": 4921,
    "wee@@": 4922,
    "inking": 4923,
    "-@@": 4924,
    "Ge@@": 4925,
    "lead@@": 4926,
    "oundation": 4927,
    "1996": 4928,
    "q": 4929,
    "150": 4930,
    "mary": 4931,
    "до@@": 4932,
    "immedi@@": 4933,
    "assess@@": 4934,
    "ру": 4935,
    "ordin@@": 4936,
    "anal@@": 4937,
    "1995": 4938,
    "atis@@": 4939,
    "dat@@": 4940,
    "charac@@": 4941,
    "vil": 4942,
    "terr@@": 4943,
    "TP": 4944,
    "announ@@": 4945,
    "On@@": 4946,
    "conduc@@": 4947,
    "Пе@@": 4948,
    "ru": 4949,
    "restaur@@": 4950,
    "2013": 4951,
    "хе@@": 4952,
    "лу@@": 4953,
    "ods": 4954,
    "'@@": 4955,
    "Mos@@": 4956,
    "mom@@": 4957,
    "Fr@@": 4958,
    "ем@@": 4959,
    "Ан@@": 4960,
    "Пи@@": 4961,
    "Expl@@": 4962,
    "Иерусали@@": 4963,
    "Ы@@": 4964,
    "stead": 4965,
    "art@@": 4966,
    "web@@": 4967,
    "56": 4968,
    "avo@@": 4969,
    "burg": 4970,
    "рес@@": 4971,
    "по@@": 4972,
    "Econom@@": 4973,
    "”@@": 4974,
    "akh@@": 4975,
    "diff@@": 4976,
    "ил": 4977,
    "30@@": 4978,
    "хе": 4979,
    "peti@@": 4980,
    "duce": 4981,
    "сса": 4982,
    "hen@@": 4983,
    "ith": 4984,
    "hibition": 4985,
    "Linux": 4986,
    "тать": 4987,
    "soft": 4988,
    "irit": 4989,
    "ҫин@@": 4990,
    "Г@@": 4991,
    "HP": 4992,
    "му@@": 4993,
    "46": 4994,
    "™": 4995,
    "wise": 4996,
    "dig@@": 4997,
    "51": 4998,
    "кин@@": 4999,
    "47": 5000,
    "°": 5001,
    "ording": 5002,
    "52": 5003,
    "MS@@": 5004,
    "600": 5005,
    "священ@@": 5006,
    "ource": 5007,
    "хра@@": 5008,
    "relation@@": 5009,
    "<": 5010,
    "мер@@": 5011,
    "(\"": 5012,
    "49": 5013,
    "он@@": 5014,
    "Ту@@": 5015,
    "use@@": 5016,
    "ник@@": 5017,
    "рӑна@@": 5018,
    "800": 5019,
    "сӑма@@": 5020,
    "тери": 5021,
    "knowle@@": 5022,
    "си": 5023,
    "1992": 5024,
    "Phone": 5025,
    "Fun@@": 5026,
    "ей": 5027,
    "XP": 5028,
    "Ger@@": 5029,
    "'.": 5030,
    "encies": 5031,
    "1990": 5032,
    "Ӗ@@": 5033,
    "clim@@": 5034,
    "то@@": 5035,
    "evid@@": 5036,
    "85": 5037,
    "02": 5038,
    "educ@@": 5039,
    "сла@@": 5040,
    "fig@@": 5041,
    "org": 5042,
    "ject": 5043,
    "eve": 5044,
    "го@@": 5045,
    "54": 5046,
    "del": 5047,
    "].": 5048,
    "tec@@": 5049,
    "lion": 5050,
    "Tw@@": 5051,
    "ат@@": 5052,
    "environ@@": 5053,
    "ame@@": 5054,
    "\")": 5055,
    "шта@@": 5056,
    "ев": 5057,
    "',": 5058,
    "ет": 5059,
    "1991": 5060,
    "tries": 5061,
    "ext@@": 5062,
    "hap@@": 5063,
    "Ку@@": 5064,
    "curren@@": 5065,
    "atically": 5066,
    "99": 5067,
    "да": 5068,
    "он": 5069,
    "sust@@": 5070,
    "dy@@": 5071,
    "ук@@": 5072,
    "наш@@": 5073,
    "1993": 5074,
    "dows": 5075,
    "sof@@": 5076,
    "echn@@": 5077,
    "eci@@": 5078,
    "confi@@": 5079,
    "53": 5080,
    "ept@@": 5081,
    "sibility": 5082,
    "ologies": 5083,
    "chil@@": 5084,
    "sett@@": 5085,
    "op": 5086,
    "лах": 5087,
    "intro@@": 5088,
    "ҫе@@": 5089,
    "тин@@": 5090,
    "1994": 5091,
    "#": 5092,
    "Lin@@": 5093,
    "ques@@": 5094,
    "фи@@": 5095,
    "Apple": 5096,
    "une": 5097,
    "practi@@": 5098,
    "natur@@": 5099,
    "exist@@": 5100,
    "xim@@": 5101,
    "hos@@": 5102,
    "ld": 5103,
    "astern": 5104,
    "пала@@": 5105,
    "хо@@": 5106,
    "lic": 5107,
    "SharePoint": 5108,
    "Outlook": 5109,
    "=": 5110,
    "ista": 5111,
    "%)": 5112,
    "…@@": 5113,
    "Intel": 5114,
    "во@@": 5115,
    "Ки@@": 5116,
    "рек@@": 5117,
    "mic@@": 5118,
    "Алексей": 5119,
    "199@@": 5120,
    "Иу@@": 5121,
    "ysis": 5122,
    "youn@@": 5123,
    "05": 5124,
    "58": 5125,
    "ли": 5126,
    "require@@": 5127,
    "j": 5128,
    "57": 5129,
    "lig@@": 5130,
    "ж@@": 5131,
    "volum@@": 5132,
    "Oc@@": 5133,
    "@": 5134,
    "98": 5135,
    "issu@@": 5136,
    "Ак@@": 5137,
    "prot@@": 5138,
    "На@@": 5139,
    "Air@@": 5140,
    "Euro@@": 5141,
    "Fore@@": 5142,
    "capac@@": 5143,
    "prob@@": 5144,
    "eps": 5145,
    "ord": 5146,
    "Dat@@": 5147,
    "Том": 5148,
    "ause": 5149,
    "ч": 5150,
    "ă": 5151,
    "Ме@@": 5152,
    "1000": 5153,
    "tegr@@": 5154,
    "мест@@": 5155,
    "08": 5156,
    "lev@@": 5157,
    "Те@@": 5158,
    "09": 5159,
    "stem": 5160,
    "62": 5161,
    "€": 5162,
    "250": 5163,
    "ced": 5164,
    "07": 5165,
    "inclu@@": 5166,
    "hibi@@": 5167,
    "дей@@": 5168,
    "вид": 5169,
    "про@@": 5170,
    "шухӑ@@": 5171,
    "Га@@": 5172,
    "Мои@@": 5173,
    "ources": 5174,
    "06": 5175,
    "ник": 5176,
    "ept": 5177,
    "тем@@": 5178,
    "conven@@": 5179,
    "ба@@": 5180,
    "add@@": 5181,
    "forc@@": 5182,
    "хла@@": 5183,
    "ге@@": 5184,
    "reas@@": 5185,
    "Я@@": 5186,
    "®": 5187,
    "weap@@": 5188,
    "Ху@@": 5189,
    "centr@@": 5190,
    "poses": 5191,
    "Acc@@": 5192,
    "пус@@": 5193,
    "ше@@": 5194,
    "eping": 5195,
    "earch": 5196,
    "маш@@": 5197,
    "мест": 5198,
    "Еги@@": 5199,
    "ole": 5200,
    "temper@@": 5201,
    "__@@": 5202,
    "í@@": 5203,
    "ermin@@": 5204,
    "план@@": 5205,
    "вич": 5206,
    "Azerbaij@@": 5207,
    "кра@@": 5208,
    "opini@@": 5209,
    "ура@@": 5210,
    "/@@": 5211,
    "offici@@": 5212,
    "би@@": 5213,
    "Вӑ@@": 5214,
    "Ho@@": 5215,
    "employe@@": 5216,
    "challeng@@": 5217,
    "haps": 5218,
    "Gener@@": 5219,
    "commer@@": 5220,
    "га@@": 5221,
    "]@@": 5222,
    "everal": 5223,
    "тех": 5224,
    "vide@@": 5225,
    "+@@": 5226,
    "campai@@": 5227,
    "SC": 5228,
    "Ван@@": 5229,
    "emplo@@": 5230,
    "IV": 5231,
    "Cour@@": 5232,
    "·": 5233,
    "erc@@": 5234,
    "cil": 5235,
    "уя@@": 5236,
    "ата@@": 5237,
    "Afgh@@": 5238,
    "ля@@": 5239,
    "sci@@": 5240,
    "со@@": 5241,
    "пра@@": 5242,
    "Uzbe@@": 5243,
    "cc@@": 5244,
    "№": 5245,
    "guar@@": 5246,
    "Ira@@": 5247,
    "ё@@": 5248,
    "кле@@": 5249,
    "вне": 5250,
    "Develop@@": 5251,
    "asks": 5252,
    "Ие@@": 5253,
    "никам": 5254,
    "Point": 5255,
    "теле@@": 5256,
    "пер@@": 5257,
    "сто@@": 5258,
    "asic": 5259,
    "сир": 5260,
    "».": 5261,
    "uclear": 5262,
    "так@@": 5263,
    "],": 5264,
    "Sel@@": 5265,
    "ев@@": 5266,
    "ху": 5267,
    "§": 5268,
    "IX": 5269,
    "шки": 5270,
    "Христо@@": 5271,
    "stom@@": 5272,
    "Н@@": 5273,
    "кура@@": 5274,
    "buil@@": 5275,
    "vities": 5276,
    "тре@@": 5277,
    "poin@@": 5278,
    "им@@": 5279,
    "Presid@@": 5280,
    "commod@@": 5281,
    "тей@@": 5282,
    "pment": 5283,
    "яр@@": 5284,
    "eff@@": 5285,
    "tel": 5286,
    "datab@@": 5287,
    ">@@": 5288,
    "Со@@": 5289,
    "effici@@": 5290,
    "трах": 5291,
    "butt@@": 5292,
    "рей@@": 5293,
    "курса": 5294,
    "Федера@@": 5295,
    "Сы@@": 5296,
    "amework": 5297,
    "........@@": 5298,
    "maxim@@": 5299,
    "ап@@": 5300,
    "ems": 5301,
    "usic": 5302,
    "ор@@": 5303,
    "[@@": 5304,
    "occ@@": 5305,
    "Mus@@": 5306,
    "сей": 5307,
    "import@@": 5308,
    "urity": 5309,
    "neg@@": 5310,
    "Б@@": 5311,
    "Л@@": 5312,
    "gn": 5313,
    "amet@@": 5314,
    "individu@@": 5315,
    "agre@@": 5316,
    "pers@@": 5317,
    "о": 5318,
    "psy@@": 5319,
    "dow@@": 5320,
    "кла@@": 5321,
    "archit@@": 5322,
    "€@@": 5323,
    "стать@@": 5324,
    "Ле@@": 5325,
    "aw": 5326,
    "200@@": 5327,
    "DV@@": 5328,
    "им": 5329,
    "ваш@@": 5330,
    "rele@@": 5331,
    "сле@@": 5332,
    "тель@@": 5333,
    "кон@@": 5334,
    "Hum@@": 5335,
    "anu@@": 5336,
    "arch": 5337,
    "Manag@@": 5338,
    "addi@@": 5339,
    "ь": 5340,
    "feder@@": 5341,
    "suffici@@": 5342,
    "democr@@": 5343,
    "insur@@": 5344,
    "aff": 5345,
    "free@@": 5346,
    "recommend@@": 5347,
    "econ@@": 5348,
    "polic@@": 5349,
    "lish": 5350,
    "при@@": 5351,
    "tak@@": 5352,
    "сти@@": 5353,
    "стер@@": 5354,
    "dou@@": 5355,
    "demon@@": 5356,
    "Armen@@": 5357,
    "аль@@": 5358,
    "ров@@": 5359,
    "тер": 5360,
    "республи@@": 5361,
    "til": 5362,
    "worl@@": 5363,
    "cris@@": 5364,
    "лич@@": 5365,
    "вел": 5366,
    "ков": 5367,
    "»@@": 5368,
    "пунк@@": 5369,
    "пле@@": 5370,
    "Ге@@": 5371,
    "Ф@@": 5372,
    "fundam@@": 5373,
    "aver@@": 5374,
    "лин@@": 5375,
    "evel@@": 5376,
    "Mini@@": 5377,
    "Ви@@": 5378,
    "Cu@@": 5379,
    "сам@@": 5380,
    "ваш": 5381,
    "materi@@": 5382,
    "ember": 5383,
    "пре@@": 5384,
    "eph@@": 5385,
    ".).": 5386,
    "ween": 5387,
    "sustain@@": 5388,
    "partment": 5389,
    "mess@@": 5390,
    "ufac@@": 5391,
    "uch": 5392,
    "уде@@": 5393,
    "Й@@": 5394,
    "Ear@@": 5395,
    "тро@@": 5396,
    "Ми@@": 5397,
    "из@@": 5398,
    "oom": 5399,
    "бу@@": 5400,
    "é@@": 5401,
    "exter@@": 5402,
    "лей@@": 5403,
    "ги@@": 5404,
    "лен": 5405,
    "lease": 5406,
    "Associ@@": 5407,
    "Kazakh@@": 5408,
    "пӗ": 5409,
    "ĕ": 5410,
    "ricul@@": 5411,
    "фе@@": 5412,
    "auti@@": 5413,
    "power@@": 5414,
    "dle": 5415,
    "Fir@@": 5416,
    "ablis@@": 5417,
    "упа@@": 5418,
    "Се@@": 5419,
    "Ар@@": 5420,
    "Af@@": 5421,
    "орга@@": 5422,
    "гра@@": 5423,
    "inning": 5424,
    "нас": 5425,
    "simil@@": 5426,
    "сту@@": 5427,
    "вас": 5428,
    "пыта@@": 5429,
    "circum@@": 5430,
    "лай@@": 5431,
    "fault": 5432,
    "всем": 5433,
    "anci@@": 5434,
    "Ни@@": 5435,
    "То@@": 5436,
    "Europe@@": 5437,
    "ну": 5438,
    "вать": 5439,
    "á@@": 5440,
    "умӗн@@": 5441,
    "аб@@": 5442,
    "mob@@": 5443,
    "ть@@": 5444,
    "`": 5445,
    "упра@@": 5446,
    "hic": 5447,
    "з": 5448,
    "accord@@": 5449,
    "Су@@": 5450,
    "eas@@": 5451,
    "ribu@@": 5452,
    "appropri@@": 5453,
    "Micro@@": 5454,
    "зи@@": 5455,
    "нк@@": 5456,
    "paragrap@@": 5457,
    "Ukrain@@": 5458,
    "scho@@": 5459,
    "ств@@": 5460,
    "ÿ@@": 5461,
    "pai@@": 5462,
    "’@@": 5463,
    "пере@@": 5464,
    "ют": 5465,
    "стар@@": 5466,
    "проро@@": 5467,
    "ду@@": 5468,
    "regist@@": 5469,
    "тек@@": 5470,
    "cum@@": 5471,
    "Ла@@": 5472,
    "NAT@@": 5473,
    "капита@@": 5474,
    "é": 5475,
    "шу": 5476,
    "bec@@": 5477,
    ".),": 5478,
    "рия": 5479,
    "от@@": 5480,
    "vern@@": 5481,
    "Му@@": 5482,
    "gether": 5483,
    "ять": 5484,
    "сей@@": 5485,
    "З@@": 5486,
    "ден@@": 5487,
    "тин": 5488,
    "Mol@@": 5489,
    "ам": 5490,
    "Чӑ@@": 5491,
    "echan@@": 5492,
    "dividu@@": 5493,
    "■": 5494,
    "ве": 5495,
    "Израи@@": 5496,
    "lem": 5497,
    "ers@@": 5498,
    "ье@@": 5499,
    "Ко@@": 5500,
    "edure": 5501,
    "кре@@": 5502,
    "relev@@": 5503,
    "other@@": 5504,
    "grou@@": 5505,
    ";@@": 5506,
    "вед@@": 5507,
    "пен@@": 5508,
    "рем": 5509,
    "тай@@": 5510,
    "она@@": 5511,
    "pop@@": 5512,
    "муниципа@@": 5513,
    "Serv@@": 5514,
    "ateg@@": 5515,
    "Contro@@": 5516,
    "ним": 5517,
    "бо@@": 5518,
    "Accor@@": 5519,
    "ника@@": 5520,
    "фо@@": 5521,
    "partic@@": 5522,
    "_": 5523,
    "так": 5524,
    "ergy": 5525,
    "Grou@@": 5526,
    "î": 5527,
    "сӗ": 5528,
    "зе@@": 5529,
    "вах": 5530,
    "spirit@@": 5531,
    "Фи@@": 5532,
    "Vladi@@": 5533,
    "коман@@": 5534,
    "Commit@@": 5535,
    "нов": 5536,
    "infra@@": 5537,
    "ях": 5538,
    "ilit@@": 5539,
    "Ли@@": 5540,
    "usin@@": 5541,
    "Из@@": 5542,
    "uture": 5543,
    "сс@@": 5544,
    "Ну": 5545,
    "сса@@": 5546,
    "нача@@": 5547,
    "Р@@": 5548,
    "Ther@@": 5549,
    "Educ@@": 5550,
    "Ҫӳл@@": 5551,
    "Д@@": 5552,
    "тру@@": 5553,
    "вер@@": 5554,
    "Бе@@": 5555,
    "●": 5556,
    "стан@@": 5557,
    "име@@": 5558,
    "maj@@": 5559,
    "Progr@@": 5560,
    "рам@@": 5561,
    "blems": 5562,
    "Ас@@": 5563,
    "prises": 5564,
    "тура": 5565,
    "рам": 5566,
    "ç": 5567,
    "нет": 5568,
    "gle": 5569,
    "сасс@@": 5570,
    "Мар@@": 5571,
    "реш@@": 5572,
    "Uk@@": 5573,
    "ский": 5574,
    "территори@@": 5575,
    "зо@@": 5576,
    "estic": 5577,
    "dow": 5578,
    "авто@@": 5579,
    "фа": 5580,
    "ко": 5581,
    "По@@": 5582,
    "чах": 5583,
    "За@@": 5584,
    "ghout": 5585,
    "....@@": 5586,
    "----@@": 5587,
    "пита@@": 5588,
    "lier": 5589,
    "Ве@@": 5590,
    "ц": 5591,
    "рий": 5592,
    "ком@@": 5593,
    "три@@": 5594,
    "тни@@": 5595,
    "ня@@": 5596,
    "коми@@": 5597,
    "най@@": 5598,
    "лу": 5599,
    "сам": 5600,
    "ров": 5601,
    "пол@@": 5602,
    "~": 5603,
    "ainst": 5604,
    "тель": 5605,
    "Ду@@": 5606,
    "Bec@@": 5607,
    "ав@@": 5608,
    "reng@@": 5609,
    "це@@": 5610,
    "ца": 5611,
    "Миха@@": 5612,
    "atell@@": 5613,
    "шать": 5614,
    "ö@@": 5615,
    "Share@@": 5616,
    "rought": 5617,
    "сут@@": 5618,
    "рок": 5619,
    "Ше@@": 5620,
    "Би@@": 5621,
    "А": 5622,
    "ux": 5623,
    "him@@": 5624,
    "г": 5625,
    "рон@@": 5626,
    "само@@": 5627,
    "aily": 5628,
    "ô@@": 5629,
    "тр": 5630,
    "полномо@@": 5631,
    "Мо@@": 5632,
    "дан@@": 5633,
    "жа@@": 5634,
    "complet@@": 5635,
    "Влади@@": 5636,
    "рав@@": 5637,
    "плен@@": 5638,
    "etings": 5639,
    "проек@@": 5640,
    "нер@@": 5641,
    "ü@@": 5642,
    "шка": 5643,
    "там": 5644,
    "ст": 5645,
    "нен@@": 5646,
    "ят": 5647,
    "hn": 5648,
    "Wash@@": 5649,
    "Polic@@": 5650,
    "уча@@": 5651,
    "куль@@": 5652,
    "гу@@": 5653,
    "ington": 5654,
    "социа@@": 5655,
    "мас@@": 5656,
    "Не@@": 5657,
    "\\@@": 5658,
    "чик": 5659,
    "кам@@": 5660,
    "ific@@": 5661,
    "Фа@@": 5662,
    "your@@": 5663,
    "стви@@": 5664,
    "Чу@@": 5665,
    "Вы@@": 5666,
    "quick@@": 5667,
    "чет@@": 5668,
    "мл@@": 5669,
    "кто@@": 5670,
    "ски": 5671,
    "ника": 5672,
    "раз@@": 5673,
    "мин": 5674,
    "кана@@": 5675,
    "бю@@": 5676,
    "Мак@@": 5677,
    "Lon@@": 5678,
    "<@@": 5679,
    "об@@": 5680,
    "лам": 5681,
    "Ти@@": 5682,
    "ум@@": 5683,
    "hic@@": 5684,
    "сер@@": 5685,
    "Никола@@": 5686,
    "Алексан@@": 5687,
    "Azer@@": 5688,
    "спорт": 5689,
    "офи@@": 5690,
    "\u0007": 5691,
    "б": 5692,
    "али@@": 5693,
    "Centr@@": 5694,
    "бюдже@@": 5695,
    "Алек@@": 5696,
    "шла": 5697,
    "ö": 5698,
    "Фе@@": 5699,
    "//": 5700,
    "шин@@": 5701,
    "нов@@": 5702,
    "ди": 5703,
    "стен@@": 5704,
    "прави@@": 5705,
    "lear": 5706,
    "програм@@": 5707,
    "клас@@": 5708,
    "кая": 5709,
    "Ин@@": 5710,
    "plom@@": 5711,
    "ethn@@": 5712,
    "час": 5713,
    "др": 5714,
    "щ@@": 5715,
    "ñ": 5716,
    "throu@@": 5717,
    "evelop": 5718,
    "ря@@": 5719,
    "ership": 5720,
    "Иисуса": 5721,
    "ния": 5722,
    "мир": 5723,
    "реги@@": 5724,
    "интерес@@": 5725,
    "Ҫӳлху@@": 5726,
    "экономи@@": 5727,
    "ста": 5728,
    "ры@@": 5729,
    "мла@@": 5730,
    "ем": 5731,
    "ги": 5732,
    "iri@@": 5733,
    "учи@@": 5734,
    "три": 5735,
    "лам@@": 5736,
    "ски@@": 5737,
    "мину@@": 5738,
    "ад@@": 5739,
    "Ре@@": 5740,
    "лов@@": 5741,
    "ğ": 5742,
    "ене@@": 5743,
    "Ğ@@": 5744,
    "rom": 5745,
    "сте@@": 5746,
    "ularly": 5747,
    "пас@@": 5748,
    "Гор@@": 5749,
    "Goo@@": 5750,
    "„": 5751,
    "организа@@": 5752,
    "menti@@": 5753,
    "она": 5754,
    "ви": 5755,
    "Лю@@": 5756,
    "extrem@@": 5757,
    "нар@@": 5758,
    "Го@@": 5759,
    "мет@@": 5760,
    "portun@@": 5761,
    "ern": 5762,
    "agrap@@": 5763,
    "Are@@": 5764,
    "фер@@": 5765,
    "га": 5766,
    "дж@@": 5767,
    "yond": 5768,
    "indu@@": 5769,
    "ье": 5770,
    "пей@@": 5771,
    "служ@@": 5772,
    "Про@@": 5773,
    "Дж@@": 5774,
    "nee@@": 5775,
    "compre@@": 5776,
    "сай@@": 5777,
    "Jew@@": 5778,
    "→": 5779,
    "фор@@": 5780,
    "лия": 5781,
    "ках": 5782,
    "информа@@": 5783,
    "--@@": 5784,
    "трен@@": 5785,
    "сма@@": 5786,
    "за": 5787,
    "Ц@@": 5788,
    "flic@@": 5789,
    "хва@@": 5790,
    "Сер@@": 5791,
    "ä@@": 5792,
    "pared": 5793,
    "Sovi@@": 5794,
    "Ди@@": 5795,
    "федера@@": 5796,
    "рей": 5797,
    "процен@@": 5798,
    "ля": 5799,
    "ì@@": 5800,
    "tish": 5801,
    "граждан@@": 5802,
    "бе@@": 5803,
    "Agre@@": 5804,
    "тран@@": 5805,
    "beauti@@": 5806,
    "ков@@": 5807,
    "при": 5808,
    "все@@": 5809,
    "ана@@": 5810,
    "=@@": 5811,
    "кех": 5812,
    "стра@@": 5813,
    "сли@@": 5814,
    "докумен@@": 5815,
    "©": 5816,
    "Ав@@": 5817,
    "dures": 5818,
    "cow": 5819,
    "пли@@": 5820,
    "объек@@": 5821,
    "Ча@@": 5822,
    "Кар@@": 5823,
    "ферен@@": 5824,
    "доно@@": 5825,
    "Во@@": 5826,
    "сор": 5827,
    "ople": 5828,
    "○": 5829,
    "жи@@": 5830,
    "щи@@": 5831,
    "à": 5832,
    "чер@@": 5833,
    "уз@@": 5834,
    "Ста@@": 5835,
    "тор@@": 5836,
    "тор": 5837,
    "сме@@": 5838,
    "мон@@": 5839,
    "маши@@": 5840,
    "В": 5841,
    "право": 5842,
    "ору@@": 5843,
    "кий": 5844,
    "обще@@": 5845,
    "Р": 5846,
    "ья": 5847,
    "цент@@": 5848,
    "сия": 5849,
    "opportun@@": 5850,
    "mir": 5851,
    "−": 5852,
    "тех@@": 5853,
    "сни@@": 5854,
    "род@@": 5855,
    "раи@@": 5856,
    "профес@@": 5857,
    "мия": 5858,
    "ó@@": 5859,
    "Ӳ@@": 5860,
    "силь@@": 5861,
    "ктор": 5862,
    "Е": 5863,
    "Гру@@": 5864,
    "ство": 5865,
    "Ша@@": 5866,
    "Ру@@": 5867,
    "wom@@": 5868,
    "сум@@": 5869,
    "тери@@": 5870,
    "√": 5871,
    "сон": 5872,
    "Ги@@": 5873,
    "“@@": 5874,
    "вида": 5875,
    "Коми@@": 5876,
    "«@@": 5877,
    "‐": 5878,
    "ер": 5879,
    "администра@@": 5880,
    "Де@@": 5881,
    "Ал@@": 5882,
    "^": 5883,
    "мы@@": 5884,
    "Мини@@": 5885,
    "bru@@": 5886,
    "ос@@": 5887,
    "ори@@": 5888,
    "кова": 5889,
    "пута@@": 5890,
    "нор@@": 5891,
    "Свя@@": 5892,
    "í": 5893,
    "ба": 5894,
    "Кон@@": 5895,
    "минут": 5896,
    "истори@@": 5897,
    "вет": 5898,
    "Чи@@": 5899,
    "hind": 5900,
    "­": 5901,
    "вле@@": 5902,
    "achi@@": 5903,
    "{": 5904,
    "фон@@": 5905,
    "тури@@": 5906,
    "син@@": 5907,
    "сили@@": 5908,
    "вод@@": 5909,
    "Uz@@": 5910,
    "предприя@@": 5911,
    "лем": 5912,
    "окру@@": 5913,
    "дра": 5914,
    "Feder@@": 5915,
    "вой": 5916,
    "±": 5917,
    "услови@@": 5918,
    "семе@@": 5919,
    "&@@": 5920,
    "стратеги@@": 5921,
    "мати@@": 5922,
    "культу@@": 5923,
    "вал": 5924,
    "гна@@": 5925,
    "вет@@": 5926,
    "бри@@": 5927,
    "level@@": 5928,
    "beha@@": 5929,
    "эк@@": 5930,
    "™@@": 5931,
    "пис@@": 5932,
    "$@@": 5933,
    "э": 5934,
    "посе@@": 5935,
    "лю@@": 5936,
    "Н": 5937,
    "rench": 5938,
    "ilies": 5939,
    "ߛ@@": 5940,
    "цер@@": 5941,
    "полити@@": 5942,
    "пан@@": 5943,
    "ж": 5944,
    "вид@@": 5945,
    "Ба@@": 5946,
    "но": 5947,
    "Ро@@": 5948,
    "pover@@": 5949,
    "учрежд@@": 5950,
    "ева": 5951,
    "SQ@@": 5952,
    "кор@@": 5953,
    "Че@@": 5954,
    "вос@@": 5955,
    "вани@@": 5956,
    "á": 5957,
    "чек": 5958,
    "путе@@": 5959,
    "парт@@": 5960,
    "дра@@": 5961,
    "ƒ": 5962,
    "×": 5963,
    "пор@@": 5964,
    "Но@@": 5965,
    "´": 5966,
    "cele@@": 5967,
    "ответ": 5968,
    "ез@@": 5969,
    "долж@@": 5970,
    "сур@@": 5971,
    "маршру@@": 5972,
    "}": 5973,
    "чет": 5974,
    "лки@@": 5975,
    "И": 5976,
    "милли@@": 5977,
    "гор@@": 5978,
    "Chin@@": 5979,
    "циа@@": 5980,
    "уч@@": 5981,
    "сть": 5982,
    "мор@@": 5983,
    "ката@@": 5984,
    "Бо@@": 5985,
    "сти": 5986,
    "комму@@": 5987,
    "член@@": 5988,
    "нь": 5989,
    "Ев@@": 5990,
    "спи@@": 5991,
    "лом": 5992,
    "воз@@": 5993,
    "Assem@@": 5994,
    "чем": 5995,
    "теат@@": 5996,
    "сли": 5997,
    "Иису@@": 5998,
    "суд": 5999,
    "стре@@": 6000,
    "дре@@": 6001,
    "Пар@@": 6002,
    "К": 6003,
    "Ж@@": 6004,
    "goti@@": 6005,
    "ссия": 6006,
    "спорт@@": 6007,
    "председа@@": 6008,
    "министер@@": 6009,
    "фир@@": 6010,
    "лев@@": 6011,
    "ведо@@": 6012,
    "deg@@": 6013,
    "юри@@": 6014,
    "фра@@": 6015,
    "смо@@": 6016,
    "До@@": 6017,
    "медици@@": 6018,
    "è@@": 6019,
    "Jes@@": 6020,
    "фон": 6021,
    "инвести@@": 6022,
    "²": 6023,
    "ss": 6024,
    "нан@@": 6025,
    "мероприя@@": 6026,
    "вен@@": 6027,
    "бли@@": 6028,
    "хыҫҫ@@": 6029,
    "тя@@": 6030,
    "тю@@": 6031,
    "С": 6032,
    "š@@": 6033,
    "чей": 6034,
    "уни@@": 6035,
    "телей": 6036,
    "нау@@": 6037,
    "мер": 6038,
    "дия": 6039,
    "Пер@@": 6040,
    "ов": 6041,
    "лов": 6042,
    "ladi@@": 6043,
    "кет": 6044,
    "Ис@@": 6045,
    "чка": 6046,
    "опера@@": 6047,
    "минист@@": 6048,
    "литера@@": 6049,
    "кандида@@": 6050,
    "шен@@": 6051,
    "ше": 6052,
    "тка": 6053,
    "сове@@": 6054,
    "поли@@": 6055,
    "комен@@": 6056,
    "ким": 6057,
    "каза@@": 6058,
    "графи@@": 6059,
    "Э": 6060,
    "ş": 6061,
    "–@@": 6062,
    "сту": 6063,
    "гер@@": 6064,
    "субъек@@": 6065,
    "жен@@": 6066,
    "гос@@": 6067,
    "fiel@@": 6068,
    "ско@@": 6069,
    "производ@@": 6070,
    "каз@@": 6071,
    "#@@": 6072,
    "эко@@": 6073,
    "таль@@": 6074,
    "спек@@": 6075,
    "сло@@": 6076,
    "дом": 6077,
    "дей": 6078,
    "ş@@": 6079,
    "мпи@@": 6080,
    "вс@@": 6081,
    "бан@@": 6082,
    "ÿ": 6083,
    "тина": 6084,
    "специали@@": 6085,
    "опы@@": 6086,
    "лка": 6087,
    "вир@@": 6088,
    "ñ@@": 6089,
    "уди@@": 6090,
    "спа@@": 6091,
    "ска": 6092,
    "рев@@": 6093,
    "кс": 6094,
    "Прави@@": 6095,
    "£": 6096,
    "филь@@": 6097,
    "дро@@": 6098,
    "ю": 6099,
    "стро@@": 6100,
    "Ад@@": 6101,
    "effor@@": 6102,
    "тельство": 6103,
    "кни@@": 6104,
    "имен@@": 6105,
    "зия": 6106,
    "ее": 6107,
    "вин@@": 6108,
    "ск": 6109,
    "рова@@": 6110,
    "сцен@@": 6111,
    "рь": 6112,
    "прав@@": 6113,
    "пове@@": 6114,
    "куп@@": 6115,
    "комплек@@": 6116,
    "вит": 6117,
    "О": 6118,
    "gust": 6119,
    "продук@@": 6120,
    "под@@": 6121,
    "поч@@": 6122,
    "дох@@": 6123,
    "бое@@": 6124,
    "intel@@": 6125,
    "Yor@@": 6126,
    "IDS": 6127,
    "представи@@": 6128,
    "мир@@": 6129,
    "Тем": 6130,
    "сро@@": 6131,
    "сле": 6132,
    "пози@@": 6133,
    "имо@@": 6134,
    "М": 6135,
    "Герма@@": 6136,
    "Ген@@": 6137,
    "■@@": 6138,
    "проте@@": 6139,
    "лена": 6140,
    "креди@@": 6141,
    "евро@@": 6142,
    "дво@@": 6143,
    "Ком@@": 6144,
    "ā@@": 6145,
    "‑": 6146,
    "щен@@": 6147,
    "тив": 6148,
    "стива@@": 6149,
    "предпринима@@": 6150,
    "курс": 6151,
    "Совет": 6152,
    "оп@@": 6153,
    "институ@@": 6154,
    "дек@@": 6155,
    "ë@@": 6156,
    "princi@@": 6157,
    "шел": 6158,
    "фика@@": 6159,
    "уро@@": 6160,
    "строи@@": 6161,
    "над@@": 6162,
    "Май@@": 6163,
    "пункт": 6164,
    "ня": 6165,
    "мере": 6166,
    "журна@@": 6167,
    "гро@@": 6168,
    "Ри@@": 6169,
    "‟": 6170,
    "†": 6171,
    "―": 6172,
    "тон@@": 6173,
    "коло@@": 6174,
    "дин": 6175,
    "вали@@": 6176,
    "Ф": 6177,
    "efore": 6178,
    "полож@@": 6179,
    "обла@@": 6180,
    "купа@@": 6181,
    "боль@@": 6182,
    "Теле@@": 6183,
    "При@@": 6184,
    "Вер@@": 6185,
    "ł@@": 6186,
    "управл@@": 6187,
    "ний": 6188,
    "журнали@@": 6189,
    "ера@@": 6190,
    "грам@@": 6191,
    "ший": 6192,
    "стра": 6193,
    "став@@": 6194,
    "З": 6195,
    "htt@@": 6196,
    "ность": 6197,
    "ние": 6198,
    "зада@@": 6199,
    "\b": 6200,
    "электро@@": 6201,
    "техни@@": 6202,
    "сет": 6203,
    "площа@@": 6204,
    "ответ@@": 6205,
    "евре@@": 6206,
    "генера@@": 6207,
    "вана": 6208,
    "бар@@": 6209,
    "º@@": 6210,
    "требовани@@": 6211,
    "миллиар@@": 6212,
    "Президен@@": 6213,
    "ó": 6214,
    "тон": 6215,
    "стер": 6216,
    "писа@@": 6217,
    "му": 6218,
    "заклю@@": 6219,
    "жа": 6220,
    "стан": 6221,
    "регистра@@": 6222,
    "промышлен@@": 6223,
    "Ž": 6224,
    "č@@": 6225,
    "ром": 6226,
    "ок@@": 6227,
    "библиоте@@": 6228,
    "‚": 6229,
    "студен@@": 6230,
    "стол@@": 6231,
    "око@@": 6232,
    "нес@@": 6233,
    "лы@@": 6234,
    "акаде@@": 6235,
    "ы": 6236,
    "университе@@": 6237,
    "телефон@@": 6238,
    "вка": 6239,
    "Хо@@": 6240,
    "langu@@": 6241,
    "сь@@": 6242,
    "систе@@": 6243,
    "ро": 6244,
    "реда@@": 6245,
    "музы@@": 6246,
    "коллек@@": 6247,
    "Крас@@": 6248,
    "µ@@": 6249,
    "utin": 6250,
    "﻿": 6251,
    "технологи@@": 6252,
    "авиа@@": 6253,
    "ø@@": 6254,
    "том": 6255,
    "сфе@@": 6256,
    "ней@@": 6257,
    "дка": 6258,
    "Г": 6259,
    "ž@@": 6260,
    "►": 6261,
    "хов": 6262,
    "строительство": 6263,
    "общество": 6264,
    "гар@@": 6265,
    "′": 6266,
    "•@@": 6267,
    "тие": 6268,
    "резер@@": 6269,
    "наш": 6270,
    "мов": 6271,
    "материа@@": 6272,
    "клу@@": 6273,
    "док": 6274,
    "вод": 6275,
    "П": 6276,
    "®@@": 6277,
    "requi@@": 6278,
    "ı@@": 6279,
    "ü": 6280,
    "â@@": 6281,
    "¾": 6282,
    "Â": 6283,
    "~@@": 6284,
    "°@@": 6285,
    "}@@": 6286,
    "Ø": 6287,
    "ß@@": 6288,
    "û": 6289,
    "□": 6290,
    "─": 6291,
    "Ó@@": 6292,
    "Á@@": 6293,
    "‖": 6294,
    "ú@@": 6295,
    "Ö@@": 6296,
    "ī@@": 6297,
    "Ö": 6298,
    "щ": 6299,
    "ū@@": 6300,
    "ř@@": 6301,
    "å@@": 6302,
    "ã@@": 6303,
    "`@@": 6304,
    "α": 6305,
    "Ô": 6306,
    "^@@": 6307,
    "Т": 6308,
    "Д": 6309,
    "ý": 6310,
    "≤": 6311,
    "Л": 6312,
    "ů": 6313,
    "Š@@": 6314,
    "â": 6315,
    "º": 6316,
    "¦@@": 6317,
    "¦": 6318,
    "μ@@": 6319,
    "ť": 6320,
    "ń@@": 6321,
    "§@@": 6322,
    "▪": 6323,
    "Ю": 6324,
    "Æ@@": 6325,
    "‘@@": 6326,
    "—@@": 6327,
    "ṣ@@": 6328,
    "ę@@": 6329,
    "Č@@": 6330,
    "ć": 6331,
    "½": 6332,
    "░": 6333,
    "ا@@": 6334,
    "ъ@@": 6335,
    "š": 6336,
    "\u0018": 6337,
    "У": 6338,
    "ù": 6339,
    "­@@": 6340,
    "ﬁ@@": 6341,
    "♦": 6342,
    "◆": 6343,
    "і@@": 6344,
    "Я": 6345,
    "õ@@": 6346,
    "æ@@": 6347,
    "ä": 6348,
    "¶": 6349,
    "¡": 6350,
    "●@@": 6351,
    "ṇ@@": 6352,
    "Ť@@": 6353,
    "ğ@@": 6354,
    "ě@@": 6355,
    "É@@": 6356,
    "İ@@": 6357,
    "ê@@": 6358,
    "¬": 6359,
    "›": 6360,
    "ї": 6361,
    "Ś": 6362,
    "č": 6363,
    "†@@": 6364,
    "ṛ@@": 6365,
    "à@@": 6366,
    "¢": 6367,
    "\u0001": 6368,
    "″": 6369,
    "Б": 6370,
    "ė@@": 6371,
    "Ø@@": 6372,
    "@@@": 6373,
    "\u0019": 6374,
    "Ω": 6375,
    "Ž@@": 6376,
    "ē@@": 6377,
    "": 6378,
    "\u0003": 6379,
    "・": 6380,
    "‣": 6381,
    "ë": 6382,
    "¥": 6383,
    "": 6384,
    "{@@": 6385,
    "♫": 6386,
    "☐": 6387,
    "≥": 6388,
    "⇒": 6389,
    "ل@@": 6390,
    "פ": 6391,
    "Х": 6392,
    "β": 6393,
    "ľ": 6394,
    "Ľ": 6395,
    "ı": 6396,
    "ď@@": 6397,
    "è": 6398,
    "Ü@@": 6399,
    "Ü": 6400,
    "±@@": 6401,
    "‰": 6402,
    "Δ@@": 6403,
    "˚": 6404,
    "ī": 6405,
    "Ē": 6406,
    "ï@@": 6407,
    "î@@": 6408,
    "": 6409,
    "ů@@": 6410,
    "Ś@@": 6411,
    "Ł@@": 6412,
    "ø": 6413,
    "Æ": 6414,
    "Å@@": 6415,
    "³": 6416,
    "◼": 6417,
    "▼": 6418,
    "╗": 6419,
    "‎": 6420,
    "ף@@": 6421,
    "θ@@": 6422,
    "δ@@": 6423,
    "Ω": 6424,
    "́": 6425,
    "Ş@@": 6426,
    "ņ@@": 6427,
    "ú": 6428,
    "ï": 6429,
    "ß": 6430,
    "½@@": 6431,
    "☞": 6432,
    "▶": 6433,
    "℃": 6434,
    "‗": 6435,
    "‎@@": 6436,
    "І": 6437,
    "ν": 6438,
    "ļ@@": 6439,
    "ě": 6440,
    "ā": 6441,
    "ò": 6442,
    "❏": 6443,
    "◊": 6444,
    "≈": 6445,
    "ن@@": 6446,
    "ب@@": 6447,
    "є@@": 6448,
    "τ@@": 6449,
    "ż@@": 6450,
    "Ÿ": 6451,
    "ś@@": 6452,
    "ĺ@@": 6453,
    "û@@": 6454,
    "Ú": 6455,
    "ª": 6456,
    "✕": 6457,
    "☆": 6458,
    "‖@@": 6459,
    "؛": 6460,
    "ї@@": 6461,
    "Й": 6462,
    "ω@@": 6463,
    "Ğ": 6464,
    "ý@@": 6465,
    "": 6466,
    "：": 6467,
    "市": 6468,
    "、": 6469,
    "∫": 6470,
    "‍": 6471,
    "ғ@@": 6472,
    "ғ": 6473,
    "Щ@@": 6474,
    "Ш": 6475,
    "ε": 6476,
    "ž": 6477,
    "ź": 6478,
    "Ū": 6479,
    "ń": 6480,
    "Ė": 6481,
    "õ": 6482,
    "¯": 6483,
    "¤": 6484,
    "": 6485,
    "❖": 6486,
    "★": 6487,
    "╩": 6488,
    "╚": 6489,
    "╗@@": 6490,
    "↑": 6491,
    "‹": 6492,
    "‫": 6493,
    "ي@@": 6494,
    "ر@@": 6495,
    "ج@@": 6496,
    "ة": 6497,
    "Ҫ": 6498,
    "λ": 6499,
    "ε@@": 6500,
    "γ": 6501,
    "ʼ@@": 6502,
    "Ʋ": 6503,
    "ţ@@": 6504,
    "Š": 6505,
    "ō@@": 6506,
    "Ł": 6507,
    "Į": 6508,
    "÷": 6509,
    "Ç@@": 6510,
    "¼": 6511,
    "¹": 6512,
    "": 6513,
    "\u0007@@": 6514,
    "\u0004": 6515,
    "（": 6516,
    "「": 6517,
    "✜": 6518,
    "▲@@": 6519,
    "∪": 6520,
    "‡": 6521,
    "و@@": 6522,
    "ن": 6523,
    "م@@": 6524,
    "ה@@": 6525,
    "ґ@@": 6526,
    "Ь@@": 6527,
    "І@@": 6528,
    "ω": 6529,
    "π@@": 6530,
    "δ": 6531,
    "˙": 6532,
    "ŝ@@": 6533,
    "ľ@@": 6534,
    "ķ@@": 6535,
    "ą@@": 6536,
    "å": 6537,
    "Ú@@": 6538,
    "Ä@@": 6539,
    "Ã": 6540,
    "µ": 6541,
    "；": 6542,
    "）": 6543,
    "南@@": 6544,
    "❙": 6545,
    "▼@@": 6546,
    "▲": 6547,
    "⌧": 6548,
    "≠": 6549,
    "∞": 6550,
    "∈": 6551,
    "″@@": 6552,
    "‬": 6553,
    "ز@@": 6554,
    "і": 6555,
    "Ч": 6556,
    "Ц": 6557,
    "ρ@@": 6558,
    "ο@@": 6559,
    "˝": 6560,
    "ź@@": 6561,
    "Ř": 6562,
    "œ@@": 6563,
    "ň@@": 6564,
    "Ī@@": 6565,
    "ė": 6566,
    "đ": 6567,
    "ć@@": 6568,
    "Ă": 6569,
    "×@@": 6570,
    "£@@": 6571,
    "\u0004@@": 6572,
    "～": 6573,
    "－": 6574,
    "路": 6575,
    "大@@": 6576,
    "上@@": 6577,
    "で@@": 6578,
    "し@@": 6579,
    "」": 6580,
    "》": 6581,
    "《": 6582,
    "。": 6583,
    "➜": 6584,
    "✔": 6585,
    "≡": 6586,
    "≈@@": 6587,
    "∼": 6588,
    "∞@@": 6589,
    "−@@": 6590,
    "↙": 6591,
    "Ⅲ": 6592,
    "℃@@": 6593,
    "⁄": 6594,
    "‒": 6595,
    "्": 6596,
    "ा": 6597,
    "ߛ": 6598,
    "ه@@": 6599,
    "ل": 6600,
    "ع@@": 6601,
    "ت@@": 6602,
    "Ы": 6603,
    "Ж": 6604,
    "υ@@": 6605,
    "σ@@": 6606,
    "σ": 6607,
    "ς": 6608,
    "π": 6609,
    "ο": 6610,
    "η": 6611,
    "α@@": 6612,
    "Σ": 6613,
    ";": 6614,
    "Ɇ@@": 6615,
    "Ż@@": 6616,
    "Ż": 6617,
    "Ź": 6618,
    "ū": 6619,
    "Ř@@": 6620,
    "Œ@@": 6621,
    "Ĺ@@": 6622,
    "Ķ@@": 6623,
    "İ": 6624,
    "ģ@@": 6625,
    "Û": 6626,
    "Ù@@": 6627,
    "Ó": 6628,
    "Í@@": 6629,
    "É": 6630,
    "Ç": 6631,
    "´@@": 6632,
    "\u0018@@": 6633,
    "\u000e": 6634,
    "ﬂ@@": 6635,
    "않@@": 6636,
    "町": 6637,
    "海": 6638,
    "利@@": 6639,
    "ょ@@": 6640,
    "う": 6641,
    "【": 6642,
    "➪": 6643,
    "➤": 6644,
    "➀": 6645,
    "❚": 6646,
    "✘": 6647,
    "✓": 6648,
    "◄@@": 6649,
    "▪@@": 6650,
    "▓": 6651,
    "▒": 6652,
    "╣": 6653,
    "∆": 6654,
    "⁰": 6655,
    "※": 6656,
    "‰@@": 6657,
    "‧": 6658,
    "‏": 6659,
    "ế@@": 6660,
    "Ẫ@@": 6661,
    "ර": 6662,
    "ی@@": 6663,
    "ی": 6664,
    "ک@@": 6665,
    "ٱ": 6666,
    "٧": 6667,
    "ش@@": 6668,
    "س@@": 6669,
    "د@@": 6670,
    "خ@@": 6671,
    "ה": 6672,
    "Ӑ": 6673,
    "љ@@": 6674,
    "є": 6675,
    "ѓ": 6676,
    "ρ": 6677,
    "μ": 6678,
    "ι@@": 6679,
    "ι": 6680,
    "̓@@": 6681,
    "̀": 6682,
    "˛@@": 6683,
    "ˇ@@": 6684,
    "ț": 6685,
    "ș@@": 6686,
    "ƽ": 6687,
    "Ű@@": 6688,
    "Œ": 6689,
    "ő@@": 6690,
    "ő": 6691,
    "ň": 6692,
    "ł": 6693,
    "ĳ@@": 6694,
    "Ģ@@": 6695,
    "Ė@@": 6696,
    "đ@@": 6697,
    "Đ@@": 6698,
    "þ": 6699,
    "ô": 6700,
    "ò@@": 6701,
    "ð@@": 6702,
    "ì": 6703,
    "ã": 6704,
    "Ð": 6705,
    "Â@@": 6706,
    "¸": 6707,
    "²@@": 6708,
    "¨": 6709,
    "": 6710,
    "﻿@@": 6711,
    "지": 6712,
    "요": 6713,
    "아@@": 6714,
    "아": 6715,
    "다": 6716,
    "鹿@@": 6717,
    "阿@@": 6718,
    "阪@@": 6719,
    "重@@": 6720,
    "西@@": 6721,
    "町@@": 6722,
    "田@@": 6723,
    "海@@": 6724,
    "庆": 6725,
    "屋@@": 6726,
    "小@@": 6727,
    "天@@": 6728,
    "原@@": 6729,
    "北": 6730,
    "京": 6731,
    "中@@": 6732,
    "イ@@": 6733,
    "み@@": 6734,
    "〞": 6735,
    "】": 6736,
    "」@@": 6737,
    "➥": 6738,
    "➢": 6739,
    "➃": 6740,
    "➁": 6741,
    "❖@@": 6742,
    "❐": 6743,
    "❊": 6744,
    "☺@@": 6745,
    "☺": 6746,
    "◦": 6747,
    "╧@@": 6748,
    "╝": 6749,
    "╒@@": 6750,
    "╒": 6751,
    "║": 6752,
    "⎯": 6753,
    "⌡": 6754,
    "⋅": 6755,
    "∗": 6756,
    "∆@@": 6757,
    "→@@": 6758,
    "›@@": 6759,
    "‡@@": 6760,
    "‟@@": 6761,
    "„@@": 6762,
    "‛": 6763,
    "―@@": 6764,
    "‌": 6765,
    "ṭ@@": 6766,
    "ᕆ": 6767,
    "ቤ": 6768,
    "්": 6769,
    "ට": 6770,
    "य": 6771,
    "پ": 6772,
    "ي": 6773,
    "ه": 6774,
    "م": 6775,
    "ق@@": 6776,
    "غ@@": 6777,
    "ع": 6778,
    "ط@@": 6779,
    "ز": 6780,
    "ر": 6781,
    "إ": 6782,
    "ב@@": 6783,
    "Ӗ": 6784,
    "ґ": 6785,
    "ћ": 6786,
    "ј": 6787,
    "ё": 6788,
    "χ@@": 6789,
    "φ": 6790,
    "υ": 6791,
    "ς@@": 6792,
    "κ": 6793,
    "η@@": 6794,
    "Ψ": 6795,
    "Φ@@": 6796,
    "Ζ": 6797,
    "̓": 6798,
    "̆": 6799,
    "ˇ": 6800,
    "ə": 6801,
    "ŭ@@": 6802,
    "Ş": 6803,
    "ř": 6804,
    "ŕ": 6805,
    "ō": 6806,
    "Ļ@@": 6807,
    "ę": 6808,
    "Ď@@": 6809,
    "Č": 6810,
    "Ā@@": 6811,
    "æ": 6812,
    "Õ": 6813,
    "Ò@@": 6814,
    "Ò": 6815,
    "Ñ@@": 6816,
    "Ï": 6817,
    "Î@@": 6818,
    "Î": 6819,
    "Í": 6820,
    "Ê@@": 6821,
    "Ê": 6822,
    "È@@": 6823,
    "Å": 6824,
    "Ä": 6825,
    "À": 6826,
    "¹@@": 6827,
    "¬@@": 6828,
    "¥@@": 6829,
    "": 6830,
    "@@": 6831,
    "": 6832,
    "\u0013": 6833,
    "\u0010": 6834,
    "\b@@": 6835,
    "￠": 6836,
    "３": 6837,
    "．": 6838,
    "）@@": 6839,
    "﹡": 6840,
    "포": 6841,
    "평@@": 6842,
    "줘": 6843,
    "주@@": 6844,
    "으": 6845,
    "여": 6846,
    "어": 6847,
    "양": 6848,
    "약": 6849,
    "안": 6850,
    "시": 6851,
    "세@@": 6852,
    "산@@": 6853,
    "면": 6854,
    "만@@": 6855,
    "든@@": 6856,
    "든": 6857,
    "는": 6858,
    "남@@": 6859,
    "나": 6860,
    "고": 6861,
    "거@@": 6862,
    "龙@@": 6863,
    "黄@@": 6864,
    "高@@": 6865,
    "马@@": 6866,
    "香@@": 6867,
    "馆@@": 6868,
    "饭@@": 6869,
    "青@@": 6870,
    "陂@@": 6871,
    "长@@": 6872,
    "镇@@": 6873,
    "部@@": 6874,
    "達": 6875,
    "返@@": 6876,
    "运@@": 6877,
    "车@@": 6878,
    "路@@": 6879,
    "账": 6880,
    "财@@": 6881,
    "谷@@": 6882,
    "语": 6883,
    "观": 6884,
    "規@@": 6885,
    "藏@@": 6886,
    "英@@": 6887,
    "节@@": 6888,
    "臺@@": 6889,
    "自@@": 6890,
    "耳": 6891,
    "经@@": 6892,
    "約": 6893,
    "箕@@": 6894,
    "筲@@": 6895,
    "站": 6896,
    "福@@": 6897,
    "祖@@": 6898,
    "相@@": 6899,
    "目": 6900,
    "益": 6901,
    "的@@": 6902,
    "疏@@": 6903,
    "用@@": 6904,
    "用": 6905,
    "王@@": 6906,
    "玄@@": 6907,
    "烏@@": 6908,
    "灣": 6909,
    "源@@": 6910,
    "湖@@": 6911,
    "港": 6912,
    "深@@": 6913,
    "浪@@": 6914,
    "津": 6915,
    "汽@@": 6916,
    "江@@": 6917,
    "汉": 6918,
    "毛@@": 6919,
    "武@@": 6920,
    "武": 6921,
    "機": 6922,
    "校@@": 6923,
    "林@@": 6924,
    "村": 6925,
    "本@@": 6926,
    "木": 6927,
    "春@@": 6928,
    "春": 6929,
    "星@@": 6930,
    "日@@": 6931,
    "效@@": 6932,
    "政@@": 6933,
    "指@@": 6934,
    "拍@@": 6935,
    "拉@@": 6936,
    "打@@": 6937,
    "成@@": 6938,
    "意@@": 6939,
    "思": 6940,
    "德@@": 6941,
    "待@@": 6942,
    "府": 6943,
    "广@@": 6944,
    "年@@": 6945,
    "市@@": 6946,
    "州": 6947,
    "岛@@": 6948,
    "山@@": 6949,
    "山": 6950,
    "宿@@": 6951,
    "宫@@": 6952,
    "学": 6953,
    "太@@": 6954,
    "城": 6955,
    "坪@@": 6956,
    "场": 6957,
    "园": 6958,
    "回@@": 6959,
    "四@@": 6960,
    "器": 6961,
    "咏@@": 6962,
    "古@@": 6963,
    "千@@": 6964,
    "区": 6965,
    "北@@": 6966,
    "務": 6967,
    "到@@": 6968,
    "公@@": 6969,
    "全": 6970,
    "何@@": 6971,
    "伊@@": 6972,
    "仙@@": 6973,
    "人": 6974,
    "严@@": 6975,
    "丁@@": 6976,
    "ㅁ": 6977,
    "ㄴ": 6978,
    "ー@@": 6979,
    "ー": 6980,
    "ン@@": 6981,
    "ン": 6982,
    "リ@@": 6983,
    "ラ@@": 6984,
    "ム": 6985,
    "デ@@": 6986,
    "ダ@@": 6987,
    "ス@@": 6988,
    "ク@@": 6989,
    "オ@@": 6990,
    "ア@@": 6991,
    "ょ": 6992,
    "ぽ@@": 6993,
    "な@@": 6994,
    "っ@@": 6995,
    "け": 6996,
    "い": 6997,
    "】@@": 6998,
    "➡": 6999,
    "➙": 7000,
    "➔": 7001,
    "➏": 7002,
    "➋@@": 7003,
    "❷": 7004,
    "❶": 7005,
    "✽": 7006,
    "✘@@": 7007,
    "⚠": 7008,
    "♪": 7009,
    "♡": 7010,
    "☛@@": 7011,
    "☛": 7012,
    "☉": 7013,
    "◎": 7014,
    "◈": 7015,
    "◄": 7016,
    "◀": 7017,
    "►@@": 7018,
    "▸@@": 7019,
    "▸": 7020,
    "░@@": 7021,
    "╨@@": 7022,
    "╤": 7023,
    "╠": 7024,
    "┬@@": 7025,
    "└@@": 7026,
    "└": 7027,
    "│": 7028,
    "⑦@@": 7029,
    "③@@": 7030,
    "␭": 7031,
    "␦": 7032,
    "⌥@@": 7033,
    "⌠": 7034,
    "⌘@@": 7035,
    "⌘": 7036,
    "⌐": 7037,
    "⌃@@": 7038,
    "≤@@": 7039,
    "∨": 7040,
    "√@@": 7041,
    "∙@@": 7042,
    "∙": 7043,
    "∗@@": 7044,
    "∓": 7045,
    "⇨": 7046,
    "⇆": 7047,
    "↵@@": 7048,
    "↔": 7049,
    "↓@@": 7050,
    "↓": 7051,
    "↑@@": 7052,
    "ⅷ": 7053,
    "ⅱ": 7054,
    "Ⅵ": 7055,
    "⅓": 7056,
    "Ω@@": 7057,
    "ℑ": 7058,
    "₧@@": 7059,
    "₄": 7060,
    "₂@@": 7061,
    "‹@@": 7062,
    "′@@": 7063,
    "‛@@": 7064,
    "‚@@": 7065,
    "‏@@": 7066,
    "ύ@@": 7067,
    "ὁ": 7068,
    "ợ": 7069,
    "ồ@@": 7070,
    "Ỏ@@": 7071,
    "ẫ@@": 7072,
    "ả@@": 7073,
    "ẞ@@": 7074,
    "ṁ@@": 7075,
    "ṁ": 7076,
    "ḥ@@": 7077,
    "ḥ": 7078,
    "Ḥ@@": 7079,
    "ᕅ": 7080,
    "ᕄ": 7081,
    "ᕃ": 7082,
    "ጋ@@": 7083,
    "ብ": 7084,
    "ቤ@@": 7085,
    "ም@@": 7086,
    "ላ": 7087,
    "ෝ": 7088,
    "ේ@@": 7089,
    "ු": 7090,
    "ී": 7091,
    "්@@": 7092,
    "ශ": 7093,
    "ව@@": 7094,
    "ය@@": 7095,
    "ප": 7096,
    "න@@": 7097,
    "ධ@@": 7098,
    "ජ@@": 7099,
    "ක": 7100,
    "े": 7101,
    "ु": 7102,
    "ी": 7103,
    "ि@@": 7104,
    "ि": 7105,
    "ह": 7106,
    "ष": 7107,
    "व": 7108,
    "ल@@": 7109,
    "ल": 7110,
    "र": 7111,
    "प": 7112,
    "न": 7113,
    "ध": 7114,
    "ण": 7115,
    "ट": 7116,
    "ङ": 7117,
    "क": 7118,
    "अ@@": 7119,
    "ܘ": 7120,
    "۞": 7121,
    "ې@@": 7122,
    "ہ": 7123,
    "گ@@": 7124,
    "ک": 7125,
    "ډ@@": 7126,
    "ڈ@@": 7127,
    "چ": 7128,
    "٩": 7129,
    "١@@": 7130,
    "٠@@": 7131,
    "٠": 7132,
    "ّ": 7133,
    "ك@@": 7134,
    "ف@@": 7135,
    "ـ": 7136,
    "ض@@": 7137,
    "ص@@": 7138,
    "ش": 7139,
    "س": 7140,
    "د": 7141,
    "خ": 7142,
    "ب": 7143,
    "ا": 7144,
    "ؤ@@": 7145,
    "؛@@": 7146,
    "ר": 7147,
    "ף": 7148,
    "כ": 7149,
    "ד@@": 7150,
    "օ@@": 7151,
    "ր@@": 7152,
    "ն@@": 7153,
    "մ@@": 7154,
    "ե@@": 7155,
    "ա@@": 7156,
    "Կ@@": 7157,
    "қ@@": 7158,
    "Ґ@@": 7159,
    "ѳ": 7160,
    "Ѳ@@": 7161,
    "Ѱ": 7162,
    "ѣ": 7163,
    "Ѣ@@": 7164,
    "џ": 7165,
    "ў@@": 7166,
    "ў": 7167,
    "ќ@@": 7168,
    "ќ": 7169,
    "њ@@": 7170,
    "њ": 7171,
    "љ": 7172,
    "ђ": 7173,
    "ъ": 7174,
    "Џ@@": 7175,
    "Ў@@": 7176,
    "Ќ@@": 7177,
    "Ћ@@": 7178,
    "Њ@@": 7179,
    "Љ@@": 7180,
    "Љ": 7181,
    "Ј": 7182,
    "Ї@@": 7183,
    "Є@@": 7184,
    "Є": 7185,
    "Ѓ@@": 7186,
    "Ђ@@": 7187,
    "ϫ@@": 7188,
    "ύ@@": 7189,
    "τ": 7190,
    "ξ": 7191,
    "κ@@": 7192,
    "ζ@@": 7193,
    "γ@@": 7194,
    "β@@": 7195,
    "ί@@": 7196,
    "Ν": 7197,
    "Λ": 7198,
    "Κ@@": 7199,
    "Η@@": 7200,
    "Δ": 7201,
    "Α@@": 7202,
    "΄@@": 7203,
    "̕": 7204,
    "̔": 7205,
    "̒@@": 7206,
    "̒": 7207,
    "̑": 7208,
    "̂": 7209,
    "́@@": 7210,
    "˛": 7211,
    "ˈ@@": 7212,
    "ʿ@@": 7213,
    "ʿ": 7214,
    "ʼ": 7215,
    "ʹ@@": 7216,
    "ɪ": 7217,
    "ə@@": 7218,
    "ɒ@@": 7219,
    "ș": 7220,
    "ǎ@@": 7221,
    "ż": 7222,
    "ų@@": 7223,
    "ų": 7224,
    "Ų": 7225,
    "Ů@@": 7226,
    "Ū@@": 7227,
    "ŧ": 7228,
    "Ŧ@@": 7229,
    "ť@@": 7230,
    "ţ": 7231,
    "œ": 7232,
    "Ő@@": 7233,
    "Ő": 7234,
    "Ļ": 7235,
    "ĺ": 7236,
    "Ĵ@@": 7237,
    "į": 7238,
    "Į@@": 7239,
    "ĭ": 7240,
    "Ě": 7241,
    "Ē@@": 7242,
    "ď": 7243,
    "ĉ@@": 7244,
    "Ć": 7245,
    "ą": 7246,
    "Ą@@": 7247,
    "Ă@@": 7248,
    "ê": 7249,
    "Þ": 7250,
    "Ý@@": 7251,
    "Ý": 7252,
    "Û@@": 7253,
    "Ñ": 7254,
    "È": 7255,
    "À@@": 7256,
    "·@@": 7257,
    "©@@": 7258,
    "¢@@": 7259,
    "¡@@": 7260,
    "": 7261,
    "": 7262,
    "@@": 7263,
    "": 7264,
    "@@": 7265,
    "@@": 7266,
    "": 7267,
    "": 7268,
    "": 7269,
    "\u0015": 7270,
    "\u0012@@": 7271,
    "\u0012": 7272,
    "\u0011@@": 7273,
    "\u0006@@": 7274,
    "\u0006": 7275
}