#version: 0.2
е н
р а
с т
а л
с е
а н
а т
а р
н е</w>
п о
р е
п у
и л
к о
р о
к а
т е
в о
н а</w>
н и
н о
л а
л е
с а</w>
т ӑ
н а
в ӑ
ӗ р
г о</w>
т а
д е
т о
н ӑ</w>
р и
ӗ н</w>
ӗ н
ӑ н</w>
ч е
х у
в а
се м</w>
в е
т у
х ӑ
л и
г о
т а</w>
м е
р ӑ
м а
в и
с ен
т е</w>
д о
л о
к у
с а
и р
н е
в ы
л а</w>
з а
ҫ а
п е
м о
т ь</w>
с е</w>
л и</w>
с я</w>
н ы
ат ь</w>
ҫ у
пу л
л ь
и н
сен е</w>
п ӗ
п е</w>
т и
т о</w>
ен и
м а</w>
р у
с о
к ӑ
д а</w>
п а
о с
в ӗ
п ро
ӑ х
т ӗ
ҫ ы
к и
ч е</w>
б о
р а</w>
д и
с и
п ри
с ӑ
ҫ и
к ал
ч а
е го</w>
п а</w>
л е</w>
м и</w>
н о</w>
т ар
и с
че н</w>
н и</w>
се н</w>
к а</w>
в а</w>
н ӗ</w>
е м
х о
л ӑ</w>
к е
л ӗ
л ӗ</w>
п ӑ
м ӑ
по д
с ко
к и</w>
п и
ч и
т ат
у н
ч ӗ</w>
о т
д а
и х</w>
м ал
с ка
ан а</w>
о б
ӑ х</w>
р т
ц и
п ат
х а
ӳ л
п ре
м ӗ
с ы
ан ӑ</w>
ч у
ж и
ҫ ҫ
с с
Г ос
ху ҫ
б ы
к ӗ
ы вӑ
ж е
Ҫ ӳл
ен ӗ</w>
в ар
у р
се м
ан и
м и
ш ӑ
х ал
ра н</w>
ш е
р ы
ст о
з ра
те р
п ы
о н</w>
ст ь</w>
ӗ р</w>
с у
тат а</w>
м ен
ч то</w>
ӗ ҫ
ст а
Ҫӳл хуҫ
ш и
р и</w>
ӗн че</w>
ст в
зра ил
е с
И зраил
ч ӗ
рӑ н
ра з
л у
ь ся</w>
с во
т ы
ӑ на</w>
н у
б у
л я
д у
Гос под
е т</w>
б ли
м е</w>
" "</w>
т и</w>
и з</w>
л ен
п ал
ч и</w>
г и
т ся</w>
в ал
м у
пу ҫ
ил и</w>
Ҫӳлхуҫ а</w>
п ар
к ил
т енӗ</w>
М о
ны й</w>
ко то
ж е</w>
вӑ л</w>
т во
п ӗ</w>
о т</w>
ка н</w>
пӗ р</w>
ҫы н
ш а
хӑ й
л ар
с ь</w>
п о</w>
л я</w>
п ӗр
л ӑх
н ӑ
пу бли
ка й
ст и
за л</w>
с ки
ар о
ны х</w>
д у</w>
е р
е м</w>
л ан
е й</w>
кал анӑ</w>
ҫ ӗр
ӗ ҫ</w>
ҫ ӑ
но го</w>
м у</w>
ҫҫ ӗ</w>
л ӑ
в я
вар а</w>
ска зал</w>
но й</w>
ҫ ин
б е
и з
м ан
ва ш
п ра
р ӗ</w>
г да</w>
ш ӗн</w>
ени я</w>
о р
а н</w>
м ӗн
сем пе</w>
ст и</w>
ве р
з а</w>
к ан
б ы</w>
ш у
ч ӑ
т ы</w>
к о</w>
пу р
й ӑ
ту х
к е</w>
а ви
Б о
л ю
Т ур
ени е</w>
во з
л о</w>
и м</w>
Ҫ а
к у</w>
и се
в ат
о н
в ать</w>
ра т
тӑ р</w>
а с
м ӗн</w>
ҫу л
п ла</w>
С а
б и
в у
с ло
го во
р е</w>
х и</w>
щ и
ма н</w>
с я
ал и</w>
ка к</w>
с вя
Господ ь</w>
де т</w>
ем у</w>
ни не</w>
т ӗ</w>
в о</w>
ху ш
л ӑх</w>
з ем
ра бо
п ир
та н</w>
х ы
в се
н я
ны е</w>
кото ры
ско й</w>
ж д
пӗ тӗ
в ы</w>
р са</w>
ал ь
ва ш</w>
м не</w>
к ӗ</w>
ма р</w>
ку н
ре с
вӗ сем</w>
пул нӑ</w>
мал ла</w>
с по
Мо исе
Д ави
ан ӑн</w>
в се</w>
с ӗ</w>
х а</w>
пе ре
г ра
мӗ ш</w>
ун ӑн</w>
в ра
д ля</w>
ч ен
д о</w>
кал а
ен ни
н аро
н ы</w>
вӑ н</w>
ра х</w>
ме л
ла са</w>
чу х
ра й
ме ст
в ил
ц а</w>
ӗ сем</w>
те б
с ир
т ься</w>
вӗ сене</w>
са сс
са н</w>
ш ӗ</w>
д ен
ю т</w>
й ӗр
по л
х и
ҫи не</w>
К а
ку р
г а
ра с
сасс ӑн</w>
пӗ л
пат ш
ес публи
Р еспубли
т ӗр
пе к</w>
ке н</w>
с лу
ар ӑ
В ӑ
к ӳ
2 0
ывӑ лӗ
Израил ь</w>
в ре
ҫа пла</w>
х ӗ
ат е
ҫи т
х ӗр
те ль
ц ар
Ч у
р я
ко н
ан о
" "
э пӗ</w>
ш ы
ра ть</w>
Ч ӑ
ш ь</w>
пу р</w>
д и</w>
е к
ш ӑн</w>
ко в</w>
э то
ӗн чен</w>
ис ь</w>
хӑй ӗн</w>
о д
ҫ ӗр</w>
ж ен
з на
а к
ҫы н</w>
тӑ рӑ
д ру
пре д
о ни</w>
м я</w>
сӑ ма
л ь</w>
у с
ал а</w>
т ӳ
А н
ч то
го ро
ча х</w>
хал ӑх
ше л</w>
в ӗр
б о</w>
до л
1 0</w>
е е</w>
м ана</w>
ско го</w>
е в</w>
вӗ ҫ
а в
бу дет</w>
Э пӗ</w>
ра н
ат ӑ
ир ӗ
а ш
Чӑ ваш</w>
т у</w>
свя щ
ил и
ст у
пу рӑн
з ы
ств ен
ро в
1 5</w>
ств о</w>
ӗ пе</w>
н я</w>
ил се</w>
пат не</w>
и л</w>
с ле
пе р
ле к
й ӑх
у м
до м</w>
с де
вӑ р
Вӑ л</w>
те се</w>
з я
ҫа к
чух не</w>
та к</w>
э то</w>
ы т
е т
ч а</w>
о на</w>
нӑ ҫ
пӗтӗ м</w>
ӗн тӗ</w>
м ар
1 4</w>
т я
Р а
е тся</w>
а м</w>
ҫу л</w>
ль ко</w>
1 2</w>
ҫ ӳ
но в</w>
Е ги
К о
ло ве
рес публи
з о
ҫа в</w>
что бы</w>
1 1</w>
вӑ н
ны м</w>
С о
у л
Н а
у н</w>
П о
1 6</w>
я л
сен чен</w>
свящ енни
мӑ р</w>
ҫа к</w>
д ы</w>
ч чӗ</w>
ле т</w>
э сӗ</w>
Дави д</w>
х ир
в у</w>
ал а
У н
хо ди
ҫ ӗ
ре х</w>
но е</w>
сӑ р</w>
г ла
че лове
й ы
Тур ӑ</w>
т са</w>
Х ӑ
ҫин чен</w>
ил а</w>
щ е
ш и</w>
к ры
б ра
се сс
ле й</w>
1 3</w>
вы рӑн
мен я</w>
д е</w>
сесс ӗн</w>
м ы</w>
хӑ н
г а</w>
ы й</w>
р у</w>
ку н</w>
ж а
вӗр ен
ре н</w>
вы х</w>
1 7</w>
ре в
ма й</w>
И ис
ф е
ф а
ал и
рӑ м</w>
ра кан</w>
вӑ хӑ
в ӗ</w>
тар са</w>
С и
ч ӗр
ко гда</w>
т ан
ко м
бо ль
к ӗр
я т
2 0</w>
пӑ р</w>
пӗр ле</w>
и бо</w>
ни х</w>
пул ӑ
д ц
ӗ сене</w>
ст ро
ҫин че</w>
бы ло</w>
ир т
та в
ц ен
ж но</w>
ска з
на я</w>
то м</w>
р т</w>
к ар
ил ь
ле т
шӑ н
в ани
сен че</w>
д ар
ци и</w>
но м</w>
тӑ р
п анӑ</w>
ту нӑ</w>
ал ӑх</w>
1 8</w>
пи р</w>
кӑ тар
М и
И е
ст ва</w>
гово ри
ор г
ла ш
Бо г</w>
по с
л ю</w>
с анӑн</w>
Моисе й</w>
Иис у
ски й</w>
ст ра
пре д</w>
бы л</w>
в на</w>
лӗ х
ш ин
вре мя</w>
О н</w>
ш ли</w>
1 9</w>
ӗн чи</w>
мал ли</w>
е х</w>
ка м</w>
Еги пе
ла н</w>
Гос по
Н и
чӗ ҫ</w>
ч чен</w>
ден ь</w>
в ля
й ӗн</w>
ту са</w>
с ана</w>
ь я</w>
н у</w>
вы рӑ
Чу ваш
И о
п ӑх
ли не</w>
ва л</w>
р ӑ</w>
пур нӑҫ
на ч
же рт
ҫ ӗн
л ат
ар а</w>
ь ю</w>
тӗ л
х ат
си р</w>
пал ӑ
йӗр ке
т нӑ</w>
а х</w>
не го</w>
ҫҫ ӑн</w>
2 1</w>
хӑ й</w>
т ре
мел ле</w>
ле се</w>
кай нӑ</w>
ил ся</w>
г и</w>
з и
к то</w>
сс и</w>
щ е</w>
т ра</w>
ю л
теб е</w>
г у
ц е
И а
хал ӑх</w>
сӑма х
которы е</w>
б ла
2 2</w>
м ы
те ре
ил нӗ</w>
ш е</w>
тух нӑ</w>
ра в
вал ли</w>
Израил е
теб я</w>
ес ли</w>
хы ҫҫӑн</w>
. .
л ы
та м</w>
пир ӗн</w>
ти в
но сти</w>
тӑ нӑ</w>
е сть</w>
» ,</w>
ра с</w>
1 9
на м</w>
и кӗ</w>
ве т
се б
л ени
мӗн шӗн</w>
тӑ м</w>
сде ла
ӑ н
я н
тӑ н</w>
м ӗ</w>
во т</w>
ст ар
ы й
у к
с ӗр</w>
ю щ
во й</w>
с ӗ
д я
ст ат
с ли</w>
ни м</w>
ме н</w>
ху т
ш а</w>
мо й</w>
ви де
и к
все х</w>
ва с</w>
ҫ ирӗ
пы сӑ
ҫ ӗ</w>
ва н</w>
ни к</w>
я н</w>
Са у
ҫ е
р ы</w>
шу т
у ч
вӗ сен</w>
те т</w>
ст во
но сть</w>
я ть</w>
ҫын ни
пар не</w>
го д
то лько</w>
ст ре
л анӑ</w>
к ла
не й</w>
ко л
ди н</w>
тӗ р</w>
р ӑн</w>
й ывӑ
п ил
2 5</w>
ти вӗҫ
ль ту
кӑ н
ат ься</w>
ун та</w>
ст ан
рӑ на
2 3</w>
ан а
ро д
ум ӗнче</w>
ко й</w>
ки н</w>
вы й</w>
ан чах</w>
та р</w>
с ан
Иису с</w>
т ру
в зя
С е
м но
ле н</w>
ст ви
се р
.. .</w>
ӗ ш
2 4</w>
кӑ мӑ
ст е
ст ано
тӗ п</w>
т ал
тар нӑ</w>
д ы
й ӗ</w>
а й
Ф е
п ис
у т
к ӑн</w>
по ве
п ло
пра в
ват ься</w>
са к
ка ш
о м</w>
к ру
го да</w>
з н
Г а
сто ро
ни ци
3 0</w>
наро д</w>
ко в
да л</w>
не т</w>
лӗ х</w>
кӑ на</w>
ски х</w>
ю щи
э сир</w>
кото ро
до б
де рев
И у
в ан
у й
ко м</w>
же т</w>
с т</w>
пу рӑна
в е</w>
у ча
ку льту
ман ӑн</w>
ф и
сы нов</w>
гово р
ывӑ лӗ</w>
ро в</w>
П у
з е
ывӑлӗ сем</w>
мӗ ш
го ду</w>
Чуваш ской</w>
пул сассӑн</w>
к ӗн
хуш шин
го ло
к ра
во с
Госпо да</w>
ра л
м ӑн</w>
ке р
ва м</w>
сир ӗн</w>
л ения</w>
ӑ п</w>
ф о
которы й</w>
ста ви
пул са</w>
ли ц
ӑ р</w>
э пир</w>
ну ю</w>
тӗ м</w>
ки й</w>
к ре
"" ,</w>
т ен
я ти
ла й
кӑ лар
я л</w>
де ра
ҫӳ ре
ду т</w>
ници пал
бла го
ц и</w>
сир е</w>
л ать</w>
то го</w>
т ра
с пе
пӗл тер
пы нӑ</w>
ҫы р
сы н</w>
во ди
мо ло
на с</w>
ӑ ҫ
де ся
по ло
бы ли</w>
у ме
г у</w>
с о</w>
пысӑ к</w>
пул ӗ</w>
м ат
чу ваш
ч ис
ар и
ла х</w>
в ла
щ а
хӑ вӑ
ҫ ӑ</w>
священни к</w>
и т
ҫу к</w>
т р
Т е
то в</w>
л енӗ</w>
А вра
тӑрӑ х</w>
ст ер
п ри</w>
мӗн ле</w>
м ӗр
ста в
с си
за ко
2 6</w>
ра х
Е го</w>
ли н
Республи ки</w>
ш ӗ
му ниципал
л ӗн</w>
ве д
хӑ вӑн</w>
ми ни
те сессӗн</w>
й ӗ
з ан
пи н</w>
ли н</w>
де р
та к
вӗ ле
до в</w>
ри не</w>
с ре
Ч е
хӑй сен</w>
у рӑ
до ро
сӑ н
ал ӑх
ҫа вӑн
ро м</w>
то му</w>
с ар
ак ӑ</w>
я нӑ</w>
ху ҫа
с ӗр
ос и
ил ись</w>
хо ро
та х</w>
ко го</w>
2 7</w>
пе х</w>
2 8</w>
ку ҫ
ос ь</w>
я х</w>
челове к</w>
в сем</w>
ҫу н
ч ь</w>
хат ӗр
ма сть</w>
Е сли</w>
до ма</w>
зем ле</w>
про из
М а
рай он
п ле
г е
ате ль
ш их</w>
те й</w>
с ал
Т а
Сау л</w>
2 9</w>
о дин</w>
лӑх ӗ</w>
ви ч</w>
И са
сӑ р
ю д
фа ра
м рӑ
ка ҫ
ю тся</w>
хӑ вар
тво й</w>
ве т</w>
б а</w>
ты тӑ
во й
атӑ п</w>
Н е</w>
ь е</w>
те н</w>
т ать</w>
жи ть</w>
т ри
б а
И оси
кӑ р
ве ли
Господ у</w>
об ще
но в
ь е
ке х</w>
чӗ л
ст а</w>
Т о
Ра ҫҫ
Н о</w>
или сти
дол ж
дар ствен
Ан чах</w>
пул тӑр</w>
патш а</w>
к ро
вы ль
ш ан
на х</w>
е ще</w>
ту рт
при яти
Ҫӳлхуҫ ана</w>
х ле
са х</w>
п лӑ</w>
ва ши
бо ле
ӗҫ ле
с ла
лу ч
сы на</w>
е ф
по й
палӑ рт
па й
о в</w>
лӑх а</w>
Э сӗ</w>
бу де
Т во
хӗ ра
у йӑх
ҫӗр е</w>
те м</w>
ра ҫҫӗ</w>
по мо
орг ани
ко р
ж ду</w>
а ча
а са</w>
шӑ р
сто я
к ен
во д
т ир
в не</w>
ани я</w>
х у</w>
ш ку
х ра
се ль
мел ли</w>
сво его</w>
мӗ р</w>
чӑ р</w>
пу сть</w>
ц ы</w>
ри н
кӑ р</w>
вал и</w>
"" .</w>
че ре
хир ӗҫ</w>
д ни
с ме
пир е</w>
илисти м
ж и</w>
у я
пе кех</w>
не м</w>
ле х</w>
к ин
Р ос
Н а</w>
В ара</w>
шы в</w>
ты ся
те лей</w>
к ир
Ни ко
т ин
об ъ
бы ть</w>
Республи кин</w>
ҫа в
кӑмӑ л
ка з
ани е</w>
3 1</w>
об раз
к ат
ст ы
си и</w>
зем лю</w>
е й
шу хӑ
с мо
В а
] ,</w>
цар ь</w>
ал ан
А лек
ш не</w>
ти в</w>
к ӑ</w>
ҫу р
м ин
з д
ш у</w>
по се
та са</w>
при но
ни пе</w>
ке р</w>
а сь</w>
Ко гда</w>
ӗ м</w>
те ле
м ил
к то
ве л</w>
ӗҫ е</w>
ре б
па х</w>
ни м
вы м</w>
Египе т</w>
ҫе ҫ</w>
чен ь</w>
х е
то т</w>
пу с
лай ӑх</w>
па ш
м ного</w>
ла й</w>
а б
Фе дера
П ат
ҫы вӑ
пӗ тер
Ш у
Т ы</w>
ну май</w>
зем ли</w>
ал е
а д
ҫын на</w>
ҫул та</w>
п ӳ
мест е</w>
ло мо
кала са</w>
в ши
се д
ма й
к ров
го су
Ун ӑн</w>
т ӗн
се й</w>
дру го
тӗр ӗ
т се</w>
си к
на д</w>
я зы
пуҫ ласа</w>
кала ҫ
З а
тӑ ват
ту л
ны ми</w>
ч чен
ун тан</w>
ас лӑ</w>
ч атӑ
тво его</w>
р о</w>
мӗн пур</w>
кил ӗш
ҫын сем</w>
ф ор
р ӗҫ</w>
Со ломо
Л е
А аро
сло ва</w>
Х а
со бра
па р</w>
гра м
ӑ рӑ
ҫ и</w>
че т
ру ки</w>
про ек
л ение</w>
дц ать</w>
аб за
М е
я ми</w>
со б
ско м</w>
мест о</w>
№ -</w>
х ӳ
пу лин</w>
ял ла</w>
ы л
о к</w>
о де
В о
ты тса</w>
А р
ху нӑ</w>
ҫу рт
те пӗр</w>
сту п
го то
К у
А ви
ӗ сен</w>
ҫу рал
ы рӑ</w>
ч ӗн
пул та
вӑ й
П ет
, ]</w>
хо зя
ре ги
Б е
ҫ а</w>
т ри</w>
себ я</w>
ка ми</w>
ч но</w>
су й
на ҫ
кил нӗ</w>
ва ми</w>
б юд
ҫит нӗ</w>
ра з</w>
ал ла</w>
п ла
ту ма</w>
пи тӗ</w>
й те</w>
П а
сдела л</w>
ни я</w>
же н</w>
де й</w>
ав то
те х
н ю</w>
а ча</w>
В ӗсем</w>
это м</w>
горо да</w>
м ир
кӗ ре
в ен
ҫӗ к
ци он
мен и</w>
ени и</w>
да н</w>
Ӑ на</w>
ыт ти</w>
хушшин че</w>
тӗр лӗ</w>
П ро
пӑ рах
не е</w>
мӑ р
бо ю</w>
ат алан
Чу ваши
Израил ь
ц у</w>
т нӗ</w>
л не</w>
жи л</w>
г ре
г н
ӗ л
сы ны</w>
к ӗн</w>
пос ле</w>
ка ялла</w>
ка с
т ро
тӑ п</w>
тух са</w>
те р</w>
т ӑ</w>
пир ки</w>
з ни</w>
вы е</w>
ҫа вӑн</w>
че го</w>
ча ст
ча с</w>
лӑх не</w>
» .</w>
3 2</w>
ҫ е</w>
ш ко
ч ы
та с
тӑ ш
сы в
ски е</w>
пуҫ не</w>
е рт
И ор
ывӑлӗ сене</w>
ч чӑр</w>
ху т</w>
хи не</w>
про тив</w>
о чень</w>
вы р
э ко
хал ӗ</w>
тӑ ва
са л</w>
от кры
о й</w>
ил е
год ня</w>
вӑхӑ тра</w>
бу дут</w>
ӑ с
бо к
М анӑн</w>
0 0</w>
ҫа п
с ни
ӑ ш
че м</w>
слу ж
раз ви
от ца</w>
вӗле р
а в</w>
у ра
му х
мо р
вани я</w>
ка я
ҫа мрӑ
тав рӑн
сказ али</w>
пул тар
де тей</w>
ал лӑ</w>
ҫӗн ӗ</w>
ч у</w>
у чи
ста л</w>
пур те</w>
к ля
зы ва
те т
сво ю</w>
о те
на ми</w>
кӑ ш
ше й</w>
те ль</w>
ме жду</w>
сак кун
пу ш
но ст
ли сь</w>
ҫун тарса</w>
хозя й
ун па</w>
себ е</w>
но ми
лен а</w>
у лӑ
ска я</w>
пурӑн нӑ</w>
по тому</w>
каш ни</w>
ва плӑ</w>
Иа ков</w>
у ш
п ять</w>
хӑвӑ р</w>
л ле</w>
ис пол
Шу паш
Р у
Г е
3 5</w>
ту м
са м</w>
д ь</w>
ви ҫӗ</w>
Ми ха
Ҫа к</w>
халӑх а</w>
у йӑ
пӑ р
в ся
ҫул хи</w>
х ан
ра кан
пур не</w>
о ст
госу дарствен
ччен ех</w>
хут шӑн
сво их</w>
тӗл ле
на ш
жи зни</w>
де й
г ро
пул сан</w>
по ли
наро да</w>
ма ст
ку ю</w>
ве сь</w>
ал о
3 3</w>
ӗ к</w>
тар ма</w>
ал ӑ
3 4</w>
шы в
ш ать</w>
Л и
В ла
А ве
ӗ мӗр
патш алӑх</w>
ни ть</w>
н са</w>
ени ю</w>
бы ла</w>
а па
ҫ у</w>
ки не</w>
го д</w>
я м</w>
ц е</w>
хо д
пӗтӗ м
Х у
ту п
ме р
ло ж
ла рах</w>
са мо
па с
ма ш
и сто
е шь</w>
го р
тӑ ван
говор я</w>
Ҫӳл хуҫа
тӗ лӗ
и мя</w>
Э то</w>
И в
В ас
ҫак ӑ</w>
м па</w>
лю би
л ся</w>
Бо га</w>
] .</w>
ф а</w>
пул ать</w>
ир ӗн</w>
ен ь</w>
Раҫҫ ей</w>
я пал
ч ӗн</w>
у мне</w>
ми р</w>
ь ев</w>
ту хӑ
сло ви
си л</w>
ру с
пу ла
кон кур
е в
де л</w>
говори т</w>
С ы
ҫы хӑн
сер дц
про грам
н ар
ка ч
ка ж
к сем</w>
взя л</w>
Чуваши и</w>
4 0</w>
то гда</w>
к не</w>
ар он</w>
М ан
ҫынни сем</w>
пы рса</w>
ки м</w>
и ми</w>
в енни
Дави да</w>
жерт венни
арӑ м</w>
П ос
ю р
те ли</w>
м я
вырӑ на</w>
Н е
ю рат
пурӑна кан</w>
ка х</w>
йы шӑн
ил ась</w>
П ре
П о</w>
А арон</w>
это го</w>
сы х
ри й</w>
р ен
йы ш
бе з</w>
Ф илистим
Египе т
ҫи мӗ
спо р
со ж
про ш
нач аль
Г о
ю ра
сӑма х</w>
ств у
бюд же
про ро
ла л</w>
Моисе ю</w>
Израиле вых</w>
ҫ ем
за ме
д ать</w>
Иоси ф</w>
сен ӗн</w>
но ю</w>
Ф а
ци аль
сле ду
сво и</w>
пӑх са</w>
е н</w>
д ва</w>
ра тӑп</w>
д ня</w>
ани не</w>
а мӑ
Х ал
ҫу рт</w>
ҫак на</w>
пӑ ш
про цен
ко ва</w>
кла с
де т
в стре
М ана</w>
челове ка</w>
т не</w>
ло в</w>
ени й</w>
Е ф
ни и</w>
л ӑн</w>
ка я</w>
Че бок
Ка к</w>
Вла ди
у т</w>
рабо та
ни й</w>
ни е</w>
н ен
ка й</w>
г ру
б ес
Р е
я т</w>
ш ение</w>
чӑ ваш</w>
ху ла</w>
ур лӑ</w>
тер нӗ</w>
л са</w>
л ана</w>
кир лӗ</w>
г де</w>
боль ше</w>
У н</w>
шухӑ ш
чатӑ р
пат ӑ
от ве
сем шӗн</w>
пӗр и</w>
об ра
дер ж
тӗ п
ру ю</w>
по д</w>
ме ся
жд ый</w>
вӑ й</w>
Са му
Ҫа в</w>
я в
ч ный</w>
ч ир
ки е</w>
говори л</w>
ва ет</w>
у виде
сказ ала</w>
сем ь</w>
органи за
к лю
и ме
С анӑн</w>
чӗ пе</w>
цар я</w>
стро и
ре к</w>
при не
л у</w>
за ве
ва я</w>
бе ре
Х о
ющи й</w>
хӑ р
улӑ ш
сво ей</w>
са вӑ
на до</w>
воз ь
ҫы рса</w>
ҫин чи</w>
это му</w>
ч ун
ни ка</w>
лӗх е</w>
лан са</w>
д ней</w>
Моисе е</w>
ша й
ча л</w>
по лу
ил о
К у</w>
сӑ ваплӑ</w>
по шел</w>
но му</w>
ма х</w>
лю дей</w>
лар тнӑ</w>
кӳ ре
й ӗр</w>
ик кӗ
ж у</w>
ени а
В ениа
ты т
та рас</w>
пред прияти
па ян</w>
ни ки</w>
м о</w>
ла ма</w>
ка л</w>
к ать</w>
з ат
де сь</w>
ыт ларах</w>
то й</w>
кӑ ра</w>
ин у</w>
д ь
Ив ано
ф ер
об ла
ло ги
ин ы</w>
ен не</w>
г е</w>
В от</w>
В ала
ӳ к
ывӑлӗ сен</w>
так же</w>
пӗ чӗ
лӑ м</w>
ло м</w>
и м
20 0
ҫи чӗ</w>
чӗ сем</w>
ч арӑ
тво их</w>
ре мӗш</w>
ни ков</w>
ко е</w>
в то
апа т</w>
3 6</w>
ҫын ни</w>
хо дя
та вра
сво й</w>
ме ст</w>
е ва</w>
б рат
С у
И ли
В е
ха л</w>
рӑ х
боле е</w>
Соломо н</w>
П ӗ
Н о
Д о
ҫак ӑн</w>
че р
т ӗнче</w>
муниципал и
к ло
дол жен</w>
во ро
ва р</w>
а йӑ
М ен
Е н
эко номи
ш о</w>
хӑй не</w>
хӑ вал
тӑ вӗ</w>
рабо т
при шел</w>
о бо
ну жно</w>
жд ы</w>
ву т</w>
ӗ п</w>
пу н
патш и</w>
п раз
п лан
мо жно</w>
жи зн
д ан
урӑ х</w>
с лы
ре з
ма сӑр</w>
кото рую</w>
кал а</w>
вы рт
ве сти
К и
ҫит ӗн
та п
лар нӑ</w>
кӗн ӗ</w>
жен щи
вырӑ нӗ</w>
вы со
все го</w>
а л</w>
Еги п
ҫи ти
хӑ р</w>
те х</w>
те сь</w>
муниципал ь
ме ш
во м</w>
ас си
тер ӗ</w>
са м
с кер</w>
республи ки</w>
разви ти
пӗтӗ мӗш
пун к
пар ни</w>
п лат
де ла</w>
ги е</w>
воз вра
Вениа ми
"" ;</w>
ус ӑ</w>
уй рӑ
стат ь
стано ви
со в</w>
се го</w>
рӑ р</w>
м сем</w>
м ра</w>
ж ение</w>
д ву
О ни</w>
ш ла</w>
ру ко
про ф
пар не
которы х</w>
боль ш
а ми</w>
Тур ру</w>
В и
ҫ ар
ы р
те кен</w>
сво е</w>
с иль
м ате
кӗ мӗ
го м</w>
в с
ал ся</w>
5 0</w>
я лан
у ҫ
у сал</w>
стави л</w>
на ф
вырӑн не</w>
С ер
ш ен
рабо ты</w>
пра вил
по бе
от вет
ки л</w>
выль ӑх</w>
Т ӑ
П ри
П ирӗн</w>
у пра
тӗлӗ ш
пулӑ ш
мо жет</w>
лю ди</w>
ени ем</w>
аш шӗ</w>
М у
Израил я</w>
Бо жи
Аве сс
ши не</w>
тыся ч</w>
пу ҫ</w>
ни сем</w>
ко ман
кай са</w>
ил т
а п
М ы</w>
Е ли
ҫирӗ п
щ и</w>
хуш нӑ</w>
тер се</w>
сы нам</w>
ста вля
од ного</w>
б е</w>
ху ла
ус лы
тал ӑ
пе ч
ни ми</w>
ла в
и н</w>
в ну
ходи ть</w>
ст али</w>
сло во</w>
сердц е</w>
ня ть</w>
му ж
маш кӑн</w>
ком п
зо ло
Ҫа пла</w>
сде л
ро ди
пу сты
кай ӑ
ка ждый</w>
ин че</w>
г их</w>
вал а</w>
ш ка</w>
халӑх ӗ</w>
се годня</w>
л лӑ</w>
й ся</w>
д ро
в ун
буде шь</w>
Пос ле</w>
П ӗр
Иса а
Ио наф
тӑ ван</w>
с ил
ма с
во про
ӗн шӗн</w>
чӗр ӗ</w>
ч ӑн</w>
сво им</w>
пер ь</w>
п ят
жерт ву</w>
ен ӗпе</w>
г не
И н
В ы
х исе
ру б
но мо
н нӑ</w>
ме д
к ри
ир е</w>
Хӑ вӑн</w>
А м
ҫӗр не</w>
ҫа р</w>
ху лине</w>
ту пӑ
то ри
мо его</w>
кил ет</w>
да м</w>
все гда</w>
Э пир</w>
М ари
ывӑ лне</w>
ша я</w>
чух лӗ</w>
чи к
тӑ мӑр</w>
су б
се реб
пӗр ремӗш</w>
по сле
пил ӗк</w>
е те</w>
То гда</w>
это т</w>
че ты
ху лин
фара он</w>
тӑ ракан</w>
тӑ к
то бою</w>
те ҫҫӗ</w>
та кан</w>
ре гу
при ме
орг ан
де лать</w>
вӑхӑ т</w>
вар и
Е н</w>
А т
3 7</w>
ств е</w>
с ы</w>
при шли</w>
пере д</w>
не лле</w>
ки х</w>
ж ур
го спо
го в</w>
ал лине</w>
Миха ил</w>
Мен я</w>
ющ их</w>
кун та</w>
а ма</w>
Иор дан</w>
Г ала
у би
ту р
ти н</w>
ти л</w>
те рес
рай она</w>
пи ть</w>
п и</w>
кӑтар т
кур нӑ</w>
д во
ал ись</w>
ӳ с
ӗ мӗ
ҫурал нӑ</w>
ҫавӑн па</w>
ҫ ил
ху рав
образ о
ку рса</w>
ил ме</w>
в но</w>
чӑ ваш
ц ев</w>
пере воз
мар ш
ил ось</w>
до й</w>
Т ат
ь деся
ьдеся т</w>
хӗра рӑ
ходи т</w>
тӑ рат
республи ка</w>
проф ес
по ль
марш ру
лю б
3 8</w>
ӗҫ не</w>
ӗ мӗр</w>
Ҫа вӑн
ш ения</w>
тво и</w>
ство м</w>
не х</w>
которо е</w>
жа л</w>
е кен</w>
е з
г рех</w>
Госпо дом</w>
хӗра рӑм</w>
тин ӗ
те ра
та т</w>
ст о</w>
ско лько</w>
с лӑ</w>
о б</w>
мини стра
е ю</w>
да ет</w>
д ни</w>
во го</w>
ӗ семпе</w>
чӗ сене</w>
хоро шо</w>
ха в
ле ш
кӳ р
кун не</w>
й час</w>
и т</w>
за пове
а сӑн
ҫывӑ х
я рса</w>
чи не</w>
че т</w>
рт и</w>
мил ли
лар т
да й</w>
Шупаш кар
Т у
Нико ла
Израиле вы</w>
ҫу ла</w>
ю н
ша л</w>
чи ть</w>
уйӑх ӗн</w>
ту да</w>
пул ман</w>
пол номо
му же
ле ви
кӑлар са</w>
ви ҫҫ
ве сти</w>
б ро
Пат ш
шку л
ч чӗ
ха мӑр</w>
стано в
сси не</w>
сем у</w>
сво ему</w>
по з
п ле</w>
й ской</w>
ек ен
горо д</w>
бе з
Э й</w>
Рос си
Л а
Алек сан
ши й</w>
х ват
фор ма
у же</w>
тӗ с
тӑ н
т сем</w>
с и</w>
пу х
об е
ле ме</w>
д ин
Господ и</w>
ыт ла</w>
ы е</w>
хуш са</w>
тӑ рать</w>
палӑрт нӑ</w>
д ва
в месте</w>
Еф ре
А хи
э к
ши е</w>
ч ар
тӑ вӑ
тво р
про ду
но р
ме ро
м ран</w>
лиц е</w>
ков че
жизн ь</w>
ве ст
Ун тан</w>
х ӑн</w>
ту па</w>
сре ди</w>
пи л</w>
пал лӑ</w>
от ц
мар ӗ</w>
д но</w>
ад министра
Хӑ йӗн</w>
Саму ил</w>
Вас иль
ҫа пӑ
я вля
тӑрӑ ш
палӑ р
па ма</w>
оте ц</w>
мӑ шӑ
м со
л ы</w>
кан сем</w>
г ат
выр наҫ
все сож
ци йӗн</w>
ходи л</w>
тӑш ман
ты рӑ</w>
сказ ать</w>
ра я</w>
пу те
проду к
по кры
от де
н ӑн</w>
м пи
кӑтар тнӑ</w>
вӗ пе</w>
ваш и</w>
Хал ӗ</w>
Рос сии</w>
Иу да</w>
20 15</w>
че ри</w>
у ни
спо рт
ра м</w>
пӗтӗмӗш пе</w>
произ вод
пи т
п ен
на д
кӳ нӗ</w>
ин вести
ил ь</w>
выль ӑх
ҫ ӳл
я з
щ их</w>
тӗ л</w>
тр ен
тель но</w>
пӑ хӑн
пре де
нӑ ҫ</w>
ку с
жд ан
ж ать</w>
К он
тас ат
пӗ лӗ
о г
ни кам</w>
меш кӗн</w>
де ж
бу ду</w>
а са
я р
ющи е</w>
юл нӑ</w>
ст ру
са вӑн
о чи
е с</w>
вил нӗ</w>
Филистим ля
ҫирӗ м</w>
Ҫ ы
я р</w>
ху п
тум тир
те л</w>
сӑмах сене</w>
пуҫ ланӑ</w>
ни ма
мал алла</w>
м ени
ло к
йӑ л
йывӑ р</w>
друго й</w>
М ар
ҫӳ р
ҫав рӑн
суй ласа</w>
пал лаш
мо н
л ла</w>
ки рек</w>
ж ения</w>
ӑ м</w>
Ҫ ӗн
щи й</w>
ша р</w>
чӑ к</w>
тӑ тӑ
с ки</w>
п лен
ни н</w>
не р
ме т
ку рӑн
ирт нӗ</w>
и мен
гото в
в и</w>
Хӑ й</w>
О т
Ми ни
И з</w>
Авра ам</w>
ҫу мне</w>
э й</w>
хӑвар нӑ</w>
хуҫ алӑх</w>
уч ре
тӑ к</w>
та в</w>
при ним
поли ти
н ӗ
йывӑ ҫ</w>
да х</w>
б у</w>
ал лин
Х ана
Нико лай</w>
Д е
Ҫавӑн па</w>
тӳ р
тер ме</w>
рӑ мӑр</w>
мал тан
ле л</w>
ле г
к ни
ин форма
з ар
долж ны</w>
ве че
в ш
ҫу рат
ю х
хӑ ва
спо рт</w>
ро к</w>
рабо ту</w>
по ч
по луч
мы ш
ла йӑх
жур н
жи т</w>
во ды</w>
вани е</w>
В але
ӗн ен
что б</w>
ч ать</w>
хӑй сем</w>
хӑвал аса</w>
хы в
ха к
учре жд
турт са</w>
сти ту
ско е</w>
пӑ л
мо в</w>
кӗ л
ку рӑ
ди те</w>
Чебок сар
Ч Р</w>
С ӑ
3 9</w>
ҫӑ мӑ
ха п
ф он
ст ы</w>
ру ш
па ракан</w>
ка р</w>
и стре
д ра
Ш е
Израиль тя
ӑн лан
ҫӑ л
тӑр ш
тивӗҫ лӗ</w>
те перь</w>
та пӑ
со л
ски нии</w>
си ть</w>
се ме
ре й
по раз
п ру
организа ци
о кру
но ва</w>
лаш ки</w>
кӗр се</w>
во л
в з
С ар
Р о
Ман асси
ялан ах</w>
чере з</w>
халӑх не</w>
си не</w>
пуҫ лӑх
пе с
па х
на стоя
лен се</w>
кӑ ла
ко ло
ко лена</w>
де я
ал о</w>
4 3</w>
ч ч
тар малли</w>
т ь
со вер
пӗлтер ӗш
по ко
ни сене</w>
ни мӗн</w>
з десь</w>
ен чен</w>
говори ть</w>
ве та</w>
4 2</w>
ҫа л</w>
хӑ ра
ху р
ха м</w>
х е</w>
тӑ ма</w>
ство вать</w>
сед ате
ро й</w>
пуҫ лӑхӗ</w>
перевоз ок</w>
мал тан</w>
ков ле
зем ля</w>
дол жно</w>
в ле
ал ось</w>
Ру ви
О д
Д а
Алексан д
4 1</w>
ӗҫ лесе</w>
чу н</w>
че х</w>
ху ли
станови ться</w>
спе к
с кую</w>
ря т</w>
пы рать</w>
пултар у
пу ла</w>
кал ать</w>
дц ат
дерев не</w>
дву х</w>
д ви
вырӑн та</w>
ва ют</w>
П е
20 14</w>
ы рӑ
хӑ ш</w>
рай о
о ко
ну ть</w>
н ь</w>
мӑ м</w>
м ать</w>
й ти</w>
исто ри
до чь</w>
де ла
вре мен
абза ц
М не</w>
Ан ге
ҫавӑн та</w>
тер ри
те лӗ
собра ния</w>
ни ка
ма ҫҫӗ</w>
зи ден
де ре
Ио ав</w>
Ааро на</w>
Ҫа вӑн</w>
пул чӗ</w>
пар са</w>
ос у
ны не</w>
кре п
к лӗ</w>
жи телей</w>
ди т</w>
ву ю</w>
благо сло
а чи
М ал
ҫын сене</w>
я на</w>
э ти
шу та</w>
чи ке</w>
у прав
у мӗн
тӗрӗ с</w>
та й
ст ен
си е</w>
рус али
руб лей</w>
ра до
пос лал</w>
п ти
ме ч
ерт ӳ
ерт се</w>
е пле</w>
ди ть</w>
гу т</w>
ал ом</w>
Ие русали
ҫ ан
у бе
т ран
пуш хир
по ле</w>
меро прияти
ме ди
культу ры</w>
кол хо
вре мени</w>
во ль
Я ковле
Тур ри</w>
А в
ӳ кӗ
ҫӗр ӗнче</w>
ь те</w>
щ ения</w>
чи та
чи л</w>
ча сти</w>
хал ь
ски м</w>
пул малла</w>
пул ма</w>
по ря
па чӗ</w>
п я
л ый</w>
или щ
ил ем
до сто
до к</w>
вы рӑн</w>
ву нӑ</w>
» ;</w>
тен кӗ</w>
строи тель
с па
ра ви
по сту
пат ӗнче</w>
ла кан</w>
кӗ лӗ</w>
кил не</w>
а ч
П и
В еф
ҫӑ кӑр</w>
ш ал
ху рас</w>
тво ей</w>
та ми</w>
т сене</w>
пу ху</w>
пу сти
мат и
ли ца</w>
лен нӗ</w>
ле с</w>
и д
з до
да же</w>
ве с
вал ся</w>
Та к</w>
Влади мир</w>
В се</w>
А кӑ</w>
ҫа кӑн
чӑ р
ци ю</w>
хӑ вна</w>
хуҫ алӑх
ха н</w>
ти ть</w>
ра спо
р ных</w>
по до
мо м</w>
маст ӑп</w>
которо го</w>
кото рая</w>
кил се</w>
кач ча</w>
ин терес
ва х</w>
б р
атӑ р</w>
К ана
ҫамрӑ к</w>
та ра
сто л
ре й</w>
об ре
ли ч
кӳре кен</w>
ен ь
д али</w>
га м</w>
г лу
ат пӑр</w>
ат о
Иу де
ҫыхӑн нӑ</w>
ят лӑ</w>
ыл тӑн</w>
ши м</w>
хӗр ӗ</w>
х ар
ук ҫа</w>
ты й</w>
тинӗ с</w>
те м
сти вал
ст в</w>
со гла
с ӗн
реги он
ра л</w>
по шли</w>
лан нӑ</w>
к сене</w>
ирӗ к</w>
ж а</w>
дру г</w>
го ре</w>
го ды</w>
бу дь</w>
аш не</w>
а сӑр
С во
О на</w>
ш кол
чу в
ч ение</w>
цар ю</w>
у че
у ра</w>
тӑ хӑн
те ля
та вӑ
сы л
сре д
ру ку</w>
патш алӑх
п ря
п ать</w>
лар ӗ</w>
ла т</w>
ди й</w>
д я</w>
г ать</w>
бу ду
Иису са</w>
Ави ме
4 5</w>
ӗ мӗш</w>
че му</w>
х ӗр</w>
ус пе
тӑ ра
те п
сторо ны</w>
сло вами</w>
се х</w>
са хал</w>
ре т</w>
пӗтӗм пех</w>
пӑ ра
по то
наро ду</w>
л лӗ</w>
кӗмӗ л</w>
кра си
кан ӑҫ
дру гих</w>
до ме</w>
Патш алӑх</w>
Ҫ ур
ый т
ци аллӑ</w>
тӗлле в
те сен</w>
тат са</w>
сак кун</w>
с част
рабо тать</w>
пул нине</w>
ла сь</w>
ку да</w>
ка ча
гла за
] ;</w>
4 4</w>
ҫа вна</w>
щи е</w>
хе р</w>
терри тори
та рать</w>
ры й</w>
пӗр не</w>
мӗш ӗнче</w>
мо и</w>
ла ҫҫӗ</w>
ку л
ин чен</w>
и мени</w>
з вал</w>
женщи на</w>
де пу
г ей</w>
ар ӗ</w>
П ӗр</w>
шы ва</w>
ци я</w>
у слови
тӑват ӑ</w>
то же</w>
та ран</w>
с ве
пӗлтерӗш лӗ</w>
осу ще
ло сь</w>
ко ле</w>
ен че</w>
ви л</w>
ваш их</w>
в до
ар ти
Т и
Израил е</w>
Бо гу</w>
ӳ кер
ҫирӗп лет
ҫирӗ п</w>
ҫимӗ ҫ</w>
щ его</w>
чу п
у пӑш
тӳ ле
ста н</w>
со об
регу ля
пӳ лӗ
не чно</w>
на шей</w>
ля ть</w>
ле ш</w>
з у
вӗ сенчен</w>
вы шел</w>
вы пол
арӑ мӗ</w>
Сер гей</w>
Ие ро
Г и
ӳ стер
ҫӗр ӗ</w>
ҫы лӑх</w>
уме р</w>
ств у</w>
по ро
нӑ шӑн</w>
не чи
мӑ н
кӑмӑл лӑ</w>
и не</w>
жд е</w>
е дин
в спо
Ун та</w>
Иа кова</w>
] :</w>
ӗҫле ме</w>
э ти</w>
ывӑ л</w>
ы х</w>
чы лай</w>
хӑ руш
фе дера
ту ха
тех но
т ме</w>
сы пӑ
спе ци
рай он</w>
пове лел</w>
мӑшӑ р</w>
мини ст
кӗ с
до го</w>
горо де</w>
вырӑн ти</w>
ала сь</w>
Израил ӗн</w>
Д ля</w>
Авесс алом</w>
ӑҫ та</w>
ҫа н</w>
ющ его</w>
уйӑ рса</w>
тӗрӗ сле
ска жи</w>
руко води
ра ди
по каз
мо я</w>
мо е</w>
лан ать</w>
иккӗ мӗш</w>
е ся</w>
до коле</w>
де ло</w>
д аль
би ра
Господ ня</w>
. ]</w>
ӗн пе</w>
ҫынни сене</w>
ҫити ччен</w>
тӑрӑ х
тав ра</w>
та ш
ста ра
с ӳ
ре з</w>
по ставил</w>
не му</w>
на пис
мо ж
ми ҫе</w>
мал о</w>
ком ис
кал лех</w>
ис кус
е вич</w>
вӑр ҫӑ</w>
ви ть</w>
вал и
в не
Пу ш
Ионаф ан</w>
ӗр ен
чӑ н
ч ения</w>
уме р
то р
те ат
пул ӑ</w>
патш ана</w>
обще ство</w>
мест а</w>
ме т</w>
культу ра</w>
кров ь</w>
к на</w>
здо ров
д ный</w>
д ник</w>
гн ат
б я</w>
ар ҫын</w>
Федера ции</w>
И гнат
Д и
Ҫ у
ши л</w>
ха мӑн</w>
ф илистим
уш кӑн
т ӗн</w>
стар ей
рин че</w>
республи кан
пра во</w>
пе ра
объ ек
об ходи
ни на</w>
ни кто</w>
м сене</w>
лӗх не</w>
кӗн е
кай ран</w>
й ӗсене</w>
й пе</w>
ду ша</w>
два дцать</w>
гра ждан
ани и</w>
Ч то</w>
Г ла
) ,</w>
ь ма</w>
ши ть</w>
че ство</w>
тӑтӑ ш</w>
ти м
тво е</w>
ро н</w>
регуля рных</w>
пӗ ле
ос но
оде жды</w>
од ной</w>
о ру
ня л</w>
кал анине</w>
з ло
вс ю</w>
вер си
а я
В ал
тухӑ ҫ
те с</w>
тво ему</w>
тал ан
таврӑн нӑ</w>
с са</w>
рӑ х</w>
пӗчӗ к</w>
по э
око ло</w>
о ста
мно ю</w>
м ла
до пол
де ти</w>
да ст</w>
все й</w>
ҫын нине</w>
ҫ ке</w>
чу л</w>
цион аль
хулин че</w>
хал ал
фе стивал
тӑ рса</w>
ту й
сво ими</w>
са ман
с виде
прино шение</w>
при ве
по кол
п ан
осуще ств
нӑ ччӗ</w>
ма я</w>
ку ра
ка зыва
к ана</w>
из б
ет кер
е вӗр
де ву
вӑ тӑр</w>
Египет ской</w>
А ха
ӗҫ ӗ</w>
ҫӳр енӗ</w>
ҫӗр те</w>
ҫит се</w>
ҫи сем</w>
это й</w>
хӗр ӗ
тӗ ре
с ю
по м
о в
мно го
ку мен
ит ле
дерев ни</w>
вы ми</w>
вы ля
во д</w>
ве й</w>
бо гат
а с</w>
ҫыр нӑ</w>
ю сь</w>
ю рӑх
чарӑ нса</w>
х ен
у ров
т ран</w>
со зд
сик ль</w>
ро ва</w>
рев но
ра сс
пред приним
по ж
п р
ни н
нач ала</w>
м лӑ</w>
ковче г</w>
ко лен
кас са</w>
ка м
к сен</w>
и гра
жен а</w>
говор или</w>
во е</w>
ват е
Росси йской</w>
М ан</w>
И з
Дави ду</w>
Гала а
ян хи</w>
ше д
ход или</w>
ул т
ту ян
те ля</w>
с цен
раз а</w>
по ра
од но
об ес
ни чего</w>
кӑ ри</w>
и дет</w>
за ви
ж или</w>
де шь</w>
де м</w>
воз мож
Пу ҫ
И с
20 16</w>
) .</w>
ҫӗр шыв
Ҫӗн ӗ</w>
я хӑн</w>
э лек
щ ать</w>
шут ласа</w>
че ской</w>
хы ҫ
тӑва кан</w>
тво ю</w>
тво им</w>
та ка</w>
ст ана</w>
со ответ
се т</w>
свящ ен
республи ке</w>
пусты не</w>
по слу
пат ӗнчен</w>
па рать</w>
от ме
о го</w>
ни л</w>
ле з
ко ле
ин тере
за д</w>
д ве</w>
во сто
ҫы лӑх
ходя т</w>
улӑш тарас</w>
сы нов
свя з
ри я</w>
ри на</w>
профес си
мени ть</w>
кӑш кӑ
кай ма</w>
ид ти</w>
з ер
ди на</w>
г ек
в рат
П ур
З а</w>
Вӑ р
ю н</w>
ы м</w>
ш ки</w>
че й</w>
ча сть</w>
т вер
сме рти</w>
сен чи</w>
с ла</w>
пред стави
о пять</w>
о ве
но вых</w>
лар тса</w>
кто р</w>
кача ка</w>
кала ма</w>
из мен
гра фи
голо ву</w>
га зе
ан о</w>
Пӗ тӗм</w>
4 6</w>
э ф
ху лана</w>
х ран
т ре</w>
сти е</w>
со м</w>
ско та</w>
республи кӑра</w>
па ра
па малла</w>
па й</w>
о став
мо л
мини стер
мате ри</w>
лиц ем</w>
кур ма</w>
ку ҫ</w>
ка де
жен ы</w>
же л
е вна</w>
до кумен
горо д
вӗ семпе</w>
виҫҫ ӗмӗш</w>
ва к</w>
в ӗн</w>
Пат ша</w>
П ав
М ӗн</w>
Гос у
Ан д
ҫывӑ х</w>
шку л</w>
ше р
ш его</w>
чӗн се</w>
че ских</w>
ху лар
ха й
ун ран</w>
ст вӑ
сдел али</w>
развити я</w>
ра ст
пу ть</w>
праз дни
ме сӗр</w>
ли сем</w>
ла п
кӑ сӑ
кров и</w>
к ра</w>
и ть</w>
жен у</w>
г ли</w>
ва й</w>
бо й</w>
С ана</w>
К е
Исаа к</w>
Ие ри
Е ле
Е в
ҫӑ н
Ҫа мрӑ
ял та</w>
х ся</w>
стви е</w>
се х
сво бо
пуҫ тар
пурӑн ма</w>
по стро
по став
па л</w>
мух тав
мо ей</w>
мил о
малтан хи</w>
ль з
ку ра</w>
ис чис
ин ститу
доб ро
ваш его</w>
ва ется</w>
больш ой</w>
Х е
Раҫҫ ей
По этому</w>
Н у
Мо ав</w>
Ле ви
К ӑ
Алек се
ҫӑ м</w>
язы к</w>
шӑ л
ш ӗпе</w>
чу ру
уя рт</w>
уча сто
тех ни
т я</w>
сторо на</w>
сле до
сем ь
сво ем</w>
с кер
ри сене</w>
па м
на й
на зад</w>
мин ут</w>
кил ӗ</w>
каш ни
зна ком
ж ный</w>
ду шу</w>
во да</w>
вер ну
ал лӑ
а м
Од на
О т</w>
Или я</w>
Израиле вым</w>
Госу дарствен
Господ ень</w>
ҫы х
ҫы лӑха</w>
ҫ ӗн</w>
щ ей</w>
хӑ ват
хут шӑ
тере т</w>
ст ала</w>
пулӑ ша
пула с</w>
при ят
по я
од на</w>
ност ей</w>
ни будь</w>
на у
кен е</w>
за щи
ви но
б ле
Х ев
Сау ла</w>
К рас
хӑ м</w>
у ста
тӗл ӗн
тӗ мӗр</w>
сӑмах семпе</w>
сӑ л
сю да</w>
со т</w>
си т</w>
с мен
пӑ рӑн
пы ракан</w>
пред седате
ос к
наш его</w>
мӑ ра</w>
ли ть</w>
ла в</w>
к ка</w>
ир а</w>
ин ке
и на</w>
ен нелле</w>
е р</w>
до стат
гово рят</w>
вой ны</w>
б лю
ал лу
а ша
Шупаш кар</w>
Х ӗ
Иери хо
Д у
4 8</w>
ӗр лӗ</w>
ӑ нӑҫ
ҫу р</w>
шы ра
ше е</w>
ч ӑ</w>
ук ре
у х
у по
т ил
ско му</w>
се ст
пло ща
ни ца</w>
на ших</w>
мо н</w>
лени и</w>
кӑ л
ку рай
йӗрке ле
из не
за менить</w>
за кон
е ҫҫӗ</w>
г ер
буде те</w>
ат те
Т урӑ
Се годня</w>
Па ян</w>
Иса в</w>
Д а</w>
В ӗрен
ҫ ер
щ ен
чӗ ре
хи р</w>
тат ӑ
тар чӗ</w>
су пру
сто в</w>
слу ча
сло в</w>
пӑ ру</w>
по ма
ни ц
меся ца</w>
е ц</w>
да вать</w>
го ры</w>
вши й</w>
в хо
айӑ п
Е му</w>
В ӗсене</w>
ӗҫ чен
ӑ ст
ҫу лӗ
я ла</w>
хӳ тӗ
хушшин чи</w>
хуш ши</w>
хле б</w>
хле б
у ро
тӳ рӗ</w>
тӑ рӗ</w>
тере кен</w>
тат ӑп</w>
со циаль
с про
рабо те</w>
пӗчӗ к
по зи
отве чал</w>
о е</w>
мыш лен
лок тей</w>
ла с</w>
йывӑ р
жерт вы</w>
до воль
ди я</w>
вӑхӑ т
бо р
би не
Хӑ й
Ха мӑн</w>
Пет р</w>
Г ал
А ча
Ҫа кӑ</w>
чӗ к</w>
хал ь</w>
уни верси
ти на</w>
тера ту
те с
талӑ к</w>
т ти
сси пе</w>
со ревно
са ми</w>
с арӑ
ри ть</w>
пуҫ ҫап
пур нӑҫ</w>
пулӑ шу</w>
пра вля
о стан
нӑ ран</w>
мӑ ш
ко з
ки пе</w>
кал арӗ</w>
к рас
к лӑ</w>
д ат
горо дов</w>
аш шӗ
ано в</w>
Федера цийӗн</w>
Са мсо
Г ен
Вениами н</w>
В о</w>
? »</w>
ят не</w>
щ ее</w>
чатӑр не</w>
ч ка</w>
хӑ ҫан</w>
ху р</w>
хал ан
тӑ ра</w>
тытӑ н
тух рӗ</w>
та ҫҫӗ</w>
су д</w>
с у</w>
с со
ре ш
пӳ р
приме р</w>
по кло
пи т</w>
пер вый</w>
ня ли</w>
но чь</w>
но ч
не й
на ш</w>
ми и</w>
м ӗнче</w>
лю бо
ло ва</w>
каж дого</w>
деся ть</w>
взя ли</w>
би ть</w>
б ан
Си х
Республи ка</w>
Л ю
Егип тя
Бе ф</w>
ӳ т</w>
э р
че ского</w>
у ди
у вели
тул ли</w>
ту йӑ
три дцать</w>
ти я</w>
ти й</w>
те миҫе</w>
стать и</w>
спо соб
спе циаль
ско т</w>
ри о
пӗтер се</w>
пӗр леш
помо щ
н ат
м н
кӗ сем</w>
к лу
из вест
и р</w>
зна чи
за да
ду ши</w>
дру гие</w>
де ть</w>
бли з
ал ь</w>
а каде
Ю рий</w>
Э сир</w>
Пре зиден
О те
И бо</w>
Еле а
ӗ м
ӑ мӑр
я чӗ</w>
ше м</w>
ш ло</w>
ш ат
чч ӗр</w>
хӑй сене</w>
ф ек
тӑ мӗш</w>
сы но
си х</w>
си ст
се йчас</w>
сдела й</w>
священни ка</w>
саккун ӗн</w>
р ӗм</w>
пӗр ре</w>
пурӑна кан
пу ян
п ля
ми на
ма л</w>
лени ю</w>
ко ю</w>
ко ми
дя т</w>
до ю</w>
да ми</w>
ви н
ача сем</w>
Х ам</w>
Те бя</w>
А слӑ</w>
ҫӗ м</w>
ҫурт ран</w>
хӑ пар
ты х</w>
тар малла</w>
с ун
род ила</w>
ре да
на циональ
на гра
комп лек
килӗш ӳл
кай рӗ</w>
и ю
ди л</w>
да го
гла в
Са ул
С ем
Иеро во
7 0</w>
ҫын сен</w>
Ҫӳлхуҫа мӑр</w>
Ҫ и
ю лашки</w>
э тем</w>
шко ле</w>
ша в</w>
ч ин
ц ов</w>
хо че
хав халан
увиде л</w>
у ю</w>
у й</w>
тыся чи</w>
техно логи
тво я</w>
са п
рӑ п</w>
рабо та</w>
пӑрах нӑ</w>
прош лом</w>
поз во
ну л</w>
лӑ рах</w>
л атӑп</w>
кӳ мешкӗн</w>
кӳ ме</w>
кру п
ко му</w>
кар ти
жертвенни к</w>
го с
гла за</w>
вӗҫ не</w>
ан е
а ф</w>
а пат
а ва</w>
С ал
П ал
К ар
К ан
Александ р</w>
ӗҫ ленӗ</w>
ӑ с</w>
ҫул сенче</w>
э рех</w>
щ у</w>
хо в</w>
уч ени
тӑрӑ р</w>
ти е</w>
тан лаш
т ных</w>
сте р</w>
ст ран
с раз
ре х
рат пӑр</w>
пӗ ҫер
пуҫ ла
пурӑн ӑҫ
пе даго
о фи
нор мати
на чи
му ж</w>
мо гут</w>
ку на</w>
кала кан</w>
й ӳ
же ли</w>
ж ени
госпо дин</w>
вӑхӑ тӗнче</w>
вырӑ наҫ
вш ись</w>
бра та</w>
а р</w>
Ра х
Пре д
Ка ш
Иор д
ҫав ӑ</w>
ҫа вӑ
Ҫа кна</w>
ши на</w>
ц ер
ху шӑ
уй рӑм</w>
те й
семе й
ро н
ри л</w>
на се
на прав
н ало
му зы
мал ень
ли вый</w>
лар у</w>
кал ӑ
ка д
к ран</w>
до чери</w>
вӗ сенӗн</w>
вла сти</w>
вал ись</w>
бо в</w>
ат и
ан нӑ</w>
ан не</w>
аллин чен</w>
То лько</w>
С вет
Бо ль
ҫӗр ӗнчен</w>
Ҫа кӑн</w>
япал а
я чӗпе</w>
ше р</w>
ч ки</w>
хозяй ствен
фара она</w>
ф из
уча ст
тӗ тӗр
ти р</w>
сӑ в
со циаллӑ</w>
со ве
свя зан
ри н</w>
ре е
пурӑн ать</w>
пораз ил</w>
поло ви
п лӗ</w>
на ши</w>
лен и</w>
ка кой</w>
й ӗсем</w>
зна л</w>
ж али</w>
дея тель
да бы</w>
д атель
вӗ р</w>
вед ения</w>
бли оте
амӑ шӗ</w>
Ф или
Ка бине
Игнат ьев</w>
В се
4 7</w>
1 0
ӗҫле кен</w>
ӑ ҫ</w>
япал а</w>
чет ная</w>
хӑ вӑр
ху ли</w>
х ана
тӑ л
то н
сыл тӑм</w>
стви и</w>
ст ью</w>
спо ко
со гре
сан па</w>
са ви
район ӗнчи</w>
пӗ т
пӑх нӑ</w>
пре жде</w>
пе й
о пера
но ги</w>
наш кал</w>
мор рей
мо их</w>
лӑх ӗн</w>
ли пе</w>
лек ен
кру г</w>
которо й</w>
жи тели</w>
е л
г ля
в ь</w>
ал ӑ</w>
Руви м</w>
М ӗншӗн</w>
К то</w>
Иис ус
ӗ шӗн</w>
ха стар
управ ления</w>
ул тӑ</w>
у ви
тӗлӗш пе</w>
та рас
т лӑ</w>
сӑмах не</w>
с вер
рави тель
пӑ рӑ
по ка
патӑ ма</w>
от цу</w>
объ я
об рат
о пы
ня я</w>
не обходи
муниципали тет</w>
лӗ хӗ
ли терату
лен ы</w>
лан а
кӗ пе</w>
кӑ па</w>
ка че
за клю
гру п
ва с
ал е</w>
Х ри
Тур рӑр</w>
Мо й</w>
Е л
20 12</w>
! »</w>
ҫи ме</w>
ҫапӑ ҫ
э хер</w>
ыт ти
ывӑ лӗн</w>
ше ст
чӑваш ла</w>
ччӗ мӗш</w>
чис ле</w>
хӗрӗ х</w>
хӗр не</w>
х ани
уча стие</w>
тумтир не</w>
ту нине</w>
та пӑр</w>
сыно вей</w>
сен и
ру к</w>
ри сем</w>
ракан сем</w>
помо га
поль зо
полномо чи
пал и</w>
от правил
од но</w>
о нов</w>
ну ж
над ле
мал ь
лӑх па</w>
ли мпи
ко ро
кин че</w>
килӗшӳл лӗн</w>
ки на</w>
к ке
йӑх ӗнчен</w>
зы вать</w>
жи вет</w>
жен щ
д не
ги б
возь ми</w>
воз врат
во ду</w>
в стал</w>
Я л</w>
П равитель
Моисе йпе</w>
Д о</w>
Божи й</w>
Бо же</w>
ҫӗк лесе</w>
Ҫ ӗр
ь мой</w>
учрежд ени
урӑ х
у ва
тӗлӗш ӗнчен</w>
сту ден
стви я</w>
ста р</w>
сик лей</w>
са й
р ӗн</w>
по сто
на чал</w>
на л</w>
мен ь
кӑлар нӑ</w>
ко ли
кал ан
и ччен</w>
за па
е ле
де л
да ют</w>
да вно</w>
вся кий</w>
в место</w>
б изне
ак тив
Са к
П ри</w>
Му ска
Галаа д</w>
А ш
ҫӗн тер
ҫын нӑн</w>
ҫурат са</w>
ҫу лӑм</w>
ҫак сем</w>
ҫа ра
я ться</w>
ш ар
чу л
че че
ча ми</w>
хӑ ма</w>
ул лӑ</w>
у дел</w>
у б
ты тнӑ</w>
су т</w>
ство вал</w>
сол н
рат ься</w>
ра б</w>
пӑхӑн са</w>
пуҫ ӗ</w>
пре с
пре ду
пра во
покол ение</w>
пай не</w>
об и
ни тель
н па</w>
мал лине</w>
ля х</w>
льз я</w>
кӗ сене</w>
ку ҫӗ</w>
кро ме</w>
к ли
га ми</w>
г ар
вы шли</w>
бр я</w>
Республи ке</w>
Иоси фа</w>
Ин тер
19 9
ӗ сенчен</w>
ҫ ат
хурав ласа</w>
турт тармалли</w>
сӑма ха</w>
спек так
сде лать</w>
с не
с ала
реб ен
пӑ х</w>
пулта рай
про води
по том</w>
по доб
пле мен
наро дов</w>
на ҫҫӗ</w>
мӑ рӑн</w>
моло ды
мо б
м ила</w>
ло н</w>
ло ги</w>
кӑн тӑр</w>
ил лӗ</w>
з доро
дя м</w>
вӑ рт
вра гов</w>
вил ся</w>
в ших</w>
в сему</w>
бли ж
би блиоте
ача сене</w>
аллу на</w>
а ш</w>
Ц ар
Хана ан</w>
Си ме
П ил
За ко
Ефре м</w>
Ен ре</w>
Ге де
Г ри
Во л
8 0</w>
4 9</w>
ҫит рӗ</w>
ҫ се</w>
я сь</w>
ю са
школ ы</w>
ча сах</w>
ч ной</w>
цен т
хушшин чен</w>
хле ба</w>
ф иль
у стро
тя же
ту х</w>
ту с
тру д
тер ӗм</w>
спор та</w>
се рен</w>
с ра
с кры
ри пе</w>
раз ме
пӗл ӳ</w>
пы тан
пу т
после дни
образо вания</w>
ност ью</w>
не у
мо ему</w>
м арӑм</w>
ла м</w>
кӑмӑ л</w>
кун ӗнче</w>
ку нӗ</w>
й но</w>
истре б
ил чӗ</w>
и г
е фо
го вари
всесож жение</w>
вес ьма</w>
ва п
бра т</w>
ай не</w>
а пла</w>
Се йчас</w>
Мари я</w>
Ка м</w>
К ро
И ван</w>
Вала ам</w>
Авра а
А л
ӳк нӗ</w>
ӑрӑ вӗ</w>
ҫӳре кен</w>
ҫем ье</w>
я тар
э ту</w>
ъ ек
шы вӗ</w>
шан са</w>
хатӗр ленӗ</w>
хат ӗр</w>
уй ӑх</w>
у мӑн
тра к
специ али
ско хозяйствен
с фе
с или</w>
пурнӑҫ лама</w>
пу рӗ</w>
про мышлен
пра ви
под но
пи тех</w>
пи не</w>
пат шине</w>
пал а</w>
па рас</w>
ответ ствен
ове ц</w>
ман шӑн</w>
мал и
ма стер
ли сене</w>
колхо з
кай ӑр</w>
йывӑ ҫ
ен но</w>
дер жи
го ря
в ним
в лӑ</w>
бо м</w>
бе д
Чебок са
Ко то
В ӗсен</w>
Алек сей</w>
Ааро ну</w>
. "";</w>
ҫӗр ӗнчи</w>
ҫӑ вне</w>
ҫӑ вар
ь ями</w>
ывӑ л
щ а</w>
чы с
ци н</w>
ху с
тӑк нӑ</w>
ту рӑ
су т
соб лю
ре ть</w>
раз ных</w>
пӗлтер нӗ</w>
пӑ хӑр</w>
про во
праз дник</w>
м ун
ли бо</w>
канӑҫ лӑх</w>
йӗрке лесе</w>
ирт се</w>
жи ву
вӗ ҫ</w>
ве н</w>
благо слови
ал ли</w>
ал ис
Сы в
О ль
Бо гом</w>
1 00</w>
Ӗ н
Ӗн тӗ</w>
ҫӗ мӗр
ҫирӗ пле
ый тнӑ</w>
шу чӗ</w>
шко ль
ш ӗсем</w>
ш ени
чӗл лӗ</w>
чи на</w>
че ский</w>
че мпи
ч рез</w>
ци й</w>
хӗр рине</w>
хӑ л
ф ин
тӳ пе
тӗ м
тавра ш
сынов ья</w>
суб ъек
сем ен
сель скохозяйствен
свя ты
пул ччӑр</w>
пу ти</w>
о кон
но вые</w>
не сколько</w>
наро дом</w>
на вер
мо ни
мо мен
мате ри
ман па</w>
мал а
конкур с</w>
кай сассӑн</w>
к вар
йӑ мӑ
й ӗнче</w>
зна ю</w>
зн ать</w>
журн али
дцат и</w>
допол нить</w>
де ле</w>
глаза ми</w>
вӗрен нӗ</w>
вы й
аш а</w>
ал из
Чебоксар ы</w>
Со вета</w>
Си го
П ӗл
В ир
Авра м</w>
20 17</w>
. »;</w>
ӗҫ сене</w>
ӑ ра</w>
ҫӑмӑ л
щ им</w>
ч ӳ
ц ве
ф у</w>
у д
тӗл не</w>
ту малла</w>
ту к</w>
та пра
стру к
сер д
са д
с ила</w>
рӑ па</w>
ро жд
ра ба</w>
пысӑ к
пур рине</w>
проро к</w>
по этому</w>
пар ӑр</w>
на пол
на мӑ
на зна
мӗ пе</w>
муниципаль ных</w>
ме рӗ</w>
ло жил</w>
ле м</w>
кӗ тсе</w>
йы шӑ
зна ет</w>
з ани
до му</w>
вӗлер нӗ</w>
вы ше</w>
во н</w>
во круг</w>
али за
а гро
Тур ру
Те пӗр</w>
Н еф
К ӗ
Е горо
Ген на
Вир сави
Ав ени
ӳс нӗ</w>
ӳ п
ӗн чех</w>
ҫу хал
ҫу ра
ющ ей</w>
элек тро
ый тӑ
щ ение</w>
шӑ пах</w>
шин ы</w>
ше в
ш али</w>
хӗр лӗ</w>
хуҫа мӑм</w>
ху до
ха ма</w>
фара он
уйӑ р
у ҫӑ</w>
ту ри
ту лаш
та пӑр
т па</w>
сӑмах сем</w>
ст р
ст ать</w>
со хра
сам ччӗ</w>
рин чен</w>
распо лож
пӗл се</w>
пулта рать</w>
пра вед
пой ди</w>
по р</w>
по зд
па ха</w>
от ды
об ы
ну май
нин чен</w>
на пи
мест ӗп</w>
ме ль
лӗ сем</w>
ли л</w>
кӗ р</w>
ку л</w>
ки сене</w>
кайӑ к</w>
ка ҫ</w>
ирт тер
и ст
зако но
зако на</w>
за в
е ш
гра ж
госпо дина</w>
вӗ т</w>
вос пи
вате ль
ай лӑ
О р
Ла ван</w>
Г ер
Ви ф
ӗ к
ҫ не</w>
ш ний</w>
четы ре</w>
хӗр хен
хо тел</w>
ха ҫа
фек тив
тӑвӑ р</w>
тытӑ м
ту я
тре бо
тель ца</w>
та с</w>
сторо ну</w>
сто ит</w>
стано м</w>
сло ву</w>
сель ского</w>
са мы
с но</w>
с ка</w>
ро сси
пят ьдесят</w>
подно жи
пат ша
от ро
от вер
об я
о ни
ни кӗ</w>
на ци</w>
лӗ к</w>
лен о</w>
ко ль
или ще</w>
жи во
ен чи</w>
е вӗр</w>
друго го</w>
дру ги
до сти
депу тат
ве се
ве з
ас лӑ
ани ю</w>
С вя
Пал лах</w>
О б
Мо и</w>
М ак
Кро ме</w>
К унта</w>
Егип та</w>
Га д</w>
Га ва
Б а
20 13</w>
ӑ р
ҫи вӗ
ю ри
ю па</w>
ю б
чуваш ский</w>
чи е</w>
хӑвӑ ра</w>
ху тӑш
хатӗр ле
уҫ са</w>
у ль
у луч
у ка
тре ть
те мӗн</w>
стави ть</w>
со з
с ӑн</w>
с ли
рас ска
райо не</w>
пӑрах са</w>
пуҫ лӑх</w>
при надле
пис ь
пат ши
па йӗ</w>
от но
органи зо
о ва</w>
нен ави
н ю
ме рт
кӑсӑ к
кон ца</w>
к ки</w>
е же
дерев ню</w>
де вя
вы вел</w>
взя ть</w>
бюд жет</w>
а гн
Яковле в</w>
Ч то
Тур ра</w>
Т ам</w>
Раҫҫей ри</w>
Кана шӗн</w>
З о
З десь</w>
Авиме лех</w>
А к
6 0</w>
ӗр ӗ
ҫӗр шыв</w>
ҫи сене</w>
х ать</w>
ф ра
услы шал</w>
ун шӑн</w>
тӑ малла</w>
тух сассӑн</w>
то л
сыв лӑх</w>
ств енни
ста кан</w>
со рок</w>
со бою</w>
ру ви
ра м
пӗтер нӗ</w>
про дол
по вы
пал лах</w>
од ну</w>
о чере
началь ник</w>
лени й</w>
лан чӗ</w>
ла гер
которы м</w>
кол лек
каҫ ар
кашни йӗ</w>
кал ан</w>
йӑ тса</w>
йы шӗ</w>
з ло</w>
жертвенни ка</w>
ертӳ ҫи</w>
е ди
го ру</w>
вӗрен ӳ</w>
вӑр ҫӑ
вӑй лӑ</w>
встре чу</w>
во ен
вече ра</w>
ве щи</w>
би л</w>
Я л
Хана ан
Тӑ ван</w>
Тво его</w>
С ан
Оте ц</w>
М ат
Ле шӗ</w>
Каш ни</w>
Е лена</w>
Авра ама</w>
Авени р</w>
ӗҫ ӗсене</w>
ӑс ат
ҫи ччӗмӗш</w>
Ҫӳлхуҫ анӑн</w>
явля ется</w>
чис т</w>
чере й</w>
хут чен</w>
хозяй ства</w>
халь хи</w>
тӗлле в</w>
тӑ ран
тру да</w>
т но</w>
сӑ ллӑ</w>
сых ласа</w>
су рӑх</w>
со держ
са с
ров ан
реда к
ра б
пы тар
пулӑ шӑ
пу ст
прош ло
пил лӗ
пар ӑп</w>
от пусти
ню ю</w>
ни ю</w>
не хи</w>
муниципали те
мо ва</w>
мест ного</w>
ме хани
м л
ли т</w>
кон трак
за вет</w>
за в</w>
ж илищ
ем ые</w>
до черей</w>
да я</w>
д ной</w>
граж дан</w>
вӗрен екен
вы ро
вун нӑ
ви ча</w>
ве те
ате лей</w>
айӑп сӑр</w>
абза це</w>
Тат а</w>
Ра з
По том</w>
Моисе я</w>
Л юд
Иу дей
Израильтя не</w>
Израил ем</w>
Иа ко
Б ы
Б ла
ӗмӗ т
ӗ сенче</w>
ӑрӑ вӗсем</w>
ҫи йӗр</w>
шӑ па</w>
ше к</w>
чуваш ской</w>
чи тать</w>
чи к</w>
хуш шине</w>
хи пе</w>
ут вер
у станов
тап хӑр
сы ну</w>
су дь
сто м</w>
спор тив
сист ем
сир ӗншӗн</w>
си те</w>
ра к
ра ду
пӗтӗм пе</w>
пы р</w>
путе к</w>
пу хӑн
при гла
пе ть</w>
пар ӑн
п ы</w>
ня х</w>
ни т</w>
не льзя</w>
мӗ ҫ</w>
ли на</w>
ле й
кӑтар тса</w>
кӑ ш</w>
которо м</w>
коле сни
кин о</w>
йӗрке пе</w>
йӗр ке</w>
йӗ сен</w>
ир сӗр
дру з
государствен ной</w>
г ря
вӑ р</w>
вши е</w>
всесож жения</w>
ве к</w>
б ри
Шупашкар ти</w>
Ч ер
Самсо н</w>
Мо ави
Авесс ало
А мали
ӳ сем</w>
ӗҫ сем</w>
ӑ па</w>
Ҫ ул
я чӗллӗ</w>
ю рать</w>
эти х</w>
шан чӑ
чуваш ского</w>
сторо не</w>
ст ый</w>
ст ало</w>
со к</w>
со в
слу жить</w>
свиде тель
сал им</w>
ру салим</w>
ру ка</w>
ра ми</w>
пуҫтар ӑн
проек т</w>
про кля
по ступ
по ля</w>
пи ччӗ
п ь
ос мо
о то
о го
ня ми</w>
ни цы</w>
ни з
не де
на кан</w>
мо ю</w>
мо ль
ло жить</w>
ли ться</w>
лар ӗҫ</w>
кӗр тнӗ</w>
кре ст
ка шӑ
ка мен
ил тнӗ</w>
и ҫӗм</w>
и так</w>
здоров ья</w>
законо датель
за кры
жи в</w>
дь ми</w>
ди на
госу дар
во шел</w>
благо дар
ба ми</w>
авто моб
абза ц</w>
Р Ф</w>
Пе ре
М ил
Кӑ ҫал</w>
К ил
Ие русалим</w>
Вал ен
5 2</w>
№ ;</w>
ҫи се</w>
эф фектив
щ ем</w>
ш но</w>
чӗ семпе</w>
хӑн ӑх
хулар а</w>
тӗллев пе</w>
тре б
тере с</w>
тер и</w>
та ракан</w>
та кой</w>
та ких</w>
ст ри
со стоя
си я</w>
ран па</w>
процен т</w>
пото м
посто ян
пам ят
па янхи</w>
п пин</w>
от туда</w>
ос нов
о ри
но к</w>
на сле
мо же
ми не</w>
мала рах</w>
м ся</w>
м или
лю дьми</w>
ли т
ла ха
куҫ ар
кля лся</w>
к ла</w>
к ате
йӑх ӗ</w>
йы шне</w>
ил о</w>
жи те</w>
евӗр лӗ</w>
дере ва</w>
д але
вӑр ҫа</w>
возвра ти
вил а</w>
виде л</w>
вен а
бюдже та</w>
брат ьев</w>
б ный</w>
Что бы</w>
С С
Неф ф
Ко мсо
Д ан
В ы</w>
ӗҫ ре</w>
Ҫы н
ю рӑ</w>
ыл хан
ывӑ лу
щ аться</w>
ше сть</w>
чу ру</w>
чу на</w>
хутшӑн нӑ</w>
ху ра</w>
ху й
хе руви
хал ӑ
х ӗҫ</w>
ф фа
тӳ ре
тӗн чери</w>
тӑ вас</w>
ту ра</w>
то фе
тас алӑх</w>
та х
та ки</w>
сӗ м
сти ть</w>
сил ы</w>
сед ьмой</w>
свя т
с ъ
ру п
ре ж
рабо в</w>
пӑ шӑр
предприним атель
поря д
под ня
под держ
печ ат
п шени
оде жду</w>
обще ства</w>
образ ом</w>
о вна</w>
ним ать</w>
ни ком</w>
мӑ шӑр
меди ц
мал а</w>
лю дям</w>
ла ракан</w>
кур сассӑн</w>
культу р
калаҫ нӑ</w>
ка ра
йышӑн нӑ</w>
и на
заве та</w>
дол го</w>
д вена
год но</w>
го лу
г ло
г ла</w>
вӗрен се</w>
вуннӑ мӗш</w>
воро т</w>
ве ли</w>
вал о</w>
ар чине</w>
а ҫу
Шупашкар та</w>
Х алӑх</w>
Л у
Иуде я</w>
И ес
За ву
Виф ле
В ер
Аха в</w>
А до
5 1</w>
ӑс лӑ
ҫӗр ӗн</w>
ҫӑмӑ л</w>
ҫу лӗ</w>
Ҫӳлхуҫа ран</w>
я рӗ</w>
ый ту
шу ю</w>
ш ур
ш ку</w>
част о</w>
хӑра са</w>
хоче тся</w>
ха с
у ҫӑ
у лиц
тӑрш шӗ</w>
тӑ раҫҫӗ</w>
тух ать</w>
ту н
тре ть</w>
тир пей
со н</w>
си ю</w>
рин чи</w>
республи кӑри</w>
рас про
работа л</w>
пурнӑҫ а</w>
поло жил</w>
по вер
пер вен
парне сем</w>
не р</w>
на зыва
мӑ й
мир а</w>
милли ар
май па</w>
ма х
люби л</w>
ли я
лет них</w>
кил о
испол н
зна коми
зако н</w>
з ы</w>
жа т</w>
еткер лӗхе</w>
ди е</w>
говор ю</w>
вани й</w>
буде м</w>
б ло
ач ана</w>
ав ли
Х ӗрлӗ</w>
Х ус
Х аль
П ас
Люд мила</w>
Ко нечно</w>
Ивано в</w>
И р
Е се
Гала ад
В ит
Б у
5 5</w>
ӳк се</w>
ӑ шӑ
ҫи тер
ҫи й
ҫап са</w>
ю к</w>
чу ра
чи кӗ</w>
хӗ сене</w>
хыв нӑ</w>
хо ло
у го
тухӑ ҫ</w>
тив ле
сӑ рт
стра ны</w>
со ю
ски ми</w>
силь но</w>
сереб ро</w>
сем ьдесят</w>
сем ччӗ</w>
само управления</w>
с фер
с к</w>
пӗл мен</w>
пы ма</w>
пурӑн малли</w>
про шел</w>
при нима
ос вя
ого нь</w>
о преде
ну сем</w>
ни ками</w>
на встречу</w>
н ци
мӗ шӗ</w>
мы с
мо го</w>
мла д
ме р</w>
ме ж
ма ях</w>
лӑх ра</w>
кӳ мелли</w>
кӗр т
кӗ т
кан ди
кал и</w>
к ани
йӑл тах</w>
йыш лӑ</w>
ирт рӗ</w>
илем лӗ</w>
ил ӗ</w>
и но
ден ь
га л</w>
бра л</w>
асӑн нӑ</w>
Х ан
Фа ра
Си на
Кото рый</w>
И так</w>
20 11</w>
ӗ не</w>
ҫӑн ӑх
ҫыр ма</w>
ҫы вӑр
ҫул тан</w>
ҫул па</w>
ҫу лӑ
Ҫа пах</w>
ющ им</w>
юра масть</w>
ю рӑ
ь ми</w>
шыв па</w>
шухӑ ш</w>
шу л
ш ӑ</w>
чӗ сен</w>
челове ку</w>
чатӑ рӗ</w>
хӑ т
хы тӑ</w>
ху рса</w>
ху л
хо чет</w>
халӑх ӗн</w>
фо то
ф ир
ут ӑ</w>
тӑрш шӗ
тӑвӑ п</w>
тӑ вать</w>
теля м</w>
те ме</w>
те ла</w>
те кен
сӗр тӗн
сӑ на
со бира
ра ш
ра ди</w>
пурӑна кансем</w>
при ш
посе ления</w>
пой ду</w>
по ку
по кро
пере да
пат а</w>
пас са
отправил ись</w>
о цен
ноч ью</w>
мӗн чи</w>
мо им</w>
ми ро
ме ста
ме й</w>
лӑ п
кӗ лет
кил чӗ</w>
ки ми</w>
кал атӑп</w>
ка ять</w>
и сти
зе р</w>
е л</w>
дру га</w>
доро ге</w>
г ен
вто рой</w>
возь мет</w>
во цар
ви д
вед ени
в зо
аш шӗн</w>
ар кат
амӑ шне</w>
ав ан
Ф и
Сих ем</w>
Свет лана</w>
Ра й
М ӗн
Ко м
Ие ффа
Д ан</w>
Господ не</w>
ҫит сессӗн</w>
ҫи телӗ
ял ти</w>
язы ке</w>
я малла</w>
юрат нӑ</w>
юн не</w>
ю тран</w>
эк с
э нер
шкул та</w>
цар ем</w>
х ӗҫ
тӑ х
тух ма</w>
ту ра
тех ника</w>
те к
тат е
спорт смен
с вет
ру ке</w>
ре мон
р та</w>
пӗлӗ т</w>
пӑра хӑ
пултару лӑх</w>
пу л</w>
проек та</w>
полномо чен
под а
по гиб
отде ль
о ставля
мӑ ну
ми три
ло в
клас с</w>
йӑх не</w>
й сем</w>
ирӗ к
зем ле
за р</w>
ду ю</w>
ди ре
деся ти</w>
г ну
вӗлер ме</w>
вӑ там</w>
вырт нӑ</w>
вопро сы</w>
возмож ность</w>
во зра
во дою</w>
вино гра
вал е
больш ое</w>
аталан ӑ
ани й</w>
Ы вӑ
Ше л</w>
Ч и</w>
Хри сто
Ма ди
Иорд ана</w>
Египет ран</w>
Е ще</w>
Дави д
Ан ато
6 2</w>
ӑ мӑ
ҫӗр тен</w>
ҫӗк лен
ҫа вӑр
яз атель
ши т</w>
чи сто
чатӑр ӗн</w>
хӑ ра</w>
ху та</w>
хлеб ное</w>
ха р</w>
федера ль
тӑ тӑр</w>
тӑ ка
теле м</w>
тар а</w>
сыв ӑ</w>
ст аро
си ро
священни ку</w>
рез уль
раз де
рабо т</w>
пул ӗҫ</w>
при я
помощ ь</w>
под готов
по станов
пес ни</w>
па н</w>
о р</w>
о пол
мило сть</w>
ла кан
кӑ ҫал</w>
кон курса</w>
калаҫ ма</w>
к тя
йӗрке ленӗ</w>
инке к</w>
заме сти
же ла
даль ней
вы де
все ми</w>
вла де
вла д
ви т</w>
ват ӑ
бы ст
бла гово
ат ӑн</w>
ат чӗ</w>
а моррей
Чӑ ваш
Т ӗрӗ
П ар
Миха й
Мак си
Ки ри
В ик
А мно
ӳ р
ӑш ӗнче</w>
ҫынни н</w>
ҫул талӑ
ҫит мӗ
ҫит мен
ҫаврӑн са</w>
ё т</w>
язы ка</w>
че сть</w>
че ские</w>
ч ных</w>
ц ени
хӳ т
хӑвӑ рт
хы пар</w>
ху рал
хо кке
ха яр
фин ан
ф е</w>
умӗн чи</w>
уме рт
у да
тӑ чӗ</w>
тӑ ракан
тӑ лӑх</w>
ту лӑ</w>
тре тий</w>
тивле чӗ</w>
ти пӗ</w>
теле й
та ва</w>
т ря
слу г</w>
ря дом</w>
ры х</w>
род ственни
ров на</w>
ре т
работа ет</w>
ра к</w>
пӗ тнӗ</w>
пӗ лет
пуш ӑ</w>
процен тов</w>
пос мо
пи чет
от рас
организа ции</w>
об язатель
ни цу</w>
ни мӗнле</w>
не ц</w>
ман нине</w>
лӗ р</w>
кто р
кал ь
йӑ шӗ</w>
й ӗпе</w>
ис клю
ил ӗр
ик кен</w>
за боле
ди пло
да йте</w>
вӑ кӑр
выр такан</w>
вы ра
вы пус
во р
во ло
ас ра</w>
аль ного</w>
а ван</w>
Ы т
Филистимля не</w>
Тур рӑ
Соломо на</w>
Са мар
Мо его</w>
К ур
Ис са
Иерусали ма</w>
Государствен ного</w>
Генна дий</w>
Г ра
Ам мони
Авиме ле
Ааро нпа</w>
19 8
ӗ рен</w>
ҫӳре ме</w>
ҫу хат
ье ва</w>
ырӑ лӑх</w>
ывӑ лӑм</w>
ша х</w>
ч лен
ци на</w>
хап ха</w>
универси те
тӳ лесе</w>
тя н</w>
тытӑ ннӑ</w>
ту а
тат ах</w>
тавӑ рса</w>
та л</w>
т сен</w>
сӗ тел</w>
су л
сты м</w>
ствен ной</w>
стат ья</w>
совер шен
слу ги</w>
ска жет</w>
сар ла
с ӑх
род ной</w>
регу ли
ре ки</w>
пуҫлӑх ӗсем</w>
пул масть</w>
при ше
пре до
пер вые</w>
п ин
от дал</w>
о пу
о жи
нач али</w>
на уч
на де
мӑ наҫ
моло деж
ме ҫҫӗ</w>
ле хи</w>
ки сем</w>
кала ҫа
к ле
ил ей
изб ави
год ня
г ан
ву н</w>
вил ись</w>
виде ли</w>
ва т</w>
ате ли</w>
алис т</w>
акаде ми
а сту
Ш ӑ
Чебокса рах</w>
Т ӗ
Сы ны</w>
Си до
На ф
Комсо моль
К ун
А са</w>
ӑнӑҫ лӑ</w>
ҫурт не</w>
ҫитмӗ л</w>
ҫити чченех</w>
ҫап лах</w>
ял ӗнче</w>
ю но
эти м</w>
шут не</w>
ша т</w>
хӑ шӗ</w>
хӑ в</w>
ха стар</w>
участо к</w>
ук ра
тӑ с
тру до
та кие</w>
сӑ рт</w>
сти т</w>
стави т</w>
сраз у</w>
сик се</w>
си туа
сереб ря
сереб ра</w>
сала м
савӑ нӑҫ
ро ды</w>
ро д</w>
редак ции</w>
раз говари
при обре
по н
па раҫҫӗ</w>
па ратӑп</w>
отц ов</w>
мор я</w>
мо гу</w>
милли он</w>
медиц ин
ман ран</w>
ле шӗ</w>
ко нечно</w>
ке ре</w>
йӗр кене</w>
ир и</w>
инвести ци</w>
и ди</w>
зав тра</w>
за вер
з ву
же сто
ж аться</w>
ени не</w>
ем ся</w>
ду ме
д ве
государствен ного</w>
гос под
г аться</w>
вӗле ре
вну трен
ват ӑ</w>
б лу
б ал
ате ль</w>
а я</w>
а т</w>
Ю лашки</w>
Те бе</w>
Сем ен
Сак кун
Ни ки
Манасси я</w>
Кон стан
Ка де
К ал
Д митри
ӑст алӑх
ҫӗ лен</w>
ҫҫ и</w>
ҫурт сем</w>
ҫем ье
ҫ та</w>
ял ся</w>
ыл тӑн
шай ӗнче</w>
чи й</w>
ча к
хир ӗҫ
ха к</w>
х ӑ</w>
у то
тӑршшӗ пех</w>
туп са</w>
тере ҫҫӗ</w>
тавраш ӗнчи</w>
т рех</w>
т ки</w>
сӗ т</w>
сӑр лан</w>
сӑмах ӗ</w>
сӑ вӑ
суб бо
строитель ство</w>
ству ет</w>
стви н</w>
ствен ного</w>
соб енно</w>
со ста
служ бы</w>
сир ӗнпе</w>
сил у</w>
се ла</w>
се годня
сан ран</w>
с пи
с не</w>
ры м</w>
руководи тель</w>
пӗр ин
пурнӑҫ ла
пре ступ
после д
поря док</w>
по лез
по ла</w>
пат тӑр
пат на</w>
ост аль
обя зан
о ф</w>
нӗ ччӗ</w>
не достат
на з
на дцать</w>
муниципали тет
муж а</w>
мо ре</w>
мал ашне</w>
лӑ р</w>
лӑ н
луч ше</w>
кӳр се</w>
ко п
кен не</w>
ка ма</w>
ирт тернӗ</w>
ирт терме</w>
ир хине</w>
ил ӗр</w>
ил тӗр</w>
зна ют</w>
жа й
до жд
деятель ности</w>
ги м
вӗрен ме</w>
ви т
ви на</w>
ва ю</w>
ва ска
благосло в
б ин
ашшӗ не</w>
ат те</w>
Ре ве
Одна ко</w>
Бла го
Ат те</w>
Ан на</w>
А мор
А га
ӗн тен</w>
ӗмӗр лӗхе</w>
ӗ ччӗ</w>
Ӗ ҫ
ҫӳре т</w>
ҫӑ вӗпе</w>
ҫу к
Ҫамрӑ к</w>
ятар лӑ</w>
я пӑх</w>
экономи ка</w>
ь яна</w>
ши ми</w>
ша ет</w>
чӗл хи</w>
чуваш ском</w>
чу ри</w>
чис ло</w>
ци е</w>
ху ра
хо л
хо в
х ӗн</w>
х о</w>
фараон у</w>
ул шӑ
тӑхӑн тар
ту р</w>
те тӗп</w>
та я</w>
та я
су д
сту па
сто й</w>
ст сем</w>
со би
ско р
сдела ет</w>
ре ди</w>
ре ализа
располож ились</w>
ради о
пул ни</w>
професси он
при ко
преду смо
пре н</w>
пре дел</w>
правил ь
посе лени
патӑ м</w>
пар ӗ</w>
па малли</w>
нен е</w>
не чист</w>
ми н</w>
ме ч</w>
ма сте
ли й</w>
лени ем</w>
лар ӑм</w>
ла хи</w>
л ани
казыва ется</w>
к семпе</w>
й и
ин стру
зн али</w>
за н</w>
за й
з ор
женщ ины</w>
жд ать</w>
ж да
еш ьте</w>
долж но
долж на</w>
деж да</w>
го й</w>
гла з</w>
вӗрен тсе</w>
вырнаҫ нӑ</w>
вы ши
вы ку
ву никӗ</w>
вспо м
воцар ился</w>
ви тӗр</w>
боль шая</w>
бо гам</w>
Хӗ ра
Х и
Р и
Оль га</w>
Мо ло
Л ари
Крас но
Ка й
Израил ев</w>
З е
Василь евич</w>
А х
А пла</w>
5 4</w>
5 3</w>
20 10</w>
ӳл лӗ</w>
ӳ тне</w>
ӳ сене</w>
ҫӑ р</w>
ҫин ӗ</w>
Ҫ ӗр</w>
я ма</w>
чух нех</w>
ча плӑ</w>
ч ала</w>
хӗ вел</w>
хуҫ и</w>
хир е</w>
ха ҫат
ул шӑн
уби л</w>
у мӗн</w>
тӳ пе</w>
тӗн чен
тӑват ӑп</w>
тӑват тӑмӗш</w>
тул тарнӑ</w>
твор че
тво ем</w>
та вӑр
т ный</w>
су я</w>
сто л</w>
сти хи</w>
со времен
серд ца</w>
се вер
с шӑн</w>
реж ис
реги он</w>
пӗр лех</w>
пӑх ма</w>
пул тарнӑ</w>
предусмо трен
прав ду</w>
полу ча
племен ам</w>
ня ться</w>
не ю</w>
мно гие</w>
лайӑх лат
ла ми</w>
кӑшкӑ рса</w>
кӑ ва
коли чество</w>
к ти
ис пользо
за яв
ен е</w>
други м</w>
ди ться</w>
двена дцать</w>
да в
голо с</w>
вӑ кӑр</w>
вой ну</w>
во де</w>
вил се</w>
вдо х
благослови л</w>
ба бу
ан са</w>
администра ции</w>
С ирӗн</w>
Пуҫ лӑхӗ</w>
О б</w>
М оск
Иисус у</w>
И х</w>
Геде он</w>
Во о
Вала к</w>
Анге л</w>
ӳп ке
ҫӗр ле</w>
ҫу рӑ
ҫ ӗсем</w>
я тся</w>
юрӑх лӑ</w>
ый ту</w>
ш ься</w>
ци пе</w>
хӗр ринче</w>
хуш ма</w>
хо тя</w>
хо д</w>
ф рон
ф ей</w>
учи ться</w>
ун аро
ул ми</w>
тӗс лӗх</w>
ты е</w>
тум тир</w>
тра ди
то р</w>
ти п
те ри
тапра нса</w>
су м
ст вам</w>
сре ды</w>
со бы
са р</w>
с к
ре д
раз лич
ра бы</w>
пӗ рех</w>
пӑшӑр хан
пы рӗ</w>
пулта раҫҫӗ</w>
произ о
прине с</w>
при нци
при звал</w>
помо щи</w>
покло н
пой дет</w>
по в</w>
площа д
от правля
о ю</w>
о но</w>
о каз
ни хӑҫан</w>
ни когда</w>
не сли</w>
на ходи
му ще
мно же
ма сассӑн</w>
лӑх ӗпе</w>
ларт ма</w>
кӑ л</w>
конкур ен
кин чен</w>
кил ӗнче</w>
ки я</w>
кан ӗ</w>
йӗр ӗ
интере со
золо та</w>
запове дал</w>
за кля
за бо
жд унаро
ж ений</w>
ефо д</w>
ен а
до мо
дет ьми</w>
гово р</w>
го ре
вӗлер се</w>
виде ть</w>
ве рт
в стан
арӑ мне</w>
ано м</w>
ан ы</w>
Ш а
Федера ль
Фа мар
С ан</w>
Лари са</w>
Кири аф</w>
Вит али
Вале рий</w>
Ва ал</w>
Ави а
19 7
ҫӳл лӗ</w>
ҫу тӑ</w>
ҫу са</w>
ҫирӗплет нӗ</w>
Ҫӳлхуҫа мӑм</w>
Ҫ ӑ
ывӑ лӑ
школ у</w>
чун не</w>
чен ех</w>
ч или</w>
хы пар
хра б
ха рак
фе сси</w>
уров не</w>
ур и</w>
упӑш ки</w>
ук ҫи</w>
у р</w>
то ч
та са
суб си
спро сил</w>
ски нию</w>
с пас
с ку
раз ру
р сем</w>
пӑ с
пы тарнӑ</w>
пы р
пуҫ тарса</w>
при ня
последни е</w>
по ка</w>
пер во
пе рио
пар ти
ост ались</w>
оде ж
обес пе
ня з
ни кӗ
не много</w>
мя со</w>
муже ского</w>
мно гих</w>
меся ц</w>
мал ӑх</w>
мал аш
лен ных</w>
лег ко</w>
ле рех</w>
лан тар</w>
л анине</w>
кӗре й
кин чи</w>
калаҫ са</w>
инвести цион
иле с</w>
и муще
и да</w>
земле ю</w>
з м</w>
з е</w>
ж ан
ет кер</w>
еле ем</w>
ду ш
дерев ен
де н</w>
да ю</w>
вӗҫ ен</w>
во е
ви телӗ
ве ч
вани и</w>
ва ж
бюдже т
бу д
асӑн са</w>
а ҫҫӗ</w>
Ч ӑн</w>
Ч и
Хо ро
Филистимля н</w>
Фе до
Рах иль</w>
П ер
Мо р
Мо е</w>
Исаа ка</w>
Интер нет</w>
Елеа зар</w>
Господ ню</w>
Вале ри
9 0</w>
ӗ пех</w>
я вӑ
ь ям</w>
щ у
шут ланать</w>
чӗр ине</w>
чуп са</w>
чу х</w>
чемпи он
ча р</w>
ч ат
ц ами</w>
хӗ л
хӑ тар
хо чу</w>
хатӗр лен
хана ан
умӗн чен</w>
у сӑллӑ</w>
у до
тӗп че
тӑ сӑ
те екен</w>
сту пил</w>
стро в</w>
ств и</w>
ст ей</w>
соответ ствии</w>
сооб щи
сех ет
се л</w>
с но
с ко</w>
с вет</w>
ро да</w>
республикан ского</w>
рез ер
рат са</w>
рас сине</w>
район ти</w>
програм мӑ
пре дал</w>
пра кти
полу чи
по сте
по р
па чӗҫ</w>
объ яв
обла сти</w>
о чами</w>
о во
не с</w>
наро д
мо г</w>
ми те</w>
места х</w>
лӗ рех</w>
лӑх лӑ</w>
ль ю</w>
лан и</w>
кӗре т</w>
кун ран</w>
кил е</w>
каҫ хине</w>
кая кан</w>
й ӑх</w>
ит лесе</w>
исто ч
инстру мен
ил ет
и зраил
израил ь
за слу
ж ал
ви ссо
ве ка</w>
ва ются</w>
аталан тарма</w>
ана ми</w>
а кан</w>
Фара он</w>
Мӗн ле</w>
Мини стр
Ка зан
Ивано вна</w>
И ра
И думе
Гла ва</w>
20 0</w>
ӳ пе</w>
ӳ н
ӑш ӑ</w>
ӑс лӑ</w>
ӑ шне</w>
ҫурат нӑ</w>
я ш</w>
я бло
ю на
ь сот</w>
ый тса</w>
шко л</w>
ша й</w>
ш аться</w>
чӗр и</w>
че ра</w>
хаҫа т</w>
ун ти</w>
уме реть</w>
у к</w>
тӳр ӗ
тӗре к
тӑрат нӑ</w>
тытӑм лӑх</w>
ту пӑш
тивӗҫ тер
ти скер</w>
тель ный</w>
те ло</w>
тар ӑн</w>
тар хас
та кого</w>
сӗ м</w>
су лаха
строи ть</w>
сто й
стать ян</w>
ст но</w>
со р</w>
скер сем</w>
ска зав</w>
си пе</w>
сдела ю</w>
с чита
с ро
рӑ на</w>
ру до
ра чи
пӗрин пе</w>
пы тӑр</w>
пуҫҫап нӑ</w>
пуҫ ар
пул мӗ</w>
произ води
програм мы</w>
про вер
постро ил</w>
по чему</w>
по рт
пе р</w>
п яти
обес печ
о стано
о лимпи
нӑ р</w>
но вый</w>
но вой</w>
но во
н ь
ме с
ма шин
лӗх ӗ</w>
лени не</w>
кӗ чӗ</w>
кӗ сен</w>
кол ле
кил ӗр</w>
ка кое</w>
к па</w>
йыш ши</w>
ил ет</w>
и я</w>
жертвенни ке</w>
же з
ж ат
е во</w>
дет ства</w>
день ги</w>
ден е
де те</w>
да р</w>
глаза х</w>
вопро с</w>
ве р</w>
в ӗнче</w>
ат ы
аса план
ар чи</w>
али на</w>
а ст
Ч а
Хӑй не</w>
Хан ане
Х исе
Ф З</w>
Ун сӑр</w>
У чи
Тат ьяна</w>
Республи кинче</w>
Р од
По чему</w>
Одна жды</w>
Министр сен</w>
Ле они
Иако ву</w>
И к
Амор ре
А с
ӳ ке
ӗҫ мелле</w>
ӑ м
ҫур ҫӗр</w>
ҫакӑн та</w>
шӑ м
ши к
чӗн нӗ</w>
чи р</w>
четы ре
ч ӗр</w>
цен тр
цар ей</w>
хӳтӗ ле
хӑ на
хӑ м
хулин чен</w>
ха х</w>
ха мӑрӑн</w>
ут ром</w>
ус ра
ум рет</w>
ука зан
у доб
тӳ рех</w>
тӗ ҫ</w>
тӑ ратӑп</w>
ти вӗҫ</w>
теля ми</w>
те лӗ</w>
тая кан</w>
тар и
ствен но</w>
старей ши
се кре
свобо д
росси й
роди л</w>
про це
прише ль
при вле
пред став
пой дем</w>
по ле
педаго ги
пат нелле</w>
палӑрт са</w>
ни кого</w>
необходи мо</w>
начи на
нач але</w>
насе ления</w>
нар е
на по
на дцат
н или</w>
мӗ сем</w>
мӑ ш</w>
мухтав лӑ</w>
механи зат
ма к</w>
люби т</w>
люб лю</w>
ли ст
ла ман</w>
л нӑ</w>
кӳ н
кӗ ҫӗн</w>
кӗ мӗш</w>
кун сенче</w>
ку п
ком нат
кла ды
кашӑ кӗ</w>
кала сан</w>
йӗрке сӗр</w>
йӗр кине</w>
йӑ нӑ
ик кенне</w>
из ложить</w>
запове ди</w>
з ри
з ма</w>
з аро
жи вут</w>
жи вать</w>
жен ный</w>
ж ре
ер е</w>
ен ный</w>
е ма</w>
де лал</w>
да д</w>
горо дах</w>
голо са</w>
глу бо
вӗрен т
вӑ на</w>
вырӑ с</w>
во н
во ин
вну тр
ва йте</w>
в клю
быст ро</w>
брат ья</w>
ат а</w>
а халь</w>
Хев рон</w>
Х ы
Фили п
Ф ар
Са ва
Пет рова</w>
Па вел</w>
Моави т
Леви й</w>
Ку з
Ио ава</w>
Иерихо н</w>
Ж аль</w>
Ели сей</w>
Е на
Е кате
Воо з</w>
А з
5 00</w>
ӳ не</w>
ӑ ру</w>
ҫӗмӗр се</w>
ҫӑ сем</w>
ҫынни сен</w>
ҫулӗ пе</w>
ҫу мӗнчи</w>
ҫивӗ ч</w>
ҫи л</w>
явӑ ҫ
ь ю
ь ше</w>
ы ран</w>
ше т</w>
чӗл хе</w>
чӗл хе
чис лен
чет вер
ц ире</w>
хӑруш ӑ</w>
хуш шӑр
хурав ланӑ</w>
хула сем</w>
хак лӑ</w>
увиде в</w>
у лӑх
тар ӑх
та сал
та й</w>
сӗр се</w>
сыв лӑ
сте ре
ство вали</w>
сов мест
следу ющей</w>
следу ющего</w>
сем ье</w>
сем сӗр</w>
се хӗр
ры е</w>
рех инче</w>
реги онов</w>
рас се
пӗ ччен</w>
пӗ ре
пурнӑҫ лакан</w>
пулта ра
прине сли</w>
при дет</w>
прав да</w>
поро ка</w>
пере се
пе к
оск вер
ни пех</w>
не сти</w>
не которые</w>
н али
мӗш ӗнчи</w>
молоды х</w>
меч ом</w>
мен но</w>
ме л</w>
мар ӗҫ</w>
лар ӑ
ла м
курӑ к</w>
коман ди
квар тир
кай малла</w>
к няз
йӗр ӗн
дей стви
де тя
де тся</w>
гла ва</w>
гек тар</w>
г ари
вы с
води ть</w>
во спо
ви ҫ
вече ром</w>
брат у</w>
ачи сем</w>
аллин че</w>
ай ӗнче</w>
Чуваш ского</w>
Т ем
Т вой</w>
С ире</w>
Ра бо
Пил ат</w>
Пав ло
Но ем
Мо жет</w>
Л ен
К ун</w>
Иерово ам</w>
Ж ен
Е р
Г ор
Г ир
В ар
Анд ре
А вен
ӗҫ лет</w>
ҫӗк ле
ҫӑ кӑр
ҫу мӑр</w>
ҫу м</w>
ҫи тернӗ</w>
Ҫӳл ти</w>
Ҫу рт
юх са</w>
юра тат
юна шар</w>
ши ро
че ски</w>
чарӑ н
ци ей</w>
хуш шӑ
ху пӑр
ф ак
уя в</w>
уче б
уйрӑ мах</w>
тӗс лӗх
тӗрӗсле се</w>
тӗл ӗнче</w>
ты м</w>
то к</w>
то е</w>
телей лӗ</w>
т или</w>
содерж ания</w>
соб ствен
со хран
со су
со се
со един
сен а
с се</w>
ря д</w>
ру сс
рес ур
режис се
ра бу</w>
пӗлтер чӗ</w>
пуҫ ларӗ</w>
пушхир те</w>
пулӑ шать</w>
пу ян</w>
пу ска
производ ство</w>
про сла
при вы
при вел</w>
пир ӗнпе</w>
па с</w>
от вет</w>
окон ч
о ставил</w>
не жели</w>
не бе
наро ды</w>
на зо
муниципаль ным</w>
мо гли</w>
меди цина</w>
ма ма</w>
лӗ пе</w>
ля ться</w>
кӗне ке</w>
кра я</w>
ко нец</w>
ка сси</w>
к ри</w>
йӗр и</w>
испол ня
ин фра
и рех</w>
зна ешь</w>
зна ете</w>
за чем</w>
з у</w>
же тся</w>
ж ная</w>
е тӗп</w>
е ли</w>
д вер
гне в</w>
га д
вырӑ сла</w>
ву се
возврат ился</w>
во о
в ӗнчен</w>
бо ро
бе се
алӑ к</w>
ай к
агн цев</w>
абзац ра</w>
Ц и
Ту тар
Па янхи</w>
Ноем ин
На дежда</w>
М ною</w>
Ку льту
Ивано ва</w>
И кӗ</w>
Га й</w>
Веф иль</w>
Ар ка
6 1</w>
ӗҫ лет
Ӗ ҫ</w>
ҫӗн ет
ҫан талӑк</w>
Ҫур т</w>
я нӑ
э та</w>
ща л</w>
шу тра</w>
шед ших</w>
ша к</w>
ш ывӑ
ш или</w>
чӗл х
хӳ ме</w>
хуш нине</w>
хо м</w>
хир те</w>
филистим сен</w>
фара о
уйӑх ӗнче</w>
у тра</w>
у де
у дар
тӳре м
тухӑ р</w>
территори и</w>
тан па</w>
та раҫҫӗ</w>
т аль
сӗ т
су к
сред ств</w>
собра лись</w>
си й</w>
сель ских</w>
сам б
са хал
рӑ м
ро вич</w>
пӗре р</w>
пулӑш ма</w>
про фесси</w>
прино шения</w>
побе ди
по сы
по знаком
по за
пере ди</w>
п анине</w>
ост алось</w>
орг анов</w>
од на
о цени
о со
ни сен</w>
не четная</w>
не бес
напис ано</w>
на шел</w>
н ал
муниципалите тӑн</w>
моло де
мет ров</w>
ме ры</w>
мат ри
кӳре т</w>
кӗ ме</w>
кӑтар тӑ
кун чченех</w>
кон тро
кая с</w>
кан аш
игра ть</w>
зо пас
ж ной</w>
ж иль
до мой</w>
воз но
вним ание</w>
ви та
ве ду</w>
ве ден
ваши м</w>
в ста
без зако
б или</w>
аса п</w>
ано ва</w>
амӑ шӗн</w>
Чуваши я</w>
Хус ан
Х ар
У й
Тур рӑм</w>
Та ким</w>
Саул у</w>
С ис
Ро во
Пред седате
П ы
Н им</w>
Мини стров</w>
Или й</w>
И л
Б и
А ча</w>
ӗн ер</w>
ӑ ма</w>
ҫӑ вӑн
ҫи пе</w>
ҫи ел
ҫа пах</w>
я вап
щ ё</w>
шӑн кӑ
шул тӑра</w>
че бок
чебок сар
ч ении</w>
ч али</w>
ци о
хӗ пӗр
хо з
халӑх сем</w>
ха с</w>
ф ам</w>
у ҫӑл
у досто
тӗнчен е</w>
ти сене</w>
теле кан
те л
ся т</w>
су рӑх
стат й
старей шины</w>
сооб щ
смо три
служ би
сех ет</w>
с на</w>
ро на</w>
ро вать</w>
ради о</w>
ра нах</w>
пӗр ин</w>
пӗ лет</w>
пуҫтарӑн нӑ</w>
пух нӑ</w>
пурӑна ҫҫӗ</w>
пу с</w>
про бле
прине сет</w>
по тер
по па
пис и</w>
пар нине</w>
окру г
ог нем</w>
ов нов</w>
о ши
но ва
на ша</w>
на ме
мӑй ра
му ки</w>
му дро
ма т</w>
ля ет</w>
любо вь</w>
ло г</w>
кур тӑм</w>
ку ракан</w>
ку ль
конкур с
ко ров</w>
каҫ са</w>
ка т</w>
ка с</w>
ка п
к рат
йӗ семпе</w>
й ный</w>
й дет</w>
и чченех</w>
зани ма
ду ше
до мом</w>
гра ни
вы ҫ
вой не</w>
воз вы
во лов</w>
ви ди
ве тера
бра ли</w>
бере т</w>
б и</w>
б ай
аш шӗпе</w>
ал хи</w>
а ман
Т ан
Кай ран</w>
Из ма
Ж и
Д ру
Господ ним</w>
5 8</w>
ӳ кӗн
ӗмӗт лен
ӗмӗ рех</w>
ҫӗ сене</w>
ҫӑ ва</w>
яз ва</w>
юри ди
ю пи
экономи ки</w>
э ппин</w>
ье вна</w>
ывӑлӗ семпе</w>
шыра са</w>
шур ӑ</w>
ш ӗсене</w>
ш та
чӗре рен</w>
чух нехи</w>
чи ться</w>
ци не</w>
це ле
хутшӑн ма</w>
хи тре</w>
ф ун
умӑн та</w>
ум но
улшӑ нусем</w>
тӗрӗ с
туп нӑ</w>
ту т
ту рӗ</w>
ту пай
тив нӗ</w>
сӑн ар
сӑ рах</w>
сы нами</w>
стол бов</w>
стан ет</w>
солн це</w>
сест ра</w>
се ле</w>
саккун ӗсемпе</w>
с лан</w>
с кри
ри т</w>
развити е</w>
раз ные</w>
рав но</w>
р сене</w>
пӗтӗмӗш ле</w>
пӗ ҫе
пӑ л</w>
пурӑнакан сене</w>
пур лӑх</w>
пулӑш са</w>
пул нӑран</w>
про шли</w>
про да
пред лож
прав де</w>
по шла</w>
пи ч
па мя
обще ствӑ
обо рудо
нормати в
ни к
на стро
му зе
му з
момен т</w>
мал и</w>
ло ша
ли шь</w>
лар са</w>
лап тӑ
кӑш тах</w>
кӑмӑл па</w>
культу рӑпа</w>
ку ля
кре ди
кра со
коман да</w>
килӗш ӳ</w>
ка сс
илт сессӗн</w>
иле кен</w>
и у
и то
и сте
и к</w>
жи вых</w>
ен ы</w>
ен лӗ</w>
дя тся</w>
дела ет</w>
вӑхӑт рах</w>
воз ло
во шли</w>
ви ҫе
ачи сене</w>
ат тем</w>
Ю ра</w>
У л
Сина й</w>
Се ре
Ну жно</w>
Но во
Мари на</w>
М ин
Ли я</w>
Л ав
Ио са
Израильтя н</w>
З и
З ар
Е сть</w>
Го во
Га до
А ф
А на
3 00</w>
ӳс се</w>
ӗҫ ме</w>
ӗр е</w>
ҫӗр сене</w>
ҫӗ м
ҫы ру
ҫы рав
ҫу тат
ҫу т</w>
Ҫа вна</w>
ё н
я лӗ</w>
юрат са</w>
ши вать</w>
ш ир
чӑ нах</w>
чи х</w>
чи н</w>
ч унтан</w>
хӗр ӳ</w>
хӑват лӑ</w>
хыв са</w>
хули пе</w>
хула ран</w>
хисе п
ха яр</w>
ха кла
увиде ли</w>
у ста</w>
у ми
у з
тӗ к</w>
тӑр ла</w>
тӑ ман</w>
ту ю</w>
тр ӗҫ</w>
то ра</w>
ти т</w>
ти сем</w>
ти вет</w>
тере т
тво ими</w>
тал ла</w>
та кое</w>
ству ют</w>
стви не</w>
спор том</w>
согре шил</w>
со тру
со всем</w>
слу шать</w>
сас ӑ</w>
сан шӑн</w>
рт са</w>
ро б
развити ю</w>
пӗле тӗп</w>
пурнӑҫ ланӑ</w>
пулӑ р</w>
пул чӗҫ</w>
при ка
по хоро
по хо
по про
по нима
по гу
пис ать</w>
пил лӗх</w>
пи чч
пах ча
палӑрт ать</w>
па йӗн</w>
от пу
нӑ скер</w>
ну ма
на ход
на р</w>
мӑ л</w>
мы х</w>
молоде жи</w>
мен я
малтан ах</w>
ма сан</w>
м ной</w>
лӗ ҫ</w>
ль я
ли во</w>
лан ӑ
лайӑх рах</w>
кӳ рен
кӗ ҫӗн
кӑ шӑ
кла д
йӗрке леме</w>
испол нитель
ин нова
ил тӗм</w>
з ать</w>
ж ир
доро ги</w>
до бы
ге ро
вырт ать</w>
вто ром</w>
вил ась</w>
верну лся</w>
в лек
боль шие</w>
бо гов</w>
бе зопас
аша к</w>
ан самб
аль ных</w>
а чи</w>
Ш ы
Че лове
Хал ев</w>
Х алӑх
Т ро
Сыв лӑ
Си ри
Сер ге
С теп
П обе
О дин</w>
На до</w>
Кана ш</w>
К ри
Ж е
Ефре мо
Вирсави я</w>
Вениами на</w>
В ӗсенчен</w>
Бо ри
Ан не</w>
А ра
А ли
? ""</w>
200 9</w>
ӗҫ лекен
ӑ ру
ҫыр ла
ҫул не</w>
ҫителӗ клӗ</w>
ҫи тет</w>
ҫи мелле</w>
Ҫ ем
ыт лаш
ывӑлӗ сенчен</w>
шут ла
шанчӑ клӑ</w>
ш него</w>
ш ему</w>
чӗл хипе</w>
ча й
ча ет</w>
ч илось</w>
ч ением</w>
ц вет
хӑй пе</w>
хӑ ю
ха вас
х ло
ф ар
укре п
у па</w>
тӗ т
тӑ нине</w>
тти м</w>
те ш
тара нах</w>
та рах</w>
сӑ рӑн</w>
сӑ к</w>
стра не</w>
сторо н</w>
сторо н
ствен ный</w>
сотру дни
си плен
семь и</w>
сан ах</w>
са д</w>
ру ках</w>
ру ками</w>
рах па</w>
район та</w>
р ӗмӗр</w>
пултар уллӑ</w>
пула ҫҫӗ</w>
процен та</w>
проек тов</w>
продук ции</w>
приш лось</w>
при няли</w>
при е
пре пода
поч ти</w>
посту пил</w>
поль зу
под ле</w>
памя ти</w>
отц ам</w>
орг анами</w>
од ному</w>
о чно</w>
ну лся</w>
но вля
нечи сто
не с
маст ӑн</w>
мал лах</w>
май лӑ</w>
лу к</w>
лен ные</w>
кӗр тме</w>
коллек ти
кер мен
ке л</w>
калӑ пӑ
кай сан</w>
к лан</w>
й ӗн
й тесь</w>
й сен</w>
ию ня</w>
ит ле</w>
ирӗ ке</w>
ир текен</w>
информа ци</w>
имен но</w>
имен ем</w>
иле ҫҫӗ</w>
и ш
и ться</w>
зи и</w>
жре би
жерт ва</w>
женщи н</w>
же лез
ждунаро д
жа емые</w>
ду х</w>
доб ро</w>
дире кто
гро м
гото вить</w>
го р</w>
га х</w>
г ли
г ласа</w>
г ани
г ала</w>
вш его</w>
во ю</w>
во сть</w>
ви тӗм</w>
ва шей</w>
ближ него</w>
б рать</w>
ар мии</w>
Э лек
Христо с</w>
Те перь</w>
Тво и</w>
Тво е</w>
Т ӳ
С тар
Руви мо
Пу сть</w>
На пример</w>
Муска в
Ме л
Культу ра</w>
Кан аш
К ир
Иу д
Израиле ва</w>
Иеффа й</w>
И ш
И ави
Екате рина</w>
Авессало ма</w>
1 8
ӳкӗ т
ӑ ста</w>
ҫӗр шывӑ
ҫыхӑн у</w>
ҫур чӗ</w>
ҫу мӗнче</w>
ҫил лен
ҫи тӗ</w>
ҫи н</w>
ҫамрӑ ксен</w>
ё м</w>
ян вар
я рӑп</w>
ющи хся</w>
ющ ее</w>
ющ ая</w>
ю хан
ща я</w>
шут лана
ччен хи</w>
чу ж
чис лу</w>
чи т</w>
ч ные</w>
ч ного</w>
ц ем</w>
хӗрарӑ ма</w>
хӗ сӗр
хушшӑр та</w>
ху м
хо ть</w>
халӑх ӗпе</w>
фо ру
фе р</w>
фа р</w>
ф у
ут ру</w>
услови я</w>
уйӑх ӑн</w>
у сем</w>
у лице</w>
тӑтӑ шах</w>
тяже ло</w>
тя нин</w>
тя ж
тыт ма</w>
ты с</w>
тухӑҫ лӑ</w>
тух рӑм</w>
тупӑ ш</w>
ту слӑ</w>
ту пал
требо вани
ти ш
ти ться</w>
ти ка</w>
тар ҫисене</w>
т кӑ
сӑв ӑ</w>
согла с
со по
сле д</w>
семей ствам</w>
священни ксем</w>
связ и</w>
сво е
сасс и</w>
само го</w>
са ма</w>
са кӑр</w>
с ат
ро ль</w>
регули ру
реализа ции</w>
рас хо
район ной</w>
раз ре
ра но</w>
пӑрахӑ ҫ
пух са</w>
пти ц</w>
про ти
про ис
про долж
при готов
представи тель
поряд ке</w>
под ар
по ру
пат ӑр</w>
пат ься</w>
палӑрт рӗ</w>
п ро</w>
от кров
оста ется</w>
ос во
од ним</w>
обрат но</w>
о мы
о крест
насле дие</w>
нар у
напи сал</w>
на йти</w>
н ать</w>
мӗ сене</w>
мӑ шӗ</w>
мух тан
моло дой</w>
ми ть</w>
ме сессӗн</w>
лӗх ӗн</w>
лӑ п</w>
лӑ лла</w>
ле пе
ларт малла</w>
лай те</w>
ла р</w>
ла га
кӳн те
кӗре кен</w>
кун тан</w>
кон цер
ком му
кач чӑ</w>
каж дом</w>
к хо
йӑ р</w>
ию ля</w>
ис следо
ин но</w>
имен а</w>
ик ҫӗр</w>
из брал</w>
и сем</w>
зна м
зако ном</w>
за мен
з ара</w>
жи в
же м</w>
еф а</w>
ем ати
ду ше</w>
дра а
до м
ди и</w>
ди ви
деву шка</w>
да в</w>
д р</w>
гря з
го ся</w>
г ум
г ал
вӑр лӑх</w>
вырӑн тан</w>
выпол ня
выпол н
вос пит
воз лия
во рачи
во ла</w>
вер х
вал ь
в лен
буд то</w>
бере гу</w>
ам мон
Э хер</w>
Че рез</w>
Фили сти</w>
Фамар ь</w>
Ф ир
У ва
Турӑ ран</w>
Тат ар
Со кхо
Сар ра</w>
Пӗр рехинче</w>
О ле
Никола евна</w>
Н аро
Ме ра
Л от</w>
Л о
Израил ю</w>
Из рее
Заву лон</w>
З ем
Е ве
Василь ев</w>
Вас или
Амно н</w>
А драа
7 1</w>
5 7</w>
20 18</w>
ӳ се
ӗҫчен ӗсем</w>
ҫӑ л</w>
ҫывӑх ӗнчи</w>
ҫ сене</w>
явля ются</w>
я с
ыйтӑ ва</w>
шу й
ши те</w>
ше сты</w>
ше н</w>
ш ись</w>
ш ате
ш ала</w>
чу ра</w>
чик ки</w>
че сти
цар ство</w>
хӗр ринчи</w>
хӑ тӑ
хра ма</w>
ходи те</w>
хват тер
хал ал</w>
фестивал е</w>
федера ци</w>
уҫ нӑ</w>
ус или
ун ччен</w>
ум ы
уби й
у сер
у м</w>
у ве
тӗр не</w>
тӑр ччӗ</w>
тӑват ҫӗр</w>
тӑ ш</w>
тух ӗ</w>
турт тарас</w>
ту сем</w>
треть его</w>
ти не</w>
тах ҫан
т ка</w>
т енине</w>
сӳ тсе</w>
сӑл тав
сцен а</w>
ступ ать</w>
сто ло
сте ть</w>
стан авли
сообщи л</w>
со ва</w>
сла в</w>
сердц ем</w>
сем я</w>
сарла кӑ
рӑ с</w>
руко ю</w>
рас шӑн</w>
работ али</w>
ра т</w>
пӗҫер нӗ</w>
пӗл нӗ</w>
пӗ тсе</w>
пӑ ру
пытан са</w>
прошло го</w>
процен чӗ</w>
про вод
прия ти</w>
помога ет</w>
поло жить</w>
пой дите</w>
пож ар
пись мо</w>
пе л</w>
пар ни
пал ь
па т</w>
па рат
от пус
остан ется</w>
остав или</w>
од ном</w>
ог не</w>
об раз</w>
о сен
нӗ шӗн</w>
нӑ ранпа</w>
настоя щее</w>
моло ка</w>
мо лит
ми мо</w>
ми кро
ме то
май сем</w>
лат пӑр</w>
ла ша
ла ш</w>
куҫ са</w>
кур ман</w>
коман д
кил те</w>
кан сене</w>
камен ь</w>
ка ет</w>
к аться</w>
йӗ пе
истре би
илищ а</w>
ил тӗн
ил мелле</w>
ил ей</w>
ил е</w>
зем ля
зд ра
за бы
жд ение</w>
жа ет</w>
друго м</w>
дол го
детя м</w>
держ ать</w>
дво ра</w>
дале ко</w>
д аро
голо вы</w>
вӗҫ се</w>
вӑрт тӑн</w>
высо ко
вы йти</w>
вы бо
вил ӗм</w>
вз гля
вед ь</w>
ве ки</w>
вани ем</w>
вал ась</w>
в чера</w>
в ана</w>
буду щем</w>
бо я
благо ух
бес поко
б ав
атӑ р
атель но</w>
ат а
асӑр ха
арӑ р</w>
аморрей сен</w>
ал им</w>
а ҫу</w>
Я н
Х ет
Фи не
Федера ци</w>
Тур рӑмӑр</w>
Те н</w>
Пӗл тӗр</w>
П од
О чень</w>
Ни на</w>
Ми х
Леони д</w>
Кур с</w>
Египе та</w>
Де ти</w>
Вален тина</w>
В ане
Адо ния</w>
А сир</w>
.. .
ӗ ме</w>
ҫӗршыв ра</w>
ҫи ти</w>
ҫи тей
ҫа вах</w>
шест ьдесят</w>
шай ра</w>
ша н</w>
чӳ ре
чу ть</w>
чи вать</w>
четыре ста</w>
ча са</w>
хӗр сем</w>
хӑвӑр ӑн</w>
хӑ рт
хуп са</w>
ху рӑн
хра м</w>
хисе плӗ</w>
хи сем</w>
фер ен
фа куль
ф и</w>
упра са</w>
уйӑх ра</w>
тӳр ре</w>
тӳле в
тӑш ман</w>
туян нӑ</w>
тут лӑлла</w>
тен и</w>
те ть</w>
таса мар
тар сан</w>
тапӑ ра</w>
та ран
сӑрт ран</w>
сыпӑ ка</w>
сти хо
ствен ных</w>
стать я
со р
смо треть</w>
сме шан
сла ва</w>
семе й</w>
са й</w>
с чи
с му
ря ть</w>
рт нӗ</w>
роди телей</w>
резуль тат
ребен ка</w>
ре с</w>
раз дра
работ ников</w>
работ ала</w>
р ю
пӗтӗм ле
пӑрӑн са</w>
пӑ н
пуҫ тарнӑ</w>
пус са</w>
пур ччӗ</w>
пул ь</w>
при бы
предприяти я</w>
пр ило
подоб но</w>
по ш
по треб
по л</w>
пи тал
перио д</w>
пат рио
очи стит</w>
об уч
об а</w>
о ка
нӑ й</w>
ни ться</w>
ни ку</w>
на шли</w>
на чар</w>
на го
муж ч
моло ко</w>
мл н</w>
мир е</w>
миллиар д</w>
маршру там</w>
мар ччӗ</w>
ли вать</w>
кӳр ӗр</w>
кӗн ек
кӗ тӗ
кӑлар ма</w>
кур сан</w>
ку к
круп ного</w>
конкур се</w>
ком пози
ком мун
колхо з</w>
кир лине</w>
ке т
кай ӗ</w>
ка пла</w>
к ӗнче</w>
йӑ ли</w>
йыш ӗнче</w>
иу дей
име ет</w>
ил сен</w>
ил ом</w>
ик сӗ
избави л</w>
зо в</w>
з ре
з ал
ж ут</w>
ж ила</w>
ем ых</w>
еже дне
е щё</w>
дь те</w>
де р</w>
де лай</w>
д ли
д или</w>
гре ха</w>
га я</w>
г нал</w>
вӗ семшӗн</w>
вырӑнаҫ нӑ</w>
влад ение</w>
ваш е</w>
бор ь
бли жай
благоух ание</w>
ач аль
арӑ ма</w>
ал липе</w>
Ю р
Ш кул</w>
Хоро шо</w>
Ханаан ской</w>
Х от
У р
Сар у
С реди</w>
С ка
С Х
Республи кӑра</w>
Пу тин</w>
П ӑ
Никола ев</w>
Наф ан</w>
Н ой</w>
Ме сопо
М ос
М асси
К ӗҫ
Ен ри</w>
Благо дар
Ар но
Анге лӗ</w>
6 3</w>
ӳстер ме</w>
ҫӳл ти</w>
ҫӳл лӗ
ҫун ат
ҫу на
ҫара мас
Ҫ ывӑ
япал ана</w>
юл та
э та
ье вич</w>
ытти сем</w>
ылхан лӑ</w>
шӑ п</w>
шер сти</w>
шате р</w>
шал ти</w>
чул па</w>
чуваш ские</w>
чи сене</w>
част ью</w>
ча ю</w>
ци йӗ</w>
цар ствовал</w>
ц ам</w>
хӗҫ пе</w>
хӑруш сӑр
хӑ юл
хушӑ ра</w>
хус кал
хулар и</w>
хра нить</w>
фи ка
ут мӑл</w>
ус т</w>
урӑх ла</w>
умӑн тан</w>
умер ли</w>
тӗп лӗн</w>
тӑрӑш нӑ</w>
тӑ нӑҫ
тя т</w>
ты вать</w>
тух тӑр</w>
тим лӗ</w>
тил ҫе</w>
тивӗҫ нӗ</w>
тат ься</w>
талан т</w>
сфер е</w>
сто лько</w>
стихо твор
ст е</w>
соответ ству
служби н</w>
сло вом</w>
си м</w>
си ен</w>
священни ков</w>
сал так
саккун ӗпе</w>
с рав
с ке</w>
род ился</w>
ро ду</w>
рас кры
ра ж
ра бами</w>
пӗл терекен</w>
пулӑша кан</w>
пулӑ п</w>
пул марӗ</w>
прият ное</w>
посе л
пос пе
пос л
получ или</w>
пока зал</w>
по сти
по е
по бы
пиллӗ к
пил ӗк
па чах</w>
п ра</w>
отпусти л</w>
отме тил</w>
откры л</w>
ост ался</w>
осво бо
организаци й</w>
одно летних</w>
обла ко</w>
об ман
о пас
о гор
ника ма</w>
ни ччен</w>
ни це</w>
ни те</w>
ни кӗс
не счаст
на шим</w>
на блю
мӗш ӗнчен</w>
мӑр тан</w>
мӑ п</w>
муже й</w>
мо щ
мн ению</w>
мла ден
ми до
мет р</w>
мер ӗм</w>
ме ре</w>
ме ра</w>
ме й
ма ди
мади ан
люб ви</w>
лы е</w>
леш ӗсем</w>
лет нӗ</w>
кӑсӑк лан
кӑмӑл не</w>
кӑлар ӑ
кӑ ҫ
кӑ м</w>
курӑн нӑ</w>
кров ью</w>
комп ани
колен о</w>
ки но
каҫ нӑ</w>
калан и</w>
кал арӑм</w>
ка мӑн</w>
к енӗ</w>
йӗр е</w>
зави сит</w>
ем е</w>
е ё</w>
друго му</w>
до но
ди ю</w>
ди тся</w>
да т</w>
д вести</w>
д ала</w>
д ал
гра мо
государствен ных</w>
господ ину</w>
га ран
г рес
вя з
вши йся</w>
возь мите</w>
во п
во ору
вз ро
вете ран
вед ение</w>
богат ство</w>
бо к</w>
б ур
ан лӑ</w>
алӑ кӗ</w>
авто бу
а ҫӑ
а вари
а вал
Яковле ва</w>
Э х</w>
Хот я</w>
Хет те
Халь хи</w>
Федера цин</w>
Ува жаемые</w>
У лья
Т ар
Сы н</w>
Симе он</w>
С ур
С ило
Р им
По тому</w>
По сему</w>
П ул
Нефф алим</w>
Н ат
Л ени
Ира ида</w>
И ртнӗ</w>
Египтя не</w>
Витали й</w>
Ве ли
Ат тем</w>
А тӑ
А сӑн
ҫӑ мран</w>
ҫын шӑн</w>
ҫурал са</w>
ҫимӗ ҫне</w>
ҫ сем</w>
я ваплӑ</w>
щи еся</w>
ща ет</w>
чуваш ских</w>
чир ӗ</w>
чир лӗ</w>
ча сов</w>
це лях</w>
це ль</w>
хӑвар ма</w>
хӑва т</w>
хутшӑ на
хупӑр ласа</w>
ху чӗ</w>
ху ма</w>
хо да</w>
хисе пле
хи н</w>
фа т</w>
ф ило
уйрӑ лса</w>
тӗтӗр мелли</w>
тӗтӗр кӗ
тӗс лӗ</w>
тӗн че
тӑрӑ ша
тӑ м
ты р
ту тӑр</w>
ту рӑм</w>
тет ӗн</w>
тен кӗ
те сси</w>
те йӗ</w>
тасат ӗ</w>
сӑма хӗсене</w>
сӑ м</w>
стро й
стоя ли</w>
ст я
со ло
сне тся</w>
сме рт
следу ющий</w>
ска жу</w>
само е</w>
савӑ т</w>
са с</w>
с ран</w>
с пра
с кро
с кере</w>
с ва
ры н
ро дам</w>
ре зе
ре е</w>
раз но
ра сси</w>
пы раҫҫӗ</w>
пурнӑҫ ра</w>
пурнӑҫ не</w>
проро ка</w>
про па
при шла</w>
предприяти й</w>
пред ь</w>
пред мест
пре следо
пре бы
поло жи</w>
полити ки</w>
полити ка</w>
подо шел</w>
по ва</w>
пат тӑр</w>
пасса жир
пал о</w>
пай ра</w>
па ман</w>
п ры
офи циаллӑ</w>
от сюда</w>
орган ӗсем</w>
объ един
об е</w>
о стат
нӑ па</w>
нормати влӑ</w>
не ба</w>
навер ное</w>
на ходя
мӑр та</w>
муниципалитет сем</w>
му д
мен ее</w>
ме ле
мар та</w>
мар а</w>
ман ни</w>
лӗх лӗ</w>
ле ц</w>
ле кен</w>
кӳ р</w>
кӗс ке</w>
кӗр тес</w>
кӗнек инче</w>
куҫ у</w>
клас са</w>
кил ме</w>
кала с</w>
ка кие</w>
йӗрке л
й сене</w>
испол нять</w>
ис че
ил у</w>
из де
за пре
за го
з ве
жи тель
ж ар
е вре
дру ж
досто й
до маш
до лине</w>
дни й</w>
дел али</w>
д нем</w>
гово ри</w>
вӑ тан
вырӑн ӗн</w>
выльӑх ӗ</w>
вы шла</w>
вши хся</w>
вхо да</w>
встан ь</w>
вспо мина
вол ж
во ж
ве л
вале ҫсе</w>
вал ось</w>
в ни
безопас ности</w>
бе жал</w>
б рус
ача сен</w>
асту са</w>
Цар ь</w>
Ун па</w>
Турӑ ҫӑм</w>
Т ра
Сава оф</w>
Рай он
Пуш кин</w>
П ен
О р</w>
Н ет</w>
Му ниципал
Месопо та
Манасси ина</w>
М ем
Кон ститу
Ка ждый</w>
К ӑн
Иес се
Же ла
Ен ӗн</w>
Ев г
Г алина</w>
Во з
Влади ми
Ахи тофе
Авраа му</w>
Авиа фар</w>
А мес
А О</w>
« ,</w>
6 4</w>
5 9</w>
. .</w>
ӳн те</w>
ӗҫ сен</w>
ӗҫ нӗ</w>
ӗн е
ӑ ш</w>
ӑ сем</w>
ҫӗр шыва</w>
ҫӗн ӗрен</w>
ҫын семпе</w>
ҫын ран</w>
ҫывӑх ӗнче</w>
ҫы ру</w>
ҫул хи
ҫу т
ҫил ли</w>
ҫ ара</w>
я чӗсем</w>
я ро
я нина</w>
ытлаш ши</w>
ыл хан</w>
ывӑ лу</w>
ы вать</w>
чуру на</w>
чу нӗ</w>
чу ваш</w>
чи тся</w>
чече к</w>
че ском</w>
чарӑ ннӑ</w>
ча х
ча й</w>
це лью</w>
це ло
хӗрарӑ мӗ</w>
хӗр е</w>
хуш нипе</w>
ху пӑл
хо й</w>
халӑх ӑн</w>
халал ланӑ</w>
ф он</w>
улт ҫӗр</w>
уйрӑ м
удо вле
у шел</w>
у полномочен
у мӑ
у лӑх</w>
у л</w>
туха кан</w>
тупӑ н
тупӑ к
тул лин</w>
ту тлӑ</w>
ту ры</w>
ту й</w>
тре л</w>
тра кто
то ва</w>
ти ю</w>
тере сси</w>
те при</w>
те ку
тар ҫисем</w>
тапхӑр та</w>
тан ах</w>
та вар
сӗ рех</w>
сы ном</w>
су ту</w>
су ран
ступ или</w>
стол бы</w>
статй ин</w>
собра ние</w>
со шел</w>
со тво
со ставля
со вет</w>
случа е</w>
ска жут</w>
сен кер</w>
свет иль
свер х</w>
сарлакӑ шӗ</w>
сам ый</w>
са ссине</w>
ре м</w>
распо ло
работа ют</w>
ра й</w>
ра зра
пӗлет ӗн</w>
пӑра хас</w>
пре ж
пр иле
покол ения</w>
по г
пло ть</w>
пе чен
п ӳ</w>
очи щения</w>
офи циаль
отц ом</w>
отц ами</w>
отме тить</w>
ог ня</w>
обязан ности</w>
обо ро
о хра
о до
ну т</w>
минист ра</w>
меся цев</w>
ме ло
мат емати
м ре</w>
ля ют</w>
ли ччен</w>
ли ц</w>
лет ний</w>
лар т</w>
лар и
ла ра
кӑш т</w>
кӑла ракан</w>
кул лен</w>
ктя бря</w>
ко сти</w>
ко лен</w>
ко вой</w>
ко во</w>
кар са</w>
канди дат
кан сен</w>
кал ӑр</w>
каж дой</w>
ка пит
йӑх ӗн</w>
йӑ ла</w>
йышӑн ма</w>
исполнитель ной</w>
ир тет</w>
ина че</w>
из рек</w>
за х
за п
жен ою</w>
жд ани
ежедне вно</w>
ду ма
допол нитель
до мов</w>
депу та
де ка
де ви
де бный</w>
два дцати</w>
говор ила</w>
го ю</w>
гек тар
г ри
вӑ рӑм</w>
вя тся</w>
вя т</w>
вос фей</w>
води тель</w>
во семь</w>
во к</w>
во в</w>
вил ось</w>
ви де</w>
взя ла</w>
вер х</w>
в предь</w>
в переди</w>
в перед</w>
бюдже тных</w>
бо йся</w>
благосло вен</w>
бизне са</w>
бе ри</w>
б рен
ат ле
аслӑ рах
ани тар
ан е</w>
айӑ плӑ</w>
автомоб иль</w>
абза ца</w>
а пре
а гра
Ш ур
Ш и
Турру н</w>
Тво их</w>
Т ак
Са м</w>
С тан
Реве к
Пуҫ лӑхӗн</w>
Пет ровна</w>
Ми ха</w>
Мем фи
М ӑ
Каде с</w>
Ка а
Исса хар</w>
Ио ав
И ар
Зако н</w>
З на
Египтя н</w>
Е зе
Дави до
Гла вы</w>
Божи я</w>
Ача сем</w>
Асӑн нӑ</w>
Анд рей</w>
Ага ф
Авен ира</w>
А са
А гар
ӗҫ ӗсем</w>
ӑш ӗнчен</w>
ӑмӑ рт
ҫӳ ре</w>
ҫӗршывӑ н</w>
ҫӑ лӑ
ҫыр ли</w>
ҫын сенчен</w>
ҫы рӑн
ҫы пӑ
ҫул хине</w>
ҫул сем</w>
ҫу х
ҫу па</w>
ҫу лах</w>
ҫи йӗ</w>
ҫапӑҫ нӑ</w>
я че
я тӑр</w>
юл чӗ</w>
эр не</w>
э л
ь ян
ыр лӑх</w>
ы тар
ы рат
щ ер
ша ется</w>
чӑн нипех</w>
ци ф
ци а
хӗ л</w>
хӑ тӑл
хуй хӑ</w>
ху рал</w>
хозяй ство</w>
хват а
хатӗр леме</w>
фун к
филистим сем</w>
ф ь</w>
участо кӗ</w>
уйӑр нӑ</w>
у тса</w>
у станавли
у па
у мень
тӑр ӑн</w>
тӑр тат</w>
тӑр рине</w>
тӑва ҫҫӗ</w>
тӑ ччӑр</w>
ту ни</w>
ту ман</w>
ту малли</w>
тивӗҫ ӗсене</w>
ти те</w>
ти мӗр</w>
те тӗр</w>
те ра</w>
тарас сине</w>
та сси</w>
сых лав
сы п
строитель ства</w>
сто ял</w>
ствен ные</w>
ста да</w>
ст сен</w>
ст вах</w>
ско ро</w>
ска жите</w>
се ти</w>
священни ки</w>
свят илище</w>
сар са</w>
савӑн са</w>
са ми
с ин
с ви
ров ания</w>
ри сен</w>
рам ках</w>
райо нов</w>
рабо чих</w>
пӗлтер се</w>
пӗл тӗр</w>
пӗл тер</w>
пул нипе</w>
прош ло</w>
про вести</w>
прине сти</w>
при ез
при вет
пред ме
пре сто
пре зиден
постоян но</w>
помо чь</w>
пома з
пер вых</w>
патш ара</w>
патрио ти
пал лӑ
п у</w>
п ани
от прав
об на
но сить</w>
началь ники</w>
нар я
намӑ с
н ӑна</w>
мо сть</w>
мероприяти е</w>
ме х</w>
маст пӑр</w>
м ри</w>
м мо
лӑх на</w>
лӑ план
ле жит</w>
кӗре ш
кӑ ткӑ
кор руп
кон ферен
комп ью
коло де
ко же</w>
кил еҫҫӗ</w>
кил ен
ки с
каҫ ченех</w>
карти ш</w>
кара п</w>
к ка
к атӑ
й ӑн</w>
ис пы
ис кать</w>
ирӗ клӗ</w>
извест но</w>
изб ав
и ници
и де
зн ание</w>
заве ду
з р
жи м</w>
ж ь</w>
ен ные</w>
ем ым</w>
екен сем</w>
доро ж
доро гу</w>
до ли
дене г</w>
де ли</w>
де лайте</w>
де к
голо в
вӑй ӑ</w>
вырӑн сем</w>
вырт са</w>
вши м</w>
восто ку</w>
возмож ности</w>
внутр енни
вля ть</w>
вил ӗм
вил ь
ви ться</w>
ви дно</w>
вели кий</w>
вдох новля
в рий</w>
бли з</w>
б ас
аш и</w>
ача семпе</w>
ат чӗҫ</w>
аркат са</w>
аль ный</w>
ала са</w>
администра цийӗн</w>
а вӑн</w>
Чуваш ский</w>
Ц е
Хисе плӗ</w>
Х ӗр
Ф о
Уй рӑ
Тво я</w>
Тво ю</w>
Так же</w>
Т ӗрлӗ</w>
Си н</w>
Си мон</w>
Сере жа</w>
Саму ила</w>
С тат
С т
О лимпи
Ново чебоксар
Нефф али
Муска в</w>
Муниципал и
Мо я</w>
Михай ло
М я
Кун не</w>
Констан тин</w>
К ен
Иерусали ме</w>
Ви ҫҫ
В яче
Ар хи
Ан то
Ам ми
А рӑ
А д
7 3</w>
5 6</w>
/ ,</w>
ӗр че
ӑ ста
ҫӳре кен
ҫӗршыв ри</w>
ҫӑ вӗ</w>
ҫыр ла</w>
ҫын нӑ
ҫы рӑ
Ҫа в
я тӑм</w>
юл таш
юб илей</w>
ю хӑм</w>
эко логи
э ле
ылтӑн ран</w>
шӑр шӑ</w>
шухӑш ласа</w>
шу т</w>
ша ют</w>
ш ке</w>
чӗр ӗл
чик се</w>
четы р
чере т
чен о</w>
ч ным</w>
ч ку</w>
ч ана</w>
це ю</w>
цве ты</w>
хӳт лӗх</w>
хо те
хоте лось</w>
хо ди</w>
хвата ет</w>
ха пӑл</w>
фото графи
ф ы</w>
учи ть</w>
упо треб
ул тав
уйӑ рӑ
тӗп пи
тӗ кӗн
тӑрӑ шать</w>
тӑван ӗсем</w>
тя ну
тре во
тр я</w>
то ю</w>
ти ви
ти ве
те рт
твер ды
тасат малла</w>
тара сси</w>
тар чӗҫ</w>
тар ни</w>
та вар</w>
т тӑм</w>
т али</w>
сӑмах ран</w>
сӑ рӑх
сыпӑ кран</w>
сун атӑп</w>
сулаха й</w>
судь ба</w>
социаль ной</w>
созд ать</w>
совмест но</w>
со кру
си ттим</w>
сер ен
связан о</w>
само м</w>
са я</w>
са х
с читать</w>
ри м</w>
рей тин
распро стра
рас шир
рас сказал</w>
раз уме
раз ве</w>
рав ни
пӳлӗ ме</w>
пы малла</w>
пул ӑн</w>
пу шар</w>
пу тем</w>
производ ства</w>
произ ведения</w>
програм ма</w>
про жи
прино сите</w>
принадле ж
при ходил</w>
постав или</w>
пораз или</w>
поза ди</w>
подножи я</w>
под ни
под ви
по са
пер вом</w>
пен си
па халӑх
п или</w>
откров ения</w>
от куда</w>
опу сто
образо вание</w>
о казывается</w>
о дина
нуж ны</w>
неде лю</w>
не бо</w>
наш ему</w>
на шем</w>
муж чина</w>
муж чин</w>
мо ря
мо ро
ме ча</w>
ме ть</w>
мастер ство</w>
ма шина</w>
м ый</w>
м ур
м п</w>
лӗ сене</w>
лӑп кӑ</w>
ля ми</w>
ля ется</w>
ль я</w>
ль ный</w>
лы м</w>
леви тсене</w>
леви т</w>
ла к</w>
кӑш кӑр
кӑ ма
кӑ вак</w>
ку сем</w>
ку нах</w>
кру гом</w>
коро т
комис сии</w>
ком бай
коз ла</w>
ко вых</w>
клас ра</w>
кай тӑр</w>
кай рӑм</w>
ка ш</w>
ка стар
к ре</w>
йӑ м</w>
исклю чить</w>
информа цион
ин жен
ил чӗҫ</w>
ил тсе</w>
ил ем</w>
иккӗ шӗ</w>
и тся</w>
зе лен
зат ем</w>
запове дую</w>
зако ны</w>
за муж</w>
журн ал
женщ ину</w>
жа й</w>
еф ы</w>
ек енӗ</w>
е мого</w>
друго е</w>
ди шь</w>
ди м</w>
ди а
две ри</w>
д рев
грам м</w>
государствен ный</w>
говори шь</w>
глу б
гим на
ги й</w>
вӗрен тнӗ</w>
вӗрен текен
вырӑн сене</w>
вы раст
возвра щ
взя в</w>
взро слы
ве дет</w>
в па</w>
б ер
асӑр х
ани ем</w>
ал лу</w>
Э тот</w>
Ш кул
Хы пар</w>
Хо ть</w>
Тур рине</w>
Сӑ мах</w>
Са до
С ири</w>
Республи кӑри</w>
Пет рович</w>
О ли
На хо
Мо им</w>
Манасси ян</w>
Мади ани
М но
Ко л
К В
Й ывӑ
Иерихо на</w>
З ат
Егип те</w>
Ев ро
Е вре
Гово рят</w>
Гава он</w>
Вӑ хӑ
Вала ама</w>
В ена
Аш шӗ</w>
Ан ху
А ра</w>
А ль
0 00</w>
! ""</w>
ӳстер нӗ</w>
ӳкер чӗ
ӳкер нӗ</w>
ӳ т
ӗҫ се</w>
ӑн сӑртран</w>
ҫӗр ӳ</w>
ҫӗнтер ӳ
ҫырла х
ҫын ну
ҫывӑх ар
ҫун са</w>
ҫулхи сенчен</w>
ҫул талӑк</w>
ҫит мен</w>
ҫамрӑ ксем</w>
ҫавӑр нӑ</w>
ҫа п</w>
Ҫӗн тер
Ҫы н</w>
эр не
ь ет</w>
ыйту сене</w>
ща ют</w>
шӗ л
шӑр шӑ
шӑ мат
шку ла</w>
чӑваш сен</w>
чы ла
чен ных</w>
че ская</w>
ч о</w>
ч ился</w>
ч аться</w>
ц иллӗ</w>
ц а
хы п
хула сене</w>
худо ж
ху малла</w>
ход ила</w>
хен е</w>
халӑх сен</w>
х ӗн
физ и
уя ва</w>
уш кӑн</w>
услы шав</w>
уров ень</w>
улт тӑмӗш</w>
ук ло
убе жал</w>
у сь</w>
у доволь
у дела</w>
тӗлӗн мелле</w>
турӑ сене</w>
тулаш не</w>
туй са</w>
ту м</w>
трудо люби
тру па</w>
тран спорт
тра ктор</w>
ти м</w>
тен кӗпе</w>
те чение</w>
тавра ри</w>
та ким</w>
т ные</w>
т ала</w>
сӳ н
сых лан
ста кана</w>
соревно вани
солн ца</w>
со сед
со ору
со бой</w>
слы шал</w>
следу ет</w>
си сӗн
сени и</w>
сен ех</w>
сво ею</w>
самы х</w>
савӑнӑҫ лӑ</w>
са пал
с ать</w>
рӑ сем</w>
ры но
реги о
ре ализ
ран ьше</w>
ра в</w>
пӳ рт</w>
пӗр тен</w>
пӗр лехи</w>
пӗл мест
пы л</w>
пусты ню</w>
пурӑн малла</w>
пунк та</w>
пу хӑ
проро ков</w>
про ве
приним ать</w>
при ходи
предо став
предмест ья</w>
пре крас
пре кра
правиль но</w>
пр или
пон ра
полу чить</w>
по не
по мидо
по ме
по вин
пиллӗк мӗш</w>
пил ленӗ</w>
патшалӑх ӑн</w>
пар ень</w>
пан и</w>
п ӗн</w>
п лен</w>
оши б
отро ка</w>
от да
орган ӗсен</w>
опы т</w>
ност ями</w>
но г</w>
но вым</w>
но вы</w>
никӗ сӗ</w>
ника кой</w>
не давно</w>
нау к</w>
напол нен
на шими</w>
на ше</w>
на сы
н ӗр
мӗн чен</w>
мӗн пе</w>
мӗн лерех</w>
мӗ с
муз ей</w>
мин ь</w>
ми ю</w>
ми на</w>
мен т</w>
мел кого</w>
мал о
м сен</w>
м аться</w>
лӑх ах</w>
луч ших</w>
ло й</w>
ли сен</w>
лени ям</w>
ле то
ле е</w>
ла рать</w>
кӗр сессӗн</w>
кӗ тӳ
кӗ тӗм</w>
кӗ мелли</w>
кон це
кон ф
ко вым</w>
кни ги</w>
кас ы</w>
кар тин
кан у</w>
кам нями</w>
кам ни</w>
кад иль
ка ят
йӗ л
исчис ление</w>
ир сӗр</w>
ил ес
иг ры</w>
и сене</w>
и мо
и и</w>
заме тно</w>
законодатель ством</w>
за сед
жиль я</w>
живу щих</w>
жи й</w>
жерт в</w>
же шь</w>
жд ения</w>
ж ении</w>
друз ья</w>
дерев нях</w>
дерев ня</w>
действи тельно</w>
гра н
голу бой</w>
газе ты</w>
вӗҫ лен
вӑр ҫ
вӑр ман
вӑ па</w>
выра щи
вый дет</w>
вся кое</w>
воз гла
виҫҫ ӗр</w>
вер но</w>
ва в</w>
в ше
в ный</w>
буду щее</w>
бо л</w>
благослов ение</w>
бизне с</w>
би о
бе ль</w>
асӑр хат
ал у</w>
Я ков</w>
Я д
Элек ҫ
Э ти</w>
Э та</w>
Чебоксар ского</w>
Хи рам</w>
Тур рӑн</w>
Тур ри
Тво ему</w>
Тво ей</w>
Сӑ мах
Су дебный</w>
Со вет</w>
Се мей</w>
Са док</w>
С обра
С мо
С ла
Ру фь</w>
Республи кинчи</w>
Пӗр ремӗш</w>
Пет ров</w>
Патш алӑх
Пав лов</w>
П ра
П ире</w>
П К</w>
Ну май</w>
Ноемин ь</w>
На вал</w>
Н ар
Мо ава</w>
М ур
Ли дия</w>
Ка я
К ры
К ор
К ат
Ионаф ана</w>
Израиль ский</w>
Иес сей</w>
Иеро ва
Ие фон
И рина</w>
И ли</w>
Зат ем</w>
Зако на</w>
Есе вон</w>
Е но
Е ммо
Гра ждан
Господ них</w>
Вифле ем</w>
Вена дад</w>
Ва аса</w>
Б аш
Арка дий</w>
Анато лий</w>
А стар
А ро
6 6</w>
200 8</w>
% .</w>
ӗ л</w>
ӑҫ тан</w>
ӑсат нӑ</w>
ӑн ланса</w>
ӑ пӑр</w>
ҫӳре т
ҫӗр шы
ҫынни семпе</w>
ҫу рӑ</w>
ҫу ран</w>
ҫимӗ ҫе</w>
ҫи т</w>
ҫи йӗн</w>
ҫем ь
ҫарамас не</w>
ҫапӑ ҫу</w>
ҫавӑн шӑн</w>
ҫав нашкал</w>
япала сене</w>
ялан хи</w>
я нин</w>
я лӗсем</w>
юрат ать</w>
ю нӗ</w>
энер ги
элек три
ща ется</w>
шко лах</w>
чӗн терсе</w>
чӗл хене</w>
чӑр ман
чун ӑм</w>
чув ству
чисто го</w>
че е</w>
ч ени
це р</w>
хӑр мӗш</w>
хыҫ ӗнчен</w>
хуш атӑп</w>
худо же
ху ня
хи сене</w>
халал ласа</w>
х инче</w>
филистим сене</w>
фа им</w>
уя вӗ</w>
учи теля</w>
установ лен
уви дит</w>
ува жа
уби ть</w>
у каз
у зна
у ется</w>
у д</w>
у годно</w>
тӳ с
тӗрек лӗ
тӗре клӗ</w>
тя не</w>
тыт кӑна</w>
туян ма</w>
тух сан</w>
тумтир ӗ</w>
тран спорт</w>
тон на</w>
то т
техни ку
тер чӗ</w>
теле ви
те йӗр</w>
тар ҫи</w>
таврӑн сан</w>
супру га</w>
суй ланӑ</w>
суй лав
су шен
су хал
старей шина</w>
ст ес
сою з</w>
сме р
служ бу</w>
служ ан
слу жа
систем ы</w>
сель ской</w>
сегодня шний</w>
сде лан
сал так</w>
саккун не</w>
с че
с пать</w>
с мир
с ило
ря да</w>
рус ском</w>
ру ра</w>
род ились</w>
ро ст</w>
расска зыва
раз мно
ра ма</w>
р тан</w>
р д</w>
пуҫ а</w>
пурӑнӑҫ ласа</w>
пулта ракан</w>
пула с
пу сӑ
пу ринчен</w>
прико снется</w>
при ори
при нять</w>
председате лӗ</w>
посту па
поло жени
побе жал</w>
по утру</w>
плат ы</w>
пир ӗнтен</w>
пан ӑ
палӑр такан</w>
очере дь</w>
от ли
осуществ ления</w>
олимпи а
одо ле
о собенно</w>
ня т</w>
нума йӑшӗ</w>
номи на
неу жели</w>
не которых</w>
н ран</w>
мух тава</w>
музы каль
муже м</w>
му т</w>
му л</w>
мо но
мо ем</w>
мл рд</w>
министер ствин</w>
ми ром</w>
мел кий</w>
ме ждународ
мат о
мар ӑн</w>
ма с</w>
ма кӑр
лӗ к
ль д
лиц у</w>
ли я</w>
ли к</w>
ли к
лек нӗ</w>
ле в
лат са</w>
лат нӑ</w>
кӑмӑ ла</w>
кӑ рӑ
кӑ нӗ</w>
курӑн са</w>
ку рать</w>
кре по
которы ми</w>
кло н
кил ӗ
кил нине</w>
кани ку
кай рӗҫ</w>
йӗрӗ х
йӗр се</w>
йы ш</w>
й ди</w>
ис ку
ирӗ кне</w>
ирт нине</w>
ино гда</w>
иници ати
измен ения</w>
и е
и до
и дешь</w>
зо м</w>
здоров ье</w>
за ции</w>
за плат
з ла</w>
журн алист</w>
жен ные</w>
ж ные</w>
ет чӗ</w>
е лей</w>
ду шев
до вать</w>
дека бря</w>
де мо
гу ю</w>
государ ства</w>
голо ве</w>
го сти</w>
го н
го дах</w>
ги вать</w>
газе та</w>
га зи
га ет</w>
г но
г али</w>
вӗле р</w>
вӑй йи
вой на</w>
во до
вла ҫ</w>
вла деть</w>
вил мелле</w>
вер блю
вед ений</w>
ва ра
в за
бу дьте</w>
бро сил</w>
боле зни</w>
бо ялся</w>
б аш
аталан тарас</w>
аст ӑ
ас ли</w>
арӑ мӗн</w>
ар ҫынна</w>
ад во
абзац ем</w>
а ка</w>
Э дом</w>
Филистим сем</w>
Турру на</w>
Со ю
Се ир</w>
С тро
С начала</w>
С лу
Росси й
Пы сӑк</w>
Пу р</w>
О О
Наро д</w>
Мос ков
Мини стер
Л ит
Казан и</w>
КВ Н</w>
Иу ди
Иерусали мра</w>
Египе тра</w>
Давид па</w>
Гри гор
Ге ф</w>
Вӗрен ӳ</w>
Ване я</w>
В сех</w>
А н</w>
А й
А вто
А вер
: «</w>
ӳкӗт лесе</w>
ӳкӗ чӗсене</w>
ӗҫле ҫҫӗ</w>
ӗмӗ т</w>
ӗл кӗрей
ӗл кӗр
ӗ шӗ</w>
ӗ семшӗн</w>
ӗ ве</w>
ӑслӑ лӑх</w>
ҫӳре ҫҫӗ</w>
ҫын па</w>
ҫылӑх шӑн</w>
ҫы хӑ
ҫит сен</w>
ҫем й
ҫа па</w>
ҫ ех</w>
Ҫӳлхуҫа шӑн</w>
январ я</w>
я та</w>
ю хӑ
э реш
шӗ сен</w>
шӑ л</w>
шыв ра</w>
шик лен
ши ри
чӗр лӗх</w>
чу рисем</w>
чи сем</w>
чи м</w>
четы рех</w>
чет верт
чар шав</w>
чар у
ча ют</w>
ц ил
хӑ на</w>
хӑ ма
хы ҫҫ
хутӑш тарнӑ</w>
хус кат
хуп ласа</w>
ху та
хран ения</w>
хоче шь</w>
хозяй стве</w>
хо жу</w>
хо ды</w>
хо де</w>
халӑх сене</w>
хал и</w>
х ро
х инчен</w>
фо р</w>
фестивал ь</w>
ф ут
уч илище</w>
удовле тво
уд алось</w>
у ма</w>
у знал</w>
тӑва р</w>
тул са</w>
три ста</w>
тот час</w>
тор го
то п
тин у</w>
ти тся</w>
тет чӗ</w>
терет пӗр</w>
тар ӗ</w>
тап хӑ
танлаш тарсан</w>
т ились</w>
счаст ли
субъек тов</w>
су е
стро й</w>
стре м
стра ш
стра д
сти ка</w>
стви ем</w>
старо сти</w>
стан е</w>
стан дар
ставля ть</w>
ст ран</w>
ст ись</w>
спра ши
споко йно</w>
спо со
специали стов</w>
сол дат
соглас ился</w>
сове то
следу ющие</w>
сла ву</w>
сла в
ско ро
силь нее</w>
си деть</w>
си вӗ</w>
сель хоз
се к
сдел ался</w>
свобод ное</w>
сарӑ лса</w>
сак куна</w>
руко вод
род ного</w>
ребен ок</w>
раз ум
р па</w>
пӗтӗмле тӗ
пя ти</w>
пысӑк рах</w>
пусти л</w>
пурнӑҫ ӗ</w>
профессион аль
про ходит</w>
про ведения</w>
при т
после лог</w>
посе ление</w>
поклон ился</w>
поддерж ки</w>
по свящ
по ворачи
пле рех</w>
пере н</w>
пер се</w>
пер ен
пер вого</w>
пе в
пат ӑн
пар самччӗ</w>
пар нене</w>
пам ять</w>
палӑр таҫҫӗ</w>
пай ӑн</w>
п ӳл
п си
от цы</w>
остан авли
остав ши
окру жа
одеж да</w>
об су
ня ется</w>
но че
ни тся</w>
не чести
настро ение</w>
наро де</w>
намӑ с</w>
навер но</w>
на пра
на и
мӗ не</w>
мӑ к</w>
моло до
мир ную</w>
мел лине</w>
лӗх рен</w>
лӗх пе</w>
лӑх ӑн</w>
лӑх у</w>
ле фе
ле в</w>
лам па
кӗне ке
кӑтарт рӗ</w>
кӑ кӑр
краси во</w>
коми те
ком би
колоде з
килӗш нӗ</w>
кил мест</w>
ке т</w>
кар тофе
канӑҫ лӑ</w>
кан чи
ка кая</w>
к вали
йӗрке лен
йӑх ӗнчи</w>
инвестицион ной</w>
ин ҫе</w>
ин тер
име ть</w>
ил мелли</w>
из бира
и ных</w>
и вать</w>
золо том</w>
зна я</w>
за ку
жреби й</w>
живо тных</w>
жен е</w>
же г</w>
ж ных</w>
е хать</w>
ду хов
дру гую</w>
дро ва</w>
долж ностей</w>
добро е</w>
до ве
дей ствия</w>
де м
де ль
дво е</w>
дал ее</w>
гра фи</w>
ги н</w>
вӗр енӗ</w>
вӑр ман</w>
вы да
вши еся</w>
ву тӑ</w>
вся кого</w>
воп ль</w>
вил е</w>
ви р
вели ким</w>
ве ра</w>
ваши ми</w>
вар ринче</w>
в ру
боль шин
благово ление</w>
аталанӑ вӗн</w>
аро ва</w>
ар ча</w>
ап па</w>
а сӑ
а му</w>
а вӑ
Ял та</w>
Э л
Ы рӑ</w>
Хо ри
Ханане ев</w>
Учи тель</w>
У ри
У ка
У к
Тро фи
Ти мо
Тво им</w>
Т о</w>
Сывлӑ шӗ</w>
С ӗ
Р ас
Президен т</w>
По ка</w>
Пере д</w>
О собенно</w>
Ники фо
Не обходи
Н его</w>
Мор га
Мо жно</w>
Ле шӗсем</w>
Ка ҫ
Ка аф</w>
К осмо
Й ӗ
Ио а
Ил лари
Ик кӗмӗш</w>
Евг ений</w>
Е е</w>
До л
Де во
Д об
Д ень</w>
Г ав
Валери ан</w>
Ва сан</w>
Амали к</w>
Авра ма</w>
А тӑл
А п
А моррей
7 4</w>
6 5</w>
200 7</w>
ӳкӗн ӗҫ</w>
ӳ чӗ</w>
ӗн се</w>
ӗн ех</w>
ӗмӗр лӗх</w>
ӑш шӑн</w>
ӑмӑр тӑ
ҫӗр ӗпе</w>
ҫӗк ленӗ</w>
ҫӑнӑх ӗ</w>
ҫӑн ӑх</w>
ҫых са</w>
ҫур та</w>
ҫулӑ мпа</w>
ҫул серен
ҫу тӑ
ҫитӗн ӳсем</w>
ҫапӑҫ ма</w>
ҫакӑн па</w>
ҫак са</w>
ҫавӑ рса</w>
Ҫу к</w>
япала сем</w>
я чӗҫ</w>
я рӑр</w>
я не</w>
юра татӑп</w>
юл ать</w>
эко логи</w>
эк замен
ь и</w>
щ енни
щ ему</w>
шӑр ши</w>
шӑнкӑ рав
шӑ вар
шут сӑр</w>
шко ла</w>
шест ьсот</w>
ш ком</w>
чӳ к</w>
чӗл хине</w>
чи стым</w>
челове ком</w>
че тся</w>
ча я</w>
ча в
ч ная</w>
ч енӗ</w>
ци ен
ц ом</w>
хӗр ӗсем</w>
хӗр хӗл
хӗрхӗл тӗм</w>
хӗ рес
хӑвӑр т</w>
хӑ ш
хуҫ ӑ
хутшӑн ать</w>
ху ша
хо тят</w>
хатӗр лесе</w>
халӑх у</w>
хай хи</w>
х ри</w>
фор ми
фон да</w>
фе я</w>
учени ков</w>
уча ствовали</w>
ус ал
ура пи</w>
ура пи
ул ы
ул ма</w>
у ҫҫӑн</w>
у споко
у с</w>
у жа
тӳлев сӗр</w>
тӳ р</w>
тӳ перен</w>
тӳ пен
тӗлле вӗ</w>
тӗл лӗн</w>
тытӑ мӗ</w>
тытӑ мне</w>
ту тарнӑ</w>
ту т</w>
ту сассӑн</w>
ту л</w>
тру дно</w>
тр ӗм</w>
то вар
тиш кер
тип се</w>
тивӗҫ терме</w>
территори йӗнче</w>
тен ке</w>
тен е</w>
тапӑ ннӑ</w>
т ирӗ
сӑ пай
ство вания</w>
стат ье</w>
станови тся</w>
ст у</w>
ст ри</w>
ст р</w>
соревновани ях</w>
сол дат</w>
собра л</w>
соблю дать</w>
си пле
си бо</w>
сен тя
сем ью</w>
связан ные</w>
с ур
ру с</w>
рожд ения</w>
рас са</w>
ракан сене</w>
ракан сен</w>
раз говор</w>
радо сть</w>
пӗлтер ме</w>
пӗл терет</w>
пӑ с</w>
пухӑн нӑ</w>
пур ри</w>
пулӑ м</w>
пу тя
промышлен но
произ ведени
про стер</w>
про спек
про ка
при тво
пре до</w>
пра ва</w>
постав ь</w>
помога ют</w>
помаз ания</w>
пома зан
пом ню</w>
полови на</w>
пой дешь</w>
под твер
под нима
повин ности</w>
пове лению</w>
по священ
пир ӗншӗн</w>
палӑ к</w>
от ра
от дела</w>
от ва
ос ла
объек тив
о кна</w>
о ди
о д</w>
ност ях</w>
не ть</w>
не н</w>
не до
началь ника</w>
нач ин
нач ар
нало ж
на пер
на звал</w>
н але
мӑ кӑр
мя са</w>
мы м</w>
музы ка</w>
молодеж ь</w>
множе ство</w>
милли онов</w>
мер зо
мел лех</w>
маль чи
мал та</w>
м семпе</w>
лӗ семпе</w>
люби ть</w>
лок тя</w>
ло к</w>
лен терсе</w>
лар а</w>
ла сси</w>
кӗре ше
кӗ л</w>
кӑткӑ с</w>
кӑтар тать</w>
кӑн тӑрла</w>
кӑ ч</w>
кӑ сем</w>
куҫ не</w>
кур ка</w>
креп кого</w>
конце рт
коль ца</w>
колхоз е</w>
ковче гом</w>
ко вый</w>
клу б
кил тӗм</w>
каҫ ма</w>
кани кул</w>
кал ар
каз ы</w>
ка са</w>
йӗрке сене</w>
искус ство</w>
информа ции</w>
ин ского</w>
иккӗ лен
израиль сем</w>
измен ений</w>
из д
и мен</w>
и дут</w>
зы вал</w>
зна ем</w>
жилищ ах</w>
жез л</w>
же лу
ж ала</w>
ет пӗр</w>
е плерех</w>
е ве
ды вать</w>
дру гая</w>
дере во</w>
де во
дво р</w>
даль ше</w>
д не</w>
город ских</w>
гла вы</w>
гектар ов</w>
выҫ лӑх</w>
вы став
встре ча
вра га</w>
воз не
води т</w>
во лей
во дой</w>
вла ҫӗн</w>
вла сть</w>
вил чӗ</w>
ви ҫипе</w>
ви те</w>
ви дит</w>
ви д</w>
ве ц</w>
ватӑ лса</w>
ва слӑ</w>
ва ем</w>
бы вает</w>
боле зн
боле з
би ться</w>
бес плат
бе сс
бе да</w>
б ре</w>
б ре
ас со
арӑ мӑр</w>
автомоб иль
авто но
ав гу
Я ль
Элекҫ ей</w>
Ывӑ лӗ</w>
Шӑ пах</w>
Че ч
Ч ы
Хӗра рӑм</w>
Ху сий</w>
Ха ма</w>
Х ор
Уйрӑ мах</w>
У я
У полномочен
То бою</w>
Т ӗп</w>
Свя щенни
Саул па</w>
СС С
С ӗн
Раҫҫей ре</w>
Ра и
Пур те</w>
Никола ева</w>
На ву
Моск ве</w>
Мно гие</w>
Мера ри</w>
Мел хо
М ано
Иоса фат</w>
И менно</w>
Гал гал</w>
Г лав
Вас ан
В ре
Б ер
Атӑ л</w>
Аве сса</w>
А лена</w>
/ .</w>
ӳсе кен</w>
ӗҫ пе</w>
ӗҫ лен
ӑ нах</w>
ӑ мсем</w>
ҫӗр ти</w>
ҫӗн се</w>
ҫӑ ра</w>
ҫы лӑ
ҫу ти</w>
ҫити ех</w>
ҫирӗплет се</w>
ҫе н</w>
ҫан талӑ
ҫамрӑ ксене</w>
ҫ ет
Ҫурт не</w>
ё л</w>
ятар ласа</w>
я ет</w>
юса са</w>
юрӑх сӑр</w>
юл тӑр</w>
юл ман</w>
ю ри</w>
экс пер
э рех
шӑ ратса</w>
шухӑш ланӑ</w>
шутлана кан</w>
ши ться</w>
ше ствии</w>
шай ӗнчи</w>
ш ении</w>
чӗр е</w>
чул сем</w>
чу т
чу рине</w>
чу де
чи пе</w>
чер влен
че к</w>
ча сти
ча н</w>
ци сем</w>
цент р</w>
це ли</w>
ц ова</w>
хӗ лне</w>
хӑр тан</w>
хӑвӑрт рах</w>
хӑва рас</w>
хӑ ех</w>
хап хи</w>
халӑ хӑм</w>
халь тен</w>
хал ех</w>
х вали
х вал
фе льд
фа бри
уя в
уш кӑнӗ</w>
учи тель
учи л</w>
уче бы</w>
уча ствовать</w>
уч ился</w>
увиде ть</w>
у мо
у ла</w>
у знать</w>
тӳрем лӗх
тӗр лӗ
тӗрлӗ рен</w>
тӗ тӗм</w>
тӗ пӗ
тӑр сем</w>
тӑван ӗсене</w>
тӑва й
тӑ хӑр</w>
тӑ хӑ
ты мар
турӑ сем</w>
тур рисене</w>
тур ни
ту я</w>
ту тӑ</w>
ту сан</w>
ту маллине</w>
три т</w>
тра ву</w>
то ро
тив шись</w>
ти и</w>
тель цов</w>
тель ность</w>
теат ра</w>
теат р</w>
те кех</w>
татӑ л
тас шӑн</w>
тар ҫине</w>
та ет</w>
т ью</w>
т ли
сӑрӑх тармалла</w>
сӑма хӗ
сӑв ви
счаст ья</w>
су хан</w>
сту пи
стра те
ста раться</w>
срав н
спорт па</w>
собра ли</w>
соби рать</w>
со чин
со м
со вест
сло вам</w>
силь ный</w>
си пе
сен а</w>
сем ья</w>
священни ком</w>
святы ня</w>
связ ь</w>
сал ат
сал ан
сак кӑр
са сӑ
са маях</w>
са кӑр
са ду</w>
с хват
рус ского</w>
роди тели</w>
ри е</w>
реги она</w>
рат чӗ</w>
райо нах</w>
различ ных</w>
ра на</w>
пӗрлеш нӗ</w>
пы рӑп</w>
пуҫла мӑш
пуш хир</w>
пуст или</w>
пус нӑ</w>
пур лӑхне</w>
пулӑша ҫҫӗ</w>
пула сса</w>
пти цы</w>
про сил</w>
принадле жит</w>
при з
при бли
праз д
пра вой</w>
постанов ления</w>
послу ш
под ру
пог реб
по чита
по ня
по вре
по ви
пло хо</w>
пло д</w>
пла кал</w>
пи щу</w>
пи щи</w>
пере шел</w>
пар ӗҫ</w>
пар т
памят ник</w>
от мет
от вра
ос ве
ожи дан
одна ко</w>
обра до
обо их</w>
обеспеч ения</w>
об у
о чах</w>
ны не
нор маль
не при
не пре
настоя щего</w>
на пример</w>
мӑш кӑл
мы е</w>
мор ю</w>
много числен
минист рӗн</w>
минист рӗ</w>
минист р</w>
ми сене</w>
мел ь</w>
ме сле
матери ал
маршру тсем</w>
ман ччӗ</w>
ма сӑрах</w>
ма гази
лӗхӗ пе</w>
лы х</w>
лен ный</w>
лаш кинчен</w>
ларӑ мӑр</w>
лар ма</w>
ла сах</w>
л атӑр</w>
кӳр шӗ</w>
кӗмӗ ле</w>
кӗ ш</w>
кӑтар такан</w>
кӑр ла
куҫ ӗсем</w>
курай ми</w>
кур малла</w>
кон це</w>
комплек с
ко го
кни гу</w>
кни ге</w>
кля т
клу б</w>
ки в
ке др</w>
каш тисене</w>
кар т
кай ӗҫ</w>
к ӳл
йӑ лӑн
инвести ций</w>
ил мен</w>
из берет</w>
и ду</w>
золо то</w>
защи ты</w>
зако ло
зави ся
за работ
за ду
з ме
жи ве
ен о</w>
ен а</w>
е зд
душ ой</w>
дру гу</w>
доро гою</w>
дожд ь</w>
до кто
деву шек</w>
д ре
груп пы</w>
граждан сен</w>
го стей</w>
ге се
вӗ ре
вӑрҫӑ па</w>
вӑ ран
воспи тан
воз звал</w>
вил ес</w>
ви тӗ
ви тсе</w>
вели кое</w>
вели кая</w>
ве ди</w>
в ся</w>
в след</w>
брат ьям</w>
бо л
библиоте ка</w>
бе н</w>
б ю
атте мӗр
аталан тармалли</w>
аталан ма</w>
ар хи
апре ля</w>
ан ӑҫ</w>
аль ные</w>
аль но</w>
ак тиви
айӑ пла
адво кат
агн ца</w>
абзац ӗнче</w>
а чине</w>
Я по
Э ппин</w>
Ыт ти</w>
Ц у
Х у</w>
У рия</w>
Т от</w>
Т е</w>
Стат ья</w>
Со вет
Сиго на</w>
Сво его</w>
С па
С об
Росси я</w>
Рай он</w>
Президен чӗ</w>
Правитель ство</w>
По м
Пи тӗ</w>
Пас ха</w>
Н у</w>
Мал тан</w>
Ма хана
Ма х
Ма ма</w>
Ма ке
М ать</w>
Кӗ лӗ</w>
Куз ь
К ре
К али
Ив ана</w>
И фа
Заву ло
З начи
Ж у
Езе кия</w>
Е ди
Да го
Ге ра
Г еф
Вӑр ҫӑ</w>
Вели кой</w>
Василь евна</w>
В ан
Божи ю</w>
Аморре ев</w>
Ам мон</w>
А сс
А мина
? !</w>
8 5</w>
7 7</w>
7 5</w>
7 00</w>
6 9</w>
200 5</w>
, –</w>
ӗҫле мелле</w>
ӗҫ ӗн</w>
ӑрӑ ва</w>
ӑ нӑ
ҫурт ӗнчен</w>
ҫурт ӗнче</w>
ҫул ти</w>
ҫитмен нине</w>
ҫирӗпле текен</w>
ҫий ӗнчех</w>
ҫий ӗнчен</w>
ҫи ч
ҫар не</w>
Ҫывӑ х</w>
Ҫа кӑн
ял сенче</w>
я лан</w>
юр ра</w>
ю ш
эк спе
ье в
ща ются</w>
шӗ л</w>
шӑршӑ ллӑ</w>
шӑн ччӗ</w>
шӑ рӑх</w>
шӑ ран
шӑ м</w>
шут ӗнче</w>
шут ланӑ</w>
шу р</w>
шанчӑ к
шай ри</w>
ша йӗ</w>
ша йте</w>
ш о
чӑ т
чув ство
чи тате
че ст
че скую</w>
це лый</w>
хуҫ алан
хум хан
хули сене</w>
хоро ший</w>
хокке й</w>
хир не</w>
халӑх ран</w>
хал иччен</w>
ха т</w>
филь м</w>
услы шали</w>
упо мя
ун чченхи</w>
улӑ м</w>
ук су
у ҫ</w>
у слуг</w>
у ж</w>
тӑх хӑрмӗш</w>
тӑрӑ п</w>
тӑрӑ ва</w>
тӑр сассӑн</w>
тӑ рах</w>
тӑ ран</w>
тӑ пра</w>
тӑ мпа</w>
тӑ машкӑн</w>
тя н
ты тӑм</w>
тух рӗҫ</w>
тулаш ӗнче</w>
ту па
тран спор
тон н</w>
тивӗҫ терекен</w>
тере й
те при
те пло
тари фам</w>
тапӑ рӑн</w>
сӑ ра</w>
су млӑ</w>
статья ра</w>
стат исти
ста ди
сред ства</w>
специаль но</w>
спа сени
сохра нить</w>
смо г</w>
слы шали</w>
сена ж</w>
сен о</w>
сельскохозяйствен ной</w>
сель ское</w>
север у</w>
се ре
се лами</w>
свят илища</w>
сва дь
саман тра</w>
саман т
са т</w>
са к</w>
с чет</w>
с правед
с нял</w>
с ведени
росси йской</w>
род ном</w>
ров ание</w>
ро ка</w>
ро ги</w>
ро вали</w>
республи кӑн</w>
режиссе р</w>
регулиру емым</w>
раз о
раз вед
радо стью</w>
работ ники</w>
ра ска
ра нее</w>
пӳ рт
пӗл местӗп</w>
пӗ тер</w>
пӑх масӑр</w>
пӑ т
пы чӗ</w>
пы нине</w>
пшени чной</w>
пус мӑр
пунк т</w>
пулӑшӑ вне</w>
пул тӑм</w>
пу кан
профес сии</w>
произо шло</w>
про доволь
прино сить</w>
прино сит</w>
прино си</w>
прико с
приве ли</w>
при нял</w>
престо ле</w>
преде лы</w>
пред ать</w>
пре пара
поэ т</w>
поч ки</w>
последни й</w>
под нял</w>
по су
по казыва
пис ы
пис ате
пе й</w>
патша па</w>
парти и</w>
пар сассӑн</w>
па я</w>
па дать</w>
п ье
отно шения</w>
осо бо</w>
ор фо
оконч ания</w>
образо ватель
обеспе чить</w>
об о</w>
о ф
о прес
о мо
о ктября</w>
о жесто
нӗ рен</w>
нумай рах</w>
но во</w>
ниц ах</w>
ника кого</w>
ни ке</w>
не тся</w>
националь ной</w>
находи тся</w>
настоя щим</w>
настоя щей</w>
наре к</w>
нар кӑмӑ
нар ек
най дется</w>
называ ют</w>
на шу</w>
на т</w>
на право</w>
мӑ на</w>
мя г
мы ть</w>
мух тав</w>
му ю</w>
може шь</w>
мо сти</w>
мероприяти я</w>
мероприяти й</w>
мас со
ма стер</w>
м рен</w>
лӑх шӑн</w>
ль не</w>
логи и</w>
ле рӗ</w>
ле жа
лаш а</w>
лат ӑн</w>
лан тар
лан ма</w>
кӑсӑ клӑ</w>
кӑн тӑ
кӑва кар
кӑ п
курай ман
кун хине</w>
кун тах</w>
ку раҫҫӗ</w>
кра й</w>
которо му</w>
ко лько</w>
клас сов</w>
кла сси
кла сс
ки не
каче ства</w>
кан ӑҫ</w>
к с</w>
йӗркеле сси</w>
йӗпе н</w>
йӑ лӑ
йышӑ нӑ
йыш лӑ
й ӑна</w>
ист инно</w>
ирт сессӗн</w>
интерес лӗ</w>
ил я</w>
ил у
ил сессӗн</w>
зы ваться</w>
золо тых</w>
зн ания</w>
зн ала</w>
зат ру
заме тил</w>
зада чу</w>
за чала</w>
живо т
жен о</w>
жа я</w>
ж ка</w>
ем ӗн</w>
ем ен
еле я</w>
еди но
е ра</w>
дя щих</w>
достат очно</w>
доро г</w>
доб рые</w>
ди не</w>
дерев ень</w>
двер ь</w>
гре хи</w>
гра ду
горо ду</w>
год ное</w>
го ра</w>
гне вался</w>
ги на</w>
га з
г ло</w>
вӗҫ ӗнче</w>
вӗренекен ӗсем</w>
вӑй не</w>
вӑ йӗ</w>
вырӑн ӗнче</w>
ву ласа</w>
вся кой</w>
воспо мин
воро та</w>
возло жит</w>
во век</w>
вну три</w>
ви ч
ве ру
ве ло
ва ясь</w>
ва ющих</w>
в ского</w>
в са
в ку
бюдже чӗн</w>
благо получи
беззако ние</w>
б ен
ассо циа
апат а</w>
ан па</w>
ан н
али ть</w>
ал лисене</w>
авто номи
а ран</w>
а к</w>
Э н
Шупашкар а</w>
Ха мӑр</w>
Фине ес</w>
Ф ер
У т
Тӗ с
Се бе</w>
Свет лан
ССС Р</w>
С илом</w>
Рово ам</w>
Р ы
Пуш кина</w>
П ис
П алӑ
Оте че
От ца</w>
О ф
Ни кто</w>
Необходи мо</w>
Н ам</w>
Мо ю</w>
М ного</w>
Лен ин
Кабине чӗн</w>
Исса х
Иса ия</w>
Иоси фу</w>
Иоси фо
Е ла
Ду х</w>
Да же</w>
Гав р
Вӑхӑ т</w>
В ур
Боль ше</w>
Благодар я</w>
Ан ан
А х</w>
А кат
ӳ сет</w>
ӳ сен</w>
ӗҫ теш
ӗмӗр ӗ</w>
ӑнлан тарса</w>
ҫӑ лса</w>
ҫыпӑ ҫ
ҫутат кӑ
ҫук кине</w>
ҫит нине</w>
ҫимӗ ҫ
ҫиел ти</w>
ҫи терме</w>
ҫар ӗ</w>
ҫамрӑ к
ҫакӑн са</w>
ҫак нашкал</w>
ял тан</w>
язы ком</w>
я ч
я рас</w>
я вился</w>
юса в</w>
ю р</w>
ю п
ю на</w>
ю лӗ</w>
ывӑлӗ пе</w>
щи на</w>
ще гося</w>
щ ую</w>
ш ению</w>
чуваш и</w>
чи ваться</w>
чер к
чатӑр ӗнче</w>
ча к</w>
ч ре
ч ное</w>
ч ирӗ
хӑюл лӑ</w>
хӑ тлӑ</w>
хӑ тарнӑ</w>
хы р
хуп ӑ</w>
хула сенче</w>
ху рт</w>
хоро шее</w>
хокке й
ход я</w>
хле бом</w>
хисе п</w>
хир ти</w>
харак тера</w>
хал а</w>
ха са</w>
ха кан</w>
х ӗҫне</w>
финан со
учрежд ений</w>
учи тель</w>
ут ро</w>
установлен ном</w>
успе хов</w>
управ лени
универси тет</w>
уми ра
умерт вил</w>
улиц у</w>
уди ви
убе жи
у ши</w>
тӗрӗсле в</w>
тӑрӑ шу
тӑрат пӑр</w>
тӑ ру</w>
тӑ рай
тӑ на</w>
ты тать</w>
туха с</w>
ту нӑшӑн</w>
ту лӑх</w>
тти не</w>
тет пӗр</w>
тере тӗп</w>
теп ло</w>
те мелле</w>
те ле</w>
творче ства</w>
тат пӑр</w>
тар нине</w>
тап хӑр</w>
т ирӗк</w>
сӗр нӗ</w>
сӑр нӑ</w>
сӑмах па</w>
сы р
суй лав</w>
старейши н</w>
сравн ению</w>
соста в</w>
сож жет</w>
смер ть</w>
слу х</w>
сла д
скро м
си шӗн</w>
си ен
семь ей</w>
семен и</w>
самы е</w>
са мой</w>
са мая</w>
са май</w>
с кло
с бо
ру т</w>
ру н
ре шение</w>
ре ц</w>
ре кла
рат нӑ</w>
расс у
разра бо
раз би
рави тся</w>
ра ль
пӗтер ме</w>
пӗр лӗхӗ
пӗле тӗр</w>
пӗ т</w>
пӗ л</w>
пӑх ать</w>
пӑ ча</w>
пят ьсот</w>
пуҫ лӑхне</w>
пушхир ӗнче</w>
пурӑн са</w>
пурнӑҫ па</w>
пур пу
пурпу ро
пулӑш нӑ</w>
пря мо</w>
проти во
про кура
про ез
прият но</w>
при ходить</w>
при д
поступ ать</w>
послед нее</w>
поселени йӗ</w>
получа ют</w>
пол ный</w>
пол ностью</w>
пози ции</w>
подножи й</w>
под держи
по сад
по мил
по гре
пло до
плат у</w>
плат а</w>
пилӗк ҫӗр</w>
пил лӗхлӗ</w>
пи сал</w>
пере мен
пер вую</w>
пахча ҫимӗҫ</w>
пах ча</w>
пасса жи
отды ха</w>
отве чали</w>
ос ла</w>
обще ству</w>
о чи</w>
о пе
ня ет</w>
ну ли</w>
ну в</w>
но мер
но вую</w>
ним аться</w>
не ожидан
напис ать</w>
надцат ый</w>
на всегда</w>
мӑшӑ рӗ</w>
муниципаль ного</w>
мужч ины</w>
може м</w>
мир у</w>
мень ше</w>
мен ь</w>
мат тур</w>
маст чӗ</w>
ма кӑ
ма ги
ля жет</w>
люб ят</w>
лиц о</w>
ли те</w>
ли пех</w>
лекен сем</w>
ле с
лат ма</w>
лар татӑп</w>
лан чӑк</w>
лайӑхлат ма</w>
ла малла</w>
л ился</w>
кӳнте лен</w>
кӳ тӗр</w>
кӳ мелле</w>
кӑла рать</w>
кур тӑмӑр</w>
кур ни</w>
кун ӗн</w>
ку пил</w>
кри чать</w>
коп ье</w>
кон грес
кла д</w>
кил чӗҫ</w>
кая м</w>
кан аш</w>
кам ней</w>
калаҫ у</w>
кала ман</w>
ка кую</w>
ка кай</w>
к рес
йӗрке ллӗ</w>
йӗ сенче</w>
йӑ р
йӑ л</w>
й дут</w>
истори и</w>
ис це
ис со
ис пользу
инфра струк
ин ду
илӗр т
ил ӗп</w>
из уч
из обра
ие вусе
и ным</w>
зе л
здоро вый</w>
зан я
закля тию</w>
за се
за вод
жи телям</w>
жел ание</w>
ждани н</w>
ж ным</w>
ж ав
ес т</w>
ем ый</w>
еже годно</w>
дя дя</w>
доб ави
ди с
дем ьян
деву шки</w>
дву мя</w>
гра д</w>
гор ь
го дом</w>
глав ный</w>
вӗр и</w>
вӑ я</w>
вырӑнаҫ са</w>
вы слу
вы зывать</w>
возврат ились</w>
воз о
воз можно</w>
воз ложил</w>
воен ачаль
во шедших</w>
вителӗ к</w>
вза имо
ве щ
ве рен</w>
ват ӑп</w>
ва ющие</w>
ва к
в ной</w>
в зы
бы вшие</w>
боль шим</w>
би на</w>
ба га
б ах</w>
ая кра</w>
ачи сен</w>
атте мӗн</w>
ас сии</w>
арӑ слан</w>
ар мей
апа чӗ</w>
ан лӑ
алӑ па</w>
аллӑ ра</w>
Ю рия</w>
Ш ал
Чер ке
Ч апа
Ч Н
Ц о
Хӗ вел</w>
Хӑ вна</w>
Хев ро
Х але
Федераль ным</w>
Федераль ного</w>
Ука х
Тимо фе
Т ем</w>
Сӑ ваплӑ</w>
Стан ис
Соломо ну</w>
Сиго н</w>
Си и</w>
Си ва</w>
Саму илу</w>
С по
С ло
Пур нӑҫ
Пур не</w>
Об ще
О ктя
Никола я</w>
Нико ль
Н ем
Морга уш
Мо их</w>
Ман ассии</w>
Макси м</w>
Ма г
Ма а
Лит юк</w>
Куз не
Комсомоль ски</w>
К ӑҫ
К ру
Иса ва</w>
Иор дан
Иерово а
Ие заве
Ие вусе
И р</w>
Зо я</w>
Елеа зара</w>
Давид ӑн</w>
Да мас
Д ано
Гир со
Гер ман
Все гда</w>
Виҫҫ ӗмӗш</w>
Вик тор</w>
Ви ҫӗ</w>
Веф сами
Васили й</w>
Вале рия</w>
Анху с</w>
Анато ль
Александ ра</w>
Ави ге
А гро
I I</w>
: ]</w>
9 5</w>
9 2</w>
8 9</w>
8 3</w>
7 6</w>
6 8</w>
200 2</w>
ӳ н</w>
ӗҫ ӗсен</w>
ӗл ле</w>
ӗ ш</w>
ӑрӑ вӗпе</w>
ӑнӑҫ у</w>
ҫынни сенчен</w>
ҫывӑр ма</w>
ҫы лӑхне</w>
ҫулсерен хи</w>
ҫул сенчи</w>
ҫул лахи</w>
ҫитӗн нӗ</w>
ҫителӗ к
ҫирӗплет ме</w>
ҫи прен</w>
ҫавӑн тах</w>
Ҫ ӗ
я нине</w>
я ман</w>
ющи йся</w>
юно ша</w>
электро н
э тем
ь я
ыт ӑ</w>
ыйту сем</w>
ы ми</w>
щи хся</w>
щ ут</w>
шухӑ ша</w>
шут ланнӑ</w>
шкул ӗнче</w>
ша па</w>
ш кой</w>
чун ӑма</w>
чис ла</w>
чи стый</w>
четверт ый</w>
чет ной</w>
чен ный</w>
чемпи о
че ским</w>
части ца</w>
ча кар
ч рес
ч иллӗ</w>
ч ара</w>
це п
хӑпар т
хӑл ха</w>
хӑ вӑн
хӑ вар</w>
хушӑ рах</w>
хутшӑн са</w>
ху рать</w>
ху па</w>
ху нине</w>
хо тите</w>
ханаан сем</w>
хак семпе</w>
х рав
х им</w>
х ет
фи р</w>
фе вра
уя са</w>
ушкӑн ӗсем</w>
услы шь</w>
услови й</w>
ум ение</w>
укре пля
у гне
тӳ н
тӗр нӗ</w>
тӗ к
тӑ чӗҫ</w>
тӑ х</w>
тӑ ракансем</w>
тӑ ни</w>
тус лаш
туп ма</w>
туйӑ нать</w>
ту рӑн</w>
тре пе
тер ӗр</w>
теп ре</w>
тем пера
та чӑ</w>
та йӑл
т щ
т ился</w>
сӗ к</w>
сӑмах ӗсем</w>
сӑ м
су тса</w>
су рӑ
ступа ет</w>
стат ью</w>
стан ут</w>
стан у</w>
ст от
сосу ды</w>
соревно вались</w>
служ бе</w>
скри жали</w>
ско рее</w>
ско ль
сир се</w>
сик лю</w>
си стер
семь сот</w>
се ть</w>
сап са</w>
саман т</w>
са мана</w>
с мел
рӑн ти</w>
русс кий</w>
ро го</w>
ре шения</w>
рат чӗҫ</w>
раст ет</w>
распро стран
ра нӗ</w>
ра бы
р ь</w>
р но</w>
пӗле ҫҫӗ</w>
пӑрӑ с</w>
пытан нӑ</w>
пушхир е</w>
пурӑн ӑр</w>
пунк те</w>
пултару лӑхне</w>
пул атӑр</w>
пу канӗ</w>
прокля тие</w>
программӑ на</w>
про стран
про сто
приходи тся</w>
приори тет
принима ют</w>
при ходили</w>
при вести</w>
предусмотрен ных</w>
праздни ка</w>
посы лал</w>
пора жение</w>
полномочи йӗсене</w>
покры вало</w>
покры вала</w>
показ ать</w>
показ али</w>
под нимать</w>
по ставить</w>
по но
по кой</w>
по зо
пле мени</w>
пла кали</w>
пиччӗ шӗ</w>
пи шет</w>
пи чет</w>
пес ню</w>
пере х</w>
патши сенӗн</w>
пат ри
палӑрт ма</w>
па ч
п пу
отды х</w>
от лич
осно ве</w>
ос лов</w>
организо вать</w>
о стави
о па
о нер
о доб
о грани
ну лись</w>
но вое</w>
не мало</w>
не год
напис ан
нал ук</w>
назо рей</w>
на пом
н ан
н ала
мӗн пурӗ</w>
мӗ п</w>
мух таса</w>
мо на</w>
ми л</w>
мест у</w>
мед аль
ма йӗпен</w>
лӑх ӗнчен</w>
лож ки</w>
ло ко
лиц ы</w>
ли це
лето писи</w>
лен ка</w>
л или</w>
кӗҫӗн ни</w>
кӗр не
кӗ тес
кӗ вӗҫ
кӑҫ алхи</w>
кӑтарт тӑр</w>
кӑтарт ма</w>
кӑр тат</w>
кӑ ль</w>
куҫ а</w>
кур ения</w>
кун ччен</w>
ку ш
ку р</w>
краси вый</w>
кор пу
кор мить</w>
комис си
коли че
ков па</w>
клас се</w>
клад би
кил ӗнчен</w>
кил сен</w>
кил ес</w>
ке м</w>
квали фика
канди да
кан ма</w>
кан а
калӑпӑ шӗ</w>
калаҫ ать</w>
кай ман</w>
ка пи
ка ком</w>
ка кого</w>
к рю
к вор
йӗрке лес</w>
йӗр ки</w>
йӑнӑ ш
йӑ лана</w>
йывӑ ҫӗ</w>
йы храв
ит лӗр</w>
истре бил</w>
ирт сен</w>
ин о</w>
ил ӳ</w>
ил нине</w>
ил екен
и ной</w>
зы вали</w>
зна чение</w>
зло слови
зе ра</w>
зе мель
зат о
замести тель</w>
зада ча</w>
заве сы</w>
заве су</w>
з вез
жен ных</w>
жд аться</w>
ж ил
ефо да</w>
ен ных</w>
ен ного</w>
досто ин
до мах</w>
до гово
дет стве</w>
депутат ы</w>
дан о</w>
да вал</w>
д рат
город ской</w>
го дов</w>
гн ать</w>
ги ваться</w>
ген е
вӑхӑ та</w>
вӑрт тӑн
выльӑх не</w>
вы ступил</w>
вы ступ
ву лакан
ву ла
вся кую</w>
вся кая</w>
времен но</w>
вра ги</w>
вра г</w>
воспи тате
вос кре
вой ти</w>
вое вать</w>
ви жу</w>
вер ху</w>
вели кого</w>
ве чно</w>
ве сом</w>
ве ду
ваш ему</w>
в лия
в вел</w>
боя лись</w>
больш ого</w>
бо й
бли же</w>
благополучи я</w>
благодар я</w>
би те</w>
ас ла</w>
ап тӑра
ап пӑ
аллӑ ма</w>
ай ӗнчи</w>
а сам
Я р
Ю рать</w>
Э ль
Шы в</w>
Чуваш ская</w>
Чу н</w>
Хӑ ш</w>
Хо чется</w>
Филип по
Ун ран</w>
У слы
Тӗрӗ ссипе</w>
Т ӗл
Т ал
Ст али
Со л
Сис ар
Сидо н</w>
Семен о
Се бя</w>
Са мое</w>
С ле
С квор
С ен
Ру ко
Раи са</w>
Па х
На в</w>
Н ави
Ме ро
М ӑшӑ
Кӑҫ алхи</w>
Кир ил
Ка зах
Иудей ского</w>
Исаа ку</w>
Иорд аном</w>
Интер не
Иисус па</w>
Израиль пе</w>
Иерово ама</w>
Жела ю</w>
Ж из
Ели се
Гри го
Гал гала</w>
В ат
Ача сене</w>
Ахитофе л</w>
Атӑл ҫи</w>
Анге ла</w>
Ан ат
Амали ка</w>
Али са</w>
Агаф ья</w>
Авимеле хе</w>
А од</w>
2 50</w>
ӳ сӗ
ӗҫ ӗнче</w>
ӗмӗр не</w>
ӗ ччен</w>
ӑсталӑх а</w>
ӑ сене</w>
ҫӗр тме</w>
ҫӗ сен</w>
ҫӑ мӗ</w>
ҫывӑх не</w>
ҫухат нӑ</w>
ҫурт ра</w>
ҫул пуҫ
ҫирӗпле тет</w>
ҫивӗ ч
ҫи х
ҫи семпе</w>
ҫа м
ҫа всем</w>
ҫ тан</w>
Ҫи мӗ
Ҫ ирӗ
ят па</w>
яр сассӑн</w>
язы ч
ющи еся</w>
ющ ую</w>
юр ласа</w>
юб илей
ю лан
юлан ут
э теме</w>
э т
ь ем</w>
ыйт нине</w>
ывӑлу сем</w>
щи к</w>
щен ы</w>
щен о</w>
ще н</w>
щ ении</w>
шӗ семпе</w>
шӗ ве
шӑ тӑк</w>
шӑ р</w>
шӑ п
шӑ к</w>
шухӑ шне</w>
шутла сассӑн</w>
ше т
ше л
шай не</w>
ш ана
чӗлхе пе</w>
чӗ тре
чух ӑн</w>
чуру сем</w>
чу хӑн
чик кине</w>
чен ные</w>
чемпион ат
чар ша
цер ков
цен ностей</w>
ц о</w>
ц ес
хӑвар са</w>
хӑ ҫан
хуҫалӑх ра</w>
хуҫа мӑн</w>
хуҫ а</w>
хуш малла</w>
хурӑн та
хулин чи</w>
хули сем</w>
ху ш</w>
ху на
ху н
хоро шие</w>
хо тели</w>
хо тела</w>
хлеб ного</w>
хар сӑр</w>
хав ша
ха кӑл</w>
ха васлӑ</w>
х ӳ</w>
х ывӑ
федера цин</w>
ф илисти
уҫ ма</w>
ур па</w>
университе та</w>
умӗн чех</w>
умӑ мра</w>
умер ла</w>
улӑш тарса</w>
ук ҫ
уйрӑ л
уди вля
увиде ла</w>
уб или</w>
у тся</w>
у тнӑ</w>
у сене</w>
у г
тӳпе ри</w>
тӗр се</w>
тӗппи пе</w>
тӗл ме</w>
тӗ прен</w>
тӑнӑҫ лӑх</w>
тӑн лӑ</w>
тӑван не</w>
тытӑ нса</w>
туя на
тухӑҫ алла</w>
турт тарассине</w>
ту машкӑн</w>
тру д</w>
тро сть</w>
тре бу
то чно</w>
тинӗ с
тет я</w>
тен ӗччӗ</w>
те чет</w>
тат нӑ</w>
тав рӑн</w>
тав лаш
та вӗ</w>
сӑпай лӑ</w>
сӑ х</w>
сцен у</w>
сфер ы</w>
су ще
су ранӗ</w>
сто ять</w>
стара ется</w>
ста ми</w>
сре дней</w>
сра жение</w>
спектак ль</w>
сообщ ила</w>
совер шил</w>
со вета</w>
сни ть</w>
смо тря</w>
смо гла</w>
слу чилось</w>
слу жил</w>
слу жи
слу гам</w>
сир ӗнтен</w>
сехет рен</w>
сер ти
семен а</w>
семе х</w>
сем ян</w>
сель ч
се ми</w>
се й
сде р
священ ному</w>
свое образ
сар ӑ</w>
савӑ к</w>
с ло</w>
рт ан
род ных</w>
род ные</w>
ро з
республикан ском</w>
реги стра
ре шил</w>
расс мо
разговари вать</w>
раз ли
ра ста
пӗле кен</w>
пӗл тӗр
пӗл мест</w>
пӑ рах</w>
пы ччӑр</w>
пы тарса</w>
пы л
пуҫҫап ма</w>
пуҫлӑх ӗсене</w>
пуҫ тар</w>
пуҫ ларӗҫ</w>
пуҫ ланнӑ</w>
пуҫ лан
пусты ни</w>
пус ӑ</w>
пурӑнакан сен</w>
пурӑн тӑр</w>
пултарай ман</w>
пу рин</w>
пу рин
проек тне</w>
продук ты</w>
програм му</w>
про тив
про д
про вели</w>
приве з
при ходит</w>
при зыва
при гото
прес мы
пресмы ка
препода вате
председате ль</w>
предприяти ях</w>
предприяти е</w>
пре даст</w>
праздни ком</w>
праздни ки</w>
пра вую</w>
поч таль
послу шал</w>
посе лен
помощ ью</w>
получ ения</w>
полномочи й</w>
полномо чиллӗ</w>
полити кин</w>
позд рав
поз же</w>
поз вал</w>
подо би
под чин
по т</w>
пи ҫих
пи чӗ</w>
пере шли</w>
пере й
пере жи
первен цев</w>
пер спек
пер вое</w>
педагоги ка</w>
пе рес
пахалӑх лӑ</w>
патшалӑх а</w>
пассажи ров</w>
парни йӗн</w>
пара сси</w>
пар ӑ
пар к</w>
пар а</w>
паллаш нӑ</w>
пай ӗнче</w>
па халӑхне</w>
п лу
п ись</w>
очи сти
от сут
от дать</w>
остано вились</w>
осно вания</w>
ор ден
опрес но
од ин
обы ча
объя вил</w>
обре зан
обла ҫ
об ет</w>
об ви
о щу
о вый</w>
нин че</w>
ни шӗн</w>
ни ц</w>
ни сенчен</w>
ни ею</w>
недостат ок</w>
нарек ла</w>
на па
на н</w>
н че</w>
н ения</w>
муниципаль ной</w>
мун ча</w>
мудро сть</w>
мн ение</w>
мили я</w>
ми ся</w>
мест ных</w>
мен е</w>
ме ди</w>
ме д</w>
малаш нехи</w>
ма ши
ма м</w>
ма к
ма г
м шӑн</w>
ля т</w>
ля м</w>
ля бин
ло д
ло г
литерату ры</w>
лет ние</w>
лен но</w>
лек ар
леви тов</w>
ле са</w>
лат чӗ</w>
лана ҫҫӗ</w>
лагер я</w>
ла с
кӗр тесси</w>
кӗл тунӑ</w>
кӑтар т</w>
кӑ рал</w>
кӑ к
курӑ ка</w>
кун серен</w>
ку рат
ку лӑ
конф лик
комис си</w>
колесни цы</w>
коз лов</w>
ко сть</w>
ко ри
ко жи</w>
ко ви
кни г</w>
кир ли</w>
килӗш мен</w>
кил тӗр</w>
кас нӑ</w>
кан ӑ
калӑ пӑш
к рай
йӗл тӗр
йывӑр лӑх
истреб лю</w>
истори пе</w>
исте чение</w>
исполн илось</w>
ис пу
интере сов</w>
иннова цион
илт сен</w>
иле сси</w>
изб ран
и дите</w>
и ваться</w>
здра воо
за интересо
за жи
за готов
за вод</w>
за во
жизн ью</w>
жд ении</w>
жа ю</w>
жа р</w>
жа ется</w>
ж ению</w>
ев ского</w>
е тесь</w>
е вича</w>
ду ха</w>
друз ьями</w>
други ми</w>
доволь но</w>
добы чу</w>
доб ав
до ступ
до мы</w>
до вер
дина ми
ди к
де ле
дви гаться</w>
две рей</w>
д ур
д нях</w>
граждан сене</w>
государствен ном</w>
го ст
гне ва</w>
гн али</w>
гек тара</w>
вӗрен екен</w>
вӑр ӑ</w>
вӑкӑр не</w>
вӑй лӑрах</w>
выро с</w>
выльӑх а</w>
вы яв
вы ходить</w>
вса дни
воло сы</w>
влек атель
вита мин
ви ҫӗм
ви тся</w>
вез де</w>
ве рев
ваш а</w>
вап лӑ
буду чи</w>
буде тся</w>
брат ьями</w>
боль ниц
бере мен
бабу шка</w>
атӑр ье
аталан са</w>
ат тӑмӑр</w>
аслӑрах хисем</w>
ас са</w>
арти ст</w>
арти с
ар ҫынсем</w>
ано вич</w>
ан не
ала ма</w>
ал кого
ал ана
ак са</w>
администра тив
а мал
Ш ем
Чӑ нах</w>
Чебокса р</w>
Че лябин
Халӑх а</w>
Х ир
Фа ран</w>
Фа м
Ун ччен</w>
Уках ви</w>
У ро
Тӗс лӗхрен</w>
Та са</w>
Сӑмах ран</w>
Стали н</w>
Со ве
Си хе
Се ль
Самсо на</w>
Сал па
Саккун па</w>
Сак кун</w>
СХ ПК</w>
С о</w>
С ир
Ро ман
Ра мо
Пуш кӑ
По се
П ор
П ес
П аша</w>
П атӑрье
Отече ственной</w>
Не бес
Н аша</w>
Мур каш</w>
Мемфи восфей</w>
Мар ье</w>
Ман шӑн</w>
Ман ран</w>
Мал ашне</w>
Ли ван
Кӑн тӑр</w>
Кон кур
Ке де
Каа фо
Й ӗр
Иу дина</w>
Ир хине</w>
Иоав у</w>
Иллари о
Израиле выми</w>
Изма ил</w>
Ивано в
И т
И гор
Значи т</w>
Егоро ва</w>
Ев фра
Д емен
Д али
Гир сон</w>
Ге сем</w>
Ге ор
Вяче слав</w>
Вы рӑнти</w>
Во ло
Влади миро
Вла ды
Ве ра</w>
Ва рак</w>
Ва вил
В месте</w>
В ес
Алексе ев</w>
А фе
А пат</w>
А мӑшӗ</w>
8 8</w>
8 7</w>
8 1</w>
7 2</w>
6 7</w>
200 6</w>
199 2</w>
10 1</w>
( «</w>
"" :</w>
ӳ лӗ
ӗҫ чен</w>
ӗр сене</w>
ӗ лӗк
ӑ ша</w>
ӑ ран</w>
ҫӳре се</w>
ҫӳре мелле</w>
ҫӳ п</w>
ҫӗн тернӗ</w>
ҫых нӑ</w>
ҫылӑх лӑ</w>
ҫы рать</w>
ҫул ччен</w>
ҫул серен</w>
ҫу рса</w>
ҫирӗп пӗн</w>
ҫил ленсе</w>
ҫи ес</w>
ҫи е
Ҫын на</w>
Ҫ ыр
Ҫ у</w>
Ҫ ит
ял не</w>
я рӑн
я рать</w>
я пӑх
юр ри</w>
юпи сене</w>
юн ӗпе</w>
ю л</w>
ье ю</w>
шӑн са</w>
шу меть</w>
шен ы</w>
шед шие</w>
шан атӑп</w>
ша м</w>
ш ӗнче</w>
ш ка
чӗр лӗхне</w>
чӑр ма
чӑваш сем</w>
чы с</w>
чун у</w>
чув ствовать</w>
чир е</w>
ча па</w>
ча п
ч т
цен а</w>
цар и</w>
ц вета</w>
хӗрарӑ мсем</w>
хӗр ӗсене</w>
хӗр ӗн</w>
хӗ тӗрне</w>
хӗ м
хӑра нӑ</w>
хӑна сене</w>
хӑвар чӗ</w>
хыв ма</w>
хы ва
хули сенче</w>
хул пуҫ
хоро ших</w>
холо д
ходя щих</w>
хо дов</w>
хе н</w>
хатӗр лес</w>
хал алӑ
хал ала</w>
х рес
х ла
физ культурӑпа</w>
федераль ного</w>
ф па</w>
учени ки</w>
уча сти
уч илищ
ура мӗпе</w>
уни что
уйӑр ма</w>
уйрӑ мӗн</w>
уб ьет</w>
у ют</w>
у ха
у стрем
у ст
у ж
у бо
тӳпе м</w>
тӗт тӗм
тӗр тнӗ</w>
тӗллев лӗ</w>
тӗ ш
тӑс нӑ</w>
тӑрӑх ӗнчи</w>
тӑрат са</w>
тӑ с</w>
тӑ рас</w>
тя нина</w>
ты т</w>
тух чӑр</w>
туп ан
тул тар</w>
ту сене</w>
ту рат
торго в
тирпей лӗ</w>
тивӗҫ липе</w>
телӗ сем</w>
теле фон
таран чченех</w>
т ила</w>
т ана</w>
сӑна са</w>
сыхлав ӗн</w>
сыпӑ н
сывлӑ ш</w>
сы ват
сы вал
суд ьею</w>
стран у</w>
стен ы</w>
ста б
ст ра</w>
справед ли
спортив ных</w>
споко й
сою з
соз дал</w>
ско ре</w>
ситуа ции</w>
сило ю</w>
си дел</w>
си в
сест ры</w>
секре тар
се кто
светиль ник</w>
самы м</w>
сал ху
саккӑр мӗш</w>
савӑ тсене</w>
са мӑр</w>
са в
с пи</w>
с п
с нова</w>
с ари
рӑ нӗ</w>
родственни к</w>
ров анию</w>
ро п
ри те</w>
ри сенчен</w>
ри семпе</w>
ре лле</w>
ре ке</w>
ран пах</w>
разви вать</w>
радо сти</w>
рабо тав
ра сту
р ный</w>
пӳр нине</w>
пӳлӗ м</w>
пӗтӗм лет
пӗтер ӗҫ</w>
пӗлет пӗр</w>
пӗл ме</w>
пӗ терес</w>
пӑ тал
пь я
пыр сассӑн</w>
пуҫ ҫа
пуҫ ларӑм</w>
пуҫ ланӑ
пуян лат
пусти ть</w>
пурӑна с</w>
пурӑн ӑн</w>
пурнӑҫ ран</w>
пур ӑн</w>
публи ко
програм мине</w>
прово дят</w>
про сти
при зн
представитель лӗ</w>
председате ля</w>
посте ль</w>
посл али</w>
помил уй</w>
полу ден
поко я</w>
покло ня
пой ти</w>
пож ил
по чил</w>
по чи
по тря
по строить</w>
по сему</w>
по пал</w>
по кля
по й</w>
по знакоми
площа ди</w>
план па</w>
пис ьма</w>
пил ӗ
пил лесе</w>
пи кен
пи ке</w>
пересе чения</w>
пе тен
пе т
пе ри
пе п
паш алу</w>
патӑ ра</w>
патшалӑх не</w>
парне сене</w>
парне семпе</w>
пар ня</w>
палӑр маллах</w>
пал ат
па циен
па м</w>
оцен ке</w>
от дай</w>
орган ы</w>
опол чени
объяв и</w>
объек тов</w>
обе щал</w>
об уча
об ложил</w>
о публико
о не</w>
о городе</w>
нӑ скерсем</w>
нӑ й
но те
но гами</w>
ни ем</w>
не известно</w>
не вест
не ве
нач ат
нало го
на во
на в
н равится</w>
мӗ сен</w>
мӗ с</w>
мы сли</w>
молоды е</w>
може те</w>
млад ший</w>
мин ать</w>
милли она</w>
ми не
меч та</w>
мест ности</w>
меро прияти</w>
мер ӗн</w>
медицин ских</w>
мас сӑллӑ</w>
малень кая</w>
мал ти</w>
маги стра
ма ми</w>
м пе</w>
лӑх ран</w>
люби шь</w>
ло е</w>
литерату ра</w>
лет пӗр</w>
лен хи</w>
леви там</w>
ле ке
лат тар</w>
лар тӗ</w>
лагер ь</w>
ла я</w>
ла ччӗ</w>
л ӗнче</w>
л ка</w>
кӳрен тер
кӳ рӗ</w>
кӗре с</w>
кӗ м</w>
кӗ вӗ</w>
кӑшкӑ ртса</w>
кун ҫул</w>
ку ҫӑ
ку ратӑп</w>
круп ный</w>
кру ж
крепо сть</w>
концер т</w>
комму ника
ком петен
колле д
колесни ц</w>
колен е</w>
ко со
кир пӗ
кил ӳ</w>
ки вать</w>
ке дро
кая тӑп</w>
кая рахпа</w>
кашни ех</w>
кат а</w>
кар а</w>
кан ни</w>
кан ми</w>
ка чество</w>
к лин
к арӑ
йӗ тӗн</w>
йӗ п
йӑнӑ ш</w>
йӑмӑ кӗ</w>
йӑл т</w>
йӑ ваш
йышӑн у</w>
йышӑн ать</w>
й ский</w>
иш се</w>
ито гам</w>
исчис лено</w>
ир ччен</w>
име л</w>
иле н</w>
ил ле</w>
из вести
и шӗл
и мӗш</w>
значи т</w>
зло е</w>
зи ть</w>
зи ра
зе л</w>
заме щения</w>
законодатель ства</w>
зада чи</w>
з он
же й</w>
жд али</w>
ес ӗр</w>
ер нӗ</w>
ен та
е са</w>
е ро
е ду</w>
ду мал</w>
добро совест
до в
ди тя</w>
деревен ских</w>
дерев ья</w>
девя ть</w>
де лу</w>
д ря
д р
гум анитар
груп пе</w>
голо д</w>
го ри
вӗҫ ӗ</w>
вӗҫ леннӗ</w>
вӗрен текен</w>
вӑхӑ чӗ</w>
вӑрҫӑ ра</w>
выро сли</w>
выраст или</w>
вхо ду</w>
ву лама</w>
вста в</w>
вол ше
вол но
воз ненави
воз ве
води л</w>
во пло
во л</w>
вит кӗ
виногра дни
ви но</w>
взо шел</w>
вече р</w>
вани ю</w>
ва ющий</w>
в ё
в стали</w>
в кус
бюджет ӗнчен</w>
бу ма
бу ль
бро с
боль ших</w>
бо лла</w>
б ей</w>
б ар
ашшӗ семпе</w>
асӑрх анӑ</w>
ас кӑн</w>
ас кӑн
арӑ мӗпе</w>
ари я</w>
ар ен
акаде мии</w>
а й</w>
Яль чик
Яд рин
Э тем</w>
Ы й
ЧН К</w>
Ци виль
Ц ен
Ху сан</w>
Филистимля нина</w>
Ту х
Татар стана</w>
Сӗн тӗр
Стро и
Станис лав</w>
Спо рт</w>
Сих ем
Сау ло
С пе
С колько</w>
Ро ди
Реве кка</w>
Раҫҫ е
Р ем
Р ав
Пӗр и</w>
Пушкӑ рт
Про грам
П ан
Ор гани
Оли мп</w>
Оле г</w>
ОО О</w>
О казывается</w>
Н аши</w>
Мускав ра</w>
Мо ему</w>
Миха ила</w>
Мил ка</w>
Ман па</w>
Мал тан
Лени на</w>
Ко ш
Кабине та</w>
К ил</w>
Иуде и</w>
Израильтя нами</w>
Израиль ских</w>
Израиль ре</w>
Ж ур
Е фи
Е вдо
Во сто
Ва ал
В ӗсемпе</w>
В сего</w>
В нести</w>
Бы ло</w>
Би хри</w>
Бе з</w>
Ат те
Арӑ мӗ</w>
Амали ки
Ам врий</w>
Алексе евна</w>
Агар ь</w>
А да
: ""</w>
ӳ стере
ӗҫ ри</w>
ӗлкӗрей мен</w>
ӗк лӗх</w>
ӑрӑ вӗнчен</w>
ӑр сене</w>
ӑ са</w>
ҫӳ ҫ</w>
ҫы п
ҫы в
ҫул ла</w>
ҫу мӗ</w>
ҫитӗн ӗ
ҫи п
ҫап нӑ</w>
ҫавӑн тан</w>
ҫаврӑн нӑ</w>
ҫав рӑн</w>
ҫав нах</w>
ҫ ӑн</w>
Ҫӗнтер ӳ</w>
Ҫын сем</w>
Ҫур та</w>
янӑ ра
я год</w>
юх тарса</w>
юх тарнӑ</w>
юб иле
ю гу</w>
эл чӗсем</w>
экс кур
экономи ческого</w>
э стра
ь ял</w>
ытти сене</w>
ырӑ па</w>
ыр ми</w>
щи ми</w>
щ ению</w>
щ ание</w>
шӑмат кун</w>
шӑ пи</w>
шыра ма</w>
шут па</w>
шут лас</w>
шу са</w>
шу м
ши ваться</w>
шев ский</w>
шат ра</w>
ша д
чӳре че</w>
чӗрӗл се</w>
чӗ к
чуп нӑ</w>
чир ле
чен ы</w>
чен ное</w>
чатӑ р</w>
чар са</w>
ча ще</w>
ча ша</w>
ча ется</w>
цил енӗ</w>
цен тре</w>
цар ства</w>
ц ах</w>
хӗрхен се</w>
хӗ вел
хӑр хӑ
хӑвар ман</w>
хӑ шне</w>
хыҫ ал
хы рӑм</w>
хуш ӑ</w>
хуш рӗ</w>
хура в</w>
хур лӑх</w>
хула па</w>
хо нь
херуви мов</w>
хат ься</w>
хар пӑр
х не</w>
х ва
фер мер</w>
фар исе
ф ӑн</w>
уҫӑ м
устро ил</w>
ура м</w>
упра ма</w>
уни тар
ун сӑрӑн</w>
улиц ы</w>
удоб р
уд ал
уви дишь</w>
у те
у сло
у рине</w>
у кры
у вер
тӳ леме</w>
тӗтӗркӗ ч</w>
тӗпӗ сене</w>
тӗлӗ к</w>
тӗллев сене</w>
тӑхӑн са</w>
тӑхӑн нӑ</w>
тӑрӑш са</w>
тӑрӑх ӗнче</w>
тӑрӑх ра</w>
тӑ кӑн
тӑ вар
тухӑ п</w>
тух нине</w>
тупал анӑ</w>
туйӑ м</w>
ту рӑмӑр</w>
тра вы</w>
то н</w>
тивӗҫ не</w>
тив рӗ</w>
ти мӗр
тей ӗҫ</w>
тво ею</w>
таш ӑ</w>
тарас шӑн</w>
тар ҫӑ</w>
тар сах</w>
тар кӑ
тапӑр не</w>
танлаш нӑ</w>
так си</w>
тав рӑна
т ё
т семпе</w>
т кан
сӑвӑ сем</w>
сӑ ран</w>
сыл тӑмалла</w>
счаст ье</w>
сфе рӑ
супру гой</w>
сулаха ялла</w>
су ран</w>
сти хов</w>
сти пен
стен е</w>
старейши нам</w>
ста я</w>
ста ж</w>
ст вӑн</w>
специ алист</w>
спектак ль
спектак ле</w>
спа сти</w>
спа са
со рока</w>
со кро
смо три</w>
смерт ью</w>
сла вы</w>
ски ниею</w>
систем е</w>
сена жа</w>
сед ь
сдела йте</w>
сдел ала</w>
священ ные</w>
связан ных</w>
свидетель ство</w>
сарӑ л
саккун сене</w>
савӑн тарать</w>
са пӑр</w>
с нимать</w>
с кал
с будется</w>
ря д
рт нӑ</w>
рожд ении</w>
ров у</w>
ри ться</w>
резуль тат</w>
раш тав</w>
рал ся</w>
ракан ӗ</w>
раж ание</w>
радо ваться</w>
рабо той</w>
пӗҫе р</w>
пӗр чи</w>
пӗр тӑван</w>
пӗр исем</w>
пӗл мелле</w>
пӗ чченех</w>
пӗ тери
пӑл хан
пы рас</w>
пы малли</w>
пуҫлӑх ӗн</w>
пуҫламӑш ӗнче</w>
пух хи</w>
пус ма</w>
пус кать</w>
пурӑн атпӑр</w>
пултара тӑр</w>
пу чах</w>
прошло е</w>
проце дить</w>
промышленно ҫ</w>
програм м</w>
проводи ть</w>
провод или</w>
про цес
про с
про ли
при чин
при бав
преду пре
преде лов</w>
пред ставля
пре пят
пра в</w>
поэ та</w>
пото ка</w>
поступ или</w>
полови не</w>
поло жили</w>
поло жений</w>
полномочи я</w>
пол тора</w>
пози цире</w>
позд ра
позво лит</w>
под ражание</w>
под пис
под гото
повы сить</w>
пове ление</w>
победи телей</w>
по ща
по чет
по ставит</w>
по слов</w>
по ры</w>
по лях</w>
по лей</w>
по кор
по к</w>
по ис
по жел
пло ти</w>
пло ды</w>
пло дов</w>
пла кать</w>
пил ле
пи ҫӗ
печат и</w>
переда чи</w>
пер вым</w>
пен си</w>
пе кки</w>
патши йӗн</w>
пассажир сем</w>
пар хат
пар ти</w>
палӑр нӑ</w>
пал ец</w>
пал аса</w>
очере ди</w>
отпусти ть</w>
отпу сти</w>
отправил ся</w>
отправ или</w>
откры то</w>
откры ли</w>
от ста
от кро
осуществ лении</w>
ору жи
организо вали</w>
орг ана</w>
ор ы</w>
ополчени ям</w>
опера тив
окру ге</w>
окон чил</w>
одна жды</w>
ово щи</w>
ов цы</w>
обя зан</w>
объя вит</w>
обще стве</w>
об станов
о са
о поя
о к
о гн
о владе
ну маях</w>
ну ла</w>
нов ение</w>
но гах</w>
но ву</w>
но вого</w>
ни ж
не ме
началь ником</w>
националь ного</w>
наро дной</w>
нар уш
напра сно</w>
над зо
на правля
на печат
на дцати</w>
на деж
н ение</w>
мӑш кӑл</w>
мыс ль</w>
му жу</w>
моло дого</w>
мо ими</w>
мо гу
мин у
ми пе</w>
ми м</w>
мерт вых</w>
мен нине</w>
меж муниципальным</w>
мат а</w>
макӑр нӑ</w>
ма ҫ
лӑ к</w>
ло с</w>
лени пе</w>
леви тсем</w>
ле том</w>
ла ско
л ӗн
л ли</w>
л илу
кӗр тсе</w>
кӗ тет</w>
кӑтарт нине</w>
кӑрла ч</w>
кӑмӑл лать</w>
кӑла р</w>
кӑ ран</w>
куля н
культу рӑ
ку ҫӑм</w>
ку ҫа
ку шан
ку ру
ку пи
ку ка
креп ко</w>
креп кий</w>
краси вая</w>
комис сари
колхоз ра</w>
коло с
колле ги</w>
ковче га</w>
ков ского</w>
ков ский</w>
ко н</w>
ко ма</w>
ко з</w>
килӗш терсе</w>
кая ҫҫӗ</w>
каче стве</w>
карт лаш
кар та</w>
кар т</w>
кала ҫҫӗ</w>
кай нине</w>
каж у</w>
ка ҫа
ка фе
ка ким</w>
ка жется</w>
к ли</w>
йӳ ҫӗ
йӗр кипе</w>
йӑх ӗсем</w>
йышӑн чӗ</w>
йывӑҫ ӗнчен</w>
й ытӑ</w>
истреби тся</w>
истори ю</w>
искус ства</w>
ирт тереҫҫӗ</w>
ирсӗр лен
институ т</w>
ин тел
ин вали
имуще ство</w>
ил ӗ
игра ли</w>
зна мени
зе мель</w>
здравоо хранения</w>
заслу женный</w>
зако лет</w>
за ставля
за пас
за каз
з вон
жд ению</w>
ж ением</w>
ж ало</w>
еткер лӗх</w>
ен и</w>
екен е</w>
е ви
ды м</w>
душе ю</w>
ду ш</w>
ду ет</w>
дру жно</w>
дра ма</w>
долж ность</w>
дол г</w>
до сть</w>
до ст
до несли</w>
до н</w>
депута чӗ</w>
дела ют</w>
дей ствие</w>
де б
дан ное</w>
дальней шем</w>
да дут</w>
да вали</w>
гра да</w>
голо да</w>
гне з
гла д
ги д
геро ев</w>
г нул</w>
вӗ сенче</w>
вӑ рах</w>
высо ко</w>
вырнаҫ тарнӑ</w>
вырнаҫ тарма</w>
вы ходил</w>
вун шар</w>
вспомина ет</w>
времен а</w>
вра гами</w>
вра гам</w>
вос ь
волше б
вой ска</w>
води тель
внутрен ности</w>
вним атель
вля ться</w>
влад ения</w>
виде в</w>
ви ну</w>
ви нов
ви дя</w>
ветера нов</w>
вете ран</w>
ве ть</w>
ват ый</w>
ва жно</w>
в ного</w>
бы вших</w>
брус ьев</w>
большин ство</w>
болезн ь</w>
бо яться</w>
бо вь</w>
блу дни
бла год
бла го</w>
аты рев
арӑ мӗсем</w>
арти ста</w>
аро в</w>
ар и</w>
ан сат</w>
ан и</w>
аллин чи</w>
ал анӑ</w>
ак тами</w>
ак па</w>
а чӑр
а да</w>
а вӑр
Ян ти
Ю Т
ЮТ В</w>
Чуваш ском</w>
Челове к</w>
Ч ир
Хӑй сен</w>
Хӑ вӑр</w>
Хӑ в</w>
Хевро не</w>
Ханаан скую</w>
Фир ца</w>
Филистимля нами</w>
Ур мар
Улья нов
У пӑш
Тво ею</w>
Т ю
Сыв лӑх</w>
Сокхо ф</w>
Си он</w>
Священни к</w>
Сау лова</w>
С ту
С тре
Ру ст
Раз ве</w>
Ра ди
Р ан
Пӗр ре</w>
Пӗр ле</w>
Пӗ чӗк</w>
Побе ды</w>
По л
Пил ӗк</w>
П ро</w>
Од на</w>
О га</w>
Никола ев
Муниципали тет</w>
Моавит ских</w>
Михайло вич</w>
Мар гари
Мадиани тян</w>
Ма мре</w>
М ай
Лю бовь</w>
Ла зар
Л ай
Космо демьян
Ком ис
Ко рей</w>
Кана шӗ</w>
Ка ин</w>
К ӑш
К ала
Ио к
И ль
Зе ве
Ефре ма</w>
Еф ра
Есе вон
Елеа зар
Е тӗрне</w>
Е гло
Д ана</w>
Ги ва</w>
Ге сс
Гавр ило
Г он
Г де</w>
Вӗрен текен</w>
Вы ль
Вале ра</w>
В ӗ
Божи е</w>
Аш мар
Ахи ма
Аха ва</w>
Ар ҫын</w>
Ан же
Ал лилу
Авер кий</w>
А сиро
9 1</w>
8 6</w>
200 4</w>
20 20</w>
ӳстер се</w>
ӳ сте
ӳ ре</w>
ӗмӗр е</w>
ӗм сӗр</w>
ӗлкӗр нӗ</w>
ӗ лӗк</w>
ӑслӑ лӑх
ӑрӑ вӗсене</w>
ҫӗр сем</w>
ҫыхӑн са</w>
ҫывӑр нӑ</w>
ҫы ран</w>
ҫух рӑм</w>
ҫурал чӗ</w>
ҫур тун
ҫур кунне</w>
ҫулталӑ кне</w>
ҫул ӗнче</w>
ҫул танпа</w>
ҫу сем</w>
ҫит рӗм</w>
ҫи тер</w>
ҫи сен</w>
ҫара мас</w>
ҫакӑн шӑн</w>
ҫавӑн пах</w>
ҫ па</w>
Ҫу л</w>
Ҫав ӑ</w>
Ҫа р</w>
яро сть</w>
япал ине</w>
ян тӑ
яз ву</w>
я ют</w>
я чӗсене</w>
я ла
я ется</w>
я годы</w>
ющ ем</w>
юрат ма</w>
юн па</w>
ю па
ю мах</w>
эф ира</w>
э ре
ыйт сан</w>
ый т</w>
ывӑлу сене</w>
щи т</w>
шӑр чӑк</w>
шӑл лӑ
шӑ ллӗ</w>
шы ҫ
шухӑш ӗпе</w>
шут латӑп</w>
шуй т
шу чӗпе</w>
шкул сенче</w>
школь ников</w>
ши сем</w>
ше сти</w>
ш ӗн
ш сене</w>
ш ений</w>
чӗр лӗхе</w>
чӗр куҫ
чӗн ме</w>
чӗ сенче</w>
чӑ сем</w>
чӑ мӑр
чы лай
член ӗсем</w>
чи я</w>
чи сто</w>
чи перех</w>
чи в</w>
черет лӗ</w>
че ское</w>
че е
ча т</w>
ч ность</w>
ч ном</w>
ч илась</w>
ч алӑ
цио нер
ц ы
хӗ сме
хӗ лӗн</w>
хӑҫан ччен</w>
хӑруш лӑх</w>
хӑрт нех</w>
хӑма сем</w>
хӑвӑ лне</w>
хы т
хутӑш тарса</w>
хутшӑн чӗ</w>
хутшӑ накан</w>
хулпуҫ ҫийӗ</w>
ху ҫине</w>
ху тӑр</w>
ху рӗҫ</w>
ху рӗ</w>
ху лӑ
ху же</w>
ходи м</w>
хле бов</w>
хир а</w>
халӑх на</w>
халь лӗхе</w>
х нуть</w>
фор мир
фестивал я</w>
фер мер
фер ме</w>
фе резе
ф или
учрежд ения</w>
участ ки</w>
уч или
устро й
услови йӗсене</w>
ус ил
упомя ну
универси тет
улӑш тарнӑ</w>
ултав лӑ</w>
укре плен
у я</w>
у щер
у шли</w>
у ти
у бы
тӗт тӗм</w>
тӗреклӗ летнӗ</w>
тӗр ччӗ</w>
тӗп рен
тӗп не</w>
тӗнче ре</w>
тӗл пул
тӑхӑнтар тнӑ</w>
тӑр ӗҫ</w>
тӑват ӑн</w>
тӑван ӗ</w>
тӑван у</w>
тӑ тӑм</w>
тӑ сӑл
тӑ сса</w>
тӑ рӑн
тытӑн чӗҫ</w>
тыся чу</w>
тыся ча</w>
тур тӑ
тупай ман</w>
ту рӑ</w>
ту ри</w>
три дцати</w>
тради ции</w>
тор же
то ров</w>
тин ы</w>
тиве кен</w>
ти хонь
ти сен</w>
технологи й</w>
тех ники</w>
тере кен
тель ных</w>
тель ные</w>
телекан ал</w>
те пӗрне</w>
те ми</w>
тархас ласа</w>
тар тӑм</w>
тапӑ н
талан тов</w>
та рай
т ӗнчи</w>
т ӗнчен</w>
т юр
сӗр мелли</w>
сӗр лӗх</w>
сӑ нӑ
сынов ьями</w>
сыв пул
сыв лӑхне</w>
съ е
субси ди
суббо та</w>
су тнӑ</w>
су ль
су дить</w>
стре ми
стоя тельно</w>
ству й</w>
ствен ным</w>
стан ра</w>
спи со
социаль но</w>
сотво рил</w>
со суд</w>
со сто
со кра
со знание</w>
смотри те</w>
смотри т</w>
слы шать</w>
служ или</w>
слу га</w>
ска л</w>
ска жешь</w>
си м
свиде тель</w>
свер ху</w>
савӑ нӑҫ</w>
са ды</w>
с ӗн</w>
с па</w>
с начала</w>
с н
с мен</w>
с ку</w>
с бы
рован ных</w>
ро дов</w>
ро г</w>
реш или</w>
ремон т</w>
рез ать</w>
регион ти</w>
регион ального</w>
ре фор
рал ла</w>
раз у</w>
раз од
раз ве
рав но
рав нине</w>
рабо м</w>
ра стер
пӳр те</w>
пӗ ве</w>
пя тый</w>
пысӑ кӑш</w>
пы рӑр</w>
пы ратӑп</w>
путе к
пурӑн сассӑн</w>
пурнӑҫ лать</w>
пурнӑҫ лан
пулӑшӑ вӗ</w>
пулӑ пӑр</w>
пу са
прош ла</w>
производ ствӑ
про сто</w>
про йти</w>
принци п
принадлеж ности</w>
при шло</w>
при ходят</w>
при тес
при дут</w>
при ду</w>
предприниматель лӗх</w>
пред мет</w>
пре вра
право выми</w>
прав ды</w>
пра х</w>
пош лю</w>
похоро нили</w>
потом ству</w>
посте ли</w>
постав лю</w>
пос реди</w>
помо гать</w>
получ илось</w>
получ ать</w>
пол ков
пол к</w>
пой дете</w>
под у
под ниматься</w>
повер х
побе жали</w>
по сты
по свя
по мен
пле мя</w>
пичет лесе</w>
пис ателей</w>
пере стал</w>
пере писи</w>
пере ме
перво род
пе ла</w>
пах чине</w>
патша сем</w>
пат ӗнчи</w>
пат нех</w>
пар ӑн</w>
пар н
пани пе</w>
пай тах</w>
па сту
па рай
п че
п са</w>
п лы
п ка</w>
отрас ли</w>
откры ть</w>
отде ления</w>
ответствен ность</w>
от м
орфо графи
орган ӗсемпе</w>
орган ӗ</w>
орг ан</w>
оде жде</w>
од ни</w>
ово щей</w>
объ ем</w>
обще ством</w>
образо ваний</w>
об лег
о прав
о пис
о гром
о владеть</w>
ня ка</w>
ну ться</w>
нов ья</w>
но м
но гда</w>
но выми</w>
но вом</w>
низ у</w>
ни шь</w>
неде ли</w>
не прия
не бом</w>
наш кал
началь ников</w>
нач алась</w>
народ ного</w>
нале во</w>
назна чения</w>
на са
мӗш ӗччен</w>
мӑну к</w>
му жи</w>
мо к</w>
мо дер
мно гом</w>
мир ной</w>
ми х
ми т</w>
механизат о
мел лӗ</w>
ме тра</w>
ме сен</w>
масте ров</w>
маст ӑр</w>
маршру чӗсем</w>
мар рине</w>
мал лаччӗ</w>
ма ка</w>
ля л</w>
люб я
лу ка
локо ть</w>
лож ку</w>
лиц ом</w>
лит р</w>
ли ш
ли тся</w>
ли в
лет него</w>
лен тер</w>
лен ной</w>
ле читься</w>
ле сни
ла до
кӗр сен</w>
кӗлет ки</w>
кӗ шӗ
кӗ т</w>
кӑ вар</w>
куҫар са</w>
куҫар нӑ</w>
кура тӑр</w>
кура в</w>
культур ной</w>
ку сок</w>
кре дит</w>
коро вы</w>
кор з
коммун аллӑ</w>
коман ды</w>
ко с
ко раб
ко вые</w>
ко вы</w>
клады вать</w>
кир пи
кило метров</w>
кил етчӗ</w>
ки и</w>
каҫ арӑ
кач чи</w>
калаҫ рӗ</w>
кайӑ ка</w>
кайӑ к
кай ни</w>
ка пӑр
ка ких</w>
к ӳ</w>
йӗн ӗ</w>
й ӗнчи</w>
й ман</w>
иш ме</w>
исклю чением</w>
ис к
ирттер мелли</w>
информа цию</w>
интере су
ин ве
име ют</w>
иле тӗп</w>
ил ни</w>
из го
и сту
и ма</w>
зо к</w>
значи тельно</w>
зи н</w>
запове дей</w>
занима ет</w>
зан яти
замести телӗ</w>
за ми</w>
з ало
жи д
жертвенни ку</w>
жерт во
жен ского</w>
жела ет</w>
же чь</w>
жа ют</w>
еф ан</w>
ем у
евӗр лӗ
е зер</w>
е вой</w>
дя х</w>
добави ть</w>
до став
до вал</w>
до бра
дли ною</w>
ди зай
дет ского</w>
дет ские</w>
деся тки</w>
держ аться</w>
дер жит</w>
дер жал</w>
де сни
дво р
дар а</w>
дан ной</w>
дальней шего</w>
д ные</w>
гос питал
голо ва</w>
говори те</w>
го сть</w>
гла сно</w>
гла с</w>
газе те</w>
га й</w>
г ур
г нуть</w>
г лый</w>
вӗрен тме</w>
вӑхӑ три</w>
вӑй й
вӑ ш</w>
высо ты</w>
высо ком</w>
вырӑн сенче</w>
вырӑн лӑ</w>
выро сла</w>
выпус к
выпол нять</w>
выля са</w>
выля ма</w>
выль ӑ
вы ҫӑ</w>
вы ходят</w>
вы ходит</w>
вы та
вы пу
вы ко
вся ком</w>
вспом нил</w>
вс ё</w>
вра ч</w>
вос ьмой</w>
вос фея</w>
воло с</w>
вой ско</w>
возлия ния</w>
воз даст</w>
во р</w>
вну ков</w>
вне сении</w>
вла ды
виҫӗм кун</w>
виссо на</w>
ви ҫине</w>
ви р</w>
ве щей</w>
ве ще
ватӑ л
ватель но</w>
вар рине</w>
ва йся</w>
в ью</w>
в первые</w>
в ви
бра ти
борь бе</w>
блю до</w>
близ ко</w>
ближай шее</w>
благо прият
беззако ния</w>
бе ть</w>
б ат
ач аллӑ</w>
ат тӑм</w>
ат алана
арӑ с</w>
арти ст
аро к</w>
ар мию</w>
апат лан
ап тра
ан у</w>
ан нене</w>
али я</w>
ал л
актив но</w>
ак нӑ</w>
ак курат
агро фир
авто рӗ</w>
а минь</w>
а ку
Я ро
Э р
Э ко
Ыт ларах</w>
Ш о
Ху ла</w>
Ху зан
Хев рон
Ха мо
Фе стивал
Фе резе
Фа ке
Ф из
Ф ал
Ун шӑн</w>
У видев</w>
Тӑ ван
Те х
Те ле
Тан я</w>
Та х
Та кие</w>
Т ру
Сы нов</w>
Сту ден
Спа сибо</w>
Собра ние</w>
Семено вич</w>
Саккун ӗсен</w>
Са ра
С ӑр</w>
С тра
С ара</w>
Ран ьше</w>
Пур нӑҫ</w>
Про кля
Президен та</w>
Пос ле
Не давно</w>
Не во</w>
На го
Н и</w>
Мя сни
Ми ш
Ми ц
Мелхо ла</w>
Мари ам</w>
Лю ди</w>
Ли ван</w>
Ли в
Лав ана</w>
Красно че
Ки рек</w>
К ӗр
Йӗ пре
Иуди ных</w>
Иу ды</w>
Ио фор</w>
Иезаве ль</w>
Игор ь</w>
И ногда</w>
И мя</w>
И м</w>
З ел
Жиз нь</w>
Ефремо вой</w>
Еди ная</w>
Е не</w>
До ро
Дали да</w>
Григо рий</w>
Га гари
Г у
Вӑр ман</w>
Все россий
Все вы
Веф иль
Ве дь</w>
Вар ни</w>
Вала аму</w>
Ва фу
В у
В то
В ос
Бо л
Баш кор
Ахи я</w>
Ат ла
Арно н</w>
Александ ровна</w>
Авиге я</w>
А лла</w>
А лина</w>
А лат
А дам</w>
А Н
a p</w>
ӳл ме
ӳ сӗр</w>
ӳ сӗр
ӗҫ ченӗ</w>
ӗҫ ленине</w>
ӗҫ лени</w>
ӗҫ кӗ</w>
ӗр и</w>
ӑсат са</w>
ӑн са</w>
ҫӳр ӗр</w>
ҫӳллӗ шӗ</w>
ҫӳллӗ ш</w>
ҫӳл те</w>
ҫӳ рен
ҫӑ па</w>
ҫӑ м
ҫӑ вар</w>
ҫулталӑ кӗ</w>
ҫич ҫӗр</w>
ҫитӗн тернӗ</w>
ҫит рӗҫ</w>
ҫит мест</w>
ҫин чех</w>
ҫиел тен</w>
ҫи тес</w>
ҫар ӗнче</w>
ҫавӑ тса</w>
ҫ ен
Ҫул лахи</w>
Ҫем ье</w>
Ҫамрӑ ксен</w>
ял сене</w>
яв ление</w>
я чӗсен</w>
я ратӑп</w>
я ракан</w>
я кат
юхан шыв</w>
юн ӗн</w>
ю ности</w>
ю ман</w>
ю жной</w>
эффектив но</w>
эрне ре</w>
эле мен
экспер ти
эко ном
э пи
ье з
ь ере</w>
ытар лӑн</w>
ылтӑн па</w>
ыйт рӗ</w>
ывӑл семпе</w>
шӑл тат</w>
шӑ тӑк
шу рал
шта б
шку лӗн</w>
шен ные</w>
шед ший</w>
ша ми</w>
чӗре м</w>
чӗр ӗ
чӗр т</w>
чӑн лӑх</w>
чӑ тса</w>
чӑ мӑ
чыс не</w>
чыла йӑшӗ</w>
чу рисене</w>
чир лесе</w>
чи пер</w>
чи нов
чи ки</w>
червлен ой</w>
чен ого</w>
чен ного</w>
че стно</w>
че скими</w>
ча м</w>
ча ка
ч ӳлме
ч ную</w>
ц ар</w>
хӗр ӳллӗ</w>
хӗр сене</w>
хӑна сем</w>
хӑ яр</w>
хӑ рат
хыҫҫ ӑнах</w>
хыҫ ӗнче</w>
хыҫ не</w>
хуҫа мӑр</w>
хут ӗнче</w>
хут не</w>
ху рӑр</w>
ху рах</w>
ху лин</w>
хи ми
хи е</w>
хваттер лӗ</w>
хват тер</w>
халӑх па</w>
халӑ хӑма</w>
ха мӑра</w>
ха ми</w>
х ру
х ис
х ет</w>
фрон та</w>
фрон т</w>
фо ль
финан с</w>
фи ци
фельд шер
ф ран</w>
ф ра</w>
ф ан</w>
учи тся</w>
учи телей</w>
уче том</w>
уто м
ут ра
уста в</w>
уров ня</w>
ура па</w>
университе чӗн</w>
ум ра</w>
улы б
указан ных</w>
ук ро
уйрӑ лнӑ</w>
удоволь ствием</w>
увели чи
у стра
у спо
у ко
у знали</w>
у жели</w>
тӳ пи</w>
тӗлӗш рен</w>
тӑрӑх ӗн</w>
тӑра тӑн</w>
тӑр ӑ</w>
тӑр сан</w>
тӑвӑ пӑр</w>
тӑван ӑмсем</w>
тӑ хӑр
ты ваться</w>
тун сӑх
ту рӗҫ</w>
требовани сене</w>
требо вания</w>
транспорт ных</w>
тран спортом</w>
тр ю</w>
то вари
тир ӗ</w>
ти хо</w>
ти п</w>
тет чӗҫ</w>
тес но</w>
тенкӗ лӗх</w>
теле ц</w>
теат р
те чении</w>
те та</w>
те йӗн</w>
твор ческих</w>
таран ччен</w>
тар ӗҫ</w>
тар ха
тар у</w>
тапхӑ рти</w>
талан тли
тавӑр ма</w>
таврӑн са</w>
таврӑн ма</w>
тавраш ӗнче</w>
та кая</w>
та ка
т ной</w>
т ник</w>
сӑ ва
сых лан</w>
супру ги</w>
супру г</w>
субси дий</w>
сту ю</w>
сту пит</w>
стви тельно</w>
стар шая</w>
стар и
стан ь</w>
ста ж
способ ности</w>
специ алис
состоя нии</w>
согре шит</w>
согла си
современ ных</w>
совершен но
собы тие</w>
собира ется</w>
со ставил</w>
со образ
со вхо
смо гли</w>
служ ение</w>
слу чится</w>
сле зы</w>
сла бы
ско том</w>
ско н
ско в</w>
сказ ано</w>
ск воз
сир пӗтсе</w>
сир п
силь ных</w>
сил лентерсе</w>
си сте
си енлӗ</w>
си дя
си вӗ
сест ру</w>
се ять</w>
сдела ется</w>
сдел ались</w>
са па</w>
са да</w>
с рок</w>
с жег</w>
ры ваться</w>
род илась</w>
ро ст
ро до
республикан ских</w>
регион сен</w>
регион аль
ре зиден
ре во
рево лю
рассказыва ет</w>
распо ря
рас сказала</w>
рас пис
район ӗнче</w>
радо ст
рав не</w>
работ ник</w>
ра ш</w>
р ӗк</w>
пӗҫер се</w>
пӗчӗк кӗн</w>
пӗр ле
пӗр кен
пӗр инчен</w>
пӗ тӗрнӗ</w>
пӗ тӗ</w>
пӗ лес</w>
пӑ хӑртан</w>
пӑ тра
пяти десяти</w>
пысӑ ках</w>
пуҫла сассӑн</w>
пуян лӑх</w>
путя ми</w>
пурӑн атӑп</w>
пурнӑҫ лас</w>
пур лӑхӗ</w>
пултара тӑн</w>
пул ӗччӗ</w>
пул тӑрччӗ</w>
професси ю</w>
промышлен ности</w>
проис ше
програм ме</w>
проводи тся</w>
про ки
про казы</w>
про вел</w>
прино сят</w>
прино сил</w>
приме ру</w>
прика зал</w>
прибы ль</w>
при каз
при ду
при ди</w>
при вя
предприниматель ской</w>
предприним ателей</w>
пре стол</w>
пре мии</w>
пре дан</w>
пре дам</w>
правил а</w>
пра вил</w>
потом ство</w>
постро или</w>
поселени н</w>
поро дою</w>
попа сть</w>
пома жь</w>
пользо ваться</w>
полу чил</w>
поли кли
пол ь</w>
поку пать</w>
поко лениям</w>
поко лений</w>
пой дут</w>
поздра вля
подни мал
подготов ки</w>
под ряд
под роб
погре бен</w>
побы вали</w>
по тен
по те
по сторон
по нимать</w>
по клялся</w>
по ги
по вто
по воро
пле чо</w>
пись мен
пи ще
пи ща</w>
первен ец</w>
пе чи</w>
пат ӑн</w>
пат ра</w>
пар ши
пар ка</w>
палӑ рать</w>
паллаш тарчӗ</w>
пай ӗпе</w>
па сти</w>
ответствен ности</w>
от чего</w>
от рок</w>
от ни
остат ься</w>
осталь ные</w>
ост ри
ост алась</w>
осла бе
осен ью</w>
органи зма</w>
окру га</w>
оди но
од ы</w>
ог ур
объек ты</w>
обрат ился</w>
обо га
об щего</w>
об ру
об осно
о станови
о пти
нуж на</w>
ну жен</w>
норматив ными</w>
но я
ни ҫта</w>
ни х
ни ме</w>
ни верси
нечи ста</w>
неожидан но</w>
небе са</w>
не вин
не в
наро дами</w>
направ лении</w>
на стой
на пря
на дея
н чен</w>
н ра
мӑш кӑ
мӑр сем</w>
мӑ шне</w>
мӑ па</w>
молодо сти</w>
модер ни
министер стви</w>
ми сем</w>
меся це</w>
меня ется</w>
ме сӗрех</w>
ме рӑсем</w>
ме ри
ме лех</w>
машин у</w>
мат ер
мас ла</w>
маршру тов</w>
мал ы
мал ого</w>
май ӑн</w>
ма ф</w>
м ки</w>
м г
лӗн рех</w>
лӑх ӗшӗн</w>
лӑх ӗнче</w>
лӑ ччӗ</w>
ля ются</w>
ль но</w>
лож или</w>
ли ка</w>
леви ты</w>
ле су</w>
ле жал</w>
ле вую</w>
ле бе
лат и</w>
ларт рӑм</w>
лар чӗ</w>
лай ман</w>
кӗт ӳ</w>
кӗт мен</w>
кӗр т</w>
кӗмӗ л
кӗ семпе</w>
кӗ ве</w>
кӑтар тӗ</w>
кӑтар ту</w>
кӑп шан
кӑнтӑ ралла</w>
кӑмӑ лӗ</w>
кӑл тӑк</w>
кӑ рт</w>
кӑ рал
кушан ье</w>
кур ением</w>
кун ӗпе</w>
кун сем</w>
ку ро
кры ль
кор ня</w>
кон суль
компью тер
команди р</w>
колхо за</w>
колесни цу</w>
колен у</w>
колен ам</w>
ко т
княз ья</w>
кни ж
кни га</w>
кладби ще</w>
кирпӗ ч</w>
кил ти</w>
кил мен</w>
ки вӗ</w>
ке сар
ке рӗ</w>
квар тал
кая р</w>
катӑ к</w>
канику лы</w>
калаҫа ҫҫӗ</w>
калаҫа кан</w>
кала сассӑн</w>
кайӑ пӑр</w>
кайӑ ксем</w>
кай ӑн</w>
кай ччӑр</w>
ка сем</w>
ка са
к ров</w>
йӳ ҫӗ</w>
йӗрӗн чӗк</w>
йӗр кисене</w>
йӗлтӗр пе</w>
йӗ п</w>
йӑмӑ кне</w>
йӑ шне</w>
й ӗнчен</w>
истори ей</w>
испу г
использо вать</w>
испол нил</w>
ирӗ кӗпе</w>
информа ципе</w>
интересо вался</w>
институ та</w>
ин ба
ил тӗмӗр</w>
иксӗ мӗр</w>
иксӗ л
из ъ
из да
зри телей</w>
золо тые</w>
знам ения</w>
знам ение</w>
зат ра
заслу жен
засед ании</w>
запа ду</w>
за шел</w>
за пу
за кри
за д
з и</w>
з во
жур нал</w>
живе м</w>
жи ться</w>
жен ами</w>
ж ки</w>
ж ало
ертӳ ҫисем</w>
ен те
ен ным</w>
ез дить</w>
е д
доро га</w>
домо ҫӗсем</w>
домо сти</w>
долж ност
докумен та
добы чи</w>
до р
до е</w>
директо рӗ</w>
дипло м</w>
диви зи
ди стан
ди рать</w>
деятель ность</w>
дет ских</w>
деся тых</w>
дей ствовать</w>
дву х
дву м</w>
даро м</w>
да шь</w>
да ва</w>
д ка</w>
гра д
гимна зии</w>
ги м</w>
газе ту</w>
га р</w>
г нет</w>
вӗ л
вӑхӑт сӑр</w>
вӑр ҫи</w>
вӑ ра</w>
вӑ ра
выши ною</w>
вырт нине</w>
выльӑх ран</w>
выку пить</w>
вы вать</w>
вся кие</w>
все ю</w>
вре д</w>
восто р
воспитан и</w>
воспи ты
вос ста
воо душе
вой ди</w>
вой дет</w>
воин ства</w>
возь ме
возра ста</w>
возно шение</w>
возвы шен
возврати тся</w>
воз ник
воз му
во шла</w>
во жд
во дах</w>
внутр ь</w>
вни з</w>
виссо нран</w>
вил сессӗн</w>
вил нисене</w>
види мо</w>
ви ҫи</w>
ви дом</w>
верну ться</w>
вер нуть</w>
вели к</w>
вед ению</w>
ве чный</w>
ве тер</w>
ве домоҫӗсем</w>
в ходил</w>
в низу</w>
бри га
боль шую</w>
благослови т</w>
би т</w>
би рать</w>
бе рут</w>
бе жать</w>
ба к</w>
б рус</w>
б рес
б лю</w>
аҫу н</w>
аш шӗсене</w>
ас ла
арти сты</w>
ан ге
ан ализ
аль ник</w>
ал лӑм</w>
ак чӗсемпе</w>
ак ционер
администра ци
агро но
ави а
авари й
авал хи</w>
ав ӑ</w>
Яро слав
Ю лия</w>
Э ту</w>
Шкул та</w>
Чӑ н
Черке сов</w>
Ч ӗл
Ху ҫ
Ху ра</w>
Хисе п</w>
Хев рона</w>
Хе ц
Халь лӗхе</w>
Х ак
Филип п</w>
Ф ран
Ф им
У верен</w>
Тутар стан</w>
Туррӑ ра</w>
Та ппу
Т ӑрӑ
Сӗ т</w>
Сы новья</w>
Су вар</w>
Се ме
Сво им</w>
Сару ия</w>
С им</w>
Рувимо вы</w>
Раҫҫе йӗн</w>
Пӗ тӗм
Пул тар
Прокля т</w>
Про из
Пом ню</w>
Патӑрье л</w>
Пав лова</w>
П ят
П ло
П П
Об ъ
О ля</w>
Никола евич</w>
Ни кам</w>
Не ужели</w>
Не которые</w>
На ш</w>
На ват</w>
Н ему</w>
Мӑ шӑр
Мат ве
Маргари та</w>
М ир
М ер
Ло та</w>
Лени н</w>
Лай ӑх</w>
Кӗҫ ех</w>
Ку да</w>
Красно армей
Констан ти
Кон драт
Ко ман
Кил те</w>
Кая рахпа</w>
Кат я</w>
Кар мил</w>
К рым</w>
К ра
К ари
Иса во
Ис инба
Ир ӗклӗх</w>
Иоса ф
Ио дай</w>
Илларио но
Или яна</w>
Или и</w>
Игнат ьева</w>
Ивано вич</w>
И брес
Зо ло
Зако ном</w>
За м
З ара</w>
Ен чен</w>
Ели ав</w>
Ела бу
Егоро вич</w>
Евдо кия</w>
Е кро
Е же
До ма</w>
Ди вон</w>
Дево ра</w>
Дан тес</w>
Да й</w>
Д ени
Д ей
Го то
Го мор
Га раш
Га зер</w>
Га ал</w>
Вӑ т</w>
Вы рӑс</w>
Вирсави и</w>
Вер зел
Вениа мин
Ве домости</w>
Вал я</w>
Ва ала</w>
В спо
В ил
Бори с</w>
Бе еро
Башкор то
Асс ур</w>
Ар фак
Анатоль евич</w>
Ана ста
Ан ь
Амно на</w>
Алексе я</w>
Адо ни
А тар
А сси
I II</w>
? ..</w>
9 6</w>
8 4</w>
6 00</w>
200 3</w>
200 1</w>
199 9</w>
19 62</w>
1 50</w>
. ),</w>
ӳкӗ те</w>
ӳ ҫӗ</w>
ӳ нер</w>
ӗҫ ӗпе</w>
ӗҫ лӗр</w>
ӗнен екен</w>
ӗмӗр ӗн</w>
ӑрӑ вӗсен</w>
ӑм сан
ӑ сти
Ӑ ҫта</w>
ҫӳл тен</w>
ҫӳ ҫне</w>
ҫӳ лерех</w>
ҫӗршы вне</w>
ҫӗр улми</w>
ҫӗр пе</w>
ҫӗк лен</w>
ҫӑвар не</w>
ҫӑ кӑра</w>
ҫыр лине</w>
ҫы ран
ҫухал нӑ</w>
ҫулӗ сенче</w>
ҫул хипе</w>
ҫул лӑх</w>
ҫу на</w>
ҫу м
ҫу кки</w>
ҫитӗн ӳ</w>
ҫителӗк сӗр</w>
ҫил л
ҫемь ене</w>
ҫак сене</w>
ҫав сене</w>
ҫав ра</w>
ҫа вра
ҫ ри</w>
ҫ ек
Ҫӗр пӳ</w>
Ҫы рура</w>
Ҫи ччӗмӗш</w>
Ҫа к
Ҫ ар
язы ку</w>
я тӑмпа</w>
я ту</w>
я ра
ющи ми</w>
юхӑ мӗ</w>
юра тӑ
юр рисене</w>
юн шӑн</w>
юл нине</w>
юл масӑр</w>
юл ма</w>
ю г</w>
экс плу
эксплу ата
ь не</w>
ый татӑп</w>
ывӑл сем</w>
ывӑл на</w>
ы ваться</w>
шӑ тӑ
шухӑш па</w>
шуйт тан</w>
широ ко</w>
ши рина</w>
ше ю</w>
ше стой</w>
ше ле
шар ла
шал ча</w>
ша х
ша к
ша г</w>
ш ный</w>
чӗр чун</w>
читате лей</w>
чи вый</w>
че ря
че б
чару сӑр</w>
чалӑ ш</w>
ч ӑх</w>
ч ною</w>
ч ленӗ</w>
ч ились</w>
ч ал
ци он</w>
ци к
цар ствовать</w>
ц о
хӗрарӑ мсен</w>
хӑруш лӑха</w>
хӑм ла</w>
хӑй семпе</w>
хӑвар ӑр</w>
хӑва чӗ</w>
хӑ рса</w>
хыр ҫӑ</w>
хы рӑ
хуҫалӑх ӗн</w>
хускал са</w>
хур ланса</w>
ху тӑм</w>
ху н</w>
ходя щие</w>
хо ва</w>
хи т</w>
хи й</w>
хатӗрле ҫҫӗ</w>
хар пӑр</w>
халалӑ ма</w>
хал сӑр
фа и
ф ет</w>
уҫӑл чӗ</w>
уя вне</w>
ущер б</w>
ушкӑн не</w>
уш ла</w>
учили щи
участ ников</w>
уча т</w>
успе шно</w>
ус ала</w>
упӑш кине</w>
упра вля
умер щ
ум ы</w>
ум ре
улӑш тарма</w>
улӑх нӑ</w>
улиц ей</w>
уйӑх ран</w>
уйрӑм мӑн</w>
у ются</w>
у тӑм</w>
у серд
у сен</w>
у рай
у ет</w>
тӳпен е</w>
тӳле мелле</w>
тӳ ри</w>
тӗр ӗ</w>
тӗр ме</w>
тӗр кӗш</w>
тӗпче в</w>
тӗлӗ кре</w>
тӑрш шӗпе</w>
тӑран са</w>
тӑван сем</w>
тӑ пра
тӑ вӑн</w>
тытӑ мӗнче</w>
туха ҫҫӗ</w>
тух тӑр
тух малла</w>
тури зма</w>
тура чӗ</w>
тум тирӗ
ту лаш</w>
тру бами</w>
тро е</w>
три те</w>
тр ени
тихонь ку</w>
тинӗ се</w>
тивӗҫ терес</w>
тивӗҫ терес
ти ччен</w>
ти тесь</w>
ти ем</w>
технологи и</w>
терри то
тер п
тер мо
тем шӗн</w>
тель ной</w>
теле вид
те ссине</w>
те пӗри</w>
тат ар
тасат ма</w>
тасат акан</w>
тар и</w>
тан це
тан пах</w>
таврӑн тӑр</w>
та ют</w>
та кими</w>
т ӳл
т ӳ</w>
т рӗ</w>
т лат</w>
т ва</w>
сӑн арӗ</w>
сӑма хӑма</w>
сӑл тавӗ</w>
сӑл тав</w>
сӑ нӑ</w>
сых ланса</w>
сыв лӑм</w>
счаст ью</w>
сук кӑр
суббо ту</w>
су дей</w>
сту пить</w>
стоя т</w>
сто лом</w>
сто ла</w>
ствен ная</w>
стат ься</w>
стара лась</w>
стар ших</w>
стар ший</w>
стар ик</w>
стаб иль
ста м</w>
ст инно</w>
спортив ные</w>
спа л</w>
социаль ные</w>
сокро ви
созд ания</w>
созд ание</w>
согре шили</w>
согла сно</w>
совершен но</w>
смо к
смо гут</w>
смешан ной</w>
случа ях</w>
случа ев</w>
служ ба</w>
служ б
следу ющее</w>
ско тину</w>
сквоз ь</w>
сик ке
си мӗс</w>
си дит</w>
сехӗр ленсе</w>
серебря ных</w>
серебря ное</w>
сер ьез
сентя бря</w>
священни ксене</w>
свя том</w>
свобо дно</w>
само стоятельно</w>
самант рах</w>
сак кунӗ</w>
сай ра</w>
са ран
са по
са вӑн</w>
с матри
с лан
с кан
с ведения</w>
ру бить</w>
род ную</w>
ров ано</w>
ро ста</w>
ро жда
ро де</w>
ри ц
ремон та</w>
ре шить</w>
ре шет
ре ку</w>
ракан ни</w>
разви вается</w>
раз деле</w>
раб ам</w>
пӗрлӗхӗ сен</w>
пӗр лӗхӗн</w>
пӑх ӗ</w>
пӑрӑ с
пӑрӑ вне</w>
пяти ть</w>
пы ратпӑр</w>
пы ни</w>
пуҫ ӑн
пуҫ ланать</w>
пуҫ арӑ
пушхир не</w>
путе ше
пурпуро вой</w>
пурнӑҫ ланать</w>
пунк тӗнче</w>
пулӑ ттӑм</w>
пултарай масть</w>
пу ш</w>
пу личчен</w>
пти цу</w>
пси хо
проце ду
прокля т</w>
произ ведений</w>
проек чӗсене</w>
проек ты</w>
продук тив
продол жить</w>
про сить</w>
про йдет</w>
про давать</w>
про го
прине си</w>
при чина</w>
при ступать</w>
при роды</w>
при водит</w>
предприяти сем</w>
предприним атель</w>
пред ан
пре ми
пре з
прави сене</w>
почталь он
потен ци
посе ли
пос лан
поря до
полови ны</w>
показ ате
пока зывать</w>
познаком ились</w>
пожар ной</w>
под ъ
под арок</w>
по ста
по со
по мина
по ла
по года</w>
пла т</w>
пичч ӳ</w>
пиллӗ кӗмӗш</w>
пи тне</w>
пи сем</w>
печен и</w>
пес нями</w>
первен ца</w>
пер выми</w>
патӑн та</w>
патӑ рта</w>
пат е
пар нисем</w>
пар ней</w>
пар и
панӑ шӑн</w>
палӑр чӗ</w>
паллаш ма</w>
па кан</w>
п сал
п лю
п ли
очи ща
отправля лись</w>
ото шел</w>
отдель ные</w>
отве чать</w>
оста ваться</w>
основ ном</w>
осмо трит</w>
ору жен
органи зм</w>
органи з
опу хо
он у</w>
одно летний</w>
ове н</w>
обра ща
обра тил</w>
обеспе чи
о ставит</w>
о знакоми
нӗ скер</w>
нормаль но</w>
но гу</w>
но вая</w>
но ват
ниц ей</w>
никӗс не</w>
ни чать</w>
ни сӗр</w>
ни ксем</w>
нечи стым</w>
неме ц
небе с</w>
не чный</w>
не те</w>
не совершенно
не сколь
не ров</w>
начи ная</w>
науч но</w>
наро дный</w>
напол н
напер сни
нал ук
над зира
наго ту</w>
на став
на сла
на каз
на бра
мӗн ех</w>
мӑ пӑр</w>
мух та
музе й
му л
мол ился</w>
много квартир
министер ство</w>
меч ты</w>
механизат ор</w>
мест ӗр</w>
мероприяти ях</w>
мер ӗр</w>
матери ал</w>
ман на</w>
мал ӑх
мадиан сен</w>
ма шине</w>
ма ш</w>
ма ран</w>
ма кӑр</w>
м ра
лӑ скер</w>
ля ли</w>
ль пе</w>
ль ной</w>
ль ник</w>
лист ья</w>
ли з
ли ех</w>
лен ного</w>
лар тас</w>
лан тарса</w>
лав кка</w>
ла малли</w>
кӳре с</w>
кӳ рес
кӳ лӗ</w>
кӗрт мелле</w>
кӗр кунне</w>
кӗ ҫ</w>
кӑтар тӑп</w>
кӑтар тӑвӗ</w>
кӑтар ту
кӑ рӗ</w>
кӑ кӑр</w>
курӑн ать</w>
курӑ млӑ</w>
курай ман</w>
кур нине</w>
ку кӑр</w>
ку вши
кто рӗ</w>
кры шку</w>
круп ных</w>
кру ченого</w>
кра ю</w>
кра пи
которо ю</w>
конкур сах</w>
кон ди
комнат ы</w>
ком бин
коллек тив</w>
ко зел</w>
кля твою</w>
клас сах</w>
кис рен
кин у
килӗ ше
кив ҫен</w>
ки сен</w>
квартир у</w>
каҫ чен</w>
кая тӑн</w>
кафе д
кар тса</w>
кар то
канӑ ва</w>
кайӑ ксене</w>
ка питал
ка жд
йӗркеле мелле</w>
йӑх на</w>
йывӑр лӑх</w>
й ского</w>
й дите</w>
итле мен</w>
испол нить</w>
искус ствӑ
ирт терет</w>
интерес ӗсене</w>
ин чи</w>
ин спе
ин дек
име я</w>
име ющий</w>
илт семччӗ</w>
ил ӗн</w>
ил трӗм</w>
ил семччӗ</w>
ил ов</w>
иккӗ шне</w>
избав ь</w>
и ду
зыва ют</w>
зре л</w>
зр я</w>
золо тая</w>
зар е
зап лани
закон у</w>
заколо л</w>
зако нами</w>
зако ла
за хотел</w>
з вать</w>
жи ву</w>
жат вы</w>
ж дает</w>
ж ано
ж але
ес се</w>
ер т</w>
ени ями</w>
е хал</w>
е ды</w>
е д</w>
е вы</w>
дро вич</w>
досто йно</w>
доро ва</w>
должно ҫсене</w>
докумен ты</w>
доб рой</w>
до шел</w>
до вый</w>
до ви
дире ктор</w>
ди ном</w>
деся т
депутат сем</w>
демо графи
дел или</w>
деву шку</w>
де ду
дар ы</w>
д ӑна</w>
д ё
д ню</w>
д ных</w>
д лина</w>
д лин
д ана</w>
гру дь</w>
государствен ным</w>
государ ство</w>
голо вно</w>
год ных</w>
го дами</w>
гим н</w>
ги те</w>
гар мо
га з</w>
вӑр ҫинче</w>
вӑр ри</w>
вӑр лӑхӗ</w>
вӑ чӑ
вырӑн ӗсене</w>
выполн ения</w>
вы ходили</w>
вы пуска
вы мыть</w>
вы го
встре чи</w>
встре ча</w>
встре тились</w>
возь мут</w>
воз ме
воз люб
во стре
во к
внутренни й</w>
вич па</w>
ви тӗм
ви м</w>
ви з
ви дят</w>
ви дите</w>
вер ный</w>
ве ке</w>
ван ы</w>
ван ных</w>
в шая</w>
в ходит</w>
в ка</w>
бюдже те</w>
бы вший</w>
бра сы
богат ый</w>
бо йтесь</w>
благово н
бед ствие</w>
бе ды</w>
б ун
б ран
ая ла</w>
ачи семпе</w>
ача ш
ат аш
асӑр хан
ас шӑн</w>
ас лаш
ар лӑ</w>
ан ӑҫ
ан тарса</w>
ан тар</w>
аммон сен</w>
алӑ ка</w>
ал ӗ</w>
айлӑ мра</w>
а ук
а сси</w>
а гре
а вӑр</w>
Э милия</w>
Ы тти
Шал ти</w>
Ш им
Ч ем</w>
Хусан ти</w>
Хо чу</w>
Ханане и</w>
Филистим ских</w>
Ф он
Ф ин
Уя в</w>
Услы шав</w>
Ун сӑрӑн</w>
Ук ҫа</w>
У х
У ра
Тӗрӗ с</w>
Тӑ вай</w>
То ви
Т ет
Строи тель
Со дом</w>
Сихе ма</w>
Сис ара</w>
Сво ю</w>
Сво ими</w>
Сво ему</w>
Саккун ӑн</w>
Са ша</w>
СХ К</w>
С то
С та
С вой</w>
Пуш кин
При волж
Пат ри
Пас хи</w>
Павло вич</w>
О со
О сен
О с
Нар спи</w>
На ч
На у
На с</w>
На конец</w>
Н ы
Н ем</w>
Моргауш ского</w>
Моисе ем</w>
Ми ша</w>
Меро прияти
Мано й</w>
Мал алла</w>
Л ар
Крас ной</w>
Кеде с</w>
К ӗне
К лара</w>
Иуде ев</w>
Ин га</w>
Изрее ль</w>
Израиль ского</w>
Израиле ву</w>
Иефон ния</w>
Иевусе ев</w>
Иави с</w>
Иа ковпа</w>
И стинно</w>
Жи тели</w>
Есе во
Ена к</w>
Егоро в</w>
Ду мин</w>
Дмитри й</w>
Ди ма</w>
Дей ствительно</w>
Дави дом</w>
Гор ь
Гон ч
Го вор
Гер м
Га да</w>
Вур нар
Вре мя</w>
Владимиро вич</w>
Вифле ема</w>
Василь ева</w>
В ун
В ся
В зя
В ен
Бу ду
Б атырев
Ахи ту
Ахи меле
Атла шевский</w>
Архи пова</w>
Андре ева</w>
Анан ьевна</w>
Аммони тян</w>
Аммони тя
Аммони т
Алексе евич</w>
Аз от</w>
Адраа зара</w>
Авимеле ха</w>
Авессало му</w>
А сы</w>
А ссо
А рӑм</w>
1 70</w>
... »</w>
№ .</w>
ӳс рӗ</w>
ӗҫчен ӗсен</w>
ӗҫтеш сем</w>
ӗҫлен ӗшӗн</w>
ӗҫлекен сем</w>
ӗм пе</w>
ӗлӗк хи</w>
ӑсталӑх не</w>
ӑслӑлӑх ӗсен</w>
ӑс са</w>
ӑрӑ м
ӑ сти</w>
ӑ мпа</w>
ҫӳр енине</w>
ҫӳ ле</w>
ҫӗн ӗ
ҫӗн терсе</w>
ҫӗн е
ҫӗклен терсе</w>
ҫӗк ленсе</w>
ҫӑнӑх ӗн</w>
ҫӑ сене</w>
ҫӑ пан</w>
ҫыхӑн тарнӑ</w>
ҫывӑ рса</w>
ҫы ра
ҫы лӑхӗ</w>
ҫуртун та</w>
ҫура ҫ
ҫур ха
ҫурха хне</w>
ҫу нӑ</w>
ҫи п</w>
ҫар пуҫ
ҫар па</w>
ҫакӑн тан</w>
Ҫул талӑк</w>
Ҫимӗ к</w>
Ҫ е
ялан лӑхах</w>
ял ӗнчи</w>
явля ться</w>
я раҫҫӗ</w>
я нах</w>
я на
я ли</w>
я ка</w>
я вил</w>
юрӑх лисем</w>
юратат чӗ</w>
юрат у</w>
юр ланӑ</w>
юпи сен</w>
ю хакан</w>
ю ман
ю лашкинчен</w>
эффектив ности</w>
экологи ческой</w>
э мел</w>
э м</w>
ый тать</w>
ывӑлӗ сенӗн</w>
ывӑлӗ семшӗн</w>
ывӑл ӗнчен</w>
ы ш</w>
щу сь</w>
щ ет</w>
шы всем</w>
шы вне</w>
шухӑш ла
шу м</w>
шири ною</w>
ше во</w>
шан ӑҫ
ш ӗнчен</w>
ш ила</w>
чӗр тсе</w>
чӗн мен</w>
чӗлх ӳ</w>
чӑ тай
чӑ т</w>
чылай ччен</w>
чуваш скую</w>
чув ство</w>
чу вашей</w>
чита ю</w>
чита л</w>
чир кӳ</w>
ча ш
ча п</w>
ч ья</w>
ч чӗҫ</w>
ч унпа</w>
ч ок</w>
ч не</w>
ч лены</w>
ч ался</w>
ци ях</w>
цент ров</w>
цен тра</w>
цело вал</w>
хӑт лан
хӑпар нӑ</w>
хӑй ӗнчен</w>
хӑй ӑр</w>
хӑвар малла</w>
хӑ парса</w>
хӑ мсене</w>
хутшӑ наҫҫӗ</w>
хуй хӑ
ху рӑн</w>
ху пӑ
ху лан</w>
хоро шая</w>
хо р
хо л</w>
хле бы</w>
хисепле ме</w>
хатӗрле кен</w>
хатӗр лет</w>
хатӗр леннӗ</w>
хастар лӑх</w>
харак тери
халӑх шӑн</w>
хай ла
хавхалан тарать</w>
ха кӗ</w>
х чӗ</w>
х во
фу рун
фон чӗн</w>
фон д</w>
филь ма</w>
фи о
факуль тет
фа ши
ф ара</w>
ф аль
учреждени йӗсен</w>
уча ствовал</w>
уча ство
ут ран</w>
уста вы</w>
уста ву</w>
услови ях</w>
ус пех</w>
урӑх ларах</w>
ура мра</w>
ура ма</w>
управлени йӗн</w>
ун кӑ</w>
умы валь
умерт вить</w>
умер ло</w>
ул тал
ук ҫине</w>
ук сах
уйӑрӑ лса</w>
удоволь ствие</w>
убий ца</w>
уб ав
у ҫа
у слуги</w>
у са</w>
у ре
у разуме
тӳрӗ лӗхне</w>
тӳр кке
тӳпе ре</w>
тӗнче рен</w>
тӗлле ве</w>
тӗл ӗнчи</w>
тӗ кел</w>
тӑрӑш малла</w>
тӑрӑш атӑп</w>
тӑрат ма</w>
тӑракан сене</w>
тӑра сси</w>
тӑра ниччен</w>
тӑван ӗн</w>
тӑ рура</w>
тӑ рассине</w>
тӑ нӑҫ</w>
тӑ кӑн</w>
тыт кӑн
ты таҫҫӗ</w>
тухӑҫ лӑн</w>
тус сем</w>
тумтир е</w>
тул нӑ</w>
тул лӑ</w>
ту ччӑр</w>
ту тар
труд ности</w>
труд ился</w>
трени ров
трен ер
тре х
то чки</w>
то сти</w>
тим лӗх</w>
тил мӗр
тивӗҫ сене</w>
тивӗҫ лӗн</w>
техно лог
технолог иллӗ</w>
терес шӗн</w>
тер ӗн</w>
тер ӗмӗр</w>
тер ять</w>
тель ным</w>
телеви зор
те тнӗ</w>
те те</w>
те рех</w>
тат ӑн</w>
тарас сипе</w>
тар ӑн
тар тӑр</w>
тапӑр ӗн</w>
танлаш тарма</w>
так ана</w>
таврӑн сассӑн</w>
тавра лӑх</w>
тав рӑ
та ҫта</w>
та ратпӑр</w>
та м
т рат
т ливый</w>
сӗт пе</w>
сӗртӗн нӗ</w>
сӑ ран
ся дет</w>
сывпул лаш
сыв лӑха</w>
сы сна</w>
счита ю</w>
сцен е</w>
сук кӑр</w>
суд или</w>
сту чать</w>
стро ение</w>
страте ги
стол бах</w>
стен а</w>
ству ющих</w>
ствен ное</w>
стар е
ст ӑр
ст яз
ст вами</w>
спи сок</w>
специали стсем</w>
спа с</w>
соз да
сож ал
совер шить</w>
сове ту
собствен ность</w>
со т
со стяз
со стар
со став
со рта</w>
смо трел</w>
смешан ною</w>
случа йно</w>
слу ш
слу ге</w>
слови е</w>
сло ж
скор би</w>
скер сене</w>
ситуа цию</w>
сирп ӗн
си н</w>
си ке
сехӗр лен
сехет ре</w>
сельч ане</w>
сегодня шнего</w>
сегодня ш
север ной</w>
се ло</w>
се ктор
священни кам</w>
священ ное</w>
свя т</w>
све ж
сан ти
сам ис
сал така</w>
са хӑр</w>
са йте</w>
с жи
с бере
с анитар
с альник</w>
ры з
ры вать</w>
ры в</w>
ро сли</w>
ро са</w>
ро с</w>
ри ччен</w>
ри ны</w>
рейтин г
рее стр
ред ко</w>
регион сем</w>
ребен ком</w>
ре ктор</w>
рат тӑм</w>
рас сы
разре шения</w>
различ ные</w>
раз ор
раз ными</w>
раз дела</w>
раду ется</w>
радо стно</w>
работа ем</w>
пӗрлеш тернӗ</w>
пӗр чӗ</w>
пӗ тме</w>
пӑх малла</w>
пӑрах тӑр</w>
пӑ хӑ
пӑ к</w>
пят ка</w>
пье де
пы нипе</w>
пшени чною</w>
пуҫҫап са</w>
пуҫланӑ ранпа</w>
пуҫ лать</w>
пуҫ ланчӗ</w>
путе кки</w>
пуст ила</w>
пурӑна й
пурӑн ӑҫ</w>
пурӑн ӑ
пурӑн нине</w>
пурнӑҫла ссине</w>
пурнӑҫ ӗнче</w>
пурнӑҫ лаҫҫӗ</w>
пурнӑҫ ласа</w>
пурнӑҫ ланине</w>
пурин шӗн</w>
пунк тов</w>
пулта ратпӑр</w>
пула ссине</w>
пул масассӑн</w>
пу ха
пу рӑнӗ</w>
пу н</w>
пу лай
проро че
продолж ение</w>
продол житель
про щено</w>
про шествии</w>
про ходить</w>
про ходили</w>
про ходил</w>
про тя
про све
про ведение</w>
приш лец</w>
приобре сти</w>
прино сили</w>
привле кает</w>
привез ли</w>
приве дет</w>
при зна
при держи
при влекатель
при были</w>
предлож ения</w>
пред ложил</w>
пре поя
посмо тре
поне сет</w>
полови ну</w>
поли графи
пол ной</w>
покры вал</w>
показ атели</w>
позд нее</w>
подоб ного</w>
подня лся</w>
поддерж ку</w>
подготов или</w>
под няли</w>
под ав
погиб ли</w>
по ра</w>
по нял</w>
по головно</w>
по го
по вино
площа дь</w>
пло хо
пло м</w>
пла ч</w>
пла мен
пис атель</w>
пис атель
пис атели</w>
пи ться</w>
перевоз ки</w>
пере дней</w>
пе чь</w>
пе сен</w>
патшалӑх па</w>
парӑн тарнӑ</w>
парне рен</w>
палӑ рса</w>
пал ан</w>
па халӑхӗ</w>
па ратпӑр</w>
па масть</w>
па йӑр
п ился</w>
очере дной</w>
отмет или</w>
отдель ных</w>
от чет
от ряда</w>
оста вался</w>
организаци сен</w>
орган ӗн</w>
ор ке
опол чением</w>
одеж д</w>
обы к
обык нов
обще жи
оборудо вани
облаҫ ӗнчи</w>
обла сть</w>
обла ст
обе щ
об нов
об ло
об лик</w>
о фор
о станов
о ставить</w>
о ре
о пла
нӑ ш</w>
ня ются</w>
нов ения</w>
но чи</w>
никӗ с</w>
ни тесь</w>
ни ну</w>
ни мӗ
ни же</w>
ни в</w>
нечи сто</w>
несчаст ье</w>
ненави дящих</w>
небес ные</w>
не шь</w>
нач ать</w>
наход ился</w>
нау кӑпа</w>
нау ка</w>
наполнен ные</w>
най дет</w>
на чӗ</w>
на учил</w>
на ступ
на веду</w>
н ӳ
н ур
н ный</w>
мӗш не</w>
мӗс кӗн
мӗн рен</w>
мӑшӑр лан
мӑр па</w>
мӑнаҫ лӑ</w>
мӑнаҫ лан
мухтав лӑхӗ</w>
муниципалитет сен</w>
муниципал лӑ</w>
мужч ину</w>
муже ство</w>
муже ский</w>
му р</w>
му кою</w>
моло дая</w>
мо ав
младен ца</w>
министер ства</w>
мило сти
миллиар дов</w>
ми ра
мерзо сти</w>
мен ччӗ</w>
мед ленно</w>
ме ц</w>
маршру ту</w>
мар и</w>
ман са</w>
малӑх не</w>
малень кий</w>
май сене</w>
ма шины</w>
лӑх ри</w>
ль го
луч шее</w>
лу ю</w>
лист ьев</w>
ли сенчен</w>
лен ок</w>
лен ная</w>
лег че</w>
ле тӗр</w>
ле п
ле лле</w>
ле г</w>
лат ать</w>
лаптӑ кӗ</w>
лайӑх хине</w>
лагер е</w>
ла уре
ла г</w>
л ки</w>
л ились</w>
кӗре ҫҫӗ</w>
кӗне ки</w>
кӑрал не</w>
кӑлар ӗ</w>
кӑ лӑхах</w>
куҫ ӑн</w>
куҫ нӑ</w>
кур тӑр</w>
кун ӗсем</w>
кун ти</w>
культу рой</w>
ку рах</w>
ку рас</w>
ку пӑс</w>
ку пить</w>
кто ра</w>
кра е
кор м
кон струк
комплек с</w>
комбин ат
ком со
колен и</w>
коз ленка</w>
ко смо
ко ней</w>
ко л</w>
ко жа</w>
ко ж</w>
кли мата</w>
кило грамм</w>
кил ӳнте</w>
ки сло
ки мӗ</w>
ке л
каҫарӑ нӗ</w>
кашӑ к</w>
кас аться</w>
канчи вается</w>
кан нӑ</w>
камен ные</w>
калар ӗҫ</w>
кал ӗҫ</w>
кал лӑ</w>
каж дому</w>
каж дая</w>
кад ров</w>
ка па</w>
к ван
йӗрке сем</w>
йӗр пе</w>
йӑ п
йӑ вал
йышӑ нас</w>
йывӑҫ сем</w>
йи пе</w>
й ду</w>
иудей сем</w>
истреби т</w>
исти на</w>
исте чения</w>
ист ину</w>
исполн ение</w>
ис т</w>
ис ся
ис пове
информа цие</w>
институ те</w>
инвести ци
инве сто
ина н</w>
име ли</w>
илт мен</w>
ил ӗҫ</w>
из датель
из готов
из ве
иде о
и ҫе</w>
зна й</w>
зи я</w>
зи ди
зер но</w>
зер на</w>
заяв ление</w>
зар убе
заплат ить</w>
зан яла</w>
заме ч
заклю чил</w>
заболе л</w>
за ция</w>
за ци</w>
за су
за кал
за ка
за блу
з мей</w>
з вер
з ала</w>
жи вой</w>
жерт ве</w>
жен ной</w>
же ле
ж юри</w>
еш ься</w>
еф од
ен ное</w>
ем ы</w>
е шӗл</w>
е мой</w>
е лле</w>
е зи
ды шать</w>
доли ны</w>
должно ҫӗсене</w>
долго е</w>
докумен т</w>
добро го</w>
доб рый</w>
доб ром</w>
доб ра</w>
до черя
до чер
до нор
диа гно
депу тата</w>
дево чка</w>
де лах</w>
дви жение</w>
дан ь</w>
дан ный</w>
д ью</w>
госпо дином</w>
горя чо</w>
город ского</w>
горо дом</w>
гово й</w>
го тов</w>
го мо
гне ц</w>
глав ных</w>
гла вой</w>
га ют</w>
г ись</w>
вӗҫ ленӗ</w>
вӗрен тет</w>
вӗр се</w>
вӗлере кене</w>
вӑрҫ ма</w>
вӑр мана</w>
вӑййи сене</w>
высоко технологи
высо кий</w>
вырӑн ӗсем</w>
выльӑх па</w>
вы ре
вы ез
вы бор
все сторон
времен ем</w>
вра чей</w>
восто ка</w>
восто к</w>
воро тах</w>
вопро сов</w>
вопро сам</w>
возврати сь</w>
воз дви
вое вал</w>
вод или</w>
во му</w>
внутренни х</w>
вну ка</w>
вля ет</w>
виҫе пе</w>
виҫ рӗ</w>
вита ми
виногра дник</w>
вил ес
ви ҫсе</w>
взрослы х</w>
вещ ь</w>
вет ви</w>
вес ной</w>
верну лись</w>
верблю дов</w>
вер ени
ве сен
ве дом
вар лӑ</w>
вар и</w>
ваплӑ ран</w>
важ ней
ва й
в стала</w>
в клады
в или</w>
в верх</w>
бо сть</w>
бо ль</w>
близ и</w>
благод ат
беспоко ит</w>
бед ствия</w>
бе л</w>
бас сей
бага жа</w>
аҫу сене</w>
ая к
аша кне</w>
ача па</w>
атле ти
атель ство</w>
ат тен</w>
асӑн малӑх</w>
аса п
ас фаль
ас лӑрах</w>
ас лати</w>
арӑ м
ап пара
ан сат
ан ас
ал ы</w>
ал тса</w>
активи сты</w>
академи к</w>
айӑ п</w>
ай лӑм</w>
авто р</w>
авто мат
а х
а фа</w>
а уди
а вӑн
Ял ти</w>
Эль за</w>
Эко номи
Э лӗк</w>
Чы лай</w>
Чу тай</w>
Чу ра
Чеч ня</w>
Чебоксар ском</w>
Ч ӗ
Цар ство</w>
Хӗра рӑ
Хетте ев</w>
Хал ь</w>
Ха мӑрӑн</w>
Ха вал</w>
Х ӗр</w>
Фестивал ь</w>
Ф у
Ф ас
Ут ром</w>
У ча
У рӑх</w>
У зи
Тӑ ват
Туррӑ мӑра</w>
Турри йӗн</w>
Тра ктор</w>
То лик</w>
Ти мир
Тем иҫе</w>
Сӑ ваплӑран</w>
Сою за</w>
Сла ва</w>
Сина йской</w>
Си мо
Се п
Се ке
Се ва
Самар ии</w>
Салпа а
Сал ам</w>
Са ве
С разу</w>
С пек
С кор
С ин
С В
Руко водитель</w>
Род ники</w>
Рим мон</w>
Р я
Р Т</w>
Пуш ӑ</w>
Про ф
Про спек
Про мышлен
Про коп
Председате ль</w>
Правитель стви</w>
По э
Пер вый</w>
Пат ши</w>
Па па</w>
П ӑх
П уч
П раз
П ир
От куда</w>
Октя бр
О ри
О нан</w>
О г</w>
Ни р</w>
Ни ж
Не льзя</w>
Нат аль
На ват
На ва
Му х
Му ж
Мо ей</w>
Мини стр</w>
Мил ло</w>
Ми т
Ми ро
Ме гид
Масси фа</w>
Мар и</w>
Малтан хи</w>
Макси мов</w>
Мади ам
Ма ф
М ӑн</w>
М Ч
Ли да</w>
Л ад
Ку ра
Красноче тай
Ко ля</w>
Кабине чӗ</w>
Ка ҫ</w>
Ка инан</w>
Ка ж
К ит
К ис
К ена
К О
Иудей ский</w>
Ик кӗ
Иеффа я</w>
Иефон ни
Ие ву
Идуме я</w>
Иави са</w>
Иа зер</w>
Золо той</w>
За ме
Жен щина</w>
Ели фа
Ел чӗк</w>
Е дре
Доб ро
Д умы</w>
Д нем</w>
Гра жданин</w>
Государствен ной</w>
Го д</w>
Ги ези
Ге л
Галаад ри</w>
Вӑр мар</w>
Вӑ й</w>
Во роб
Во про
Владими ров</w>
Ви но
Веф самис
Вар на
Вален тин</w>
Вал ер
Бы л</w>
Боль ш
Бе э
Бе н</w>
Б ар
Ашмар ин</w>
Ахима ас</w>
Аф гани
Аф анас
Аса ил</w>
Арно на</w>
Ар ши
Анд рее
Амес сая</w>
Амес сай</w>
Алат ыр
Авто р</w>
Авра му</w>
Авимеле ху</w>
Ави уд</w>
А сор</w>
А лев
А и
; ]</w>
: —</w>
9 4</w>
8 2</w>
20 19</w>
197 3</w>
19 48</w>
19 45</w>
19 42</w>
19 41</w>
19 38</w>
19 32</w>
19 0
1 6
. "".</w>
ӳпке леш
ӳкӗ тӗ
Ӳ т</w>
ӗҫ ӗр
ӗҫ те
ӗҫ сӗр</w>
ӗҫ лӗ</w>
ӗрен пе</w>
ӗ рет</w>
ӑста й
ӑст алӑх</w>
ӑс чах
ӑрӑ в
ӑн тӑ
ӑн кар
ӑ сен</w>
Ӑ ҫтан</w>
ҫӳре рӗм</w>
ҫӳре рӗ</w>
ҫӳ рев
ҫӗнтер ӳ</w>
ҫӗнет нӗ</w>
ҫӗк леннӗ</w>
ҫӑл куҫӗсем</w>
ҫӑл куҫ</w>
ҫӑвӑн малли</w>
ҫӑ т
ҫӑ семпе</w>
ҫӑ лакан</w>
ҫыхӑ ну
ҫып ҫӑ
ҫынну н</w>
ҫывӑх ри</w>
ҫывӑ ха
ҫы р</w>
ҫутаткӑ ҫ</w>
ҫуна чӗ</w>
ҫул у</w>
ҫук чӗ</w>
ҫу рӑм</w>
ҫу мӗн</w>
ҫи тӗр</w>
ҫи терсе</w>
ҫи ет</w>
ҫем ҫе</w>
ҫ пӗл</w>
Ҫем ьере</w>
Ҫа ксем</w>
Ҫ ӳ
явап лӑха</w>
ябло ко</w>
ябло ки</w>
я сно</w>
я ние</w>
я лись</w>
ющ ему</w>
юрӑ сем</w>
юратат ӑн</w>
юрат ни</w>
юра та
юра ман</w>
юл са</w>
юл марӗ</w>
ю щегося</w>
ю т
электри чество</w>
эксплуата цию</w>
э ш
э ро
ь ей</w>
ырӑ лӑхне</w>
ыр рине</w>
ыйтӑ вӗсене</w>
ыйт рӑм</w>
ывӑ н
щи ть</w>
щи йся</w>
шӗ век</w>
шӑр ш
шӑнкӑ рав</w>
шӑ нӑ
шӑ ма
шӑ лса</w>
шыв ран</w>
шухӑш лӑ</w>
шухӑш латӑп</w>
шутлана ҫҫӗ</w>
шкул тан</w>
ши тся</w>
ше сти
шан атпӑр</w>
ш тат
ш ением</w>
чӑ л
чуру сене</w>
чура сем</w>
чуде са</w>
чуваш ским</w>
чу рин</w>
чрес л</w>
числен ность</w>
чи ков</w>
четвер ть</w>
чен ачаль
челове ческих</w>
ч ча</w>
ч рез
ч ила</w>
цион ные</w>
ци йӗпе</w>
ци али
цер к
цен тра
цве тов</w>
цар ского</w>
ца ра
хӗрарӑ мне</w>
хӗр ӗпе</w>
хӗр пе</w>
хӗ сӗк</w>
хӗ рес</w>
хӗ м</w>
хӑтар сам</w>
хӑл ха
хӑй не
хӑвӑр па</w>
хӑват не</w>
хӑ ю</w>
хӑ рӑр</w>
хӑ пар</w>
хӑ п
хы ҫал</w>
хы т</w>
хушшӑ мӑрта</w>
хутшӑн чӗҫ</w>
хутшӑн ни</w>
хутшӑ ну
хурӑн таш
хурав ларӗ</w>
хур лӑхлӑ</w>
худо е</w>
ху ҫисем</w>
ху шӑн
ху сах</w>
ху малли</w>
храб рых</w>
храб рый</w>
хоро шую</w>
хол м</w>
хозяй ствах</w>
хозя ин</w>
хо ра
хо р</w>
хо ждения</w>
хо ждении</w>
хир ӗнче</w>
хи тре
хаҫат ра</w>
хатӗрле мелле</w>
ханаан сене</w>
хал тан</w>
хак лӑх
хавша са</w>
ха мах</w>
ха кне</w>
х ана</w>
фут бол</w>
фон дне</w>
фоль кло
фо ни
фир ма</w>
федераль ными</w>
февра ля</w>
фе ра</w>
ф ӑна</w>
ф ран
ф ло
ф ее</w>
уҫӑл нӑ</w>
учреждени ях</w>
учени к</w>
участ ков</w>
уч илища</w>
утра тив
ут лӑ</w>
успо ка
усер дно</w>
ус лам</w>
ус лам
упӑш ка</w>
ун талла</w>
умре шь</w>
улӑш тар
улуч шение</w>
уй те</w>
уй ста</w>
ужа с</w>
уда чно</w>
убежи ща</w>
у целе
у рок</w>
у рим</w>
у про
у ку
у да</w>
у глуб
у гла
тӗре кӗм</w>
тӗр не
тӗл те</w>
тӗ пӗ</w>
тӑшман ӑр
тӑхӑнтар тса</w>
тӑрӑ ха</w>
тӑрӑ пӑр</w>
тӑра тӑр</w>
тӑр лахи</w>
тӑка кӗсем</w>
тӑват кал</w>
тӑва сси</w>
тӑ масть</w>
тӑ вӗҫ</w>
тӑ ва</w>
тяну ться</w>
тян ка</w>
тытӑн сассӑн</w>
тытӑ наҫҫӗ</w>
тытӑ мӗн</w>
тыт малли</w>
тыт малла</w>
тыся ченачаль
ты мар</w>
тщ ательно</w>
туян са</w>
тухӑҫ лӑхне</w>
туха сси</w>
туха й
тух ман</w>
тух а</w>
тури з
туп рӑм</w>
туй и</w>
ту рӑр</w>
ту п</w>
ту нӑччӗ</w>
ту мне</w>
ту ка</w>
ту аль
тру дится</w>
тру бою</w>
тра ктор
товар ов</w>
то бой</w>
тин че</w>
тим лӗн</w>
тилмӗр се</w>
ти с
ти раж
техно логи</w>
террито рий</w>
тер петь</w>
тер мелле</w>
тем ле</w>
тель ного</w>
те ст
те ло
тво ря
тахҫан ах</w>
татӑ лса</w>
тархас ланӑ</w>
тарха сла
тара ват</w>
тапӑ нса</w>
тапра н
та сем</w>
та кӑн
т тарма</w>
т там</w>
т рен</w>
сӗртӗн сессӗн</w>
сӗн нӗ</w>
сӑр лӑх</w>
сӑнӑ ма</w>
сӑн не</w>
сынов ьям</w>
счи ты
сцен ари
сфе ринче</w>
сут ма</w>
сурӑх сем</w>
сул хӑн</w>
сты ми</w>
ступ ен
студен т</w>
струк тура</w>
стро ки</w>
стре е</w>
стот у</w>
сти тель</w>
сти л</w>
стен у</w>
сте п
стви й</w>
стара ются</w>
стар шего</w>
став лю</w>
ста кан
ст ӑ
сраз иться</w>
спо н
специаль но
специали ст
спас и</w>
союз ӗн</w>
социаль ных</w>
состо ится</w>
сообщи ть</w>
сообщ или</w>
сооб щать</w>
сом не
сожал ению</w>
согла сии</w>
собы тия</w>
со ли</w>
со жи
со еди
со вет
со бла
сни л</w>
сме ло</w>
сме ло
служ ения</w>
слу шай</w>
сли шком</w>
слабы й</w>
сла ве</w>
ско льз
скер не</w>
силь ные</w>
силь ной</w>
си ться</w>
си сме
си он
си дели</w>
си вле
сест рен
серебря ная</w>
сердц у</w>
сер де
сени я</w>
сен чех</w>
сен е
се хе
се ления</w>
сдела ют</w>
сдел алась</w>
священни ксемпе</w>
святы м</w>
свя тых</w>
свое времен
сас сӑ
сарла ка</w>
салху ллӑ</w>
салам латӑп</w>
сал ху</w>
сал ам</w>
саккун сем</w>
са мӑр
са ди
с шӗн</w>
с рах</w>
с ра</w>
с ня
с мыс
с ми
с кре
с да
с ведений</w>
с бор
рӑна кан</w>
рӑ л
рын ке</w>
рын ка</w>
ры бы</w>
руководи тели</w>
ру чаю</w>
россий ского</w>
ро ли</w>
ро гат
ри ст</w>
ри со
ри и</w>
рес шӗн</w>
резер ва</w>
реализ о
ре чь</w>
ре сто
ре кор
расхо дов</w>
расту т</w>
расс матри
рас стоя
рас сипе</w>
район ӗн</w>
район ного</w>
раз вер
ра ли</w>
р сен</w>
пӳлӗ мне</w>
пӳ сем</w>
пӗтер сессӗн</w>
пӗт рӗ</w>
пӗлтерӗш не</w>
пӗл сен</w>
пӗ ҫ</w>
пӗ терет</w>
пӑх рӑм</w>
пӑх акан</w>
пӑрахӑ п</w>
пӑрах рӗ</w>
пӑр ҫа</w>
пӑн чӑ</w>
пӑ чӑр
пуҫла мӑш</w>
пуҫ тарма</w>
пуҫ ланса</w>
пух ма</w>
пурнӑҫла малли</w>
пур сӑр</w>
пур пӗрех</w>
пунк чӗн</w>
пулӑшӑ вӗпе</w>
пултар ни</w>
пула сси</w>
пул атӑп</w>
пул атчӗ</w>
пу ҫҫи</w>
пу тса</w>
пу кан</w>
профес сор</w>
профес со
пропа ган
промышлен ного</w>
прока за</w>
проводи мых</w>
про ходят</w>
про сти</w>
про сили</w>
про де
про веден
пришель цев</w>
пришель ца</w>
прино си
принима ет</w>
при чине</w>
при уч
при ну
при креп
при им
при знать</w>
при дя</w>
при был</w>
при близ
преступ ление</w>
преследо вать</w>
прес с</w>
президен чӗ</w>
представи ть</w>
представи телӗсем</w>
председате лӗн</w>
преде лом</w>
пред прияти</w>
пред лага
пре клон
поэ чӗ</w>
потом ков</w>
посту пи
постоян ного</w>
посмо три</w>
посмо треть</w>
послу шай</w>
посл ала</w>
пос ме
поряд ка</w>
пора жены</w>
понра вилось</w>
помидо р</w>
полез но</w>
покро пит</w>
показ атель</w>
познаком ился</w>
поздрав или</w>
подоби е</w>
под ме
погреб ения</w>
поворачи вает</w>
по о
по лага
по дел
площад ки</w>
плен ки</w>
плат ить</w>
план овый</w>
план ир
пиҫӗ х
пичч ӳне</w>
пич че</w>
пит ти</w>
пит лӗ</w>
пит ания</w>
пин шер</w>
пере чень</w>
пере сказал</w>
пере кет
пере до
пе ст
пе сок</w>
пе ль
пе лен</w>
патӑн тан</w>
патриоти зм</w>
патри от
парӑн нӑ</w>
парне ленӗ</w>
пан улми</w>
палӑрт малла</w>
пал ьма</w>
пал лаша
пал ка</w>
па ю</w>
па ччӑр</w>
па д
п ӑн</w>
п ӑ</w>
п лет
ошиб ке</w>
очи ст
оцен или</w>
офи цер</w>
отро кови
отпус к</w>
отме чают</w>
откры тия</w>
отды ха
от ряд</w>
от ре
от не
осуществ ляется</w>
остано вился</w>
органи зу
орг аном</w>
опол чение</w>
он па</w>
оказ ались</w>
ока жется</w>
ок но</w>
об щий</w>
об ит
о сторо
о семен
о кро
о знаком
нӑ скере</w>
ня лся</w>
ня йте</w>
ныне ш
ну ш
ноче вать</w>
ност ран
но ша</w>
но га</w>
низ мен
ни ш
ни хӑш</w>
ни сь</w>
ни ном</w>
неу да
несовершенно летних</w>
нен а
не обрезан
не возможно</w>
начин ать</w>
началь никами</w>
нач ало</w>
националь ных</w>
находи ться</w>
настоя щий</w>
наркӑмӑ ш
нар ко
напом нил</w>
наполнен ная</w>
намӑ са</w>
награ дил</w>
на цион
на мер
на до
мӑшӑр ӗпе</w>
мӑ ҫ</w>
мӑ ма</w>
муниципаль ными</w>
муниципаль ные</w>
муз ее</w>
момен ты</w>
молодеж ной</w>
мо ль</w>
мо литься</w>
мо ею</w>
мо гла</w>
мо вой</w>
много дет
мир ных</w>
мин че</w>
мин утран</w>
мило сти</w>
ми тин
мест пӗр</w>
мест но</w>
мер но</w>
мед аль</w>
ме тр
матери альных</w>
математи ка</w>
мас ло</w>
маршру т</w>
ман ӑҫ
м ля
лӗ сенче</w>
лӗ п</w>
лӑ хӑма</w>
ля я</w>
люби мая</w>
лю сь</w>
ль ня
ль зо
лы ми</w>
лы вать</w>
луч шие</w>
лин чен</w>
ли тельно</w>
ли нии</w>
ли де
ли ги
лен ме</w>
лег ковым</w>
ле чить</w>
ле чеб
ле тӗп</w>
ле вой</w>
лан сах</w>
лан кӑ</w>
лав к
ла ва</w>
кӳре ҫҫӗ</w>
кӗшӗ к</w>
кӗр ӳ
кӗ тнӗ</w>
кӗ нисем</w>
кӗ вӗ
кӑшӑ л</w>
кӑтартӑ вӗсем</w>
кӑтар тасшӑн</w>
кӑмӑл латӑп</w>
куҫ ҫу
куҫ ран</w>
кура тура</w>
кур чӗ</w>
кун ра</w>
кун па</w>
культу ру</w>
культу ри</w>
культу ре</w>
кул ленхи</w>
ку рас
ку лса</w>
ку ла
краси вые</w>
кор пус</w>
кор пус
кор ни</w>
контрак т</w>
консуль та
кон стру
компью тер</w>
компози тор
комис сия</w>
колодез ь</w>
коло ги</w>
коллек тив
ко ся
ко опера
ко жу</w>
клас сенче</w>
кин ский</w>
килӗш рӗ</w>
ки сенчен</w>
ки дар</w>
каҫар ма</w>
каҫ хи</w>
кате гори
кат а
кар ь</w>
кар чӑ
кан са</w>
калар ӑн</w>
кала ҫӑва</w>
кала малла</w>
кай ӑп</w>
кай иччен</w>
каз алось</w>
каж дую</w>
кадиль ница</w>
ка пӑр</w>
ка мран</w>
ка вар</w>
ка вар
к са</w>
к нуть</w>
к лен</w>
к ке</w>
к вас
йӗрке семпе</w>
йӑх ран</w>
йӑнӑш па</w>
йӑ м
йӑ ван
йыш ӗпе</w>
йыш лӑрах</w>
ит леме</w>
исту кан</w>
источ ники</w>
исти не</w>
исследо ватель
ирт терекен</w>
ирт рӗҫ</w>
ир тен</w>
инфраструк туры</w>
интерес но</w>
ин ӗ
ин ӑпа</w>
имен о
име ются</w>
илт рӗ</w>
илт нине</w>
илт ме</w>
ило ва</w>
ил ӑн</w>
ил тер
ик кӗ</w>
изде ли
из ли
из гнал</w>
и поте
и пе</w>
и ные</w>
и ностран
и нов</w>
и го</w>
золо той</w>
зна ко
защи те</w>
заку пок</w>
закон чил</w>
зада ч</w>
завися щие</w>
зави си
заве щал</w>
зав тра
за хочет</w>
за х</w>
за со
за воде</w>
журнали стов</w>
жреби ю</w>
жиль е</w>
жизн енный</w>
живу щий</w>
жив ёт</w>
жен ой</w>
жел анию</w>
ж усь</w>
ж о
ж дают</w>
ет ӗн</w>
ен се</w>
ен ри</w>
ен ном</w>
ему ся</w>
евре й</w>
ев ский</w>
е ц
е мая</w>
е ву</w>
ды е</w>
дума ю</w>
ду бра
друз ей</w>
дра мати
дочер ью</w>
домаш них</w>
долж ности</w>
доб но</w>
до яр
до шли</w>
до хо
до ль
до ж
до говор
ди раться</w>
дере вя
день гами</w>
деле га
дела м</w>
де в
дале ка</w>
д ӑ
д ри
д па</w>
д ного</w>
гро хо
гре ш
граждан ла</w>
горе л</w>
глубо ко</w>
глубо кий</w>
ги стри
гер гесе
ге ти
газ ет</w>
г ну</w>
г лон</w>
г ас
г ан</w>
вӗрентекен сем</w>
вӗрен теҫҫӗ</w>
вӗрен екенӗ</w>
вӗлере кен</w>
вӗ тӗ</w>
вӗ рет
высо тах</w>
выпус к</w>
выку п</w>
вы вели</w>
вун тӑватӑ</w>
вун пӗр</w>
встреча ются</w>
вопро сил</w>
воль но</w>
волей бол</w>
вой ною</w>
вой дешь</w>
возо пили</w>
возлия ние</w>
возврати тесь</w>
возвра ща
во семьдесят</w>
во жат
во время</w>
вне ш
вне др
витӗм лӗ</w>
вит ти</w>
вилӗм рен</w>
ви ҫҫӗ</w>
ви ҫе</w>
ви чӑн</w>
ви ном</w>
веч ное</w>
верх нюю</w>
вер т</w>
вен ец</w>
вело сипе
вели кой</w>
вели кие</w>
вез ти</w>
вед ении</w>
ве лел</w>
вдохновля ет</w>
ваш у</w>
в слух</w>
в правду</w>
в ные</w>
в ло
бро н
боро ться</w>
болез ней</w>
боле ть</w>
бо ра
бо м
бо лит</w>
ближай шие</w>
благосло вля
бе дный</w>
бан к</w>
б ир
б аты
б ави
ача ран</w>
ато р</w>
атле тика</w>
аталанӑ вне</w>
ат ӑ</w>
ат у</w>
аслӑ ласа</w>
аса ф</w>
ас пи
ари ть</w>
ар сем</w>
ап трат
ани пе</w>
ан ать</w>
амал ик
алӑ кне</w>
акаде ми</w>
ак т</w>
ай ван
администра ци</w>
автономи и</w>
авгу ста</w>
абза цы</w>
а хальтен</w>
а гнец</w>
а вӑрт
Ю рат
Э п</w>
Э к
Ы л
Ше ла</w>
Чу в
Чапа ев</w>
Хуҫ алӑх
Хусан та</w>
Ху рӑн
Хори в</w>
Хо ра
Хо зя
Хале ва</w>
Ха п
Ферезе ев</w>
Федо ров</w>
Фе гора</w>
Фар ра</w>
Ун ти</w>
У ниверси
У же</w>
Турри йӗ</w>
Трофи мов</w>
Те лее</w>
Те ат
Тво ем</w>
Та в</w>
Т инӗ
Со чи</w>
Скор о</w>
Симе она</w>
Симе о
Серге я</w>
Семен овна</w>
Сау лом</w>
С ала
Ры ба
Ро за</w>
Ре фаи
Район та</w>
Раз ви
Рабо та</w>
Р О
Пу рӑн
Про куратура</w>
Президен чӗн</w>
По ручаю</w>
По д</w>
Пет ра</w>
Пер во
Палӑ ртса</w>
П рав
От кры
Обще ство</w>
О си
О й
О В</w>
Ну ма
Новочебоксар ске</w>
Нахо ра</w>
Нахо р</w>
На ци</w>
На стоя
На вер
Муска ва</w>
Мих ей</w>
Мил лин</w>
Ме жду</w>
Мади ан</w>
Маа ха</w>
М аш
М ас
Лад но</w>
Ла хи
Л аван
Ку ҫ</w>
Ку б
Кош кинский</w>
Конститу ции</w>
Каҫ хи</w>
Кая рах</w>
Кабине том</w>
Каафо вых</w>
Ка кой</w>
К ӳр
Йывӑ р</w>
Й ӑ
Ифа мара</w>
Иса ву</w>
Иоав па</w>
Ио ан
Или ю</w>
Ие восфей</w>
И лья</w>
Зи ф</w>
Зам врий</w>
З ав
Жур нали
Ефре мова</w>
Ено х</w>
Ел ли
Ел кана</w>
Егоро вна</w>
Евфра т</w>
Еве ев</w>
Е с
Е пле</w>
Е глон</w>
До чь</w>
Де рев
Гри ша</w>
Ги вы</w>
Гер гесе
Геде она</w>
Галаа да</w>
Гадо вы</w>
Га за</w>
Вӑ й
Выль ӑх</w>
Все российской</w>
Воло дя</w>
Вол ж
Влады ка</w>
Вик тори
Веф иля</w>
Веф иле</w>
Ве се
Василь ев
Бу дет</w>
Б еф
Б ай
Арфак сад</w>
Анже лика</w>
Ам рам</w>
Алексан дрович</w>
Ав гу
А хальтен</w>
А стӑ
А на</w>
А минь</w>
А мери
А дер</w>
» ?</w>
» ,–</w>
7 9</w>
1 20</w>
. )</w>
, »</w>
ӳр кен
ӳлӗ мрен</w>
ӳкер чӗк</w>
ӗҫ рен</w>
ӗҫ ес</w>
ӗҫ емӗн</w>
ӗр сем</w>
ӗмӗр хи</w>
ӗмӗр лӗх
ӗмӗрлӗх ех</w>
ӗмӗ чӗ</w>
ӗ ччӗҫ</w>
ӗ вӗ</w>
ӑш ши</w>
ӑн хи</w>
ӑмӑр тура</w>
ӑ ри</w>
Ӑ с
ҫӳре тӗп</w>
ҫӳ рен</w>
ҫӳ лелле</w>
ҫӗк лем</w>
ҫӑлӑ нӑҫ</w>
ҫӑлӑ най
ҫӑл куҫӗ</w>
ҫӑкӑр па</w>
ҫӑвӑн малла</w>
ҫыр нине</w>
ҫывӑх ра</w>
ҫурал ать</w>
ҫур хи</w>
ҫур рине</w>
ҫур нӑ</w>
ҫулӗ сем</w>
ҫулпуҫ ӗсем</w>
ҫул сене</w>
ҫу тӑл
ҫу ри</w>
ҫу малла</w>
ҫу ма</w>
ҫит ме</w>
ҫирӗпле теҫҫӗ</w>
ҫил леннӗ</w>
ҫие ле</w>
ҫи ҫ
ҫи нех</w>
ҫи нелле</w>
ҫи екен</w>
ҫи е</w>
ҫемь ере</w>
ҫе пӗҫ</w>
ҫе кӗ
ҫар ӑн</w>
ҫапӑ ҫӑва</w>
ҫаврӑн ӑр</w>
ҫа пла
ҫапла рах</w>
Ҫӑ л
Ҫур ҫӗр</w>
Ҫу р</w>
Ҫе ҫпӗл</w>
Ҫамрӑ ксем</w>
ят на</w>
япала семпе</w>
янтӑ ланӑ</w>
ял хуҫалӑх</w>
ял сем</w>
язы ков</w>
яв са</w>
яв нӑ</w>
я ся</w>
я рӑ
я па</w>
я нов</w>
я малли</w>
юх тар</w>
юрӑ ҫ</w>
юра таҫҫӗ</w>
юл ӗн</w>
юл чӗҫ</w>
юл сассӑн</w>
юл малла</w>
ю хӑн
ю ся</w>
ю рӗ</w>
ю лас</w>
экспе рт
эк спо
эк зем
экзем пля
э нци
энци кло
энцикло пе
ь ют</w>
ыт лара
ыр хан</w>
ывӑлӑ ма</w>
щи л</w>
щи вать</w>
щ ались</w>
шӗн ччӗ</w>
шӑ ва
шут ӗнчен</w>
шум но</w>
шкул сен</w>
шку лне</w>
шин у</w>
шер сть</w>
ше х</w>
шат рах</w>
шан ӑҫ</w>
шай ся</w>
ша яся</w>
ша ю</w>
ш ками</w>
чӳре че
чӗре пе</w>
чӗр ӳ</w>
чӗр лӗхӗ</w>
чӗр лӗх
чӑр кӑш</w>
чӑваш лӑх</w>
чӑ пар</w>
чч ӑ</w>
чура лӑх</w>
чун ӑра</w>
чун лӑ</w>
чувство вала</w>
чуваш скому</w>
чуваш ская</w>
чуваш а</w>
чу рисен</w>
чу лӗ</w>
чре ва</w>
чисто те</w>
чик нӗ</w>
чи ком</w>
четыр надцать</w>
челове ческой</w>
че ства</w>
че вать</w>
че в</w>
чатӑ ра</w>
чарша ва</w>
чакар ма</w>
чак са</w>
чав са</w>
ч ӑна</w>
ч сем</w>
ч ины</w>
ч ан
цион ных</w>
церков ь</w>
церк ви</w>
цен у</w>
цар ями</w>
хӳтӗ лес</w>
хӗрес леннӗ</w>
хӗрарӑ мпа</w>
хӗр ӳ
хӗ ве
хӑрушсӑр лӑхӗн</w>
хӑн ана</w>
хӑм на</w>
хӑй тытӑмлӑх</w>
хӑй сенӗн</w>
хӑвал а
хыҫҫ ӑнхи</w>
хы рӑм
хы в</w>
хуҫалӑх ӗнче</w>
хуҫа ма</w>
хуш тӑр</w>
хутӑш тармалла</w>
хутшӑ нӑ
хут лӑ</w>
хула сен</w>
ху тӑш</w>
ху ракан</w>
хрес чен</w>
хра ни
хоро шим</w>
хозяй ств</w>
хисе прен</w>
хир ур
хи сте
хи ст
хват ило</w>
хвали ться</w>
хастар лӑ</w>
хал а
хавхалан са</w>
ха в</w>
х руп
х ил
фо ноте
фило логи</w>
фе ма</w>
фараон ӑн</w>
фа мили
фа им
ф ру
ф ом</w>
ф им</w>
уҫӑ млӑ</w>
уҫӑ лса</w>
уҫ рӗ</w>
уя вӗнче</w>
ушкӑн ра</w>
учреждени йӗ</w>
учрежд ение</w>
уча щиеся</w>
уча ствует</w>
уч ё
ух мах</w>
успе ш
услови сем</w>
ура на</w>
ур ман
упра нса</w>
упо р
ум лӑ</w>
улуч шения</w>
укҫ ана</w>
ук ҫапа</w>
уди в
уда чи</w>
угла х</w>
уг ле
уви жу</w>
увели чить</w>
убий цу</w>
у чен
у ха</w>
у тӑ
у пре
у ны
у годное</w>
у год
тӳркке с</w>
тӳле кен</w>
тӳле в</w>
тӳ ре</w>
тӳ лет
тӗрӗс лӗх</w>
тӗпче в
тӗпрен чӗ
тӗп лӗнрех</w>
тӗллев лӗн</w>
тӗлле всем</w>
тӗ пе</w>
тӗ ле</w>
тӑшман ӗсене</w>
тӑшман ӑ
тӑсӑл нӑ</w>
тӑсӑ лса</w>
тӑсӑ лакан</w>
тӑрӑх ри</w>
тӑрӑ шӑр</w>
тӑра т</w>
тӑр ринче</w>
тӑва кансем</w>
тӑ млӑ</w>
тӑ вӑл</w>
тытӑм лӑхӑн</w>
тыт рӑм</w>
тыт ни</w>
туя нас</w>
тух ӗҫ</w>
тух ни</w>
тух иччен</w>
турт тарса</w>
тури сти
тури зм</w>
тура т</w>
тупӑ ннӑ</w>
тул лиех</w>
туй ине</w>
ту тар</w>
ту с</w>
тру жени
тро ст
тре т
тре ли</w>
тра в</w>
то ром</w>
то вой</w>
тивӗҫтер мелле</w>
тивӗҫ тересси</w>
ти е
тие се</w>
тер бур
тен кине</w>
тель ности</w>
тель ная</w>
теле радио
теле коммуника
те тра
тах ран</w>
тат чӗ</w>
тасат машкӑн</w>
тарӑх са</w>
тар ман</w>
тапӑ рӗ</w>
тап са</w>
танлаш ать</w>
так сипе</w>
таврӑ ниччен</w>
та ратӑп</w>
та п</w>
та ком</w>
т тай</w>
т рав
т ность</w>
т илась</w>
т ение</w>
т вра
сӗртӗн се</w>
сӑнар лӑ</w>
сӑн на</w>
сӑ тӑр</w>
сӑ на</w>
сӑ й
сыхлан уллӑ</w>
сыв лан</w>
сы гра
супру гом</w>
су ха</w>
су тӑн</w>
су да</w>
сту пай</w>
стро я</w>
стра ха</w>
стра дать</w>
стра да
столо вой</w>
стви нче</w>
стать яна</w>
стать ей</w>
стара лись</w>
стар ину</w>
стан ри</w>
ста вы</w>
ст ӑн</w>
ст рах</w>
сс ӑн</w>
сс инчен</w>
сред них</w>
сред него</w>
способ ность</w>
спортсмен ов</w>
спортив ного</w>
спор те</w>
споко йный</w>
спасени е</w>
составля ет</w>
сосе ди</w>
соревно вания</w>
соревно вании</w>
соответству ющих</w>
созд ании</w>
современ ной</w>
собла з
со н
сне г</w>
служа щи
слу же
служе б
сло м</w>
сло вно</w>
сла л</w>
скри жал
ска жем</w>
ск вер
ситуа ция</w>
систе ма</w>
сист ему</w>
сипле в</w>
сил ами</w>
си гн
сер ь
сен т
семей ство</w>
сем и
сельскохозяйствен ных</w>
сельскохозяйствен ные</w>
сель чан</w>
се ть
се р</w>
се ма
сделан о</w>
сдела ешь</w>
сдел алось</w>
святы ни</w>
свобо ду</w>
сво ё</w>
свидетель ством</w>
сапал аса</w>
сап пун</w>
сап нӑ</w>
сап малла</w>
сан не</w>
сан ато
сала т</w>
сал аннӑ</w>
сай та</w>
сай т</w>
савӑ тпа</w>
са хар
са сар
са п</w>
с ходить</w>
с прав
с няли</w>
с ный</w>
с на
с вета</w>
рӑ ш</w>
ря ды</w>
ры нок</w>
ры бу</w>
рован ы</w>
ро с
ро е</w>
ро вал</w>
рес пон
респон ден
рен ех</w>
ремон ти
рев ность</w>
ре тӗн</w>
рас че
рас сказать</w>
рас сказали</w>
рас сказ
район ном</w>
разрабо тать</w>
развити и</w>
разви ваться</w>
раз гневался</w>
раз бой
равни нах</w>
рабо тою</w>
рабо тах</w>
раб аты
ра р</w>
ра ли
ра ка</w>
пӗчӗк ҫӗ</w>
пӗчӗк рен</w>
пӗтери чченех</w>
пӗтер сен</w>
пӗтер мелле</w>
пӗлӗ р</w>
пӗлтӗр хи</w>
пӗлтер ӗшӗ</w>
пӗлмест пӗр</w>
пӗл тӗм</w>
пӗл меҫҫӗ</w>
пӗ ве
пӑрӑн ать</w>
пӑру па</w>
пӑ ч
пӑ т</w>
пӑ рӑн</w>
пя тую</w>
пысӑ ка</w>
пыр сан</w>
пы тӑм</w>
пы ракансем</w>
пы лак</w>
пуҫтарӑн са</w>
пуҫлӑх ӗсемпе</w>
пуҫла сан</w>
пуҫ тах</w>
пуҫ кӑшӑ
пус каться</w>
пурӑн атӑр</w>
пурнӑҫ лани</w>
пур лӑха</w>
пунк том</w>
пулӑша сси</w>
пулӑша с</w>
пулӑш рӗ</w>
пултару лӑхӗн</w>
пултару лӑха</w>
пу шанса</w>
пу тӑк</w>
профессиональ ным</w>
профес сине</w>
проф иль
проспек чӗ</w>
проро кла</w>
прокура туры</w>
произ нес</w>
проек тсене</w>
провер ки</w>
про чем</w>
про кат
про гневался</w>
про гне
про бу
прили чно</w>
пригла сил</w>
приве ди</w>
прибли жа
при ход
при сло
при об
при зы
при зо
при зер
при воз
при бе
преступ лени
преследо вали</w>
представи тели</w>
представ ления</w>
председате лем</w>
предприним ате
предо твра
преде лами</w>
пре ис
преис под
пре вы
пре врат
праздни ков</w>
праздни ке</w>
право вых</w>
прави тель
поспе шно</w>
послу ша
посад или</w>
пос рам
поо щ
помо жет</w>
пом нит</w>
поль за</w>
получ ила</w>
полуден ную</w>
полови ной</w>
поло жите</w>
полномочи йӗсем</w>
пол день</w>
покро ют</w>
покло няться</w>
пож ал
подо ш
подножи ю</w>
подготов ке</w>
под ал</w>
повы шения</w>
пове ле
по являются</w>
по ход</w>
по тре
по тихоньку</w>
по совето
по правля
по кров</w>
по говорить</w>
по гн
по воду</w>
по вод</w>
по били</w>
пла кала</w>
пла вать</w>
пиччӗ шӗн</w>
пич чем</w>
пи тан
печ али</w>
пес нь</w>
перспек тив
пере чен
пере стали</w>
пере сказали</w>
пере вод
пер вой</w>
пенси он
педаго г
пе щер
пе шком</w>
паш ка</w>
пах чи</w>
патӑ ртан</w>
патӑ мӑр</w>
патшалӑх ӗ</w>
пархат арлӑ</w>
парт нер
парне сенчен</w>
парне пе</w>
пар у</w>
пар ла
палӑр тас</w>
пал ли</w>
пай те</w>
п ре</w>
п ана</w>
отпу щу</w>
откры тый</w>
откры лся</w>
откры ла</w>
отде лил</w>
от це</w>
от пустили</w>
от нял</w>
от дам</w>
осуществ ля
осуществ ление</w>
осуще стви
остан утся</w>
осталь ных</w>
оставля й</w>
остав ше
остав лю</w>
основ ной</w>
освя тил</w>
организаци ями</w>
орган ӗсене</w>
орган не</w>
омы ться</w>
омо ет</w>
окру гов</w>
окрест ности</w>
одно крат
од ар
ов цу</w>
обязатель стви
обязан ностей</w>
обуч ения</w>
обу вь</w>
образ у</w>
обра тившись</w>
оборо т</w>
обо гат
обла ке</w>
обе ты</w>
об служи
о сел</w>
о канчивается</w>
о зера</w>
о гра
о враг</w>
ня к</w>
ня й</w>
ну вшись</w>
норматив ных</w>
нов ении</w>
но вна</w>
нима л</w>
ни ще
ни кому</w>
ни как</w>
ни ех</w>
нечи сты</w>
несколь ких</w>
не ф
не ры</w>
не регулируемым</w>
не кому</w>
не заметно</w>
не ж
не бе</w>
начина ет</w>
находя тся</w>
насле д
насе ленных</w>
намӑс сӑр</w>
наме рил</w>
назна чил</w>
награ да</w>
наво з</w>
на ф</w>
на правил
на пали</w>
на ма
на клон
на кло
на ка
на вел</w>
н ём</w>
мӗш ӗсенче</w>
мӗш пе</w>
мӗн ӗпех</w>
мӑйра кисене</w>
молит ву</w>
мо вич</w>
многоквартир ных</w>
микро элемен
ми но
меч тает</w>
механизат ор
мест чӗ</w>
месле т</w>
мер ӗмӗр</w>
мень ший</w>
мени л</w>
мен шӗн</w>
мел пе</w>
ме лӗх</w>
мг новение</w>
машин ӑна</w>
мати ка</w>
мате рин
ман нӑ</w>
малень кой</w>
малаш лӑх</w>
мал ые</w>
макӑ рса</w>
мак си
май ор</w>
ма з
м ье
м лӗ</w>
м арӑр</w>
лӗх сем</w>
лӗ кӗ</w>
лӑх сем</w>
лӑ нах</w>
любо вью</w>
люб или</w>
люб ила</w>
лю дях</w>
лоша дей</w>
лож ила</w>
ло м
ли семпе</w>
лени ях</w>
лен ным</w>
лен ет</w>
лен е</w>
ле ччӗ</w>
ле чения</w>
ле ть</w>
ле тия</w>
ле теть</w>
лат чӗҫ</w>
лат тӑм</w>
ларт рӗ</w>
лар тӑм</w>
лар такан</w>
лампа ды</w>
ла шу
ла д</w>
ла д
ла бора
л ё
л ко
л ке</w>
кӳ п
кӗс кен</w>
кӗр е</w>
кӗн екене</w>
кӗлет ке</w>
кӗ ҫӗ
кӗ ҫех</w>
кӗ тре
кӗ сенче</w>
кӗ мен</w>
кӑтар тас</w>
кӑр па</w>
кӑмӑл сӑр</w>
кӑлар малла</w>
кӑвакар чӑн</w>
кӑ ра
кӑ кӗнче</w>
куҫ ӗнчен</w>
куҫ лӑ</w>
кур ӑн</w>
куп или</w>
кун талла</w>
культур но</w>
ку рав
ку пи</w>
ку паласа</w>
ку ла</w>
ку куру
ку з
крю чки</w>
кру гло
кро во
кре пи</w>
краси вым</w>
кра х
контро ль</w>
кон тей
комплек са</w>
комп аний</w>
комнат у</w>
комму ни
комите чӗн</w>
коман ду</w>
коман д</w>
коль я</w>
колос ьев</w>
ко пы
ко дек
кин ул</w>
килӗш тернӗ</w>
кил тӗмӗр</w>
кил сессӗн</w>
кил нӗччӗ</w>
ки пятка</w>
ки пари
кван тум</w>
каҫ па</w>
каят пӑр</w>
кая рах</w>
каш у</w>
кас ин
картофе ля</w>
карти шне</w>
кандидат ов</w>
кандида чӗ</w>
кана шӗн</w>
кан ашне</w>
калӑпӑ шне</w>
калаҫ нине</w>
калан са</w>
кал ат
кай рӑмӑр</w>
каз али</w>
ка ҫӑ
ка сӑ
ка кою</w>
ка дет</w>
к сана</w>
к рен</w>
к нул</w>
к ва
йӗрӗх сене</w>
йӗркеле мелли</w>
йӗрке ленсе</w>
йӗн ер
йӑ пӑл
йышӑнӑ ва</w>
йывӑ ҫа</w>
й ских</w>
иудей сен</w>
истре бить</w>
источ ника</w>
ист ин
испы тывать</w>
ир ӗ</w>
ино племен
инке ке</w>
инжен ер
инду стри</w>
инду стри
инвести цисем</w>
ин ҫет
ин фек
им ение</w>
ил теретпӗр</w>
ик шер</w>
извест или</w>
из об
из нур
из ва
иг ре</w>
и щут</w>
и ное</w>
зыва ет</w>
зу бов</w>
зу б</w>
зр ения</w>
зо р</w>
зло й</w>
зи на</w>
зи му</w>
зи м
зд ание</w>
звез ды</w>
затру д
затра ги
заре гистри
запа сов</w>
заме тили</w>
заме т
закры л</w>
зай мы</w>
заведу ющи
за циленӗ</w>
за м
за канчи
за ведени
за был</w>
з ӑн</w>
з же</w>
журнали ст
жи тся</w>
жи телями</w>
жи вым</w>
жи вы</w>
жи ви</w>
жи ваться</w>
жесто ко
же те</w>
ж ился</w>
ж илище</w>
ж ились</w>
ж дет</w>
ет чӗҫ</w>
ет тӗм</w>
ес пе
ен ной</w>
ев ская</w>
е ть</w>
дя ди</w>
ду мать</w>
дости жения</w>
дожд я</w>
догово ра</w>
доб рых</w>
до ход</w>
до ставля
до ныне</w>
до ля</w>
до клад</w>
до го
директо ра</w>
дет ский</w>
деся тый</w>
деся тую</w>
дер жат</w>
де ло
де д</w>
дво их</w>
дви нулся</w>
дви гать</w>
д ра</w>
д жи
д аль</w>
гу деть</w>
груп па</w>
гро б</w>
гра фо
гра ницах</w>
гото вы</w>
голо сом</w>
голо вой</w>
год ный</w>
го сти
го реть</w>
го рах</w>
гли ня
гене рал</w>
ге ль
вӗрет мелле</w>
вӗрен т</w>
вӗрен ет</w>
вӗлер мелле</w>
вӗ чӗр
вӗ рен</w>
вӑхӑ тне</w>
вӑй сӑр</w>
вӑ рах
вӑ лах</w>
выступ ы</w>
выращи вать</w>
выр на
выполня ют</w>
вы хода</w>
вы ход
вы ступили</w>
вы рт</w>
вы пи
вы ли
вы брали</w>
вы брал</w>
вше гося</w>
вш емуся</w>
вш ему</w>
вун виҫӗ</w>
ву тпа</w>
ву л</w>
вра ча</w>
востре бо
вос стал</w>
воро там</w>
возь му</w>
возвра тить</w>
воз нес</w>
воз любил</w>
воз действия</w>
воз вести
вож дем</w>
вож атӑ
во лю</w>
во дов</w>
во ва</w>
владе ль
виҫе ллӗ</w>
вителӗ кне</w>
виссо н</w>
вил ӗ</w>
вил нине</w>
вил иччен</w>
виде ла</w>
ви тнӗ</w>
ви ду</w>
веч ным</w>
верну лась</w>
ве тра</w>
вдо ва</w>
васка влӑ</w>
ван ные</w>
ван и</w>
ва ша
ва ешь</w>
ва ете</w>
в ступает</w>
в скоре</w>
в ных</w>
в ложил</w>
в ки</w>
в займы</w>
в друг</w>
в ве
бы вало</w>
бы в</w>
бу шка</w>
бро сили</w>
бра том</w>
бр ӗн</w>
больш ом</w>
боль нице</w>
богат ства</w>
бо т
бо е</w>
ближ аться</w>
благосло вен
библиоте ки</w>
бесе ду</w>
бере гись</w>
бер у</w>
без закон
бе рите</w>
бе лый</w>
бе ж
бе гать</w>
бас кет
бал лов</w>
бабу шки</w>
б рез
б ка</w>
б аль
аҫу сем</w>
ая кран</w>
ача н</w>
атель ность</w>
аталан тарасси</w>
асӑрха са</w>
асси не</w>
ас на</w>
ас лисем</w>
арӑ мӗсене</w>
арӑ му</w>
ар ҫыннине</w>
ар са
ано х</w>
анн ӳ</w>
ана вал
ан ный</w>
ан ах</w>
амӑ шӗпе</w>
аморрей сене</w>
ам се
ам ма</w>
аллӑ мпа</w>
аллу па</w>
ала х</w>
ала ф</w>
ал ов</w>
ал ан</w>
актив ное</w>
аккурат но</w>
академи йӗн</w>
ак чӗсене</w>
ак ты</w>
ак тов</w>
айӑ па</w>
айлӑ мне</w>
айк кинчи</w>
агро ном</w>
агра ри</w>
а ялти</w>
а ялта</w>
а эро
а чу
а хӑртнех</w>
а ра
Я лан
Ю т</w>
Ю рӑ</w>
Ю ри
Ю н</w>
Ю лашкинчен</w>
Экономи ка</w>
Э сто
Э нер
Э л</w>
Шем ур
Ше ме
Ш ӗ
Ш ӑмӑр
Ш ор
Ч ӗр
Ч А
Цу ри
Хусан кай</w>
Хус арса
Хо гла</w>
Хеврон ра</w>
Хе фер</w>
Халь хинче</w>
Хак лӑ</w>
Х ӗлле</w>
Х ун
Х аро
Фине еса</w>
Фа вор</w>
Ф урман
Уро жай</w>
У кра
У гас
Тӳ рӗ</w>
Тӗрӗ сле
Таппу ах</w>
Та ких</w>
Т ӑш
Т ы
Т ри</w>
Т Р</w>
Су пру
Степ анович</w>
Спек так
Соломо нӑн</w>
Сквор цов</w>
Сих еме</w>
Сири й
Сило ме</w>
Си ф</w>
Сева сто
Свя то
Сво их</w>
Саул ӑн</w>
Сан дри
Самар и
Сал мана</w>
Сал ман</w>
Сава о
СС Р</w>
С тара
С мир
С еспе
С ве
С анавал
Руст эм</w>
Рефаи мов</w>
Республи кӑн</w>
Ревек кӑна</w>
Ре хов</w>
Ре гу
Рах или</w>
Ра гу
Ра амсе
Р ус
Пӗр ре
Пӗ чӗк
Пӗ лӗ
Проспек т</w>
Про чие</w>
Про ек
Пред приним
Прав да</w>
По ч
По ти
По мо
По мимо</w>
По зже</w>
Пи ччӗ
Пи ть</w>
Пи ро
Пет ру
Пет ро
Пен у
Пе тербур
Пас ху</w>
П ӳр
От цу</w>
Оли ве
О ксана</w>
О дол
Ну маях</w>
Николь ский</w>
Ники тина</w>
Ники тин</w>
Не сколько</w>
Нат алия</w>
На чи
На циональ
На заро
На вала</w>
Н ес
Н аш
Мускав ри</w>
Мор дви
Моло деж
Михай лов
Мера ри
Мен а
Ме ри
Ме ждународ
Махана им</w>
Мар фа</w>
Мар кса</w>
Мар кс</w>
Мар е
М аль
Лю блю</w>
Лу з</w>
Ли терату
Лав рен
Кузь мина</w>
Куб ня</w>
Ку сем</w>
Кры лова</w>
Кри ша</w>
Кен е
Кал лех</w>
Ка ччӑ</w>
Ка мӑн</w>
Ка м
Ка ина</w>
Йӗр ке
Йӗпре ҫ</w>
Й ы
Ионаф аном</w>
Ио да
Иерихо н
Иар му
Иа фет</w>
Иа а
И ц
И ра</w>
И ле
Зем ля</w>
Зеве йпе</w>
За х
За вод</w>
З АО</w>
Ж д
Еммо ра</w>
Ел чӗ
Еже годно</w>
Египтя нина</w>
Египет ский</w>
Е тӗрне
Е мель
Е лиц
Дмитри ев</w>
Ди плом</w>
Дави р</w>
Дави дов</w>
Господ ней</w>
Го ли
Глав ный</w>
Ги ву</w>
Герм ании</w>
Геор гий</w>
Генна дия</w>
Гел ву
Ге ро
Га ц
Га д
Г ай
Вӗрен екен
Вол ков</w>
Влади мира</w>
Вифле ем
Вефсами с</w>
Васан ского</w>
Вала ку</w>
Вала ка</w>
Вавил он</w>
Ва сема
Ва рав
В с
В ра
В А</w>
Боль шие</w>
Божи и</w>
Бо лее</w>
Беэ р</w>
Бееро ф</w>
Башкорто стана</w>
Б юд
Аха ву</w>
Атар оф</w>
Арши нова</w>
Ар сент
Ань хой</w>
Анге лне</w>
Анаста сия</w>
Ан ти
Ан но
Амина дава</w>
Аллилу ева</w>
Алексе ева</w>
Аз ария</w>
Авраа мпа</w>
Ав дий</w>
А я
А ш</w>
А хан</w>
А ран</w>
А к</w>
А вар
r u</w>
I V</w>
9 8</w>
8 00</w>
20 00</w>
199 0</w>
198 5</w>
19 50</w>
19 44</w>
19 43</w>
19 25</w>
19 2
18 4</w>
10 2</w>
1 80</w>
1 30</w>
1 10</w>
... ""</w>
. ».</w>
. ,</w>
, ""</w>
"" (</w>
! ..</w>
ӳстер мелле</w>
ӳр ӗк</w>
ӳкӗтӗ мсене</w>
ӳкӗ тсене</w>
ӳ тӗр
ӗҫлет чӗ</w>
ӗҫлет пӗр</w>
ӗҫле рӗм</w>
ӗрче се</w>
ӗмӗтлен ет</w>
Ӗ ҫе</w>
Ӗ нер</w>
Ӗ лӗк</w>
ӑшӑ мра</w>
ӑс сӑр
ӑру серен</w>
ӑмӑрт у</w>
ӑ шӑн
ӑ ччӗ</w>
ҫӳрекен сем</w>
ҫӳре кенӗ</w>
ҫӗр ӗсене</w>
ҫӗр ӗсем</w>
ҫӗнет се</w>
ҫӗк ле</w>
ҫӑмӑл рах</w>
ҫӑмӑ лах</w>
ҫӑлӑнай ман</w>
ҫӑвар ӗнчен</w>
ҫӑвар ӗ</w>
ҫӑ сен</w>
ҫӑ ма</w>
ҫҫ а</w>
ҫырӑ ва</w>
ҫыра вӗ</w>
ҫыр ми</w>
ҫын сенӗн</w>
ҫылӑх ран</w>
ҫы рас</w>
ҫы рав</w>
ҫурал нине</w>
ҫур шар</w>
ҫур чӗн</w>
ҫур малла</w>
ҫул тах</w>
ҫул пуҫӗ</w>
ҫу ра</w>
ҫу п
ҫу ка</w>
ҫит тӗр</w>
ҫирӗпле тес</w>
ҫил ӗ</w>
ҫи терӗ</w>
ҫи терей
ҫи кӗ</w>
ҫемье сене</w>
ҫемье ллӗ</w>
ҫемй инче</w>
ҫар ӗн</w>
ҫар пуҫ</w>
ҫанталӑ ка</w>
ҫавӑр ма</w>
ҫаврӑн ӑ
ҫ ӗҫӗ</w>
ҫ сен</w>
Ҫӑ кӑр</w>
Ҫур чӗн</w>
Ҫамрӑ ксене</w>
ё тся</w>
япал исене</w>
ял ӗнчен</w>
ял тӑр
языч ников</w>
язы ках</w>
я тӑн</w>
я рӑм</w>
я лась</w>
я го
я вилась</w>
юх ать</w>
юса ма</w>
юриди ческой</w>
юри с
юрат нине</w>
юра такан</w>
юр рине</w>
юр лама</w>
юно шей</w>
юлташ сем</w>
юл ччӑр</w>
юл нисем</w>
юл ми
ю с
ю мах
ю лаҫҫӗ</w>
ю ков</w>
ю ка</w>
эти ми</w>
эстра да</w>
электро техника</w>
экономи кӑн</w>
э фир</w>
ье вой</w>
ь ка</w>
ытти сенчен</w>
ыт аласа</w>
ывӑлӗ шӗн</w>
ще еся</w>
ща ющий</w>
ща ми</w>
щ ере</w>
шӑма чӗ</w>
шӑ пӑр</w>
шыра нӑ</w>
шут ла</w>
шуй хан
шу рал</w>
шку лӗ</w>
школь ной</w>
ши шь</w>
ши пе</w>
ши н</w>
шест надцать</w>
шен а</w>
шат ры</w>
шат ре</w>
шан тарнӑ</w>
ша щее</w>
ша кла</w>
ша в
ш ра</w>
ш атӑр
чӗтре се</w>
чӗркуҫ ленсе</w>
чӗр ӗл</w>
чӗр ке
чӗ трен
чӗ п</w>
чӑрма в</w>
чӑн ласах</w>
чӑ мӑр</w>
чуру н</w>
чуж их</w>
чу рӑс</w>
чрез вы
чирӗ пе</w>
чи пер
чи ками</w>
чече ксем</w>
чер пать</w>
чен ной</w>
че те</w>
че сти</w>
че скому</w>
чатӑр та</w>
чак рӗ</w>
чак нӑ</w>
ча шӑк</w>
ча шу</w>
ча ши</w>
ча срах</w>
ча ка</w>
ч ён
ч ков</w>
ч инчен</w>
ч ению</w>
ч ались</w>
ч ĕ
цион ной</w>
ци ям</w>
центр ӗсем</w>
цент нер</w>
цар ских</w>
хӳ х
хӳ ме
хӗра ча</w>
хӗр ӗм</w>
хӗр ри</w>
хӗвел тухӑҫ</w>
хӗ стер</w>
хӗ стер
хӗ ссе</w>
хӗ с
хӗ не</w>
хӗ лӗ</w>
хӗ лле</w>
хӑю лӑх</w>
хӑтӑл малли</w>
хӑтар ӗ</w>
хӑнӑх нӑ</w>
хӑл хине</w>
хӑй шӗн</w>
хӑва чӗпе</w>
хӑва ратӑп</w>
хӑ шӗсем</w>
хӑ ть</w>
хӑ тарчӗ</w>
хӑ тар</w>
хыҫ ран</w>
хып са</w>
хы тӑрах</w>
хы тарса</w>
хы таркӑ
хы сак</w>
хуҫалӑх не</w>
хуҫалӑх а</w>
хутшӑна кансем</w>
хули семпе</w>
хула семпе</w>
хул кан
худож ник</w>
ху раҫҫӗ</w>
ху пла</w>
ху на</w>
ху д
хол ме</w>
хо ду</w>
хисе плен
хир ӗнчен</w>
хаҫа чӗ</w>
хатӗр ӗсен</w>
хатӗр ле</w>
хастар ӗсем</w>
харак тер</w>
хап хине</w>
хап сӑн</w>
ханаан сен</w>
халӑ хӑ
хал сӑр</w>
хавхалан тарса</w>
ха кӑ
ха вас</w>
х ра</w>
х вала</w>
фун да
фру к
фо ра</w>
фир мы</w>
физ культура</w>
фарао ном</w>
уя р</w>
учи телем</w>
учи т</w>
учени ками</w>
учеб ных</w>
уче бный</w>
уче бе</w>
уча ствуют</w>
уч ились</w>
уч или</w>
ух мах
ут ро
уста х</w>
уста ми</w>
услы шит</w>
услы шат</w>
ус ра</w>
ура й</w>
управ ление</w>
упо ваю</w>
упа дет</w>
университе те</w>
ун тах</w>
ун сӑр</w>
улӑш тармалли</w>
улшӑн у</w>
улшӑн нӑ</w>
улт ала
укло ня
ук сах</w>
уйӑ ракан</w>
уйрӑм лӑх</w>
удосто вер
удиви тельно</w>
уде лы</w>
удар ит</w>
удар ил</w>
уви дят</w>
увели чилось</w>
ува жение</w>
убе жали</w>
у худ
у сси</w>
у рисене</w>
у пал</w>
у мӑрта</w>
у казыва
у знают</w>
у знаете</w>
тӳс нӗ</w>
тӳрӗ лӗхӗ
тӳрӗ лӗх</w>
тӳремлӗх ӗнче</w>
тӳпен елле</w>
тӳн тер</w>
тӳл енӗ</w>
тӳ сем</w>
тӗре кӗ</w>
тӗр мере</w>
тӗппи пех</w>
тӗп леннӗ</w>
тӗнчен ӗн</w>
тӗн чине</w>
тӗм сӗ
тӗлпул у</w>
тӗл тен</w>
тӗк сӗм</w>
тӗ сс
тӑшман ӗсен</w>
тӑшман усене</w>
тӑрӑшу ллӑ</w>
тӑрӑша ҫҫӗ</w>
тӑрӑш атпӑр</w>
тӑрӑх не</w>
тӑрӑ вӗ</w>
тӑн ла
тӑк са</w>
тӑват пӑр</w>
тӑва сшӑн</w>
тӑва ссине</w>
тӑва кансен</w>
тӑ хӑн</w>
тӑ сене</w>
тӑ сем</w>
тӑ нӑшӑн</w>
тӑ мран</w>
тӑ лӑха</w>
тытӑн сан</w>
тыр ра</w>
ты тӑр</w>
ты ми</w>
ты вая</w>
тух атӑп</w>
турт тарма</w>
тура чӗсем</w>
тур та</w>
туп сӑ
тупсӑ мне</w>
туп ать</w>
тун сӑх</w>
тулаш ӗнчи</w>
туйӑ ннӑ</w>
туй ма</w>
ту стар
ту самччӗ</w>
ту ру</w>
ту н</w>
ту масть</w>
ту зи
тру дом</w>
тро их</w>
треть ем</w>
требу ет</w>
требо ваний</w>
трактор па</w>
то рин
то д
тиш ке
тир пей</w>
тим ся</w>
тив лет
ти чченех</w>
ти сӗр</w>
ти па</w>
ти кӗ
ти верт
терт ӗн</w>
тере тӗн</w>
тер ӗҫ</w>
тер пел</w>
тер мин
теп лиц
тенкӗ рен</w>
тен ь</w>
телекан ала</w>
теле фон</w>
теку щего</w>
тек ст
теат ре</w>
те ори
те мен</w>
те йӗ
тво ри
твер до</w>
тахҫан танпах</w>
татӑ кне</w>
татӑ клӑ</w>
тат ӑр</w>
тат тисӗр</w>
тасал малли</w>
тар ӑп</w>
тапӑр тан</w>
тал о</w>
тай но</w>
тавӑр нӑ</w>
таврӑн ӑр</w>
тав ҫӑ
тав лю</w>
та кине</w>
та вӑн</w>
т ьев</w>
т чӗ</w>
т р</w>
сӗр мелле</w>
сӗн еҫҫӗ</w>
сӗ к
сӑна р</w>
сӑмахӗ пе</w>
сӑмах ӗнчен</w>
сӑм са</w>
сӑ пра
сӑ вап
сю же
сых ла</w>
сы пать</w>
сы вла
сы вах</w>
съ ез
сурӑх не</w>
сум ма</w>
сул хӑн
судь и</w>
субъек чӗсен</w>
суббо ты</w>
суббо т
су шить</w>
су ть</w>
су ту
су п</w>
су дил</w>
су деб
су верени
сты е</w>
студен тов</w>
строи т</w>
стро ил</w>
сто пы</w>
сте ственно</w>
сте приим
стви пе</w>
ств уйте</w>
стар ый</w>
стар шей</w>
стаж не</w>
ста до</w>
сси шӗн</w>
сси и</w>
сре дний</w>
спосо бом</w>
спосо б</w>
спортсмен ы</w>
спокой ствие</w>
специаль ность</w>
спектак ля</w>
спасени я</w>
сою за</w>
социаль ного</w>
сохран ение</w>
соста вила</w>
солн цем</w>
собствен ности</w>
собра вшихся</w>
со рт</w>
со ль</w>
со ли
со зы
со вой</w>
со бери</w>
сни з
слы шат</w>
сло жно</w>
сло вах</w>
следо вали</w>
сла вить</w>
скрижал ях</w>
скор б
скер ӗн</w>
сиплен мелле</w>
силь ным</w>
си с</w>
си п
сере дине</w>
сер жан
семей ства</w>
сем ир
сель хо
сель ском</w>
сель ский</w>
сед атель
се шь</w>
се те</w>
се кун
сдер жан
священни ками</w>
свиде телем</w>
светиль ника</w>
свер кать</w>
сведени сене</w>
сахал рах</w>
сасӑ па</w>
сасар тӑк</w>
сан пала</w>
сан к
само ле
само бы
салат са</w>
сак кас
савӑн нӑ</w>
савӑн ать</w>
савӑ та</w>
савӑ нӑр</w>
сав ни</w>
са рай</w>
са ка</w>
са жать</w>
са дов</w>
са диться</w>
с пут
с ник</w>
с най
с кра</w>
с жечь</w>
с гиб
руководи теля</w>
руководи телем</w>
руб или</w>
ру кой</w>
ру ка
роди телям</w>
род ины</w>
рован ного</w>
ров ка</w>
ро т</w>
ро сла</w>
ри сенче</w>
ри за</w>
результат ы</w>
ред ством</w>
регио не</w>
реб ён
ре я</w>
ре ши
ре чи</w>
ре тне</w>
ре м
ре кен</w>
ре ка</w>
ре в</w>
расс вета</w>
располож ился</w>
располо жен
ран у</w>
район не</w>
райо нӗ</w>
рай тесь</w>
разно цвет
разме ре</w>
раз ъ
раз ным</w>
рабы нь</w>
рабо тод
раб ства</w>
ра шка</w>
ра тӑн</w>
ра сти
р ӗр</w>
пӳр не</w>
пӳлӗ мсем</w>
пӳлӗ мре</w>
пӳ рипе</w>
пӗтер ӗп</w>
пӗт тӗр</w>
пӗт нине</w>
пӗт мелле</w>
пӗлӗ тсем</w>
пӗлтер ӗп</w>
пӗлтер чӗҫ</w>
пӗл ччӗр</w>
пӗл ни</w>
пӗ ш
пӗ тет</w>
пӗ тес</w>
пӗ лекен
пӗ вер</w>
пӑшӑрхан тарать</w>
пӑшӑр хан</w>
пӑх аҫҫӗ</w>
пӑх атӑп</w>
пӑрӑ ва</w>
пӑрах ӗ</w>
пӑрах рӗҫ</w>
пӑл хат
пӑл тӑрӗ</w>
пӑ шал</w>
пӑ тӑр
пӑ сӑ
пӑ лан</w>
пят но</w>
пы тар</w>
пы ра</w>
пшени цы</w>
пуҫ ӗсене</w>
пуҫ лаҫҫӗ</w>
пуян лӑхӗ</w>
пуян лӑхне</w>
пуш мак</w>
пуш ат
путе в
пурӑнакан сенчен</w>
пурӑн тӑмӑр</w>
пурнӑҫла ссипе</w>
пурнӑҫла малла</w>
пурнӑҫ ӗпе</w>
пурнӑҫ ӑн</w>
пур рипе</w>
пулӑш нипе</w>
пулӑ мсем</w>
пултару лӑхӗпе</w>
пултару лӑхӗ</w>
пултар ӗ</w>
пултар чӗ</w>
пултар нине</w>
пула кан</w>
пул атӑн</w>
пу рӑна</w>
пу рт
пу ле
профессион ализ
производ ств</w>
произ веду</w>
проек ту</w>
прода жи</w>
провод ила</w>
пробле ма</w>
про шу</w>
про шед
про хла
про тяж
про то
про стри</w>
про ст
про пове
про мы
про жить</w>
про вин
приоритет лӑ</w>
приобре л</w>
приме т</w>
прид ти</w>
при шед
при чи
при мен
при жи
при дется</w>
пресмыка ющихся</w>
президен т</w>
през ента
предусмотрен ные</w>
предостав ления</w>
предостав ление</w>
предо ставля
преде лах</w>
пред почита
пред али</w>
пребы вания</w>
пре следу
празд но
прави семпе</w>
поща дит</w>
почтальон ка</w>
потре би
пото к</w>
постанов ление</w>
посел ился</w>
посел ились</w>
посе тил</w>
посе лок
пос редством</w>
попро сил</w>
помо г</w>
пом нить</w>
поль зы</w>
полков ник</w>
пол часа</w>
пол но</w>
пол ка</w>
покры ваться</w>
показыва ет</w>
позво ль</w>
поз вол
пож але
подоб ный</w>
подо шли</w>
под ходить</w>
под р</w>
под нять</w>
погу бить</w>
пове ст
пове ли</w>
пове ления</w>
побы вал</w>
по ры
по же
по бил</w>
пле мен</w>
планир уется</w>
пи ҫсе</w>
печ аль
пере пись</w>
пере йти</w>
пере е
пер стом</w>
пенси онер
пен сии</w>
педаго гов</w>
пе щере</w>
пе ти
пе ре</w>
пе пел</w>
пе ли</w>
пас мур
пар сан</w>
пар нисене</w>
панӑ ччӗ</w>
палӑрт ман</w>
палӑрт малли</w>
паль мы</w>
паллаш тарнӑ</w>
пай ка</w>
па ч</w>
па сар</w>
па па</w>
п ят</w>
п ью</w>
п рен
п лан</w>
оцен ки</w>
отро ков</w>
отпус ка</w>
отно шении</w>
откры вай</w>
отдель но</w>
отде лит</w>
отда вай</w>
ответствен но</w>
отвер стие</w>
отве тил</w>
от ка
от давать</w>
остан усь</w>
осталь ную</w>
остави в</w>
освя ти</w>
ос ы
ори ен
организаци ях</w>
организаци ю</w>
органи зато
опы том</w>
опухо ль</w>
опера ци</w>
омы ть</w>
окрест ность</w>
ограни чения</w>
ог ля
обязатель ствах</w>
обязатель но</w>
объя снить</w>
объя с
объек тсем</w>
обществӑ ра</w>
обществӑ на</w>
обре зан</w>
обрат ятся</w>
обрат ились</w>
обра щения</w>
обман ы
об рез
о хо
о стере
о сед
о пух
о кра
о ко</w>
о зна
о з
о город</w>
ныне шнего</w>
нума йӑшне</w>
номина цире</w>
ново меся
но чей</w>
но сли
ни чченех</w>
ни что</w>
ни сколько</w>
ни мӗнпе</w>
ни вшись</w>
нечисто го</w>
нечести вых</w>
небе сах</w>
не хват
не сӗ
не м
не легко</w>
не кто</w>
не которое</w>
не доволь
не вз
началь никӗ</w>
началь нику</w>
началь никам</w>
наход илось</w>
наро дам</w>
наре чено</w>
нар ы
напо мина
наперсни ка</w>
напер сник</w>
назо рей
надцат ым</w>
надле жало</w>
над зор
награ ду</w>
награ дили</w>
наблю дать</w>
наблю д
на против</w>
на ми
н ӗренпе</w>
н ано
мӗш сем</w>
мӗн не</w>
мӑн тӑр</w>
мӑн тӑр
музе я</w>
мудро сти</w>
му чить</w>
мол чал</w>
мо то
мо ву</w>
младен ец</w>
мира вай</w>
мир ные</w>
министер ствине</w>
микро район</w>
ми ться</w>
ми е</w>
мето ди
мест ӗн</w>
мер з
мел леччӗ</w>
мед ных</w>
мед ал
ме сто
ме рӗҫ</w>
ме лӗпе</w>
мат ур
мас штаб
маль чик</w>
малень кие</w>
мал ых</w>
мал ся</w>
мал лӑ</w>
макси маль
мадиан сене</w>
ма ра
м сӑр</w>
лӗх ре</w>
лӗ ччӗ</w>
лӗ пӗр</w>
лӗ не</w>
лӗ м</w>
лӑх сӑр</w>
лӑ хупа</w>
ля ю</w>
ля тся</w>
ля н
люби мой</w>
лоша дь</w>
ло пат
ло на</w>
ло ви
лич ных</w>
лич ной</w>
ли тесь</w>
лет ӗн</w>
лепе й</w>
лен чӗ</w>
лен ную</w>
лен ех</w>
ле та</w>
ле сси</w>
ле р</w>
ле р
ле мелле</w>
ле к</w>
ле жат</w>
лаха й</w>
ларт рӑмӑр</w>
лар малла</w>
лап тӑк</w>
лани пе</w>
лав кка
ла пӑр
ла кансем</w>
кӗре ш</w>
кӗне кере</w>
кӗл туса</w>
кӗ ҫӗр</w>
кӗ нине</w>
кӗ м
кӑтартӑ вӗсене</w>
кӑтарт рӑм</w>
кӑтар тусем</w>
кӑтар трӗҫ</w>
кӑн тӑрлахи</w>
кӑмӑл тан</w>
кӑлар ӑм</w>
кӑла рас</w>
кӑкӑр лӑх</w>
кӑк шӑ
кӑ тра
кӑ т</w>
кӑ сене</w>
кӑ с</w>
кӑ мпа</w>
куҫ па</w>
кур с</w>
кун ӗпех</w>
кун ҫулӗ</w>
кун не
кулӑ ш</w>
культур ного</w>
культу рине</w>
ку х
ку тӑн</w>
ку т</w>
ку стӑр
ку стар
ку рӗ</w>
ку нӑ
ку лӑ</w>
кры лья</w>
кры лат
кро т
креп кою</w>
красо та</w>
кра ях</w>
кра сави
корруп ции</w>
корот ко</w>
кор м</w>
конкурс ӗнче</w>
конкурен цие</w>
конгрес са</w>
кон ь
кон чил</w>
комите та</w>
комиссари ат
комби начӗ</w>
комбай н</w>
ко ст
ко рову</w>
ко р</w>
ко пи
ко мен
ко ла</w>
княз ь</w>
княз ей</w>
клас ри</w>
кир лех</w>
килӗш тер
килӗш се</w>
кил ӗсене</w>
кил тех</w>
кил екен</w>
ки сенче</w>
ки пятить</w>
кер мен</w>
квартир ы</w>
каҫар ттарма</w>
каш кӑр</w>
кач аться</w>
кач ать</w>
кат аться</w>
кас ма</w>
картлаш ка</w>
карти шӗн</w>
карти ш
кар ти</w>
кар и
капит ального</w>
кам ня</w>
калӑ пӑр</w>
калаҫ атпӑр</w>
кала й
кал ӗ</w>
кал атӑн</w>
кажд ым</w>
кад рсем</w>
ка ҫар</w>
ка ях</w>
ка ял
ка план
ка мсем</w>
ка кому</w>
ка бине
ка бель</w>
к т</w>
к пе</w>
к ласа</w>
к г</w>
йӗркел ӳ</w>
йӗрке леннӗ</w>
йӗр лесе</w>
йӑх а</w>
йӑ ри</w>
йӑ ран</w>
йышӑ наҫҫӗ</w>
йышӑ накан</w>
йыш лӑн</w>
йы ша</w>
й ские</w>
й па</w>
й дем</w>
ито ги</w>
итле месессӗн</w>
исче з
иссо п</w>
искус ств</w>
ис прав
ирӗ л
ирт терсе</w>
ирт ни</w>
ирсӗр лет
ир хи</w>
ир у</w>
ир тӗ
информацион ных</w>
институ тне</w>
инжен е
имуще ственного</w>
имуще стве</w>
илӗрт ӳллӗ</w>
илт сем</w>
или е</w>
илет пӗр</w>
илес шӗн</w>
илес сине</w>
ил ччӗр</w>
ил тр
иксӗл ми</w>
израиль сене</w>
изде лий</w>
из мель
из далека</w>
из голов
из а</w>
игра ет</w>
и те</w>
зна чения</w>
зна мя</w>
зн ат
земля ков</w>
зем ной</w>
зелен ь</w>
здоров ления</w>
здо ров</w>
зву к</w>
зат я
зани маться</w>
зало г</w>
завися щих</w>
зави довать</w>
за мужество</w>
за йти</w>
за де
за гад
за вода</w>
з де
з вания</w>
з вание</w>
з вали</w>
з алить</w>
журнали сти
жилищ но</w>
живу щей</w>
живо ю</w>
женщи не</w>
жени ться</w>
жен ился</w>
жела ю</w>
жел анием</w>
жай тесь</w>
жа х</w>
ж ного</w>
ж дал</w>
ес шӗн</w>
ень кий</w>
ени пе</w>
ен т</w>
ем о</w>
ез д</w>
евӗр ли</w>
е та</w>
е ла</w>
е к</w>
е дят</w>
е вых</w>
дя щий</w>
ды шащее</w>
ды рь</w>
ды ков</w>
ды ваться</w>
ду хом</w>
ду хо
дра го
дохо дах</w>
дост алось</w>
дол ю</w>
доб рым</w>
до х
до ста
до р</w>
до кла
до вести</w>
до вали</w>
до би
дни е</w>
дипло ма</w>
дина сти
диви зии</w>
ди ск</w>
ди ем</w>
держ али</w>
дер з
дер жа
дела ешь</w>
деву шкой</w>
де сан
де ев</w>
два дцат
дан ных</w>
дан ным</w>
даль ний</w>
да вала</w>
да вайте</w>
д ным</w>
д ная</w>
д ились</w>
гуманитар и</w>
гум на</w>
гряз ь</w>
гру з
гром ко</w>
гро ба</w>
гре меть</w>
грамо тами</w>
гра ница</w>
гра ждани
горя чий</w>
горо дами</w>
гор дость</w>
голу бо
голо со
голо в</w>
го до
го ва</w>
гля ды
глав ным</w>
глав ная</w>
га т</w>
г ун</w>
г ра</w>
г ги
г ана</w>
вӗрен ӳре</w>
вӗле рет</w>
вӗ тетнӗ</w>
вӑхӑт лӑ</w>
вӑхӑ тран</w>
вӑрман та</w>
вӑра ха</w>
вӑр лӑхне</w>
вӑкӑр сем</w>
вӑйй и</w>
вӑй ӗпе</w>
вӑй ра</w>
вӑ та
вырт сассӑн</w>
выпус ки</w>
выполн ении</w>
выполн ение</w>
выля нӑ</w>
выльӑх сене</w>
выльӑх сем</w>
выбо рах</w>
вы ру
вы рса</w>
вы не
вы мо
вши мися</w>
вши ми</w>
вун тӑваттӑмӗш</w>
вто рого</w>
встре тили</w>
встре тил</w>
вспом нить</w>
вспо мн
вре ти
вра гом</w>
восто чной</w>
воспомин ания</w>
воспит ания</w>
воспит ание</w>
вос пал
вол ну
возник новении</w>
возвращ ался</w>
возвра тил</w>
воен ный</w>
вое вали</w>
води теля</w>
во дя
во вле
вну ки</w>
вне шний</w>
вне зап
вку с</w>
вклю ча
витӗ мӗ</w>
витами нов</w>
вил ӗме</w>
вил лине</w>
вил ет</w>
вил е
види шь</w>
ви тӗҫ</w>
ви ны</w>
ви не</w>
взя т</w>
взрослы е</w>
взо йди</w>
взгля нул</w>
ветера нӗ</w>
вете рин
вет ром</w>
весе ло</w>
верев ки</w>
вер шину</w>
вер ность</w>
вели кую</w>
вели коле
веду щих</w>
ве чер
ве сель
ве с</w>
ве ро
ве ж
ват пӑр</w>
вари ть</w>
в шую</w>
в ходить</w>
в но
в дали</w>
в ви</w>
в вести</w>
в верху</w>
в веден
в близи</w>
бю ро</w>
бы то
бу ше
брус ья</w>
боль ного</w>
боль ници
богат ством</w>
бо же
бо га</w>
ближ нему</w>
благосло влять</w>
благодар ю</w>
благо полу
бира ют</w>
би нет</w>
би вать</w>
бесплат ной</w>
бере чь</w>
бере г</w>
бе зра
бан ю</w>
бал л</w>
ба бо
б лок
б ан</w>
б ало
аҫӑ рсене</w>
аталанӑ вӗ</w>
аталан нӑ</w>
ат тене</w>
ат ся</w>
асӑн ма</w>
астӑ ватӑп</w>
аслаш шӗ</w>
ас ы</w>
ас ран</w>
ас атте
артис чӗсем</w>
аптрат сан</w>
апат чен</w>
ап те
ан ти
ан с</w>
ан ат
ак та</w>
айк кинче</w>
агра р
автомобиль ным</w>
аван рах</w>
а хӑр</w>
Ял сенче</w>
Яковле вич</w>
Я Х
Юрат у</w>
Ю рӑн</w>
Ю ратнӑ</w>
Ю ра
Ю ноша</w>
Ю л
Ю жная</w>
Эр не
Ш ӑп</w>
Ш коль
Чапа ева</w>
Ч ӗм
Ц еф
Хӑй сем</w>
Ху ла
Хец рон</w>
Х ура
Х ала
Филистим ские</w>
Фе ман</w>
Ф але
Ф А
Ун танпа</w>
Ул атӑр</w>
У ш
У част
У тӑ</w>
У спе
У рӑх
У прав
Тӑ тӑш</w>
Турӑ шӑн</w>
Ти р</w>
Татар стан</w>
Та вах</w>
Т ут</w>
Т рак</w>
Т ав
Сӑ вӑ
Сур ков</w>
Степ анова</w>
Спе циали
Сою з
Сокхо фа</w>
Со гласно</w>
Ска зал</w>
Ска зав</w>
Сисар ӑна</w>
Симе к</w>
Сило ма</w>
Си е</w>
Сво е</w>
Сал так
С ун
С уй
С ти
С те
С тавлю</w>
С порт
С пи
С делай</w>
С Т
С К</w>
Рувимо вых</w>
[...]
