. 29329
, 27888
- 6723
те 5239
: 4424
та 4243
; 4154
— 3804
тата 2453
« 2214
ӑна 2143
Ҫӳлхуҫа 2027
тенӗ 2009
вӑл 1969
каланӑ 1719
вара 1646
[ 1586
» 1560
? 1420
пӗр 1334
пулнӑ 1195
мар 1158
унӑн 1156
] 1149
вӗсем 1111
вӗсене 1048
пек 1025
мӗн 1007
ҫапла 1001
эпӗ 979
ҫине 970
хӑйӗн 945
Израиль 918
ан 895
Эпӗ 880
Чӑваш 874
! 853
илсе 835
патне 831
мана 823
Вӑл 819
тесе 809
чухне 807
ҫын 807
пӗтӗм 790
ӗнтӗ 786
– 754
ҫав 752
ҫул 743
ҫак 738
и 734
эсӗ 733
сем 727
Турӑ 723
ҫӗр 718
ҫинчен 718
е 694
ун 687
пур 671
пӗрле 664
сене 640
ҫинче 639
1 630
панӑ 627
ӗҫ 616
санӑн 613
ха 605
тунӑ 601
2 594
сен 572
сана 568
хӑй 564
кайнӑ 562
туса 561
па 558
3 546
5 546
тухнӑ 541
халӑх 538
валли 537
пирӗн 536
хыҫҫӑн 535
тӑнӑ 534
илнӗ 534
икӗ 530
мӗншӗн 523
ман 515
кун 501
парне 491
вӗсен 486
умӗнче 481
анчах 477
4 470
семпе 457
ку 457
6 453
эсир 447
ывӑлӗ 436
манӑн 435
ывӑлӗсем 434
Давид 431
пулсассӑн 431
сирӗн 425
10 423
пулса 423
эпир 422
сан 412
8 411
сире 410
пынӑ 409
унта 407
ран 405
7 405
лӗ 399
пысӑк 397
пулӗ 396
ҫук 390
9 390
не 388
ма 387
тӑрӑх 386
ра 382
мӗш 381
хӑвӑн 380
тесессӗн 379
кӑна 376
) 374
хӑйсен 372
», 370
янӑ 367
акӑ 365
чӗ 362
15 353
12 351
11 351
Анчах 342
пултӑр 341
Ҫӳлхуҫана 338
патша 338
Эсӗ 335
ҫӗре 331
14 329
кам 327
ни 324
16 323
пире 322
май 321
пекех 321
13 321
Вара 321
20 321
мӗнле 320
Моисей 319
Республикин 319
пин 316
ри 315
чи 312
17 310
ял 310
ӗҫе 309
пе 309
хирӗҫ 306
ҫеҫ 304
ҫулта 302
лайӑх 301
нумай 300
Унӑн 299
каласа 296
пуҫласа 296
19 293
18 291
мӗнпур 291
ту 287
пулин 287
№- 287
аслӑ 286
хунӑ 284
тытса 284
таса 283
нине 282
тепӗр 280
21 279
килнӗ 279
ҫитнӗ 278
ҫынна 277
ӗн 274
Вӗсем 274
тӗп 274
ҫынсем 274
22 273
питӗ 271
Ӑна 270
хушшинче 270
тума 268
ырӑ 268
Египет 266
ытти 266
ача 265
тӗрлӗ 264
тухса 264
каялла 263
ҫавӑн 263
Иисус 261
пирки 261
ывӑлӗсене 260
вӑхӑтра 258
пуҫне 258
тӑр 257
Манӑн 257
халӗ 255
нӑ 255
А@@ 255
пурте 249
хут 249
ҫӗнӗ 248
( 248
ҫунтарса 247
пурӑннӑ 246
кашни 245
хӑвӑр 244
ӑн 243
сенчен 243
23 242
халӑха 242
Ҫак 242
пурне 240
ҫулхи 240
унтан 239
25 237
ӗ 236
унпа 235
са 235
пулсан 235
шыв 233
виҫӗ 233
24 232
патшалӑх 232
священник 229
ҫакӑ 227
малла 227
пулать 226
Раҫҫей 226
умне 225
/ 223
ҫыннисем 221
пырса 221
вырӑна 219
ши 218
30 218
пурӑнакан 217
тӑ@@ 214
... 214
т 214
Саул 213
пӑхса 211
Мана 209
ҫакна 209
тет 207
сӑмах 206
Ун 205
ка 204
лӑ 204
хула 203
чӑваш 201
Ҫав 201
Санӑн 200
урлӑ 199
кирлӗ 199
ҫырса 197
Моисее 197
вӑй 196
шӑн 196
Ку 196
лартнӑ 195
те@@ 195
ҫурт 194
ҫинчи 194
тарса 192
ытларах 191
сӑваплӑ 191
ывӑлӗсен 191
26 190
паян 190
ҫичӗ 190
пӗри 188
ту@@ 187
енне 187
ҫакӑн 186
хӑйне 186
патши 185
я@@ 184
27 183
вырӑнӗ 183
рӗ 183
ҫынни 183
кӗнӗ 183
ларнӑ 183
апат 182
урӑх 180
Турру 179
28 178
на 176
Пирӗн 176
вырӑнне 176
усӑ 175
с 175
ашшӗ 175
ху@@ 174
29 174
парни 173
хушнӑ 173
мӗ 173
сенче 173
терӗ 172
Ҫапла 170
выльӑх 169
рен 169
р 168
тӑвӗ 168
енӗпе 167
кайса 167
Хӑвӑн 166
ӗсем 166
нӗ 165
Эпир 165
килет 165
ҫӗрне 165
хулине 165
пӗрремӗш 164
пар 164
ывӑлне 164
та@@ 163
тӑракан 163
аллине 162
н 162
вӑхӑт 161
ӗнчен 160
курнӑ 160
чӗрӗ 160
усал 159
,] 159
илме 159
31 159
ҫуралнӑ 159
халӑхӗ 157
чухлӗ 157
ла 157
ҫавӑнпа 156
ӗпе 156
кунта 156
пилӗк 155
ҫу 153
ярса 153
хӗрарӑм 153
сӑр 153
к 152
кӑларса 152
пулман 152
па@@ 152
тан 152
уйӑхӗн 152
ил 151
лӑх 151
кил@@ 151
ҫула 150
кил 150
ка@@ 150
Эй 150
хӑ@@ 150
тӑрать 149
нипе 149
чӗҫ 149
хамӑр 149
хушса 149
палӑртнӑ 149
тӑван 149
Унтан 148
шӗн 148
Ен 148
Хӑйӗн 147
пама 146
Халӗ 145
кӑтартнӑ 145
кӳнӗ 144
ҫар 144
пӗтӗмӗшпе 144
а 144
ӗнче 144
ытла 143
ать 143
паллӑ 143
масть 142
кӗ@@ 142
Иаков 141
юлнӑ 141
ла@@ 141
Иосиф 141
вилнӗ 141
пуҫланӑ 140
тырӑ 140
сӑмахсене 140
ҫирӗм 139
суйласа 139
т@@ 139
Хӑй 138
иртнӗ 138
эй 137
ӗҫне 137
хӑварнӑ 137
ҫи@@ 137
ччӗ 137
а@@ 137
кирек 137
республика 137
Ҫавӑнпа 136
у@@ 136
кала 136
сассӑн 136
Аарон 135
ҫумне 135
малалла 134
аса 134
ил@@ 134
йывӑр 134
чӑн 134
хӑйсем 134
хӑваласа 134
ме 134
паракан 133
лӑха 133
ӗсене 132
тӗл 132
ӗҫ@@ 132
йывӑҫ 132
пуҫ 132
яланах 131
тупа 131
енчен 130
нимӗн 130
пуҫлӑхӗ 129
ку@@ 129
пырать 128
калать 128
ӗҫлесе 128
пу@@ 128
вырӑнта 128
малтан 127
32 126
масӑр 126
пула 125
Ҫавӑн 125
пулчӗ 125
малли 125
ар@@ 125
тивӗҫлӗ 125
хуҫалӑх 125
кӗрсе 125
ан@@ 124
шута 124
ҫавӑнта 124
чике 124
се 124
ҫынсене 124
шӑ@@ 124
Турри 123
вут 122
пулмалла 122
ҫӗрӗнче 122
пулма 122
тӗр 122
пачӗ 122
Соломон 121
рах 121
туртса 121
килне 121
Акӑ 120
сах 120
хурас 120
патӗнче 120
ҫҫӗ 120
У@@ 119
35 119
вырӑн 119
хӑвна 119
ш@@ 119
пул@@ 119
кӗлӗ 119
сӗр 118
33 118
34 118
пуху 118
кӳрекен 118
м@@ 118
ертсе 118
ҫыхӑннӑ 117
тенкӗ 117
ятлӑ 117
тарнӑ 117
ҫ@@ 117
ҫамрӑк 116
пӗ@@ 116
тӑма 116
качча 116
вунӑ 116
тинӗс 115
ҫул@@ 115
м 115
пӗтӗмпех 115
Патшалӑх 115
Иордан 114
теҫҫӗ 114
кӑ@@ 114
пулнине 114
хам 114
Пӗр 113
фараон 113
ҫавна 113
к@@ 113
чун 113
саккун 113
с@@ 113
тесен 113
мӗшӗнче 113
епле 113
ылтӑн 113
халӑхне 113
хӗрӗ 112
ни@@ 112
парса 112
пӗлтерӗшлӗ 112
ти 112
ре 112
кӗмӗл 112
енче 112
40 112
сахал 111
в 111
арӑмӗ 111
вӗсенчен 111
ҫу@@ 110
тӗрӗс 110
ал@@ 110
тен 110
кунне 110
Унта 110
тӑм 110
килсе 110
ва 110
ҫӑкӑр 110
ӗҫлеме 109
ӗнчи 109
ю@@ 109
вырӑнти 109
Израилӗн 109
таран 109
са@@ 109
ҫӗрӗ 108
укҫа 108
лан@@ 108
ҫылӑх 108
уйӑрса 108
мӑн 108
иккӗмӗш 108
л@@ 108
тӑн 108
ҫирӗп 107
мен 107
татса 107
ҫыннисене 107
Иуда 107
ҫитиччен 107
пуҫ@@ 106
ӑҫта 106
патшана 106
ш 106
рӗҫ 106
хӑш 106
чӗр@@ 106
И@@ 105
мӑшӑр 105
кӗ 105
кай 105
каллех 105
вӑрҫӑ 105
хамӑн 105
арӑм 105
ывӑл 105
чылай 104
арҫын 104
им 104
ци 104
каланине 104
таврӑннӑ 103
йӗ 103
чӑ@@ 103
кур@@ 102
курса 102
ле@@ 102
тар@@ 102
хулинче 102
ҫӳренӗ 101
пулӑ 101
вӑтӑр 101
мелле 101
пӗчӗк 101
су@@ 101
кайран 101
ҫӗрте 101
ҫитсе 101
тӑватӑ 101
хӗр 100
ен 100
чарӑнса 100
кан@@ 100
кӑмӑллӑ 100
ҫырнӑ 100
Ман 100
ланса 100
Давида 99
тӑрса 99
сикль 99
никам 99
мпа 98
п 98
Ҫӗнӗ 98
нисем 98
тӑтӑш 98
тӗ@@ 98
патӗнчен 98
кай@@ 98
чул 98
пы@@ 98
шутласа 98
аллӑ 98
пӗрне 98
леш 97
тӑвакан 97
у 97
тавра 97
кайма 97
улӑштарас 97
рӑм 97
н@@ 97
й@@ 97
яхӑн 96
лартса 96
Пӗтӗм 96
ҫке 96
калама 96
ми 96
касса 96
Патша 95
курма 95
лӑхне 95
кала@@ 95
тух@@ 95
Мӗн 95
ласа 95
йӗр 95
вӗсемпе 95
маҫҫӗ 95
памалла 95
36 95
хулана 95
республикӑра 94
ҫӑ@@ 94
унран 94
ху 94
юн 94
семшӗн 94
чӗнсе 94
виҫҫӗмӗш 94
ӳ 93
пурӑнма 93
спорт 92
ҫыннине 92
качака 92
вил@@ 92
шкул 92
килӗ 92
ҫывӑх 91
парать 91
ҫи 91
пулас 91
ҫылӑха 91
Т@@ 91
ирӗк 91
Сана 91
малтанхи 90
еннелле 90
ти@@ 90
вӗрен@@ 90
ре@@ 90
сӑмахсемпе 90
Михаил 90
пыракан 90
А 90
ӗсен 89
Паян 89
Шупашкар 89
шӗ 88
ма@@ 88
кӗр@@ 88
мсем 88
йӑ@@ 88
Вӗсене 88
ӑр 88
ура 87
хушши 87
ле 87
ӗмӗр 87
хушшинчи 87
кура 87
Хамӑн 87
лӑ@@ 86
Федерацийӗн 86
Ҫакӑ 86
пулӑшу 86
ҫ 86
каларӗ 86
». 86
культура 86
машкӑн 85
ятне 85
в@@ 85
тухрӗ 85
пӑ@@ 85
чатӑрне 85
ӗҫӗ 85
пӑру 85
х@@ 84
п@@ 84
пӗтерсе 84
Эсир 84
пӑр 84
л 84
пурнӑҫ 84
Авраам 84
мӑ@@ 84
ен@@ 84
ялта 83
ачасем 83
тарма 83
ячӗ 83
пӗрре 83
атӑп 83
темиҫе 83
Аслӑ 83
саккунӗн 83
хӑйсене 83
лӑн 83
С@@ 82
Израиле 82
ҫимӗҫ 82
ӳт 82
ят 82
кайрӗ 82
ҫуртран 82
шыва 81
пӑрахнӑ 81
тӳрӗ 81
37 81
вӗҫне 81
ҫынсен 81
вне 81
Хам 81
Ҫӳлхуҫамӑр 81
кӳмешкӗн 81
ҫулсенче 80
], 80
сси 80
ҫур 80
тӑрӑр 80
вӗ 80
ӑ 80
вӑхӑтӗнче 80
ӗҫленӗ 80
Моав 80
Х@@ 79
вӗсенӗн 79
чӗсем 79
Ҫакна 79
ӑ@@ 79
марӗ 79
Николай 79
этем 79
аллинчен 79
кӳме 79
ҫавӑ 79
К@@ 79
В 79
така 79
рӑн 78
ҫӗрӗнчен 78
ячӗпе 78
ман@@ 78
мастӑп 78
амӑшӗ 78
пӑх@@ 78
Ҫакӑн 78
пурӑнать 78
социаллӑ 78
ӗ@@ 78
район 77
вӗҫ@@ 77
ӗҫлекен 77
кун@@ 77
Мӗншӗн 77
ву@@ 77
тӗм 77
тулли 77
районӗнчи 77
пӑхнӑ 77
санпа 77
сӑмахне 76
сылтӑм 76
тӗнче 76
Самуил 76
тӗлӗшпе 76
патӑма 76
лӑхӗ 76
Туррӑр 76
Я@@ 76
кан 76
тав 76
юлашки 76
Моисейпе 75
лар@@ 75
калакан 75
хӗрне 75
Вениамин 75
тунине 75
хули 75
… 75
ывӑлӗн 75
П@@ 75
Ху@@ 75
тумтирне 75
Ял 75
эхер 75
ке 75
килӗшӳллӗн 75
йӑхӗнчен 75
ланӑ 75
ки@@ 74
ют 74
хӗрӗх 74
эрех 74
тӗлӗшӗнчен 74
ҫӗклесе 74
кӑларнӑ 74
алӑ 74
муниципалитет 74
Иоав 74
ви@@ 74
Ш@@ 73
ҫаксем 73
ли@@ 73
ҫыннӑн 73
си@@ 73
япала 73
тытнӑ 73
пайне 73
лару 73
пӑхӑнса 73
ҫуратса 73
чӑвашла 73
аллуна 72
уйрӑм 72
тапӑр 72
38 72
лӗх 72
ха@@ 72
турттармалли 72
тӑрӗ 72
Енре 72
йӗ@@ 72
ЧР 72
ша@@ 72
сӑмаха 72
тсем 72
2015 72
ачасене 72
хуравласа 72
терӗм 71
илчӗ 71
ҫулӑм 71
на@@ 71
вӑр@@ 71
ҫитрӗ 71
ура@@ 71
пӗр@@ 71
Владимир 71
часах 71
лама 71
Кам 71
кунӗнче 71
хушшинчен 71
тӗр@@ 71
ланнӑ 70
кайӑр 70
ли 70
куҫ 70
патшине 70
хатӗрленӗ 70
ҫиме 70
?» 70
Вӗсен 70
маншӑн 70
пурнӑҫлама 70
ҫӳрекен 70
парас 70
пӗл@@ 70
ӳкнӗ 70
питех 70
ӑрӑвӗ 70
пӗлӳ 69
нӑ@@ 69
канӑҫлӑх 69
ҫӑвне 69
кар@@ 69
иртсе 69
алли 69
йӗркелесе 69
ке@@ 69
пӗлтернӗ 69
чӗсене 69
алла 69
йӗн 69
мран 69
ҫӗрӗнчи 69
ччӑр 69
тӑкнӑ 69
нисене 69
ҫемье 68
.»; 68
юр@@ 68
апла 68
кайсассӑн 68
текен 68
Ӗнтӗ 68
ыйтнӑ 68
кӑнтӑр 68
вӗреннӗ 68
хӗррине 68
марӑм 68
Ханаан 68
лен@@ 68
Иисуса 68
50 68
ултӑ 68
манпа 68
шучӗ 68
айне 68
пулччӑр 68
ӑс 68
анне 67
вӗлернӗ 67
Тепӗр 67
кӳ@@ 67
тумалла 67
кине 67
уйӑх 67
ӗҫсене 67
лать 67
пӑхӑр 67
И 67
пуррине 67
ки 67
тӗлне 67
право 67
лаҫҫӗ 67
парӑр 67
хӗр@@ 66
ут@@ 66
ӳснӗ 66
ч@@ 66
сӑмахсем 66
вӗ@@ 66
мелли 66
пӗлсе 66
пултарать 66
ксем 66
ӗнен@@ 66
сӗ@@ 66
хуҫамӑм 66
чӗн 66
Пу@@ 66
хур 66
шӑпах 66
тер@@ 66
енчи 65
ра@@ 65
наци 65
Паллах 65
пи@@ 65
мсене 65
сех 65
ҫа@@ 65
мне 65
нӑччӗ 65
Кунта 65
хы@@ 65
чу@@ 65
ӳ@@ 65
ча@@ 65
ана 65
Ку@@ 65
2014 65
кне 64
Раҫҫейри 64
Е@@ 64
юл@@ 64
хӑвӑра 64
пуҫӗ 64
кӑмӑл 64
мра 64
пайӗ 64
кӑпа 64
йӗр@@ 64
пӑрахса 64
Ч@@ 64
кал@@ 64
уҫса 64
Су@@ 64
Ефрем 64
хатӗр 64
Канашӗн 64
Турра 64
д 63
пай@@ 63
мест 63
сӑ@@ 63
ӗн@@ 63
пӗтернӗ 63
не@@ 63
Лешӗ 63
Кашни 63
куҫӗ 63
кӑмӑл@@ 63
Авессалом 63
тухсассӑн 63
уншӑн 63
39 63
ҫӑ 63
кашнийӗ 63
хи 63
кӗтсе 63
ертӳҫи 63
йышӗ 63
е@@ 63
Аарона 62
парӑп 62
хӗрлӗ 62
паха 62
сыхласа 62
ҫиччӗмӗш 62
хутчен 62
д@@ 62
шывӗ 62
ӗҫӗсене 62
рех 62
пай 62
ӑнлан@@ 62
Ҫӳлхуҫанӑн 62
тарать 62
калаҫ@@ 62
хама 62
аннӑ 62
Тата 62
арӑ@@ 61
ҫийӗр 61
кӑтартса 61
ф 61
пуҫлӑх 61
и@@ 61
Э@@ 61
Шупашкарти 61
сирӗншӗн 61
В@@ 61
Рувим 61
вар@@ 61
йӗркепе 61
тин 61
ӑрӑвӗсем 61
нӑшӑн 61
ӗҫсем 60
илтнӗ 60
ин@@ 60
!» 60
Сергей 60
кӗртнӗ 60
сывлӑх 60
яла 60
Кӑҫал 60
нинчен 60
сӑн@@ 60
хушшине 60
ячӗллӗ 60
вӑйлӑ 60
кайӑк 60
иҫӗм 60
вӗренӳ 60
айӑпсӑр 60
Тӑван 60
г@@ 60
тӗллев 59
уҫӑ 59
пӗтӗмпе 59
йышне 59
лакан 59
чӗпе 59
ет 59
кӗл@@ 59
ҫӗршыв 59
42 59
О@@ 59
хальхи 59
шанса 59
йӑхӗ 59
ҫӗ@@ 59
месӗр 59
тӗллевпе 59
вӗт 59
кӗн 59
хулара 59
вӑрҫа 59
№; 59
вӑн 58
тӑвас 58
час 58
кипе 58
Халӑх 58
хутшӑннӑ 58
1@@ 58
Шупашкарта 58
итле@@ 58
маларах 58
калаҫнӑ 58
р@@ 58
вуннӑмӗш 58
паянхи 58
43 58
ларакан 58
тӗнчери 58
йышӑннӑ 58
тӑмӑр 58
Исаак 58
лисем 58
ӗсемпе 58
тар 58
41 58
Гад 58
ӗҫре 58
чӗ@@ 58
чуру 58
ша 58
курсассӑн 58
сам 58
арчине 58
сурӑх 58
Н 58
паллах 58
Хӗрлӗ 57
тухать 57
килӗш@@ 57
вӑ@@ 57
Иакова 57
йышӑн@@ 57
Ар@@ 57
каҫ@@ 57
Иудея 57
ярӗ 57
пурнӑҫа 57
юрать 57
ачана 57
вак 57
Ионафан 57
тасалӑх 57
еткерлӗхе 57
кӗсем 57
ат@@ 57
шӑпа 57
пе@@ 57
савӑн@@ 57
путек 57
хӑраса 57
республикӑри 57
шут@@ 57
]. 57
тӑраҫҫӗ 57
Ҫӳлхуҫаран 57
юпа 57
парнесем 57
майпа 57
кӳмелли 56
я 56
шы@@ 56
темӗн 56
пурӑнмалли 56
лӗн 56
йӗрке 56
илӗ 56
иртрӗ 56
йӑтса 56
ӗр 56
пыма 56
ӗне 56
пӗлмен 56
хуш@@ 56
.] 56
куна 56
хур@@ 56
лат@@ 56
асӑннӑ 56
хывнӑ 56
йӑлтах 56
тери 56
ӳксе 56
бюджет 56
ҫисе 55
ашшӗн 55
калатӑп 55
тӑвӑп 55
Ҫапах 55
халӑхӗн 55
Ка@@ 55
пурӑнакансем 55
сессӗн 55
чатӑрӗ 55
тӑвать 55
ҫулпа 55
ҫултан 55
сут 55
юрамасть 55
Ха@@ 55
лӗ@@ 55
хурса 55
каять 55
шывпа 55
тӑк 55
амӑшне 55
Галаад 55
вӗренсе 55
килчӗ 55
евӗрлӗ 55
сенчи 54
евӗр 54
юнне 54
шкулта 54
яр 54
ленӗ 54
ф@@ 54
йышлӑ 54
ват@@ 54
тӑршшӗ 54
Египетран 54
Исав 54
тивӗҫ@@ 54
ҫӗ 54
ямалла 54
юратнӑ 54
Илия 54
ютран 54
ҫитсессӗн 54
каҫ 54
выртнӑ 54
вӗлерме 54
Юрий 54
илемлӗ 54
ллӑ 54
Чи 54
йӑхне 54
тухма 54
ро@@ 53
сӑр@@ 53
кин 53
тӳ@@ 53
ҫӗртен 53
Са@@ 53
ак@@ 53
Республика 53
йӗркеленӗ 53
ччен 53
ҫӗрӗн 53
калаҫма 53
кӑн 53
тӑвӑр 53
ксене 53
Шел 53
тӑр@@ 53
пулӗҫ 53
тӑтӑр 53
чатӑрӗн 53
юрӑ 53
вӑтам 53
ҫур@@ 53
ӑшӗнче 52
шухӑш 52
о@@ 52
лине 52
туп@@ 52
44 52
ыр@@ 52
ларӗ 52
шан@@ 52
лӑхпа 52
чӗн@@ 52
тӑчӗ 52
тивлечӗ 52
ме@@ 52
пурӑн@@ 52
кӑҫал 52
ҫыннин 52
45 52
выртакан 52
вӗлер@@ 52
ҫитӗн@@ 52
ҫырма 52
ҫаврӑнса 52
Ааронпа 52
пар@@ 52
тне 52
умӗнчи 52
ҫар@@ 52
рать 51
иккен 51
ҫит@@ 51
шухӑш@@ 51
19@@ 51
кунӗ 51
тытӑннӑ 51
утӑ 51
ус@@ 51
то@@ 51
ҫӳреме 51
кансем 51
нимӗнле 51
ырӑлӑх 51
тӳлесе 51
пуҫлӑхӗсем 51
таки 51
ывӑлӑм 51
асра 51
чуна 51
атӑр 51
пулмасть 51
кая 51
хута 51
тавӑрса 51
Ю@@ 51
вӑй@@ 50
ди@@ 50
ялӗнче 50
параҫҫӗ 50
хура 50
чикӗ 50
Юлашки 50
ҫуртне 50
йӗркене 50
хӑв 50
пӗлӗт 50
ми@@ 50
хӗ@@ 50
ҫитичченех 50
ҫӑмӑл 50
паратӑп 50
ҫӗр@@ 50
инвестици 50
тулӑ 50
ҫун@@ 50
ну@@ 50
сывӑ 50
шутне 50
лешӗ 50
ль@@ 50
хапха 50
алӑ@@ 50
тарчӗ 50
пӑхӑн@@ 50
ун@@ 49
кама 49
пултарулӑх 49
ирттернӗ 49
ҫуртсем 49
пӗлтер@@ 49
ҫитмӗл 49
Атте 49
вӗренме 49
кен 49
ц@@ 49
2016 49
илтӗр 49
вырнаҫ@@ 49
шайӗнче 49
ирттерме 49
таврашӗнчи 49
сирӗнпе 49
илӗр 49
ех 49
татах 49
ҫӗлен 49
ашшӗне 49
тупса 49
ар 49
мӗшӗ 49
нӑн 49
Ту@@ 49
патна 49
пурӗ 49
тӑршшӗпех 49
сӑмахӗ 49
санран 49
тах 48
вӗрентсе 48
вуникӗ 48
патӑм 48
ӑра 48
лӑхра 48
ирхине 48
хи@@ 48
памалли 48
хыпар 48
М@@ 48
ҫаплах 48
лесе 48
скер 48
процент 48
вырнаҫнӑ 48
мен@@ 48
мерӗ 48
Ҫамрӑк 48
Иван 48
хӗҫ 48
парӗ 48
Апла 48
ри@@ 48
х 48
ӗмӗрлӗхе 48
ир 48
чӗлхи 48
чури 48
ҫапса 47
ҫинӗ 47
тем 47
малашне 47
Д@@ 47
пултарнӑ 47
Хӑ@@ 47
вилсе 47
пулӑш@@ 47
таврӑн@@ 47
пӗрлех 47
тултарнӑ 47
пӑхма 47
тӑмалла 47
Е 47
тӑк@@ 47
кӗсене 47
ев 47
чухнех 47
ирт@@ 47
миллион 47
лет 47
Пуҫлӑхӗ 47
лах 47
умӗн 47
Дан 47
ӑн@@ 47
тӑватӑп 47
Ф@@ 47
тӑлӑх 47
Ҫӗр 47
хуҫи 47
пурнӑҫ@@ 47
ӳтне 47
Сирӗн 47
ҫӑвӗпе 47
лартма 46
тӗн 46
пырӗ 46
нин 46
хак 46
вӑкӑр 46
вӗлерсе 46
хушма 46
ци@@ 46
ст@@ 46
сенӗн 46
чченех 46
килӗнче 46
пултараҫҫӗ 46
й 46
Та@@ 46
ятарлӑ 46
витӗр 46
ссине 46
аван 46
пал@@ 46
хӗрринче 46
пех 46
тапранса 46
чи@@ 46
пул 46
пушӑ 46
арӑмне 46
ҫӳре@@ 46
стакан 46
мешкӗн 46
пӑрах@@ 46
пулни 46
хатӗр@@ 46
ӑнӑҫлӑ 46
типӗ 46
нихӑҫан 46
ленсе 45
ҫирӗплетнӗ 45
Ҫӳлхуҫамӑм 45
асӑнса 45
вӗпе 45
Ҫ@@ 45
пуҫтарса 45
кӑшкӑрса 45
ҫуса 45
пине 45
укҫи 45
ир@@ 45
сӑн 45
г 45
хӗвел 45
ҫӳллӗ 45
че@@ 45
упӑшки 45
Александр 45
чунне 45
еткер 45
тул@@ 45
хытӑ 45
сӗт 45
пытарнӑ 45
Валаам 45
вӗҫен 45
ый@@ 45
лӗхне 45
ран@@ 45
Чӑн 45
турт@@ 45
нех 45
вун 45
46 45
ас@@ 45
Сан 44
аталантарма 44
Петр 44
хӑра 44
кӳрсе 44
тӗслӗх 44
ыйту 44
нӑран 44
теекен 44
ланчӗ 44
чупса 44
пачӗҫ 44
ль 44
умӗнчен 44
калаҫса 44
итлесе 44
кӑтарт@@ 44
ас 44
халь 44
каякан 44
Мӗнле 44
шутланать 44
мар@@ 44
Л@@ 44
ялти 44
районти 44
пӗтнӗ 44
манран 44
усӑллӑ 44
чӗрине 44
кӗчӗ 43
тухӑҫ 43
рине 43
пророк 43
священника 43
рӑ@@ 43
Республикинче 43
пытӑр 43
чир@@ 43
статьян 43
суя 43
Унсӑр 43
Си@@ 43
пил@@ 43
хӑвар@@ 43
Министрсен 43
тумтир 43
Беф 43
килӗр 43
пӗринпе 43
тат@@ 43
чӗри 43
упра@@ 43
ҫӳрет 43
тетӗп 43
сӗтел 43
пӗлӗ@@ 43
пулмӗ 43
унти 43
Хӑйне 43
кӑра 43
арчи 43
ҫӗрле 43
экономика 43
ҫуратнӑ 43
пуҫҫапнӑ 43
ыйтса 43
пах 43
тӑратнӑ 43
ру@@ 43
паллаш@@ 43
шне 43
хулинчен 42
тавра@@ 42
мӑра 42
чӑн@@ 42
хире 42
сӑрт 42
чӗннӗ 42
суй@@ 42
каҫхине 42
тӑратӑп 42
пыр 42
хӑшӗ 42
кунран 42
кашӑкӗ 42
ӗҫмелле 42
ҫулӗ 42
мӗ@@ 42
патнелле 42
Га@@ 42
киле 42
кра 42
атпӑр 42
йӗсене 42
хамӑрӑн 42
палӑртса 42
иккенне 42
ва@@ 42
каласан 42
мӑр 42
С 42
пат@@ 42
йӗркине 42
тра 42
Г@@ 42
ҫыр@@ 42
инкек 42
кунсенче 42
таякан 42
сиксе 42
маннине 42
айӗнче 41
ӑшӑ 41
М 41
ҫыннисен 41
ури 41
Сире 41
пата 41
каймалла 41
сӗр@@ 41
2@@ 41
пус@@ 41
яш 41
ҫумӗнчи 41
ӑпа 41
ҫӗмӗрсе 41
хастар 41
ачисем 41
ара 41
Кун 41
аллинче 41
ах 41
анса 41
рӗн 41
пулӑ@@ 41
уй 41
семсӗр 41
тӑрӑш@@ 41
хурал@@ 41
хуравланӑ 41
ҫулӗпе 41
Н@@ 41
пурнӑҫлакан 41
ырӑ@@ 41
кал 41
всем 41
мӗшӗнчи 41
хутшӑн@@ 41
йышши 41
мо@@ 41
Манассия 41
хуласем 41
таракан 41
сӗрсе 41
Б@@ 40
Аврам 40
ирех 40
хир 40
хаҫат 40
илес 40
юхса 40
пулӑшать 40
атте 40
ҫурал@@ 40
тӗрӗслесе 40
асаплан@@ 40
ҫурҫӗр 40
тӳпе 40
На@@ 40
лет@@ 40
тӗлӗнче 40
пӗлтерчӗ 40
вырӑс 40
Игнатьев 40
ҫитернӗ 40
кӗҫӗн 40
ҫы@@ 40
абзацра 40
уйрӑмах 40
пуҫларӗ 40
ӗр@@ 40
Ҫӳлти 40
илт@@ 40
Самсон 40
он 40
йӗркесӗр 40
юх@@ 40
Икӗ 40
Яковлев 40
чӗсемпе 40
ӗҫлет 40
кисем 40
пушхирте 40
лав 40
чун@@ 40
пирӗнпе 40
сӗ 40
наҫҫӗ 40
илет 40
вырӑсла 40
местӗп 40
тупӑш@@ 40
Ки@@ 40
юрӑхлӑ 40
тӑван@@ 40
ял@@ 40
Паянхи 40
ссипе 39
хӳ@@ 39
тухӑр 39
хӑра@@ 39
хирте 39
ӳк@@ 39
аш 39
пытар@@ 39
ҫа 39
муниципалитетӑн 39
Аса 39
кӳрет 39
филистимсен 39
се@@ 39
Ҫурт 39
медицина 39
кӗме 39
енӗ 39
минут 39
ҫаврӑн@@ 39
48 39
ҫум 39
Ача 39
кунчченех 39
чик@@ 39
Ӗҫ 39
каяс 39
амӑшӗн 39
панине 39
Елена 39
Туррӑм 39
шутра 39
кӑлар@@ 39
инче 39
му@@ 39
чӗлхе 39
лек@@ 39
пулӑшма 39
тернӗ 39
мӗҫ 39
тур@@ 39
ҫакӑнта 39
нисен 39
Иванов 39
рт@@ 39
пӗрер 39
уйӑхӗнче 39
тух 39
хаклӑ 39
хушнине 39
тараҫҫӗ 39
каҫса 38
касси 38
ь@@ 38
Кайран 38
Ан@@ 38
мухтавлӑ 38
професси 38
ӑру 38
куртӑм 38
пуҫтарӑннӑ 38
лӗхе 38
шӗ@@ 38
Саула 38
шултӑра 38
ланать 38
тӗнчене 38
ши@@ 38
парнине 38
тӳрех 38
ҫумӑр 38
пурӑнаҫҫӗ 38
тӑваттӑмӗш 38
Сихем 38
тытӑ@@ 38
ӗм 38
Ӗҫ@@ 38
2012 38
ты@@ 38
пӗрин 38
ӑслӑ 38
ашшӗпе 38
Ма@@ 38
халӑхсем 38
пӗлет 38
тыт@@ 38
рӑмӑр 38
Со@@ 38
ӳпе 38
чӑр 38
пӗччен 38
пухнӑ 38
ыран 38
кӗр 38
статья 38
куракан 38
Фараон 37
пӗтӗмӗшле 37
мӑр@@ 37
тивнӗ 37
турӗ 37
ҫисем 37
ӗмӗрех 37
шал@@ 37
чӗререн 37
ватӑ 37
пулнӑран 37
илтсессӗн 37
ҫутӑ 37
шу@@ 37
вырӑн@@ 37
умӑнта 37
улшӑнусем 37
уяв 37
тӑра 37
ав@@ 37
тӑн@@ 37
вӑхӑтрах 37
аллӑ@@ 37
япӑх 37
аталан@@ 37
илекен 37
тупнӑ 37
тӑрӑ@@ 37
аттем 37
шыраса 37
кӑмӑлпа 37
ыйт@@ 37
чир 37
чух 37
тискер 37
сехет 37
кас@@ 37
кӑштах 37
лӑхӗпе 37
курӑк 37
ларса 37
вырт@@ 37
Лаван 37
ывӑлӗсемпе 37
чен 37
саккунӗсемпе 37
тсен 37
тармалла 37
хутшӑнма 37
ӑш@@ 37
кран 37
пӗтер@@ 37
Кӗ@@ 37
гектар 37
пуян 37
тан@@ 37
чухнехи 37
суд 37
пулӑшса 37
пурӑнакансене 37
туй@@ 37
ачисене 37
кӑтар@@ 36
выртать 36
Ҫӗр@@ 36
курӑ@@ 36
телейлӗ 36
регион 36
хӑватлӑ 36
Авраама 36
тер 36
ҫапах 36
ӳссе 36
Вӗсенчен 36
хут@@ 36
пайӗн 36
Левий 36
Мо@@ 36
техника 36
йӗркелеме 36
палӑртать 36
кӗре@@ 36
49 36
терсе 36
ялӗ 36
47 36
кӗнеке 36
пиллӗх 36
марӗҫ 36
халал@@ 36
ахаль 36
хывса 36
лайӑхрах 36
пурнӑҫланӑ 36
пӗлетӗп 36
тивет 36
малтанах 36
пулӑр 36
э@@ 36
ирӗк@@ 36
атӑн 36
илтӗм 36
хыпар@@ 36
меҫҫӗ 36
ракан 36
ӑшне 36
ко@@ 36
юратса 36
Па@@ 36
лӗсем 36
ачи 36
хир@@ 36
курӑн@@ 36
Ҫавна 36
уҫ@@ 36
пулчӗҫ 36
чӑнах 36
ҫӗрсене 36
саншӑн 36
хуларан 36
пух@@ 36
ҫура@@ 36
ҫӗкле@@ 36
хулипе 36
‚ 36
пултарай@@ 35
мастӑн 35
йывӑр@@ 35
Ни@@ 35
вар 35
ашак 35
йсем 35
Ҫи@@ 35
чаплӑ 35
ҫулне 35
Авимелех 35
иртекен 35
Иерихон 35
ывӑлӗсенчен 35
кисене 35
ул@@ 35
юнашар 35
ҫитет 35
кӗртме 35
кайсан 35
сӗн@@ 35
конкурс 35
нӗшӗн 35
чӗр 35
Мария 35
хавхалан@@ 35
чуп@@ 35
Пи@@ 35
пӑр@@ 35
тӗмӗр 35
таранах 35
районта 35
ирӗке 35
атчӗ 35
тӑнине 35
витӗм 35
информаци 35
до@@ 35
100 35
илеҫҫӗ 35
чӗлхипе 35
пултаруллӑ 35
килӗшӳ 35
хӑйпе 35
тавӑ@@ 35
ҫимелле 35
пулаҫҫӗ 35
рай@@ 35
уй@@ 34
Пӗр@@ 34
сал@@ 34
тарас 34
ҫумӗнче 34
ҫӑсем 34
священниксем 34
лани 34
ӑх@@ 34
Авенир 34
3@@ 34
тивӗҫ 34
пухса 34
теме 34
хӑнӑх@@ 34
хӑва@@ 34
общество 34
кӗрекен 34
тпа 34
Эхер 34
тӳр@@ 34
ӗҫме 34
тухӑҫлӑ 34
хӗн 34
ярӑп 34
патӑр 34
хушшӑрта 34
йӗри 34
тӑтӑшах 34
ҫивӗч 34
эппин 34
ы@@ 34
ҫурчӗ 34
ринчен 34
палӑртрӗ 34
вырӑнтан 34
ҫамрӑксен 34
уйӑхӑн 34
Ахав 34
чунтан 34
яма 34
икҫӗр 34
ве 34
класс 34
пурӑнӑҫ@@ 34
юрат@@ 34
кана 34
ҫитӗ 34
хӗрарӑма 34
Пӗррехинче 34
фа 34
пӑрӑн@@ 34
парне@@ 34
2017 34
Турӑран 34
тухрӑм 34
лартмалла 34
Филисти 34
тытма 34
Анне 34
тарҫисене 34
тарӑн 34
халӑхӗпе 34
Пӗлтӗр 33
Тӑ@@ 33
шурӑ 33
чикки 33
ҫителӗклӗ 33
Тен 33
самччӗ 33
тенине 33
сен@@ 33
килте 33
ҫил 33
ҫухат@@ 33
пурлӑх 33
рӗм 33
лӑхлӑ 33
Гай 33
РФ 33
де@@ 33
маллине 33
тупӑ@@ 33
леме 33
аҫу 33
хатӗрлен@@ 33
вӗн 33
хӑрушӑ 33
федераци 33
пытанса 33
2013 33
ҫут 33
шер 33
ҫывӑхӗнчи 33
лӑрах 33
хӳме 33
Ми@@ 33
майсем 33
пи 33
Федераци 33
аморрейсен 33
Иерусалима 33
ков 33
Светлана 33
пӗлнӗ 33
ӗҫченӗсем 33
з@@ 33
Египета 33
хӑпар@@ 33
йӗрке@@ 33
тытӑмлӑх 33
тӑватҫӗр 33
лӑх@@ 33
ывӑ@@ 33
илмелле 33
кӑларӑ@@ 33
Геннадий 33
лӑр 33
Туррӑмӑр 33
но@@ 33
ж@@ 33
рисем 33
пӗҫернӗ 33
ксемпе 33
ыйтӑва 33
хӗрринчи 33
турттарас 33
сӳтсе 33
хо@@ 33
уҫнӑ 33
тухӗ 33
проценчӗ 33
ирттер@@ 33
санах 33
хитре 33
курман 33
хӑр@@ 32
пуль 32
тӑран@@ 32
пӑрӑнса 32
да 32
рам 32
упраса 32
аллипе 32
кӑларма 32
проект 32
пусса 32
кирлине 32
Республикӑра 32
ор@@ 32
Енри 32
ҫӗршывра 32
уйӑхра 32
тӳрре 32
ҫыхӑну 32
70 32
курсан 32
хуҫалӑх@@ 32
шайра 32
тапӑ@@ 32
60 32
сыпӑка 32
мӗпе 32
вырӑнаҫнӑ 32
кайӗ 32
Ӑ@@ 32
сир@@ 32
лне 32
тирпей@@ 32
марччӗ 32
пуҫтарнӑ 32
арӑма 32
йышӗнче 32
кӳрӗр 32
Пӗ@@ 32
округ@@ 32
итле 32
кӗпе 32
хӗрсем 32
Р@@ 32
вӗсемшӗн 32
сӑмах@@ 32
Ангелӗ 32
з 32
тапӑра 32
Шкул 32
паттӑр@@ 32
тӑра@@ 32
йӗнче 32
туслӑ 32
асап 32
кӑла@@ 32
тутлӑлла 32
алӑк 32
пурччӗ 32
Алексей 32
туяннӑ 32
ӗсенчен 32
йӑх@@ 32
ян 32
Ко@@ 32
район@@ 32
хупса 32
Ва@@ 32
хӑт@@ 32
рсем 32
йӑли 32
хӑвӑрӑн 32
илсен 32
выля@@ 32
4@@ 31
каларӑм 31
ашне 31
б@@ 31
авто@@ 31
млӑ 31
ча 31
алӑкӗ 31
ҫывӑ@@ 31
ламан 31
Иеровоам 31
ӗнер 31
ят@@ 31
цийӗ 31
йӗсен 31
пултар@@ 31
мах 31
пулӑшакан 31
производство 31
ит@@ 31
пулмарӗ 31
ыттисем 31
уя@@ 31
пулӑп 31
нӑр 31
тир@@ 31
Людмила 31
аҫҫӗ 31
камӑн 31
ӗмӗр@@ 31
йӗре 31
мерӗм 31
унччен 31
Се@@ 31
умӑнтан 31
пӗлтерекен 31
курӑннӑ 31
стсен 31
пачах 31
латпӑр 31
калани 31
хӑҫан 31
чулпа 31
мӗшӗнчен 31
майлӑ 31
Иртнӗ 31
саккунӗпе 31
ллӗ 31
Аттем 31
тисем 31
чура 31
япалана 31
тӑрӑшнӑ 31
рипе 31
вилӗм 31
лешӗсем 31
юра@@ 31
никама 31
хушӑра 31
тӗплӗн 31
тивӗҫнӗ 31
рин 31
тсене 31
ҫӗсем 31
Федерацин 31
хулари 31
кӑмӑлне 31
сса 31
Г 31
хӗҫпе 31
сасӑ 31
халал 31
хыв@@ 31
ӳстерме 31
тилҫе 31
мӑп 31
сик@@ 31
каҫнӑ 31
вӑрлӑх 31
шар 31
сасси 31
службин 31
сцена 31
тухтӑр 31
), 31
Хальхи 31
хаяр@@ 31
мухтав@@ 31
астуса 30
хучӗ 30
куҫса 30
организаци@@ 30
Чӑваш@@ 30
килме 30
чирӗ 30
тап@@ 30
ве@@ 30
Ал@@ 30
каччӑ 30
хӑват 30
лӗпе 30
рӑр 30
«, 30
илем@@ 30
52 30
ҫӳлти 30
Ме@@ 30
тетӗн 30
% 30
Ӳ@@ 30
куҫ@@ 30
рпа 30
ҫуралса 30
хума 30
телей 30
утмӑл 30
семччӗ 30
кпа 30
ҫыншӑн 30
Унпа 30
ҫимӗҫне 30
канаш@@ 30
ҫавах 30
паман 30
ачасен 30
калас 30
кӗнекинче 30
ҫе@@ 30
). 30
ылханлӑ 30
Иосифа 30
пӗрех 30
Синай 30
нормативлӑ 30
органӗсем 30
Енӗн 30
Шу@@ 30
пӗчӗк@@ 30
тейӗ 30
Ас@@ 30
ертӳ@@ 30
ур@@ 30
кӗртес 30
миллиард 30
вал@@ 30
выльӑхӗ 30
Турӑҫӑм 30
ӗнчех 30
ай@@ 30
куҫу 30
тӗтӗрмелли 30
ҫӑмран 30
каҫар@@ 30
пурнӑҫра 30
яваплӑ 30
К 30
ҫити 30
сӑмахӗсене 30
манни 30
фараона 30
хупӑрласа 30
пыраҫҫӗ 30
рӗмӗр 30
хӑварма 30
тасатӗ 30
пайра 30
пурнӑҫне 30
муниципалитетсем 30
турӑм 30
вырӑнӗн 30
чуруна 29
йӗркеле@@ 29
Туррун 29
ӗҫнӗ 29
тапхӑрта 29
ҫывӑхӗнче 29
накан 29
теле@@ 29
ҫынран 29
Ие@@ 29
сарлакӑшӗ 29
леннӗ 29
абзаца 29
статйин 29
ҫынсемпе 29
сар@@ 29
шалти 29
палӑ@@ 29
кӗрет 29
сакӑр 29
чӑваш@@ 29
тарҫисем 29
ултҫӗр 29
халӑхӑн 29
ҫӗршыва 29
тухакан 29
ҫӗклен@@ 29
лайӑх@@ 29
лу@@ 29
тӑман 29
нӑранпа 29
хӗре 29
лисене 29
чунӗ 29
йӑхӗн 29
ячӗсем 29
Пуҫлӑхӗн 29
Елеазар 29
кунтан 29
ӗҫсен 29
сассине 29
пичет@@ 29
Асӑннӑ 29
кри 29
ывӑлу 29
Ачасем 29
ҫӑмӑл@@ 29
пӗлетӗн 29
ларт@@ 29
5@@ 29
тӗп@@ 29
пуян@@ 29
мӑну@@ 29
нӗччӗ 29
ҫилли 29
йышӑнма 29
ӑрӑ@@ 29
чарӑннӑ 29
мух@@ 29
лени 29
пуҫтар@@ 29
калӑр 29
сӑвӑ 29
пӑрахас 29
51 29
хине 29
со@@ 29
хӑл@@ 29
хӑй@@ 29
шанчӑклӑ 29
халалланӑ 29
хурав@@ 29
кӑларакан 29
впа 29
Елисей 29
пӑс@@ 29
ҫисене 29
иртет 29
чарӑн@@ 29
мри 29
йӗсем 29
ленине 29
масан 29
ап@@ 29
хушнипе 29
кӳр 29
пӗрлеш@@ 29
инчен 29
официаллӑ 29
тай@@ 28
рисене 28
Ваал 28
сарса 28
ани@@ 28
выртса 28
йӑх 28
тӑррине 28
тет@@ 28
пулнипе 28
уйӑрнӑ 28
ҫулхине 28
ятӑр 28
тӑччӑр 28
филистимсем 28
утса 28
мат@@ 28
ӑм 28
ҫулах 28
ше@@ 28
мастпӑр 28
ста@@ 28
ҫулсем 28
Чу@@ 28
ӑшӗнчен 28
ҫӗн@@ 28
Ат@@ 28
Кунне 28
аркатса 28
ефод 28
ье@@ 28
администрацийӗн 28
тумалли 28
Сӑ@@ 28
ланине 28
тӗлӗн@@ 28
поэ@@ 28
Тӗрлӗ 28
Ин@@ 28
малӑх 28
юлчӗ 28
Анна 28
тӗл@@ 28
ҫырли 28
чӑннипех 28
патшара 28
выр@@ 28
хатӗрлеме 28
суту 28
тӑваҫҫӗ 28
сшӑн 28
план@@ 28
ам 28
Культура 28
чей 28
Хисеплӗ 28
Ольга 28
валеҫсе 28
тарӑх@@ 28
ачасемпе 28
уйӑх@@ 28
каҫченех 28
тетӗр 28
пӗлтерсе 28
ло@@ 28
тытӑн@@ 28
ҫӗршывӑн 28
хатӗрле@@ 28
хуп@@ 28
тутӑр 28
тивӗҫӗсене 28
ӑста 28
сенкер 28
кер 28
атчӗҫ 28
сӑвӑ@@ 28
ӗҫӗсем 28
ҫапӑҫнӑ 28
55 28
кене 28
ҫӑл@@ 28
май@@ 28
ҫак@@ 28
нӑна 28
лӗхӗ 28
участокӗ 28
килеҫҫӗ 28
кӗске 28
2011 28
йсен 28
тӗслӗ 28
уяв@@ 28
нумай@@ 28
хӗрарӑмӗ 28
тупӑш 28
вырӑнсем 28
шӑл@@ 28
савӑнса 28
ксен 27
Сӑмах 27
рӑна 27
лӗсене 27
ҫыру 27
класра 27
Туррине 27
ылтӑнран 27
парӑн@@ 27
кӗсен 27
ӗл@@ 27
ҫӑвӗ 27
пӳлӗ@@ 27
кайрӑм 27
# 27
кӑ 27
шухӑшласа 27
Завулон 27
Христос 27
вӗрентнӗ 27
пулӑн 27
капла 27
Лариса 27
Вирсавия 27
политика 27
раҫҫӗ 27
кӑр 27
]; 27
сыпӑкран 27
иккӗшӗ 27
хак@@ 27
анлӑ 27
ский 27
тив@@ 27
Канаш 27
Сири 27
кунах 27
Манассиян 27
ылхан 27
ӑс@@ 27
Ҫӑ@@ 27
пур@@ 27
кӑр@@ 27
вырӑнсене 27
Пат@@ 27
йӗсемпе 27
пымалла 27
тӑванӗсем 27
урӑхла 27
рат@@ 27
левитсене 27
сунатӑп 27
айӑплӑ 27
хисеплӗ 27
ҫӑм 27
кайтӑр 27
80 27
ҫӗршыври 27
чиксе 27
хаяр 27
картиш 27
тасатмалла 27
Мускав 27
ччӗр 27
савӑ@@ 27
ятӑм 27
кая@@ 27
чечек 27
вӗҫсе 27
ян@@ 27
сыв@@ 27
хӳтлӗх 27
Ашшӗ 27
Вӑ@@ 27
ылхан@@ 27
ӗнсе 27
вӑрттӑн 27
б 27
илчӗҫ 27
кӑшт 27
куллен 27
пӳлӗме 27
тимлӗ 27
Республикӑри 27
тара 27
кусем 27
тӑшман 27
тӑрат@@ 27
туллин 27
Гедеон 27
тӑрӑшать 27
масассӑн 27
тин@@ 26
ҫавӑ@@ 26
тӑх@@ 26
апат@@ 26
мсемпе 26
йывӑҫ@@ 26
ӳкернӗ 26
Ара 26
ҫӑл 26
ник 26
туни 26
сиен 26
пиллӗкмӗш 26
ире 26
тӑва@@ 26
кӑсӑклан@@ 26
никӗсӗ 26
патшалӑхӑн 26
тенкӗпе 26
мӗсем 26
тивӗҫтер@@ 26
хӗл 26
Васильевич 26
туйса 26
ратӑп 26
лӑплан@@ 26
Ывӑ@@ 26
чар@@ 26
эрне 26
хал 26
ров@@ 26
пурӑнмалла 26
хумалла 26
ҫырлах@@ 26
ӳсем 26
кӗмелли 26
ҫунса 26
кӗтӗм 26
хӑма 26
сас 26
ҫавӑрнӑ 26
пӗлтӗр 26
кӗрсессӗн 26
виҫҫӗр 26
тулашне 26
Пире 26
хӳтӗле@@ 26
хӗрхен@@ 26
ӳстернӗ 26
Ҫын 26
ҫын@@ 26
ыйтусене 26
вӑпа 26
чисене 26
пани 26
Валак 26
тепри 26
кӗт@@ 26
тимӗр 26
улттӑмӗш 26
пилленӗ 26
ларӑм 26
чирлӗ 26
ларать 26
хуласене 26
Республикинчи 26
тен@@ 26
илтсе 26
мӗнлерех 26
тас 26
аш@@ 26
туя@@ 26
каш@@ 26
Туррӑн 26
ҫых@@ 26
ҫитмен 26
халӑхсен 26
ҫапӑ@@ 26
кӑш@@ 26
Вефиль 26
ӗҫчен@@ 26
Нумай 26
Пӗрремӗш 26
ҫӗрӳ 26
ҫылӑх@@ 26
вӑрӑм 26
уява 26
ҫулхисенчен 26
уйрӑлса 26
турӑсене 26
органӗсен 26
шкула 26
чӑвашсен 26
скерсем 26
ҫӗнӗрен 26
регион@@ 26
стсем 26
пӗртен 26
ҫамрӑксем 26
сулахай 26
еҫҫӗ 25
ер@@ 25
ски 25
йӗрсе 25
вӗр@@ 25
аталантарас 25
Иерусалимра 25
Пӑ@@ 25
хӑн@@ 25
лӗх@@ 25
рсене 25
чӗнтерсе 25
сӑмахран 25
ҫулӑ@@ 25
тӳле@@ 25
уявӗ 25
ҫурӑ 25
хал@@ 25
йӑла 25
Египетра 25
он@@ 25
юхӑм 25
тухсан 25
арҫынна 25
саккунне 25
ӑсатнӑ 25
арӑмӗн 25
юрӑ@@ 25
ди 25
ӳкер@@ 25
чунӑм 25
филистимсене 25
председателӗ 25
ҫарамасне 25
Неффалим 25
Пысӑк 25
туха@@ 25
ух@@ 25
кайрӗҫ 25
ӗҫле@@ 25
пурӑнӑҫласа 25
хӗрӳ 25
пер@@ 25
пӑшӑрхан@@ 25
ннӑ 25
сс@@ 25
пуринчен 25
министерствин 25
да@@ 25
ирӗкне 25
пирӗнтен 25
Турруна 25
юратать 25
тонна 25
килнине 25
тӗрӗсле@@ 25
мал@@ 25
марӑн 25
тарҫи 25
пах@@ 25
кат@@ 25
нса 25
Надежда 25
асӑн@@ 25
хушатӑп 25
япаласене 25
ҫимӗҫе 25
Эдом 25
П 25
асӑрхат@@ 25
тме 25
палӑртакан 25
юнӗ 25
сых@@ 25
Асир 25
курать 25
Филистимсем 25
ҫавнашкал 25
Ивановна 25
лекнӗ 25
Вӗренӳ 25
Ӗ@@ 25
пуҫа 25
рав@@ 25
нах 25
за@@ 25
тейӗр 25
пӑрахӑҫ@@ 25
ӑнланса 25
Пур 25
го@@ 25
савӑт 25
расшӑн 25
ялӗсем 25
хыҫӗнчен 25
кӗрт@@ 25
йӗпе 25
лен 25
патшалӑх@@ 25
иртнине 25
]: 25
ҫыхӑн@@ 25
автомобиль 25
пултаракан 25
атте@@ 25
асли 25
йӑм 25
ҫухал@@ 25
ҫыннисемпе 25
туянма 25
га 25
ӗшӗн 25
Давидпа 25
влаҫ 25
чӗлхене 25
татӑ@@ 25
ин 25
:« 25
вилмелле 25
таш@@ 25
пушар 25
конкурса 25
рах@@ 25
таврӑнсан 25
карап 25
тыткӑна 25
Валерий 25
Ан 25
ҫавӑншӑн 25
мал 25
халалласа 25
тумтирӗ 25
ртан 25
мухтава 25
суйланӑ 25
парсамччӗ 24
чисем 24
хупласа 24
ӑҫтан 24
явӑҫ@@ 24
Ҫы@@ 24
Сывлӑшӗ 24
Ырӑ 24
Ели@@ 24
ҫирӗп@@ 24
ҫӳреҫҫӗ 24
саккуна 24
Ялта 24
Иккӗмӗш 24
Ҫӳлхуҫашӑн 24
тус@@ 24
пӗрлехи 24
Ак@@ 24
ь 24
Лешӗсем 24
тава 24
тӑшман@@ 24
аталанӑвӗн 24
сӑх@@ 24
маршру@@ 24
тӗлӗнмелле 24
вӗренӗ 24
Бе@@ 24
ҫанталӑк 24
лса 24
Илий 24
№ 24
54 24
сыпӑ@@ 24
ӗҫлеҫҫӗ 24
вӑна 24
начар 24
ала 24
килӗшнӗ 24
пӗлтер 24
ба@@ 24
нпа 24
тӑка@@ 24
2010 24
ҫылӑхшӑн 24
персе 24
Иссахар 24
палӑртаҫҫӗ 24
абзац 24
ӗсенче 24
йӑхӗнчи 24
чурисем 24
Кил@@ 24
кӳр@@ 24
лла 24
меллине 24
кӑтартрӗ 24
пурнӑҫӗ 24
виҫ@@ 24
ӳсене 24
ӗре 24
килмест 24
хускат@@ 24
лӗхпе 24
ирӗклӗ 24
хай@@ 24
ушкӑн@@ 24
пысӑкрах 24
танлаштарсан 24
терекен 24
халӑхсене 24
тулса 24
Вооз 24
200 24
хутӑштарнӑ 24
ем@@ 24
мӑнаҫ@@ 24
парнене 24
тутлӑ 24
улӑш@@ 24
тех 24
илмелли 24
тупӑн@@ 24
лас 24
ӳкӗтлесе 24
ӳкӗчӗсене 24
варринче 24
ӳллӗ 24
пӗт@@ 24
хар@@ 24
сарӑлса 24
ҫитсен 24
ама 24
кинче 23
Уйрӑмах 23
ҫурт@@ 23
тытӑмӗ 23
ранах 23
ӑш 23
ӳчӗ 23
ҫыннӑ@@ 23
чен@@ 23
лисен 23
Тӗп 23
юрататӑп 23
халӑху 23
яланхи 23
тӳперен 23
израильсем 23
тӗн@@ 23
лӑпкӑ 23
чӗлхине 23
сахал@@ 23
ӗҫсе 23
ласси 23
енлӗ 23
ҫӗкленӗ 23
хастар@@ 23
кӑсем 23
Шӑ@@ 23
Ывӑлӗ 23
хутшӑнать 23
туй 23
юлать 23
предприяти@@ 23
йӗркесене 23
по@@ 23
рас 23
уйрӑ@@ 23
Татьяна 23
Те@@ 23
шӑрши 23
Мар@@ 23
фе@@ 23
ҫакса 23
урапи 23
хӗрӗсем 23
Кириаф 23
айлӑ@@ 23
пурри 23
ветеран@@ 23
мӗне 23
еплерех 23
вилчӗ 23
ӑсат@@ 23
ес 23
ҫыхса 23
ача@@ 23
шӑп 23
хӑвӑрт 23
нӑпа 23
Пурте 23
Вы@@ 23
тӗллӗн 23
ҫакӑнпа 23
вит@@ 23
вун@@ 23
хатӗрлесе 23
тапӑннӑ 23
ик@@ 23
виҫипе 23
Раҫҫейре 23
ҫапӑҫма 23
Ра@@ 23
шӑн@@ 23
тӗҫ 23
тытӑмне 23
пӗлтерет 23
етпӗр 23
нумайӑшӗ 23
килтӗм 23
ҫуран 23
Саулпа 23
хӗпӗр@@ 23
Ц@@ 23
Ре@@ 23
шыв@@ 23
ҫӑнӑхӗ 23
хӗрхӗлтӗм 23
Ҫук 23
тӗк 23
пӗлтерме 23
сут@@ 23
ячӗҫ 23
пирӗншӗн 23
ӑнсӑртран 23
кач@@ 23
пухӑннӑ 23
кӗтӳ@@ 23
илей@@ 23
проекта 23
Павел 23
ракансене 23
Лия 23
куҫне 23
тӑп 23
ярӑр 23
тӳр 23
тенке 23
Шӑпах 23
Элекҫей 23
кӑтартать 23
вырӑнаҫ@@ 23
ӳкӗнӗҫ 23
метр 23
ҫулӑмпа 23
авӑн 23
аллисене 23
ҫавӑрса 23
тивӗҫтерме 23
пыл 23
шӑвар@@ 23
Халев 23
таврари 23
ака 23
тӗллевӗ 23
территорийӗнче 23
тени 23
липе 23
тутарнӑ 23
ҫулталӑк 23
транспорт 23
тармалли 23
тусассӑн 23
ҫитӗнӳсем 23
Хӗрарӑм 23
япаласем 23
ҫунат@@ 23
влаҫӗн 23
ытлашши 23
рсен 23
ӑсем 23
латӑп 23
хӑват@@ 22
ҫӗнсе 22
нов 22
Ен@@ 22
шутланакан 22
ҫути 22
сӳн@@ 22
вӑйӑ 22
пуснӑ 22
ӑмӑр@@ 22
тса 22
ҫурӑ@@ 22
каса 22
шухӑшланӑ 22
аталантармалли 22
пушхир 22
ҫыру@@ 22
Авиафар 22
юлман 22
ушкӑнӗ 22
рет 22
ӳке@@ 22
савӑнӑҫлӑ 22
пӳл@@ 22
суран@@ 22
илмен 22
хӑварас 22
текех 22
министрӗ 22
ҫӗрӗпе 22
Эппин 22
Президенчӗ 22
малта 22
Хӗр@@ 22
кӗмӗле 22
ҫап@@ 22
аталанма 22
тупай@@ 22
продук@@ 22
кӑсӑк@@ 22
туррисене 22
Гаваон 22
ӗмӗт 22
мине 22
Вӗрен@@ 22
Нина 22
курайми 22
компани@@ 22
куҫар@@ 22
тарҫине 22
хӑвӑртрах 22
сем@@ 22
Тӗ@@ 22
Ҫуртне 22
сӑрт@@ 22
пырӑп 22
Кӗлӗ 22
манччӗ 22
чурине 22
ҫӗрти 22
тӑхӑ@@ 22
ей@@ 22
тасат@@ 22
хырӑ@@ 22
ӗҫпе 22
вилес 22
парӗҫ 22
хушӑ@@ 22
Ави@@ 22
ем 22
рне 22
терме 22
спортпа 22
палӑр@@ 22
кану 22
тӑхӑр 22
чулсем 22
турӑсем 22
ларма 22
Симеон 22
хӗлне 22
граждансен 22
тӑванӗсене 22
Питӗ 22
миҫе 22
га@@ 22
Малтан 22
Кааф 22
каштисене 22
ланма 22
ҫамрӑксене 22
ачине 22
ҫитиех 22
татӑл@@ 22
ствӑ@@ 22
юсаса 22
чӳк 22
пуласса 22
Эл@@ 22
ҫӳ@@ 22
ирсӗр 22
Го@@ 22
Ҫа@@ 22
чӗрлӗх 22
ст 22
хӑех 22
Вӑрҫӑ 22
халех 22
халӑхӑм 22
шӑратса 22
такан 22
министрӗн 22
Хеврон 22
тӗрлӗрен 22
ӳсекен 22
тӗ 22
хапхи 22
Фамарь 22
пурлӑхне 22
тавар 22
маршрутсем 22
ҫирӗплетсе 22
хуйхӑ 22
Ытти 22
ҫиллен@@ 22
лай@@ 22
вӑрҫӑпа 22
упӑш@@ 22
ӑслӑлӑх 22
90 22
курмалла 22
карса 22
трӗҫ 22
ҫынсенчен 22
абзацӗнче 22
юлтӑр 22
масӑрах 22
самаях 22
Кар@@ 22
тӗрӗс@@ 22
уҫӑ@@ 22
ҫырав@@ 22
кайӗҫ 22
аппа 22
йӑн 22
Ху 22
тумаллине 22
ҫийӗн 22
вутӑ 22
канӑҫлӑ 22
пӗрлешнӗ 22
поли@@ 22
туйӑ@@ 22
пулӑм 22
кӑн@@ 22
рти 22
мӑшкӑл@@ 22
кӑвак 22
Атӑл 22
тухӑҫ@@ 22
латӑр 22
Интернет 22
хӑвал@@ 22
ҫӗнтер@@ 22
тарни 22
сӑрӑхтармалла 22
лӗхӗпе 22
Ди@@ 22
кӑтартакан 22
витсе 22
шайӗнчи 22
пуҫар@@ 22
пулӑшаҫҫӗ 22
Пилат 22
аслӑ@@ 21
Екатерина 21
мала 21
халӑхран 21
виле 21
тӑххӑрмӗш 21
вӑйӗ 21
чак@@ 21
ҫил@@ 21
Ав@@ 21
ӳс@@ 21
лӑп 21
шай@@ 21
вӑрман 21
клӗ 21
упа 21
ҫӗм 21
Самуила 21
патшапа 21
йӗркелесси 21
вӑйне 21
пулӑшӑвне 21
ҫуртӗнчен 21
ҫуртӗнче 21
тивӗҫтерекен 21
шӑршӑллӑ 21
тулашӗнче 21
лерӗ 21
кедр 21
кӑмӑла 21
кураҫҫӗ 21
Туррӑ@@ 21
Чи@@ 21
тир 21
пӳрт 21
Вӑхӑт 21
тухрӗҫ 21
тусан 21
чӑк 21
кӑсӑклӑ 21
хулисене 21
самантра 21
вӗҫӗнче 21
парӑ@@ 21
шутланӑ 21
кӗнче 21
строительство 21
каҫма 21
килен@@ 21
Иерусалим 21
Рахиль 21
Кабинечӗн 21
пӑхмасӑр 21
колхоз 21
Ҫывӑх 21
хирне 21
ҫимӗҫ@@ 21
палӑк 21
ӗҫӗн 21
ҫурта 21
пӗлместӗп 21
парсассӑн 21
юрра 21
туман 21
иртсессӗн 21
пултӑм 21
типсе 21
шутӗнче 21
палӑрт@@ 21
курай@@ 21
положени@@ 21
шӑршӑ 21
мат 21
пухӑн@@ 21
ҫитмен@@ 21
нӗрен 21
тине 21
латӑн 21
хӗрӗ@@ 21
сенех 21
ӗмӗтлен@@ 21
музыка 21
плен@@ 21
тӑшманӑ@@ 21
шайӗ 21
ана@@ 21
пынине 21
лакан@@ 21
ис@@ 21
мшӑн 21
тапӑрӑн 21
шӑран@@ 21
53 21
кӑнтӑрла 21
ФЗ 21
инҫе 21
паттӑр 21
пычӗ 21
апата 21
ҫулти 21
Амнон 21
ге@@ 21
Ша@@ 21
команда 21
ҫапӑҫу 21
ҫирӗплетекен 21
вӗренекенӗсем 21
лӗрех 21
анине 21
пре@@ 21
тӳлевсӗр 21
ҫийӗнчен 21
бюджечӗн 21
курка 21
шӗсене 21
ушкӑн 21
чаршав 21
шайри 21
Николаев 21
хан@@ 21
статьяра 21
лӑхшӑн 21
республикӑн 21
пысӑк@@ 21
илсессӗн 21
ялсенче 21
уйӑ@@ 21
тӑрӑп 21
кансене 21
кӑткӑс 21
ӑрӑва 21
ӗҫлемелле 21
кунхине 21
вырӑнӗнче 21
тӑрсассӑн 21
ырат@@ 21
курӑнса 21
ӗҫлет@@ 21
кино@@ 21
кул@@ 21
ҫарне 21
латса 21
инке@@ 21
вӗрент@@ 21
хан 21
ҫӑнӑх 21
Шупашкара 21
би@@ 21
тӑмашкӑн 21
мпе 21
интереслӗ 21
калан@@ 21
салтак 21
нумайрах 21
хисеп@@ 21
трупа 21
им@@ 21
арча 21
Аммон 21
кунтах 21
тӑрӑва 21
ларт 21
аллу 21
шку@@ 20
курни 20
пахчаҫимӗҫ 20
чӗре 20
пулӑшнӑ 20
ҫӑлса 20
пуҫлӑхне 20
пӗтерме 20
Исаака 20
Хӑвна 20
мастчӗ 20
Нафан 20
лайӑхлатма 20
Вӑр@@ 20
студен@@ 20
хӑтарнӑ 20
рса 20
кӳтӗр 20
апачӗ 20
илем 20
Хӗвел 20
пӑхать 20
ҫырла 20
мсен 20
вӑя 20
пурнӑҫпа 20
ачисен 20
Район 20
центр@@ 20
Пушкин 20
ҫупа 20
саккун@@ 20
шутсӑр 20
пушхирӗнче 20
хап@@ 20
ҫарӗ 20
йы@@ 20
поселенийӗ 20
кура@@ 20
хӑна 20
кӑларать 20
тереҫҫӗ 20
таҫҫӗ 20
аркат@@ 20
турӑ@@ 20
юлӗ 20
ӗмӗрлӗх 20
ывӑлӗпе 20
Ги@@ 20
проро@@ 20
священни@@ 20
мӑшӑрӗ 20
Хамӑр 20
анӑн 20
каламан 20
сӑмахпа 20
лӗр 20
хӗҫне 20
Иоава 20
тунӑшӑн 20
ватӑлса 20
62 20
вырӑнаҫса 20
терет 20
улӑх@@ 20
программа 20
тасал@@ 20
аттемӗн 20
хӗсӗр@@ 20
шыра@@ 20
шӗпе 20
кӑл@@ 20
кӳмелле 20
Хама 20
61 20
лартатӑп 20
лайӑхлат@@ 20
пӗлетӗр 20
цие 20
акан 20
тухас 20
рыно@@ 20
сран 20
тисене 20
рассине 20
каям 20
Ы@@ 20
ирсӗр@@ 20
килчӗҫ 20
Фа@@ 20
илӗп 20
Давидӑн 20
хуня@@ 20
ӗмӗрӗ 20
тавӑр@@ 20
хута@@ 20
тарчӗҫ 20
выҫлӑх 20
7@@ 20
пиллӗхлӗ 20
Виҫҫӗмӗш 20
хайхи 20
культурӑпа 20
ҫирӗплет@@ 20
ярас 20
тарнине 20
хуласенче 20
ҫитерме 20
Иессей 20
кӳнтелен 20
рин@@ 20
сӗрнӗ 20
тӑрай@@ 20
ырлӑх 20
тумтир@@ 20
Ке@@ 20
вителӗк 20
тӑна 20
Ле@@ 20
аллӑра 20
куртӑмӑр 20
пайӑн 20
тӑрӑх@@ 20
сӑрнӑ 20
Петрова 20
тытать 20
чӑрман@@ 20
иле@@ 20
лав@@ 20
Пурне 20
лекенсем 20
ч 20
пилӗкҫӗр 20
ӳсет 20
юрӑхсӑр 20
паш@@ 20
Комсомольски 20
ятарласа 20
чуру@@ 20
юхан@@ 20
Виҫӗ 20
шиклен@@ 20
про@@ 20
ҫитер@@ 20
хаса 20
тӗлӗ@@ 20
кансен 20
Саваоф 20
мероприяти@@ 20
алӑпа 20
Васан 20
атӑ@@ 20
ҫуккине 20
ж 20
Сӑваплӑ 20
темелле 20
ум@@ 20
шӑм@@ 20
леке@@ 20
ҫитнине 20
чатӑрӗнче 20
докумен@@ 20
тӑратпӑр 20
ламалла 20
лана 20
татпӑр 20
пиччӗшӗ 19
тӗс@@ 19
кӗл 19
клас@@ 19
рта 19
сутса 19
хӑтӑл@@ 19
ҫынпа 19
тусем 19
Пар@@ 19
Иисуспа 19
ҫавӑнтах 19
фи@@ 19
йывӑҫӗ 19
субъек@@ 19
Ах@@ 19
сар 19
ҫырӑн@@ 19
чех 19
пурӑнӑр 19
турӑн 19
хваттер@@ 19
тӗреклӗ 19
айӗнчи 19
ҫывӑхар@@ 19
фо@@ 19
58 19
чик 19
янине 19
хурать 19
кӑтартма 19
мӗсене 19
Леонид 19
хирӗҫ@@ 19
Миха 19
чунӑма 19
шухӑша 19
пая 19
путе@@ 19
халиччен 19
ҫе 19
хаксемпе 19
цийӗн 19
Хӑш 19
программӑна 19
хушӑрах 19
туйӑнать 19
пулатӑр 19
Пӗл@@ 19
тум@@ 19
иртсен 19
тӑни 19
итлӗр 19
Чун 19
пытаннӑ 19
пир@@ 19
сӑмахӗсем 19
республи@@ 19
ҫулсенчи 19
усал@@ 19
территори@@ 19
Израильпе 19
аттӑм 19
сухан 19
ҫылӑхне 19
ҫапӑҫ@@ 19
патшисенӗн 19
ҫулсеренхи 19
шкулӗнче 19
нӑскер 19
палӑртма 19
сапса 19
тупма 19
йӑлана 19
Кӑ@@ 19
пурӑна@@ 19
бюдже@@ 19
полномочийӗсене 19
канаш 19
урӑх@@ 19
салан@@ 19
Юрать 19
выльӑхне 19
рӑн@@ 19
Литюк 19
Кри@@ 19
тнӗ 19
айӑп@@ 19
Кал@@ 19
ушкӑнӗсем 19
анӑҫ 19
ҫывӑрма 19
ук@@ 19
ҫан 19
ван 19
калаҫать 19
сирсе 19
пӗлеҫҫӗ 19
уяса 19
килес 19
вӑхӑта 19
хунине 19
рӑпа 19
ӗҫӗсен 19
Ф 19
экологи 19
Пасха 19
кайман 19
ыйтусем 19
пуканӗ 19
кӗҫӗнни 19
ҫипрен 19
ени@@ 19
ларӗҫ 19
Навал 19
пушхир@@ 19
ҫитменнине 19
йӗркелен@@ 19
Ачасене 19
ер 19
Атӑлҫи 19
яман 19
летпӗр 19
Иеффай 19
аллӑма 19
налук 19
калӑпӑшӗ 19
пус 19
ӑшшӑн 19
илнине 19
тӑчӗҫ 19
йӗрки 19
сумлӑ 19
мӗнпурӗ 19
терӗр 19
чине 19
чӗсен 19
канма 19
тӑрччӗ 19
/, 19
тымар@@ 19
килсен 19
чӗлх@@ 19
мухтаса 19
ҫирӗплетме 19
лех 19
кунччен 19
ет@@ 19
пултарулӑхне 19
чура@@ 19
арӑслан 19
тара@@ 19
ӑнлантарса 19
туян@@ 19
Ной 19
ҫыннисенчен 19
ханаансем 19
йӗркелес 19
Тӗрӗссипе 19
лӑхӗнчен 19
тнӑ 19
тапхӑр@@ 19
Нав 19
шутланнӑ 19
хӑвар 19
Унран 19
тип@@ 19
ов 19
Сарра 19
Кӑҫалхи 19
Марина 19
ҫитӗннӗ 19
ая@@ 19
пушхире 19
ӗне@@ 19
хутшӑнса 19
Юра 19
йыш 19
кинчен 19
ӳсен 19
цин 19
иль@@ 19
тыр@@ 19
кӑтарттӑр 19
лин@@ 19
институ@@ 19
ракансем 19
Адония 19
тӑракансем 19
килӗнчен 19
сенаж 19
ӑрӑвӗпе 19
бо@@ 18
рӗнче 18
ӗмӗрне 18
пахалӑхне 18
пахалӑхлӑ 18
пуҫлӑхӗсене 18
пуҫларӗҫ 18
ҫакӑнса 18
сай@@ 18
килӗшмен 18
пичӗ 18
яр@@ 18
тӳпери 18
хуҫалӑхра 18
Ио@@ 18
сывлӑ@@ 18
пӗлмест 18
пурӑнакансен 18
патшалӑха 18
кӗртесси 18
екен 18
Павлов 18
маллах 18
пайӗнче 18
ес@@ 18
ҫывӑхне 18
уро@@ 18
хирти 18
хӗн@@ 18
нишӗн 18
сне 18
тил@@ 18
илтсен 18
каснӑ 18
ятпа 18
юбилей 18
лӗҫ 18
сирӗнтен 18
ҫавсем 18
вуласа 18
этеме 18
улт@@ 18
ҫӳрекен@@ 18
Авимелехе 18
татнӑ 18
ывӑлусем 18
чурусем 18
кӳршӗ 18
Про@@ 18
лу 18
пӳр@@ 18
Кӑнтӑр 18
пытарса 18
усра@@ 18
вӑкӑрне 18
серен 18
пурӑнса 18
ги@@ 18
хулисем 18
ҫийӗнчех 18
улӑштарса 18
унчченхи 18
умӑмра 18
тумашкӑн 18
Ри@@ 18
йыш@@ 18
чиккине 18
кӑҫалхи 18
ыйтнине 18
ҫавӑр@@ 18
вӑтан@@ 18
шайне 18
ҫуртра 18
ланаҫҫӗ 18
парасси 18
Саккунпа 18
вич 18
илӳ 18
ҫамрӑк@@ 18
паллашнӑ 18
выльӑха 18
аттӑмӑр 18
хушмалла 18
хакӑл 18
Вырӑнти 18
тӑру 18
сехетрен 18
йӑмӑ@@ 18
спа 18
ҫара 18
кӗнеке@@ 18
ярсассӑн 18
тарӗ 18
Халӑх@@ 18
пит@@ 18
Шыв 18
кайӑ@@ 18
кка 18
Апат 18
сур@@ 18
пуш@@ 18
Ли@@ 18
во@@ 18
тытӑнса 18
сап@@ 18
хуҫамӑн 18
ыт@@ 18
васка@@ 18
Малашне 18
юса@@ 18
ду@@ 18
цине 18
тим@@ 18
ефа 18
куҫа 18
шывра 18
ҫӗртме 18
Халӑха 18
тӑнӑҫлӑх 18
курӑка 18
умӗнчех 18
турттарассине 18
хӑварса 18
хапӑл 18
Юр@@ 18
вӑкӑр@@ 18
мӗр 18
2009 18
комисси 18
ҫӗсен 18
иччен 18
кӑрал 18
проектне 18
вас@@ 18
пуҫҫапма 18
педагогика 18
лӑхӗн 18
тухӑҫалла 18
Амӑшӗ 18
Соломона 18
ялан 18
шутласассӑн 18
аталанса 18
намӑс 18
пуҫланнӑ 18
етӗп 18
калаҫа@@ 18
ӑҫ@@ 18
лекен 18
федерацин 18
парнийӗн 18
мӑрӑн 18
Тӗслӗхрен 18
пурин 18
Васильев 18
хурал 18
Тар@@ 18
Ве@@ 18
мин@@ 18
уйрӑл@@ 18
шкул@@ 18
канӑҫ 18
Муркаш 18
чӗлхепе 18
историпе 18
рисен 18
стар@@ 18
аслӑраххисем 18
шухӑшне 18
ҫиелти 18
Вааса 18
ӑсталӑха 18
тӑрӑн 18
туя 18
арҫынсем 18
Ирхине 18
тенӗччӗ 18
Валентина 18
килтӗр 18
граждансене 18
Есевон 18
пӑча 18
сфе@@ 18
политикин 18
сан@@ 18
Саккун 18
латчӗ 18
Манран 18
ҫирӗплетет 18
суранӗ 18
ҫӑмӗ 18
илесси 18
Кан@@ 18
аякра 18
Эх 18
Чӑнах 18
Таса 18
пурӑнтӑр 18
пыччӑр 18
юрласа 18
хулинчи 18
ҫин@@ 18
мӑйра@@ 18
вӑйлӑрах 18
кен@@ 18
Сӑмахран 18
ӗҫӗнче 18
ко 18
ҫухатнӑ 18
пӗлекен 18
кирли 18
нисенчен 18
пала 18
уҫма 18
ҫуллахи 18
ракан@@ 18
ҫулӗ@@ 18
халӑх@@ 18
кӗлтунӑ 18
ӑсене 18
Унччен 18
утнӑ 18
тӗппипе 18
тӗслӗх@@ 18
усем 18
хисене 18
Маншӑн 18
Валаама 18
пултарайман 18
полномочиллӗ 18
Лот 18
ров 18
Олимп 17
хуҫ@@ 17
вӗнче 17
йӑмӑкӗ 17
хушшӑ@@ 17
вӗренекен 17
Пӗри 17
Хыпар 17
уйрӑмӗн 17
объек@@ 17
ҫӳресе 17
пӗтерес 17
вулама 17
фпа 17
тӑракан@@ 17
стен@@ 17
шар@@ 17
вӗҫленнӗ 17
хумхан@@ 17
таврӑн 17
нӑскерсем 17
палӑрмаллах 17
кӑшкӑ@@ 17
патшалӑхне 17
ҫулсерен 17
пуҫла@@ 17
тухчӑр 17
малаш@@ 17
тарасси 17
юсав 17
йышӑну 17
хӑр 17
Геф 17
Путин 17
физкультурӑпа 17
спорта 17
тӗллевлӗ 17
уҫ 17
асла 17
кунсерен 17
радио@@ 17
пӗлетпӗр 17
Этем 17
канни 17
парнесене 17
пиллесе 17
лаша@@ 17
мӗнпе 17
таранчченех 17
мед@@ 17
суйлав@@ 17
ҫара@@ 17
пырсассӑн 17
месессӗн 17
пӗтерӗҫ 17
талант 17
Николаевна 17
программине 17
ӑран 17
тавлаш@@ 17
ҫилленсе 17
Андрей 17
пӳрнине 17
вы@@ 17
уйӑрма 17
чӗрлӗхне 17
Ше@@ 17
кашниех 17
ӑмӑрт@@ 17
ҫирӗппӗн 17
шӗсем 17
Израильре 17
Арӑмӗ 17
вӗрентекен 17
юрри 17
вӑрттӑн@@ 17
ҫин 17
тӑснӑ 17
талан@@ 17
хӑм 17
ҫулччен 17
ратпӑр 17
фа@@ 17
лӗхӗн 17
куратӑп 17
че 17
2018 17
кӗрес 17
сыхлавӗн 17
аскӑн 17
айӑпла@@ 17
сӑнаса 17
пурӑнас 17
меллех 17
лартӗ 17
вӑрман@@ 17
хӗрарӑмсем 17
мерӗн 17
Ҫынна 17
тапхӑр 17
кла@@ 17
тетчӗ 17
ҫӳремелле 17
юписене 17
хӗтӗрне 17
аскӑн@@ 17
уллӑ 17
тлӑ 17
бан@@ 17
Манпа 17
кунҫул 17
хӑранӑ 17
кара@@ 17
тсе 17
Амалик 17
бюджетӗнчен 17
сӑнар@@ 17
ҫӗнтернӗ 17
иккӗлен@@ 17
ск 17
тасамар@@ 17
ҫӗмӗр@@ 17
ӗме 17
ӗрсене 17
халала 17
чире 17
вен@@ 17
ыл@@ 17
Хусан 17
саккӑрмӗш 17
хӗрӗн 17
мероприяти 17
тӑрас 17
ишсе 17
ҫиес 17
Ҫу 17
парнесемпе 17
тӑвар 17
тӗртнӗ 17
ялне 17
тӗкӗн@@ 17
йӗркеллӗ 17
йӳ@@ 17
Марье 17
нӗ@@ 17
Ге@@ 17
урамӗпе 17
вӑхӑчӗ 17
Вӗсемпе 17
сарӑ@@ 17
савӑтсене 17
Ираида 17
сы@@ 17
Кил 17
суйлав 17
пуянлат@@ 17
Ҫу@@ 17
карти@@ 17
юнӗпе 17
пуҫларӑм 17
тӗлле@@ 17
ӑнӑҫу 17
ҫылӑхлӑ 17
тӑратса 17
тишкер@@ 17
тӑрӑхӗнчи 17
500 17
пурнӑҫран 17
леш@@ 17
арӑмӗпе 17
ҫырать 17
йышӑнать 17
килӳ 17
асӑрханӑ 17
технологи@@ 17
инструмен@@ 17
пӗтӗмлетӗ@@ 17
ашшӗсемпе 17
ҫитей@@ 17
пиллӗ@@ 17
пурӑнӑн 17
чуну 17
вӗренекен@@ 17
ҫыхнӑ 17
це@@ 17
Константин 17
9@@ 17
хӑнасене 17
канӗ 17
ҫурса 17
асӑ@@ 17
Каш@@ 17
ӑша 17
хывма 17
лӑхран 17
хӑварчӗ 17
пан@@ 17
Сеир 17
хакла@@ 17
мин 17
хӑтӑ@@ 17
шанатӑп 17
представительлӗ 17
хӗрӗсене 17
пӗҫер@@ 17
хулисенче 17
Я 17
куҫӑ@@ 17
хӗрарӑ@@ 17
ернӗ 17
пӗлме 17
патӑра 17
юр 17
57 17
кӗлет@@ 17
чупа@@ 17
кӑм 17
Ый@@ 17
тура@@ 17
Ру@@ 17
ярать 17
кӑшкӑр@@ 17
Мускавра 17
мӗсен 17
Сар@@ 17
ҫҫи 17
массӑллӑ 17
планпа 17
Сидон 17
вӑрҫӑра 17
хатӗрлес 17
каятӑп 17
уҫҫӑн 17
кӑшкӑртса 17
кӳрӗ 17
татӑп 17
ҫакнашкал 17
чапа 17
пӑрӑс 17
лӑхна 16
раканӗ 16
ҫӑра 16
пуҫлӑхӗн 16
ӗпех 16
куҫӑм 16
кӑтартнине 16
кермен@@ 16
кӗртсе 16
Пӗрле 16
Ж@@ 16
мел@@ 16
пассажирсем 16
нумаях 16
аман@@ 16
цире 16
вӗлер 16
стан@@ 16
Садок 16
аса@@ 16
самана 16
Ахи@@ 16
ырӑпа 16
какай 16
макӑрнӑ 16
кас 16
кулян@@ 16
ҫавӑнтан 16
опера@@ 16
ыттисене 16
хӑтлӑ 16
Совет 16
палӑрнӑ 16
ӗп 16
300 16
парти 16
пӗртӑван 16
левит 16
сылтӑмалла 16
сулахаялла 16
позицире 16
Етӗрне 16
чӑр@@ 16
арӑмӗсем 16
пут@@ 16
Ҫӗнтерӳ 16
алӗ 16
Ноеминь 16
Хӑв 16
тӑхӑнса 16
пекки 16
хинчен 16
мӗнчен 16
хӑварман 16
сӑма@@ 16
тӑрӑшса 16
кайнине 16
ирттереҫҫӗ 16
Ла@@ 16
улӑ@@ 16
пӗчченех 16
еткер@@ 16
Ҫурта 16
танлашнӑ 16
юхтарнӑ 16
йӑхӗсем 16
юхтарса 16
тӗллевсене 16
строитель@@ 16
курав@@ 16
Гива 16
ирсӗрлен@@ 16
таврӑна@@ 16
пӗлмелле 16
6@@ 16
вӗрентекен@@ 16
кӳрен@@ 16
тӑс@@ 16
анаҫҫӗ 16
пулас@@ 16
пана 16
промышленноҫ 16
тӳлеме 16
шӑпи 16
Сывлӑх 16
турӑмӑр 16
шапа 16
Хӑвӑр 16
левитсем 16
урине 16
кӑмӑллать 16
тавар@@ 16
мет 16
пӗрисем 16
шуса 16
Гирсон 16
Муниципалитет 16
вӗсенче 16
пенси 16
ҫавнах 16
тӗпӗсене 16
улӑм 16
тивӗҫне 16
куҫа@@ 16
ӑп 16
тӑрӑхӗнче 16
тӳс@@ 16
чана 16
аль@@ 16
килӗштерсе 16
фор@@ 16
Арҫын 16
нӑй 16
тухнине 16
хӑшне 16
пуҫламӑшӗнче 16
нер 16
тор@@ 16
Ул@@ 16
Не@@ 16
юн@@ 16
аран 16
чупнӑ 16
Ву@@ 16
ҫитӗнӗ@@ 16
мӑшӑр@@ 16
лекен@@ 16
Аврама 16
мисене 16
чере@@ 16
урпа 16
тӑрӑхра 16
кунӗн 16
ҫӑкӑр@@ 16
ирччен 16
Вифлеем 16
тархас@@ 16
пашалу 16
раттӑм 16
колхозра 16
тӗм@@ 16
кӗтет 16
Анатолий 16
драма 16
Хӑйсен 16
явап@@ 16
тӗтӗм 16
тупаланӑ 16
ӗмӗ@@ 16
тӑхӑннӑ 16
арӑр 16
Укахви 16
вать 16
ҫемье@@ 16
упрама 16
ратса 16
пахча 16
культурӑ@@ 16
тепре 16
тарасшӑн 16
сыват@@ 16
тӗтӗркӗч 16
йышӑнчӗ 16
танлаш@@ 16
тӗпрен 16
шӑнччӗ 16
расси 16
пуххи 16
шырама 16
танах 16
вуншар 16
уйӑр@@ 16
вырнаҫтарма 16
Й@@ 16
сӑна@@ 16
при@@ 16
пилле@@ 16
хушрӗ 16
тере@@ 16
чӑвашсем 16
ӗччӗ 16
тиврӗ 16
йывӑҫӗнчен 16
калаҫу 16
уҫӑм@@ 16
пырас 16
саккунсене 16
ята 16
тать 16
шутпа 16
анӑ 16
каяҫҫӗ 16
тӗрӗслев 16
ҫывӑр@@ 16
ӗлкӗреймен 16
тӗлме 16
калаҫҫӗ 16
Канаш@@ 16
мунча 16
майӗпен 16
хулапа 16
илтӗн@@ 16
пымалли 16
Руфь 16
нас 16
Пӗрре 16
шутлас 16
тарсах 16
тейӗҫ 16
вӗлере@@ 16
хурӑнта@@ 16
еткерлӗх 16
патшийӗн 16
кӑран 16
тасси 16
депутачӗ 16
асту@@ 16
сӑвӑсем 16
мипе 16
пан 16
кӗреш@@ 16
тун@@ 16
самант 16
тӗлӗк 16
ҫӳре 16
ҫапнӑ 16
сыхлан@@ 16
аллинчи 16
ӗҫри 16
ӑшӑ@@ 16
Пилӗк 16
хӗҫ@@ 16
Ҫакӑн@@ 16
пин@@ 16
пӗрчи 16
Вӗрентекен 16
элчӗсем 16
каҫа@@ 16
сул@@ 16
Ҫынсем 16
яв@@ 16
савӑнтарать 16
ҫаврӑннӑ 16
раштав 16
Канашӗ 16
тапӑрне 16
вырнаҫтарнӑ 16
асӑрха@@ 16
пултаратӑр 16
хӗрхенсе 16
ӑру@@ 16
тсемпе 16
Сан@@ 16
тухӑп 16
пурӑнатпӑр 16
ӑрӑвӗнчен 16
Ор 16
Ба@@ 16
Чир@@ 16
бизнес 16
пусмӑр@@ 16
чӗрӗлсе 16
ӳпке@@ 15
8@@ 15
рет@@ 15
регионти 15
илни 15
теат@@ 15
выляма 15
ҫултанпа 15
чарӑ@@ 15
Ҫавӑ 15
Шур@@ 15
ҫӗрсем 15
тӗрччӗ 15
халӑхна 15
йышлӑ@@ 15
тӑрӗҫ 15
иккӗ@@ 15
юнпа 15
чӗсенче 15
пӳлӗм 15
тӑвай@@ 15
илетӗп 15
пурнӑҫлан@@ 15
ҫуралчӗ 15
ӑх 15
хӑ 15
пунк@@ 15
хутӑр 15
Ир@@ 15
пухӑ@@ 15
журналист 15
она 15
Хирам 15
пичет 15
ҫисен 15
кастар@@ 15
тапӑн@@ 15
мех 15
каччи 15
вырӑнсенче 15
патӗнчи 15
малти 15
тачӑ 15
тав@@ 15
вӑхӑтри 15
шӑр@@ 15
выльӑ@@ 15
пырӑр 15
ҫипе 15
ӗҫчен 15
имӗш 15
тӗнчере 15
вӗрентме 15
мастер@@ 15
тӗпне 15
Ор@@ 15
килетчӗ 15
екенсем 15
ҫулӗнче 15
так@@ 15
ҫавӑнпах 15
тал@@ 15
Ҫар 15
тей@@ 15
лени@@ 15
тӑхӑнтартнӑ 15
хутшӑнчӗ 15
калаҫрӗ 15
ну 15
секто@@ 15
шӑллӑ@@ 15
ҫылӑ@@ 15
(« 15
Кирек 15
органӗсемпе 15
мӗн@@ 15
инфра@@ 15
хуҫа@@ 15
тӑванӗ 15
маррине 15
сыпӑн@@ 15
парай@@ 15
фермер 15
шутлатӑп 15
мӑн@@ 15
пӳрте 15
иллӗ 15
авторӗ 15
сра 15
вна 15
пахчине 15
тӑвану 15
ӑрӑвӗсене 15
Мӑ@@ 15
хурӗ 15
сывлӑхне 15
мӗшӗччен 15
Сӑр 15
ачаллӑ 15
учреждени@@ 15
хутшӑнакан 15
ирттермелли 15
хуҫине 15
тӗпче@@ 15
кӗс@@ 15
предпринимательлӗх 15
тивекен 15
мастӑр 15
сак@@ 15
саман@@ 15
Хе@@ 15
кӑтартӑ@@ 15
Мерари 15
гаран@@ 15
Симон 15
чарса 15
ҫакӑншӑн 15
Аркадий 15
тул 15
заместителӗ 15
тӑпра 15
илӗр@@ 15
ансамб@@ 15
Ене 15
фестивале 15
чӗрлӗхе 15
Вӑрман 15
месен 15
маллаччӗ 15
органӗ 15
али@@ 15
ви 15
пулӑпӑр 15
куҫарнӑ 15
ҫывӑрнӑ 15
Сережа 15
ишме 15
хул@@ 15
лле 15
куҫарса 15
хуҫа 15
льне 15
тартӑм 15
пек@@ 15
ефан 15
Ви@@ 15
вителӗ@@ 15
кӗвӗ 15
Пӗчӗк 15
пулӑшӑвӗ 15
тӗреклӗлетнӗ 15
пӑх 15
хӑвӑрт@@ 15
Ытларах 15
Уншӑн 15
маршручӗсем 15
тытӑнчӗҫ 15
хӑн 15
коммуналлӑ 15
мул 15
лаш@@ 15
ӗш@@ 15
йман 15
ячӗсене 15
ек@@ 15
Курс 15
сухал@@ 15
тӑтӑм 15
шу 15
сӳ@@ 15
Тӑван@@ 15
Лу@@ 15
спортсмен@@ 15
виҫе@@ 15
ӗлкӗрнӗ 15
шӑллӗ 15
акнӑ 15
тепӗрне 15
теретӗп 15
кайни 15
бе@@ 15
сум@@ 15
тӑсса 15
вӑхӑ@@ 15
Ҫул 15
патшасем 15
шухӑшӗпе 15
хаҫат@@ 15
64 15
Саккунӗсен 15
ҫӑвар@@ 15
сие 15
шел@@ 15
кӗрсен 15
куратӑр 15
кӗн@@ 15
пыратӑп 15
кӗлетки 15
Ача@@ 15
ҫыхӑнса 15
ывӑлусене 15
шка 15
улӑштарнӑ 15
ҫӗнтерӳ@@ 15
ано@@ 15
сывал@@ 15
шкулсенче 15
тархасласа 15
Петрович 15
пурӑнсассӑн 15
сӑвап@@ 15
ҫитрӗм 15
Хула 15
каярахпа 15
условийӗсене 15
хутӑштарса 15
креди@@ 15
ство 15
дипло@@ 15
ыйтсан 15
шӑм 15
отрас@@ 15
хулпуҫҫийӗ 15
медаль@@ 15
Пурнӑҫ 15
пӳрт@@ 15
лӑм 15
рей@@ 15
чиперех 15
Ҫул@@ 15
ҫывӑх@@ 15
ени 15
панипе 15
урапи@@ 15
виҫине 15
аннене 15
сутнӑ 15
Кун@@ 15
тивӗҫлипе 15
Дан@@ 15
сӗрмелли 15
улшӑн@@ 15
мӑнук 15
тӑватӑн 15
шучӗпе 15
ӳстерсе 15
хӑмасем 15
пурнӑҫлать 15
сивӗ 15
йӗтӗн 15
чӗнме 15
ков@@ 15
йӗнӗ 15
хӑрт@@ 15
ӳкерчӗ@@ 15
Кадес 15
Кон@@ 15
59 15
кӑмӑ@@ 15
ттине 15
юратма 15
професси@@ 15
варрине 15
тупайман 15
Галина 15
членӗсем 15
власть 15
нер@@ 15
ста 15
министер@@ 15
сӑрах 15
програм@@ 15
тӑран 15
пичетлесе 15
хӑрхӑ@@ 15
патнех 15
ҫулталӑкне 15
хӑвӑлне 15
вырӑ@@ 15
япалине 15
хавас@@ 15
Ял@@ 15
йӗрӗн@@ 15
юлта@@ 15
Ти@@ 15
хурӗҫ 15
нар 15
хин 15
пула@@ 15
тетпӗр 15
тисен 15
кайӑка 15
хӑҫанччен 14
Ҫӗн@@ 14
умра 14
ҫумӗ 14
Сы@@ 14
вас 14
56 14
Патшалӑх@@ 14
сирпӗтсе 14
силлентерсе 14
улми 14
чӑтса 14
Чӑн@@ 14
Саруия 14
эрнере 14
пултӑрччӗ 14
лӑччӗ 14
Иодай 14
Ванея 14
истори@@ 14
яратӑп 14
ӳсӗр@@ 14
патра 14
пурӑн 14
тарах 14
лантар@@ 14
кӑнтӑралла 14
Шкулта 14
кайӑн 14
филь@@ 14
хваттерлӗ 14
музей 14
Ленин 14
Венадад 14
тӑвӑн 14
ҫитес 14
пусӑ 14
тӳпи 14
Хальлӗхе 14
ҫӳрӗр 14
хыҫҫӑнах 14
Туррӑра 14
кӗҫ@@ 14
Илияна 14
Пы@@ 14
ыйтӑ@@ 14
ӗҫленине 14
килмен 14
Син 14
халӑхпа 14
тӑванӑмсем 14
хамӑра 14
З@@ 14
йӑлт 14
ӳстер@@ 14
Но@@ 14
ҫӳҫ 14
Ҫемье 14
авӑр@@ 14
ӗҫлени 14
ларчӗ 14
ӗрен 14
сӑвви@@ 14
канӑҫ@@ 14
аптра@@ 14
хӗлӗн 14
чатӑр@@ 14
хӑюллӑ 14
ватӑл@@ 14
амӑ@@ 14
пайӗпе 14
логи 14
тӑвӑпӑр 14
кайӑпӑр 14
тавӑрма 14
пуҫласассӑн 14
Каярахпа 14
ал 14
ытарлӑн 14
тас@@ 14
шкулӗн 14
анлӑ@@ 14
кука@@ 14
кӑтартӗ 14
ҫитмест 14
кӑрлач 14
тейӗн 14
зал@@ 14
чурисене 14
мӑрсем 14
Пур@@ 14
йӗркипе 14
вӗри 14
министерстви 14
хулин 14
акчӗсемпе 14
ларӑмӑр 14
тулӑх 14
воспитани 14
илекен@@ 14
пӑт@@ 14
ялтан 14
Ел@@ 14
калаҫаҫҫӗ 14
ывӑлсемпе 14
таврашӗнче 14
Кала@@ 14
тре 14
кке@@ 14
Тем 14
тӳпем 14
Ирина 14
палӑрать 14
йӗркисене 14
таранччен 14
туслаш@@ 14
Му@@ 14
ҫулталӑкӗ 14
чысне 14
кӳре@@ 14
йӑр 14
сун@@ 14
гин 14
кин@@ 14
пултаратӑн 14
хуҫалан@@ 14
регионсен 14
тӑват@@ 14
чыс 14
Чӗр@@ 14
пӑхӑртан 14
ашшӗсене 14
улма 14
Сӗт 14
вӑр 14
Хисеп 14
Вӑт 14
пӗтӗрнӗ 14
виссонран 14
кӗтмен 14
искусство 14
тарӗҫ 14
турӗҫ 14
кунсем 14
сехет@@ 14
хӑнасем 14
ҫинчех 14
пурӑнатӑп 14
юман 14
ирӗкӗпе 14
ҫурат@@ 14
ав 14
пурнӑҫлас 14
ӗк 14
тапхӑрти 14
мӑртан 14
чӗрем 14
выҫ@@ 14
ҫитӗнтернӗ 14
аллӑм 14
Никам 14
хӗрсене 14
ҫӳллӗшӗ 14
мна 14
тирӗк 14
яракан 14
таврӑнма 14
тӗнчен 14
иксӗмӗр 14
ведомоҫӗсем 14
Енчен 14
мерӑсем 14
выртнине 14
тӑрсан 14
пӗҫе@@ 14
скере 14
Петровна 14
Вырӑс 14
ҫарӗнче 14
патӑн 14
мент 14
информаципе 14
лартрӑм 14
хутне 14
йыхрав@@ 14
шӑнкӑрав@@ 14
хыҫне 14
команди@@ 14
хуша@@ 14
таврӑнса 14
тӑратӑн 14
ҫип@@ 14
выльӑх@@ 14
кре 14
хуҫамӑр 14
мих@@ 14
хисем 14
чӳрече 14
ячӗсен 14
ҫичҫӗр 14
вилнисене 14
мӑпа 14
директорӗ 14
йӑмӑкне 14
урӑ@@ 14
аҫун 14
пурӑнакан@@ 14
пас@@ 14
хутӗнче 14
пуха@@ 14
хыҫӗнче 14
три 14
тетчӗҫ 14
ертӳҫисем 14
паллаштарчӗ 14
виҫи 14
калаҫакан 14
пӗлес 14
уйрӑлнӑ 14
ыйтрӗ 14
ба 14
вал 14
Лайӑх 14
Ҫур@@ 14
пӗринчен 14
финанс 14
илтӗмӗр 14
ван@@ 14
тенкӗлӗх 14
пысӑках 14
тирӗ 14
рас@@ 14
йӗнчен 14
пулӗччӗ 14
маст@@ 14
каяр 14
сас@@ 14
лин 14
трактор 14
Еф@@ 14
пурлӑхӗ 14
Авенира 14
Пе@@ 14
ҫырӑ@@ 14
тӑрӑхӗн 14
хурӑр 14
зи@@ 14
тӗлӗшрен 14
ҫулла 14
Раҫҫейӗн 14
хурав 14
ҫӗршыв@@ 14
три@@ 14
эреш@@ 14
Хӗ@@ 14
пӗҫерсе 14
кӗне@@ 14
поселенин 14
сывлӑш 14
мӗнчи 14
пучах 14
сӑран 14
ттӑм 14
ӗҫченӗ 14
площад@@ 14
Тутарстан 14
чылайӑшӗ 14
килти 14
йӑл 14
месӗрех 14
пир 14
йӗлтӗрпе 14
вилсессӗн 14
кайччӑр 14
чӗре@@ 14
мисем 14
кка@@ 14
каласассӑн 14
кайӑксем 14
10@@ 14
пуҫтар 14
Кӗҫех 14
тӑхӑн@@ 14
ӳсӗр 14
самай 14
ҫавӑтса 14
университечӗн 14
ик 14
курайман@@ 14
ӳкӗн@@ 14
Ҫуллахи 14
тарас@@ 14
ӑнӑ@@ 14
пахча@@ 14
шӑматкун 14
литература 14
шана@@ 14
хоккей 14
йпе 14
ылтӑнпа 14
вӑрҫи 14
Сир@@ 14
Тӳ@@ 14
халӑхӑма 14
кӑмӑлӗ 14
малашнехи 14
тӑхӑнтар@@ 14
юханшыв 14
районӗнче 14
выльӑхран 14
Иа@@ 14
Килте 14
ач@@ 14
ӑнса 14
виҫӗмкун 14
рес@@ 14
кӗсемпе 14
За@@ 14
Хо@@ 14
ринче 14
ҫап 14
требованисене 14
тру@@ 14
назорей 14
тӑва 13
Ҫар@@ 13
лан 13
хырӑм 13
вале@@ 13
Вефиль@@ 13
ата 13
ҫемьене 13
священниксене 13
юхӑмӗ 13
илсемччӗ 13
сине 13
кӗтӗ@@ 13
мак 13
хальлӗхе 13
Спорт 13
нӗскер 13
библиотека 13
вырӑнӗсене 13
проек@@ 13
ля@@ 13
ҫаксене 13
Шалти 13
тепӗри 13
сов 13
Ҫын@@ 13
тор 13
асшӑн 13
ҫуркунне 13
тытӑм 13
эфира 13
пуҫҫап@@ 13
шан 13
самантрах 13
чатӑр 13
журнал@@ 13
пуҫлан@@ 13
ева 13
нипех 13
сӑлтавӗ 13
о 13
лисенчен 13
вер@@ 13
кайӑксене 13
хӑйсемпе 13
ратма 13
патӑрта 13
ӗмӗре 13
шине 13
Хура 13
пиччӳ 13
ӳкӗте 13
тӑранса 13
ҫийӗ 13
Тӗрӗс 13
хыҫ@@ 13
мӑй@@ 13
ги 13
пуҫланать 13
рама 13
Ит@@ 13
лаша 13
прависене 13
йӗсенче 13
вӑрах 13
тӑванне 13
тивӗҫтерес 13
улӑхнӑ 13
сӑмахӑма 13
халалӑма 13
панӑшӑн 13
63 13
мӗнех 13
курнине 13
тӳн@@ 13
тӑвансем 13
шӗсемпе 13
пуҫӑн@@ 13
тепри@@ 13
телӗ 13
упӑшкине 13
зо@@ 13
ҫӑвӑн@@ 13
пуличчен 13
тасатакан 13
кторӗ 13
уҫӑлчӗ 13
?! 13
уявне 13
шӗнче 13
хӑварӑр 13
Измаил 13
кӑтарту@@ 13
пӑн@@ 13
пиллӗкӗмӗш 13
пушхирне 13
уйрӑммӑн 13
Ҫырура 13
Иаковпа 13
Мал@@ 13
субсиди@@ 13
пӗрлӗхӗн 13
рал@@ 13
пӗтсе 13
Патӑрьел 13
кӑтартӑвӗ 13
хӑрушлӑха 13
ҫавсене 13
ҫут@@ 13
пӗрлӗхӗсен 13
71 13
ӗненекен 13
фото@@ 13
ӑста@@ 13
ӗҫлӗр 13
сти@@ 13
пулӑттӑм 13
клуб@@ 13
депутатсем 13
Унсӑрӑн 13
нелле 13
парнисем 13
улӑштарма 13
мӑпӑр 13
никсем 13
янӑ@@ 13
облаҫ@@ 13
хет 13
льпе 13
хе@@ 13
Петров 13
Граждан@@ 13
вӑрлӑхӗ 13
Самсона 13
кӑтартӑп 13
пит 13
илтсемччӗ 13
тухмалла 13
пер 13
ывӑлсем 13
Арӑм 13
салтак@@ 13
юлнине 13
Т 13
тинӗсе 13
Ап@@ 13
шухӑшпа 13
мӗп 13
Тӑвай 13
йӗркелемелле 13
хуҫалӑхӗн 13
йӑхна 13
тӗрек@@ 13
килӗше@@ 13
ратчӗҫ 13
ӗҫӗпе 13
курайман 13
Енак 13
пыни 13
ля 13
унсӑрӑн 13
хӗрарӑмсен 13
турачӗ 13
юррисене 13
Ӑҫта 13
вир@@ 13
ҫӗрулми 13
итлемен 13
кина 13
предприятисем 13
ӗнпе 13
хурланса 13
ҫухалнӑ 13
сси@@ 13
ҫӗрпе 13
ичченех 13
ӳнер 13
хускалса 13
мухтан@@ 13
лӗк 13
ҫитрӗҫ 13
лартас 13
никӗсне 13
ҫӳлерех 13
тӳлемелле 13
пӑрӑвне 13
тӳпене 13
хисепле@@ 13
Л 13
пуш 13
тӳри 13
скер@@ 13
ччен@@ 13
Виктор 13
2008 13
юлмасӑр 13
членӗ 13
сивӗ@@ 13
Малалла 13
»@@ 13
тӑрах 13
хӑтар@@ 13
По@@ 13
ҫителӗксӗр 13
паллашма 13
хчӗ 13
Ир 13
мадиансен 13
конферен@@ 13
Сигон 13
Арнон 13
пурнӑҫланать 13
аммонсен 13
Фирца 13
курӑнать 13
ушкӑнне 13
илтрӗм 13
питне 13
сӑнарӗ 13
Ҫиччӗмӗш 13
сӗм 13
асси 13
вӗҫлен@@ 13
хуна@@ 13
Раиса 13
витӗ@@ 13
картса 13
тов 13
тытӑмӗнче 13
ҫураҫ@@ 13
машина 13
кӗртмелле 13
патӑнта 13
сурӑх@@ 13
Иефонния 13
сыхланса 13
ласах 13
ӳҫӗ 13
Олег 13
ҫӳҫне 13
илӗн 13
иккӗшне 13
мухтав 13
ут 13
65 13
пыратпӑр 13
ятӑмпа 13
ӑслӑ@@ 13
курӑмлӑ 13
мӗнче 13
принци@@ 13
ирттерет 13
ялсене 13
Ком@@ 13
Ҫӗрпӳ 13
ҫсене 13
сӑнӑ 13
пӑхӗ 13
касем 13
асам@@ 13
кӳрес 13
айлӑмра 13
уйӑхран 13
канми 13
ари@@ 13
ывӑлна 13
хырҫӑ 13
тухаҫҫӗ 13
ҫукки 13
тупал@@ 13
ҫӑварне 13
хутӑм 13
Хусанти 13
хатӗрлеҫҫӗ 13
чер@@ 13
ири 13
ӗмӗрӗн 13
Зоя 13
асса 13
дӑна 13
алама 13
ҫулӗсенче 13
хускал@@ 13
меллӗ 13
салам@@ 13
рон 13
хӑвачӗ 13
сехӗрленсе 13
вла@@ 13
каятӑн 13
ҫуллӑх 13
ӑсатса 13
пунктӗнче 13
Яков 13
/. 13
Ҫамрӑксен 13
Ровоам 13
хӑрушлӑх 13
ҫӑва 13
саккунӗ 13
юлма 13
мухта@@ 13
нисӗр 13
тӗлӗкре 13
кӳл@@ 13
Алена 13
тасатма 13
ҫулхипе 13
яту 13
ҫӳллӗш 13
палӑрчӗ 13
местӗр 13
ним 13
ыйтатӑп 13
канӑва 13
ытти@@ 13
Семей 13
таврӑнтӑр 13
ӑрӑвӗсен 13
ҫӗршывне 13
Хы@@ 13
вӑрҫинче 13
ессе 13
ани 13
Йӑ@@ 13
ҫавра 13
кӑтарт 13
Саккунӑн 13
должноҫсене 13
хӳт@@ 13
чухӑн 13
Силом 13
ачисемпе 13
бизне@@ 13
проекчӗсене 13
Фо@@ 13
ҫулталӑ@@ 13
ӑва@@ 13
ҫҫ@@ 13
юншӑн 13
ҫӑр 13
ҫӑкӑра 13
пуҫарӑ@@ 13
Ил@@ 13
ҫырлине 13
хипе 13
сад@@ 13
Укҫа 13
пултараймасть 13
тарай@@ 13
вырӑнлӑ 13
тӳпе@@ 13
пара@@ 13
Валериан 13
хаҫа@@ 13
Думин 13
сипле@@ 13
алӑка 13
КВН 13
ҫӳп 13
йытӑ 13
орган@@ 13
Пуҫ@@ 13
интересӗсене 13
тӳпере 12
бу@@ 12
предприниматель@@ 12
ад@@ 12
никӗс@@ 12
вӑййисене 12
хатӗрлекен 12
муниципалитетсен 12
информацие 12
сиенлӗ 12
такана 12
ҫурхахне 12
концерт 12
килӳнте 12
тӑраниччен 12
пулассине 12
Авесса 12
ниҫта 12
мухтавлӑхӗ 12
халӑхшӑн 12
юрататчӗ 12
стандар@@ 12
вра@@ 12
шывне 12
хӑпарса 12
Уй@@ 12
риччен 12
ыйтать 12
сиен@@ 12
тӗллеве 12
тытӑм@@ 12
авалхи 12
тӗлӗнчи 12
пуҫланӑранпа 12
Туррийӗн 12
пӑрахтӑр 12
ҫарпуҫ@@ 12
Фи@@ 12
пике 12
Ҫулталӑк 12
ҫисемпе 12
тесси 12
кино 12
хӑтлан@@ 12
вӑрҫма 12
тӑсӑ@@ 12
кӑтарту 12
хутшӑнаҫҫӗ 12
кӑларӗ 12
тика 12
опы@@ 12
мӗшне 12
вӑрҫӑ@@ 12
ыйт 12
калӗҫ 12
пуриншӗн 12
Исаия 12
сӑм 12
вӑрмана 12
Хӗрарӑ@@ 12
Правительстви 12
лар 12
парти@@ 12
пурнӑҫлаҫҫӗ 12
Ду@@ 12
лайӑххине 12
Кабинечӗ 12
пурӑнӑҫ 12
Иса@@ 12
ватӑ@@ 12
пайтах 12
Финеес 12
салтака 12
выльӑхпа 12
пуҫланчӗ 12
хавхалантарать 12
организацисен 12
анать 12
тӳрем@@ 12
илтмен 12
ашакне 12
Анхус 12
управленийӗн 12
тӗллев@@ 12
кӑралне 12
ҫыхӑнтарнӑ 12
шӗнчен 12
терӗмӗр 12
Галгала 12
сни@@ 12
ҫӳренине 12
куртӑр 12
№. 12
виҫрӗ 12
утӑм 12
ҫывӑрса 12
майсене 12
вӗҫленӗ 12
Галаадри 12
аша@@ 12
илӗҫ 12
пӑхӑ@@ 12
рисемпе 12
Хамӑрӑн 12
хакӗ 12
пле@@ 12
сывлӑм 12
20@@ 12
ансат 12
пурӑнай@@ 12
регионсем 12
мӑнаҫлан@@ 12
Патши 12
хваттер 12
мест@@ 12
муниципаллӑ 12
пурнӑҫлассине 12
Ҫит@@ 12
пурӑннине 12
ӳкӗ@@ 12
тӑракансене 12
номер@@ 12
пусӑ@@ 12
виҫсе 12
уҫа@@ 12
Де@@ 12
Вӑй 12
йӑна 12
пӑхмалла 12
тапӑрӗн 12
кӗнеки 12
танлаштарма 12
пӑра@@ 12
клӑ 12
ывӑлӗсенӗн 12
органӗн 12
сӑлтав@@ 12
пӗчӗккӗн 12
Ахитофел 12
Авессалома 12
Халь 12
тӑрассине 12
тӑрура 12
виҫепе 12
пулмасассӑн 12
ӗҫкӗ 12
кирпӗч 12
аттен 12
тартӑр 12
иудейсем 12
ташӑ 12
пӑл@@ 12
сурӑ@@ 12
хӑйӗнчен 12
юхакан 12
пурӑнӑ@@ 12
марӑр 12
мӑшӑ@@ 12
Идумея 12
ҫӗршы@@ 12
Теле@@ 12
Пет@@ 12
расса 12
ӗҫленӗшӗн 12
хун 12
там 12
тулнӑ 12
чунпа 12
патӑ@@ 12
Малтанхи 12
хӑяр 12
кап@@ 12
...» 12
чӗнмен 12
Виталий 12
контрак@@ 12
юлташ@@ 12
Пушӑ 12
хурт 12
вара@@ 12
туччӑр 12
цисем 12
ӑсса 12
йӑлӑн@@ 12
Ионафана 12
Массифа 12
Во@@ 12
ытар@@ 12
маттур 12
шывсем 12
умӑ@@ 12
ҫум@@ 12
крен 12
Иавис 12
пӗтӗмлет@@ 12
ӑсти 12
пурнӑҫласа 12
специалистсем 12
ӗҫтешсем 12
туссем 12
сехӗрлен@@ 12
шӑнса 12
чӗртсе 12
пурнӑҫланине 12
тумтире 12
шак@@ 12
шел 12
ҫӗкленсе 12
йӗрпе 12
каҫчен 12
турат@@ 12
уйӑрӑлса 12
сехетре 12
облаҫӗнчи 12
пӗ 12
Элӗк 12
колхоз@@ 12
ҫӗнет@@ 12
ҫӗнтерсе 12
таврӑнсассӑн 12
программӑ@@ 12
хисеплеме 12
каларӗҫ 12
авал@@ 12
пӗрлештернӗ 12
юписен 12
Арӑ@@ 12
терӗн 12
хӑйӑр 12
харсӑр 12
мӗнрен 12
Темиҫе 12
сӗртӗннӗ 12
ҫылӑхӗ 12
фончӗн 12
Василий 12
скерсене 12
хӑвармалла 12
пысӑкӑш 12
пуҫтарӑн@@ 12
Вӑрмар 12
2007 12
сӗм@@ 12
туяна@@ 12
ҫӑсене 12
выҫӑ 12
тӳрӗлӗхне 12
терех 12
хуш 12
чах@@ 12
тӑрасси 12
парнерен 12
I 12
ӗннӗ 12
наукӑпа 12
ҫӑн 12
Сталин 12
пӗве 12
ҫӳлте 12
тӗнчерен 12
вӗрентет 12
хӑпарнӑ 12
заци 12
систем@@ 12
укҫине 12
кӑлӑхах 12
Урӑх 12
Ялти 12
ӗҫлекенсем 12
паратпӑр 12
тунсӑх@@ 12
Хӑй@@ 12
парӑн 12
Елчӗк 12
юрӑхлисем 12
Фе@@ 12
юрланӑ 12
тарҫӑ 12
пса 12
Васильевна 12
пурӑнӗ 12
ҫуртунта 12
ачапа 12
сӗтпе 12
курах 12
юна 12
сӗртӗн@@ 12
Тутар@@ 12
тересшӗн 12
памасть 12
яна 12
мла@@ 12
ей 12
таратпӑр 12
шӑрӑх 12
ҫарпа 12
ҫӑнӑхӗн 12
Иккӗ@@ 12
смен@@ 12
менччӗ 12
ӑрӑм@@ 12
ват 12
Республики 12
Хӗр 12
тӑрӑшмалла 12
ӑсталӑхне 12
каҫарӑнӗ 12
кӑпшан@@ 12
лаптӑкӗ 12
лов 12
зи 12
фра 12
Посе@@ 12
урама 12
яна@@ 12
ше 12
Ҫимӗк 12
еф@@ 12
суран 12
катӑ@@ 12
яраҫҫӗ 12
пӑру@@ 12
хӑлха 12
парӑнтарнӑ 12
кӗреҫҫӗ 12
пуҫлать 12
ӑса 12
материал@@ 12
ырми 12
эл@@ 12
урӑхларах 12
тӑратма 12
ченех 12
пуҫҫапса 12
куҫнӑ 12
сасӑ@@ 12
ук 12
кова 12
вӑрӑ 12
Ливан 12
Ҫамрӑ@@ 12
Пӑх@@ 12
ывӑлӗсемшӗн 12
пиччӗ@@ 12
Вениамина 12
сывлӑха 12
Каҫ 12
ӑст@@ 12
Евгений 12
Чӗ@@ 12
тӑрӑшатӑп 12
ӗҫченӗсен 12
хулан 12
Сӑваплӑран 12
ӗк@@ 12
йышӑнас 12
хайла@@ 12
Кур@@ 12
сте@@ 12
тухӑҫлӑн 12
вӑрҫ@@ 12
ская 12
вырӑнӗсем 12
ципе 12
тутӑ 12
ала@@ 12
кукӑ@@ 12
туйӑм 12
каникул 12
хатӗрлет 12
йӗркесем 12
йывӑҫсем 12
тӗттӗм@@ 12
тыт 12
арӗ 12
Туррӑмӑра 12
:] 12
сиплен@@ 12
тивӗҫлӗн 12
Ҫыр@@ 12
кре@@ 12
урамра 12
пултаратпӑр 12
вӑхӑт@@ 12
пахалӑхӗ 12
авӑ 12
Ро@@ 12
урам 12
ӗмпе 12
тӑванӗн 12
выляса 12
патшалӑхпа 12
ӑслӑлӑхӗсен 12
Чылай 12
сӑра 12
пынипе 12
ине 12
яланлӑхах 12
Пах@@ 12
лӑхри 12
Сокхоф 12
ене 12
чӗлхӳ 12
Вун@@ 12
ҫӗклентерсе 12
вӗлерекене 12
ялӗнчи 12
кӗреше@@ 12
Чӑ@@ 12
тутар@@ 12
тытаҫҫӗ 12
:— 12
мӑшӑрлан@@ 12
аслӑрах 12
ҫухрӑ@@ 12
пулай@@ 12
должноҫӗсене 12
чӑтай@@ 12
18@@ 12
ҫунӑ 12
йпа 12
Мӑн 12
хатӗрленнӗ 12
палӑрса 12
акса 12
технологиллӗ 12
ӳсрӗ 12
кӑма@@ 12
ывӑлӗнчен 12
кунӗсем 12
курас 12
тивӗҫсене 12
тӑнлӑ 12
пӳ 12
суд@@ 12
Езекия 12
юхӑ@@ 12
обще@@ 12
пурнӑҫӗнче 12
шк@@ 12
аҫусене 12
Йӗр@@ 12
ствине 12
учрежденийӗсен 12
латнӑ 12
татӑн 12
йӑнӑш 12
ӗрче@@ 12
хупӑл@@ 12
ҫуна@@ 12
турӑ 11
ец@@ 11
администраци 11
лон 11
путса 11
кӳрентер@@ 11
лансах 11
Мадиан 11
пӗтерет 11
нов@@ 11
Телее 11
ҫитӗр 11
Мускава 11
илтнине 11
енри 11
вилӗмрен 11
каламалла 11
анипе 11
улӑштар@@ 11
чурусене 11
саламлатӑп 11
ҫӳрерӗ 11
Сива 11
Ахия 11
рар 11
аттемӗр@@ 11
хӑватне 11
шывран 11
шӑрчӑк 11
Йывӑ@@ 11
татӑлса 11
ҫитӗнӳ 11
кӗтнӗ 11
пурпӗрех 11
Ӳт 11
Унти 11
йышлӑрах 11
питлӗ 11
чурасем 11
витӗмлӗ 11
ком@@ 11
фондне 11
пулӑшӑвӗпе 11
алӑкне 11
Мух@@ 11
ҫӑлӑ@@ 11
литр 11
сцен@@ 11
хупӑ 11
утлӑ 11
пӑрӑ@@ 11
пани@@ 11
Ҫӳ@@ 11
пултарни 11
кӑтартӑвӗсем 11
практи@@ 11
предприяти 11
85 11
панулми 11
эр@@ 11
ҫсем 11
нран 11
кере 11
нь@@ 11
депутат@@ 11
кӳреҫҫӗ 11
Туррийӗ 11
чух@@ 11
ыра@@ 11
лара@@ 11
илтер@@ 11
туянса 11
тытӑмӗн 11
хутшӑнни 11
инӑпа 11
маҫ@@ 11
вичӑн 11
хӗрарӑмне 11
училищ@@ 11
артист 11
пуҫҫа@@ 11
ҫыннун 11
ӑм@@ 11
нинче 11
местпӗр 11
ҫуначӗ 11
пла@@ 11
тухман 11
тӑм@@ 11
Ҫурт@@ 11
хуравларӗ 11
Зара 11
купӑс 11
тӑ 11
исем 11
Пуш@@ 11
кача@@ 11
вӗренекенӗ 11
электро@@ 11
Аверкий 11
пӳлӗмне 11
кӗтӳ 11
хушӑ 11
Куҫ 11
ҫитерсе 11
сыхлав@@ 11
чӑнлӑх 11
вунтӑватӑ 11
ӗҫсӗр 11
термелле 11
ӑсен 11
пуҫтарма 11
шӑтӑк 11
ӑнтӑ@@ 11
ӗҫӗр@@ 11
вӗрентеҫҫӗ 11
лӑху 11
Хурӑн@@ 11
Урия 11
кисенчен 11
сарӑ 11
Пир@@ 11
латать 11
анах 11
парнеленӗ 11
ыйтрӑм 11
курчӗ 11
шут 11
тересси 11
ҫӑлкуҫӗсем 11
сӑнне 11
пӑрахрӗ 11
мӑшӗ 11
пӗтерсессӗн 11
ҫам@@ 11
сӑнӑма 11
ниме 11
лӗсемпе 11
кӑкӑр 11
хӑп@@ 11
хӑвӑрпа 11
ҫиет 11
кӳлӗ 11
скерне 11
Священник 11
математика 11
тӗрӗ 11
кӗтес@@ 11
ҫумӗн 11
пра@@ 11
хатӗрлемелле 11
сӗртӗнсессӗн 11
тӑванӑ@@ 11
священниксемпе 11
влаҫ@@ 11
Япо@@ 11
Эп 11
же@@ 11
кӑмӑллатӑп 11
илтме 11
сенчех 11
хушшӑмӑрта 11
фрон@@ 11
кӳн@@ 11
ханаансене 11
шая 11
илтрӗ 11
юратни 11
электричество 11
виҫҫ@@ 11
Ахальтен 11
порт@@ 11
тытмалли 11
мӗр@@ 11
кӑтартасшӑн 11
ьте 11
савӑнӑҫ 11
ӗнех 11
союзӗн 11
ывӑлӑ@@ 11
кулса 11
услам@@ 11
рес 11
летӗп 11
тытӑнсассӑн 11
ос@@ 11
кад@@ 11
700 11
академи 11
маршрут 11
нам 11
композитор@@ 11
Йывӑр 11
тимлӗн 11
,» 11
Вера 11
юлса 11
черетлӗ 11
шутланаҫҫӗ 11
ӗсемшӗн 11
классенче 11
тӑвасси 11
пӗтрӗ 11
онпа 11
гор@@ 11
вский 11
систер@@ 11
Ах 11
пиншер 11
ҫӳрерӗм 11
Йы@@ 11
пӗлтерӗшне 11
69 11
куҫран 11
турӑр 11
тупрӑм 11
кӗрей@@ 11
мероприятие 11
вула@@ 11
ҫӗкленнӗ 11
тӑкакӗсем 11
курас@@ 11
тахҫанах 11
Хуҫалӑх@@ 11
лю@@ 11
ыйтӑвӗсене 11
2005 11
77 11
гражданла 11
правил@@ 11
тухасси 11
ҫӑлакан 11
тӑрӑшу@@ 11
полномочи@@ 11
тӗрекӗм 11
ний 11
кӗнисем 11
тапран@@ 11
рассипе 11
ырӑлӑхне 11
хакне 11
кли@@ 11
Иванова 11
вунпӗр 11
улшӑ@@ 11
Амврий 11
пултара@@ 11
районӗн 11
поэчӗ 11
Максим 11
парӑннӑ 11
ҫыран 11
кунти 11
ирттерекен 11
дин 11
паччӑр 11
арсем 11
амалик@@ 11
туйи 11
калаҫӑва 11
хӑюл@@ 11
кел@@ 11
ситтим 11
тӑхӑнтартса 11
хумалли 11
йывӑрлӑх@@ 11
есӗр 11
шӑлса 11
хӗсене 11
хун@@ 11
Епле 11
Палӑртса 11
ыррине 11
концерт@@ 11
Каярах 11
режиссер 11
Чутай 11
паллаша@@ 11
»,– 11
Тат@@ 11
шухӑшлатӑп 11
сапал@@ 11
ски@@ 11
пурсӑр 11
иртрӗҫ 11
ҫиелтен 11
рен@@ 11
Хусий 11
Интерне@@ 11
Правительство 11
пурнӑҫламалли 11
тархасланӑ 11
хӑтарсам 11
ска@@ 11
пуҫланса 11
Ис@@ 11
журнал 11
шкултан 11
пророка 11
шухӑ@@ 11
яваплӑха 11
паллӑ@@ 11
ҫав@@ 11
асӑр@@ 11
шанатпӑр 11
меннине 11
патӑнтан 11
фер@@ 11
пункчӗн 11
нӑскере 11
илӗрт@@ 11
пуянлӑх 11
хыва@@ 11
линчен 11
млн 11
тасшӑн 11
харпӑр 11
кир@@ 11
палӑртмалла 11
хаҫатра 11
кри@@ 11
сферинче 11
сайра 11
йышӗпе 11
евӗр@@ 11
спорт@@ 11
ӳсе@@ 11
юмах 11
Мӗн@@ 11
сарӑл@@ 11
влӑ 11
тӗрме 11
Тав 11
хаклӑх@@ 11
тумне 11
,– 11
президенчӗ 11
майӑн 11
ывӑлу@@ 11
Павло@@ 11
радио 11
ҫӑсемпе 11
ленме 11
ҫӑн@@ 11
Тан@@ 11
хӑвӑр@@ 11
ҫутаткӑҫ 11
хӑпарт@@ 11
юлмарӗ 11
ахальтен 11
технологи 11
предме@@ 11
кӗркунне 11
Выльӑх 11
чипе 11
ак 11
путекки 11
юрӑсем 11
каҫарма 11
мӑшӑрӗпе 11
Уяв 11
коло@@ 11
Ҫемьере 11
етӗн 11
пен@@ 11
пулатӑп 11
ҫӗк@@ 11
вӗрентекенсем 11
культу@@ 11
дон 11
чече@@ 11
эк@@ 11
фестиваль 11
ҫукчӗ 11
минутран 11
Нир 11
аланӑ 11
хӗра@@ 11
кунра 11
Вячеслав 11
лӗнче 11
сутма 11
илӗ@@ 11
хӗрпе 11
Сион 11
аталанӑвне 11
ҫухрӑм 11
Иоавпа 11
Хорив 11
килӗшрӗ 11
пӗле@@ 11
ратнӑ 11
шутла@@ 11
хавшаса 11
анне@@ 11
йӗркесемпе 11
саккунсем 11
хӗрӗпе 11
камран 11
юраман 11
вет@@ 11
авӑ@@ 11
ру 11
самӑр 11
хушӑн@@ 11
гергесе@@ 11
Тух@@ 11
пӗлсен 11
Ӑҫтан 11
тран 11
хутшӑнчӗҫ 11
рак@@ 11
ӳпкелеш@@ 11
кки 11
Тӗл@@ 11
То@@ 11
ассоциа@@ 11
трӗ 11
пӑхрӑм 11
илле 11
Президенчӗн 11
итлеме 11
Иосафат 11
хӗрес 11
чирле@@ 11
анов 11
графи@@ 11
кунпа 11
вви@@ 11
Районта 11
представителӗсем 11
Хусанта 11
тытмалла 11
екен@@ 11
чӗрчун 11
кле@@ 11
куҫҫу@@ 11
хӑрӑр 11
хат@@ 11
кайиччен 11
Наци 11
тӑвӗҫ 11
Ура@@ 11
администра@@ 11
йӑнӑшпа 11
Нават 11
намӑса 11
тухай@@ 11
халь@@ 11
ывӑл@@ 11
ӗҫлӗ 11
ҫывӑхри 11
уҫӑлнӑ 11
ҫӳлтен 11
илет@@ 11
бал@@ 11
мӑш 11
тӑрӑха 11
пиччӳне 11
йӑхран 11
хирӗнче 11
ҫӑвӑнмалли 11
сӗннӗ 11
вӗлерекен 11
ленипе 11
:@@ 11
лӑпа 11
тапӑнса 11
ҫӗнетнӗ 11
пытан@@ 11
еврей 11
Алла 11
тытӑнаҫҫӗ 11
Тур@@ 11
тӑмасть 11
пӗркен@@ 11
тилмӗрсе 11
чӑмӑр@@ 11
кайӑп 11
Че@@ 11
шухӑшлӑ 11
пулатчӗ 11
терес@@ 11
председателӗн 11
кунӗпе 11
пухма 11
Пурнӑҫ@@ 11
тӑратӑр 11
Алексеев 11
культури 11
каларӑн 11
иртен 11
Ҫаксем 11
Агарь 11
маши@@ 11
хуҫисем 11
тунӑччӗ 11
син 11
тӑрӑпӑр 11
аслӑласа 11
об@@ 11
пӑрахӑп 11
сурӑхсем 11
75 11
йсене 11
юрататӑн 11
вер 11
куҫӗсем 11
ешӗл 11
Корей 11
вӑхӑтсӑр 11
статья@@ 11
пӑхакан 11
тухӑҫлӑхне 11
шӑнӑ@@ 11
саланнӑ 10
пикен@@ 10
турни@@ 10
урана 10
Мемфивосфей 10
сер@@ 10
спектакль 10
коллекти@@ 10
пӳ@@ 10
Салтак@@ 10
Пан@@ 10
ушкӑнра 10
килсессӗн 10
шӑл 10
херуви@@ 10
250 10
аллупа 10
ним@@ 10
пырсан 10
вилнине 10
чикнӗ 10
тарӑхса 10
таврӑниччен 10
ҫиҫ@@ 10
ҫӑкӑрпа 10
Аш 10
Хаклӑ 10
Каҫхи 10
ҫутат@@ 10
юл 10
тухиччен 10
тарман 10
укҫана 10
73 10
танлашать 10
оф@@ 10
айккинчи 10
моно@@ 10
пӗтермелле 10
турттарса 10
тиесе 10
Пил@@ 10
вӗре@@ 10
йышӑнӑва 10
2002 10
парк 10
вӗретмелле 10
чченхи 10
кӗҫӗн@@ 10
Юрӑ 10
ҫӳле 10
Хӗлле 10
экономи@@ 10
тӑсӑлнӑ 10
патӑмӑр 10
Фаран 10
тӳре 10
ҫӑвар 10
ҫаврӑнӑр 10
аннӳ 10
фабри@@ 10
пысӑка 10
тытни 10
Тӳрӗ 10
етчӗ 10
тенкине 10
йӗре@@ 10
тес 10
чака@@ 10
сиплев 10
йышӑ@@ 10
пушанса 10
хӑнана 10
фильм 10
вичпа 10
парнепе 10
тӗпе 10
ссинчен 10
япа 10
асна 10
пеп@@ 10
асӑнмалӑх 10
Саулӑн 10
ӗлӗк 10
телӗ@@ 10
тӗле 10
сӑва@@ 10
тӗреклӗ@@ 10
ном 10
пӑрӑнать 10
ҫакӑнтан 10
чулӗ 10
Камӑн 10
ӳкерчӗк 10
арҫыннине 10
аслати 10
Пӗлӗ@@ 10
кӑлар 10
лантарса 10
тӗнчи 10
пич@@ 10
етчӗҫ 10
пыр@@ 10
шанчӑк@@ 10
мас@@ 10
хӳтӗлес 10
ямалли 10
кӗскен 10
Хусанкай 10
фон@@ 10
вителӗкне 10
сведени@@ 10
патшалӑхӗ 10
лартакан 10
95 10
картишне 10
ҫитме 10
ТР 10
академийӗн 10
хутӑштармалла 10
ствин 10
чатӑра 10
кӗвӗҫ@@ 10
ҫапларах 10
татчӗ 10
юрӗ 10
условисем 10
туйине 10
тренер@@ 10
Йӗпреҫ 10
килнӗччӗ 10
йӳҫӗ 10
алне 10
чурисен 10
хуштӑр 10
лӗхлӗ 10
лагерь 10
сутӑн 10
ҫемьере 10
хисте@@ 10
сапмалла 10
ҫӑпан 10
хуҫалӑхӗнче 10
ҫӳретӗп 10
машин@@ 10
Республикӑн 10
туртӑ@@ 10
юрату 10
семех 10
акчӗсене 10
палӑртас 10
сала@@ 10
Ревеккӑна 10
пиччем 10
ҫилленнӗ 10
каярах 10
тӑвакансем 10
профессине 10
Фар@@ 10
тӗпренчӗ@@ 10
ӗмӗрлӗхех 10
аль 10
калӑпӑш@@ 10
вилес@@ 10
Йӗрке@@ 10
вунвиҫӗ 10
член@@ 10
полномочийӗсем 10
сро@@ 10
пророкла 10
екенӗ 10
пӑрӑс@@ 10
ялхуҫалӑх 10
кредит 10
вожатӑ@@ 10
пуҫласан 10
килӗштернӗ 10
кер@@ 10
тытрӑм 10
витнӗ 10
пултарулӑхӗн 10
пуҫлӑхӗсемпе 10
кӑвар 10
ҫинелле 10
пӗтерсен 10
чап@@ 10
Каччӑ 10
савӑтпа 10
гу@@ 10
фӑна 10
Журнали@@ 10
ӑссӑр@@ 10
куҫӗнчен 10
тыткӑн@@ 10
туллиех 10
Газер 10
ҫарӑн 10
Ая@@ 10
ҫӑвӑнмалла 10
ҫумалла 10
тӗплӗнрех 10
кӑлтӑк 10
ҫинех 10
сӑв@@ 10
сӑнна 10
ултал@@ 10
лартӑм 10
тӗш@@ 10
счӗ 10
начар@@ 10
фран 10
ӗҫес 10
мӗшӗсенче 10
Нахор 10
пурнӑҫлани 10
комплекс@@ 10
юлмалла 10
летнӗ 10
Ангелне 10
мул@@ 10
илтеретпӗр 10
тӑшманӗсене 10
вӑлах 10
сӗртӗнсе 10
тапӑрӗ 10
ника 10
ӗҫрен 10
чӗрепе 10
хыҫҫӑнхи 10
кайрӑмӑр 10
иккӗ 10
купаласа 10
шӑмат@@ 10
парнесенчен 10
виҫеллӗ 10
фестивал@@ 10
тапса 10
ӑсталӑх@@ 10
больниц@@ 10
ҫуррине 10
Фер@@ 10
калаҫнине 10
Алиса 10
ӗмӗчӗ 10
кӗсенче 10
индустри 10
терчӗ 10
мерӗмӗр 10
сывлан 10
тах@@ 10
ӗччӗҫ 10
йӗркелемелли 10
туриз@@ 10
Паша 10
уҫӑлса 10
сапнӑ 10
чакса 10
Пӗрре@@ 10
чунлӑ 10
аталанӑ@@ 10
терекен@@ 10
арӑму 10
сахӑр 10
ур 10
ялсем 10
пуҫлӑх@@ 10
пулӑшас 10
кӗт 10
шкулне 10
канашӗн 10
сапаласа 10
тес@@ 10
шӗнччӗ 10
Содом 10
хаваслӑ 10
пурлӑха 10
харпӑр@@ 10
92 10
инҫет@@ 10
мӗшпе 10
ҫирӗплетеҫҫӗ 10
сипе 10
Ук@@ 10
хана 10
тип 10
йывӑрлӑх 10
Маркс 10
тари 10
Чапаев 10
Зо@@ 10
пултарулӑха 10
ҫулпуҫӗсем 10
туянас 10
вилӗ 10
аллӑмпа 10
юрӑҫ 10
хӑрушсӑрлӑхӗн 10
апатлан@@ 10
тӳлев 10
клуб 10
машинӑна 10
шкулсен 10
тӗллевсем 10
чӗлхе@@ 10
пӗлмеҫҫӗ 10
Кусем 10
Вал@@ 10
поселок@@ 10
.». 10
комитечӗн 10
рий 10
проспекчӗ 10
ҫӳлелле 10
директо@@ 10
хӳтӗ@@ 10
тӳлет@@ 10
ҫурнӑ 10
килтӗмӗр 10
пӗлместпӗр 10
хӗрарӑмпа 10
тарассине 10
спектакль@@ 10
кӑкӗнче 10
йывӑҫа 10
команд@@ 10
пытӑм 10
так 10
чӗрӳ 10
чылайччен 10
трӗм 10
ӗм@@ 10
чсем 10
хуй@@ 10
ҫуралать 10
кӗҫех 10
органне 10
Криша 10
аҫусем 10
айлӑмне 10
текен@@ 10
хутшӑнӑ@@ 10
ҫат@@ 10
Ҫур 10
ленет 10
Милка 10
ҫем@@ 10
пуҫтарӑнса 10
халтан 10
мсенчен 10
чемпион@@ 10
аталантарасси 10
хисепрен 10
Трактор 10
кимӗ 10
ассине 10
аграри 10
хавхаланса 10
вӗлермелле 10
йӗркеленсе 10
хутлӑ 10
юратаҫҫӗ 10
аморрейсене 10
83 10
органӗсене 10
тӗпчев 10
тивӗҫтересси 10
Евфрат 10
тупӑннӑ 10
Авраампа 10
кӑлармалла 10
лартрӗ 10
Леви@@ 10
мӑна 10
чӗрлӗхӗ 10
тасатмашкӑн 10
куҫлӑ 10
рисенчен 10
хуракан 10
юлас 10
пӑрупа 10
Изреель 10
пархатарлӑ 10
интерес@@ 10
мелпе 10
откры@@ 10
еттӗм 10
патӑртан 10
инкеке 10
пуласси 10
Етӗрне@@ 10
тӗтӗр@@ 10
лана@@ 10
ӑмсан@@ 10
ҫеҫ@@ 10
мӗнӗпех 10
виличчен 10
пахчи 10
ҫырнине 10
фронта 10
воспитате@@ 10
комплек@@ 10
сӑпайлӑ 10
лӗхӗ@@ 10
стра@@ 10
Конститу@@ 10
йӗрӗхсене 10
тӑрринче 10
тухӗҫ 10
пусма 10
000 10
Ват@@ 10
намӑслан@@ 10
теле 10
Вӑй@@ 10
Нумаях 10
89 10
Аш@@ 10
наука 10
сене@@ 10
кӗнекене 10
Каллех 10
вӗренет 10
мрен 10
ствӑн 10
вӗле@@ 10
вӑрӑ@@ 10
кто@@ 10
лисемпе 10
ҫапӑҫӑва 10
тел@@ 10
сӗрех 10
Ак 10
тури 10
ачаран 10
хӑйсенӗн 10
аслисем 10
пӗлӗр 10
пулӑшасси 10
Хальхинче 10
ҫулӗсем 10
пӑш@@ 10
айӑпа 10
ствинче 10
Газа 10
ӗри 10
амӑшӗпе 10
ҫирӗпле@@ 10
ниех 10
маннӑ 10
зӑн 10
ӳркен@@ 10
пурӑнатӑр 10
o@@ 10
Пул@@ 10
рӑп 10
чаршава 10
лӑхсем 10
пиччӗшӗн 10
пол@@ 10
фир@@ 10
тери@@ 10
Соломонӑн 10
кивӗ 10
тӳлекен 10
учрежденийӗ 10
ӳлӗмрен 10
Промышлен@@ 10
тирпейлӗ 10
от@@ 10
Шы@@ 10
Ҫеҫпӗл 10
вӗнчен 10
шӗве@@ 10
укҫапа 10
ҫиекен 10
Хевронра 10
тӑрӑшӑр 10
Варак 10
ссе 10
тӑсӑлакан 10
чӑвашлӑх 10
пӗтеричченех 10
зациленӗ 10
фараонӑн 10
статьяна 10
хуласен 10
айлӑм 10
конкурс@@ 10
хӑвала@@ 10
пӗлтӗм 10
кашӑк 10
Тӗп@@ 10
Хеврона 10
тат 10
никӗс 10
помидор 10
тӗллевлӗн 10
каланса 10
вутпа 10
калат@@ 10
упранса 10
каятпӑр 10
Ҫамрӑксем 10
тухӑ@@ 10
хурлӑх 10
япаласемпе 10
минист@@ 10
канашне 10
Ют 10
таксипе 10
ҫулсене 10
юлчӗҫ 10
Мускаври 10
чунӑра 10
латчӗҫ 10
сапа 10
Да@@ 10
арӑмӗсене 10
кӑри 10
логи@@ 10
айӑп 10
аҫу@@ 10
Экономика 10
калӑпӑшне 10
местчӗ 10
лӗхсем 10
ҫӑлкуҫӗ 10
янтӑланӑ 10
чы@@ 10
Упӑш@@ 10
76 10
зал 10
пакан 10
хуҫама 10
Зевейпе 10
услови@@ 10
роль 10
водитель 10
тӑс 10
чирлесе 10
явнӑ 10
чакарма 10
шутӗнчен 10
учитель 10
ункӑ 10
шалча 10
карта 10
йӗнчи 10
пулӑшрӗ 10
ятна 10
проектсене 10
ҫутӑ@@ 10
кандидачӗ 10
Ю 10
икшер 10
пӗлтерӗшӗ 10
мӑйракисене 10
чӗрлӗх@@ 10
ӳкӗт@@ 10
ее 10
ять 10
рӑна@@ 10
юлсассӑн 10
ачан 10
вӑхӑтне 10
тухни 10
хӗресленнӗ 10
тивӗҫтермелле 10
Ҫурҫӗр 10
хӑйтытӑмлӑх 10
стви 10
пыракансем 10
уҫӑл@@ 10
брен@@ 10
пӗчӗкрен 10
уҫрӗ 10
иудейсен 10
кӑтартас 10
ӑмпа 10
картин@@ 10
Юлашкинчен 10
производствӑ@@ 10
ҫутӑл@@ 10
тӑсӑлса 10
кӗмен 10
ывӑлӑма 10
сеть@@ 10
сисӗн@@ 10
ҫие 10
кивҫен 10
таратӑп 10
утӑ@@ 10
явса 10
виҫҫӗ 10
мелӗх 10
уявӗнче 10
инвестицисем 10
ӑмӑртура 10
тум 10
0@@ 9
кӗлтуса 9
чиркӳ 9
Иш@@ 9
нова 9
Пелепей 9
Сара 9
кадет 9
агро@@ 9
улшӑннӑ 9
лаптӑк@@ 9
турттарма 9
тӑсем 9
Вилнӗ 9
ултавлӑ 9
Лю@@ 9
э 9
199@@ 9
айк@@ 9
калӗ 9
тӗрмере 9
пальма 9
чечексем 9
тумасть 9
хытарса 9
районне 9
пилӗ@@ 9
конкуренцие 9
ҫарпуҫ 9
мадиан@@ 9
аттене 9
савӑнӑр 9
тӑрсем 9
комбиначӗ 9
Гал@@ 9
летӗн 9
вӗтетнӗ 9
хураҫҫӗ 9
аялти 9
ӗлӗкхи 9
хула@@ 9
аҫӑрсене 9
хӑвачӗпе 9
хӗрача 9
Ад@@ 9
ресурс@@ 9
пулатӑн 9
пӳрипе 9
ҫӑсен 9
картиш@@ 9
ӳсӗ@@ 9
пушат@@ 9
салатса 9
пӑраха@@ 9
Никольский 9
кунӑ@@ 9
ыттисенчен 9
хӗстер@@ 9
хисеплен@@ 9
чатӑрта 9
езд@@ 9
Дмитрий 9
иксӗлми 9
вӑйӑ@@ 9
уйӑракан 9
Ун@@ 9
тӑвасшӑн 9
асӑнма 9
палӑртман 9
кӑмӑлтан 9
парнисене 9
местӗн 9
суккӑр 9
тӑрӑшуллӑ 9
пӑхаҫҫӗ 9
Егорова 9
патриотизм 9
ҫыравӗ 9
кпе 9
мӗс@@ 9
нӗренпе 9
кӑтартусем 9
Улатӑр 9
Шӑп 9
тимлӗх 9
ленчӗ 9
тӑкса 9
списо@@ 9
вӑхӑтран 9
юхӑн@@ 9
терӗҫ 9
калай@@ 9
чакар@@ 9
шур@@ 9
чакнӑ 9
сысна 9
Суй@@ 9
юлаҫҫӗ 9
специалист 9
хурӑнташ@@ 9
витӗмӗ 9
сурӑхне 9
Районти 9
начальникӗ 9
Б 9
ҫӑварӗнчен 9
нумайӑшне 9
Студен@@ 9
ҫултах 9
панӑччӗ 9
пулӑмсем 9
астӑватӑп 9
номинацире 9
тавӑрнӑ 9
туйӑннӑ 9
темен 9
чакрӗ 9
унсӑр 9
ҫӑм@@ 9
юсама 9
74 9
хапхине 9
шыранӑ 9
теретӗн 9
тапӑртан 9
академи@@ 9
Аод 9
ҫылӑхран 9
шур 9
тӳснӗ 9
тавралӑх 9
пуҫӗсене 9
лев 9
пӑрӑва 9
хавхалантарса 9
тухатӑп 9
шӑнкӑрав 9
йышӑнакан 9
ҫаврӑнӑ@@ 9
акт 9
лакансем 9
лев@@ 9
вӑйӗпе 9
Хар@@ 9
тӗпӗ 9
камсем 9
фӑн 9
каҫарттарма 9
евӗрли 9
авӑрт@@ 9
савӑта 9
Агро@@ 9
ӳстермелле 9
кӑва@@ 9
тӑрӑхри 9
туйма 9
кет@@ 9
Ҫамрӑксене 9
аталана@@ 9
унтах 9
Исава 9
суккӑр@@ 9
йӑха 9
тимӗр@@ 9
нусем 9
теретпӗр 9
хӑм@@ 9
ниччен 9
сӑмахӗпе 9
курав 9
така@@ 9
шик@@ 9
пуянлӑхӗ 9
мӑл@@ 9
такӑн@@ 9
улӑх 9
савӑн 9
ҫемьесене 9
Ӗлӗк 9
илесшӗн 9
Алина 9
101 9
Вар@@ 9
пахалӑх@@ 9
дад 9
татӑкне 9
Ван@@ 9
Иессе@@ 9
картишӗн 9
Ааронӑн 9
Кура@@ 9
Сисарӑна 9
сипленмелле 9
Алексеевна 9
приоритетлӑ 9
вӑйра 9
пултарнине 9
Иаковӑн 9
тӑв@@ 9
хирӗнчен 9
лемелле 9
чул@@ 9
пӗтнине 9
тӳрӗлӗх 9
мӗнне 9
тарӑп 9
хыпса 9
кӑвакар@@ 9
вӗҫӗ 9
тӗнченӗн 9
хытӑрах 9
килтех 9
пӗтмелле 9
парсан 9
тӳсем 9
ҫӑмӑлрах 9
савӑннӑ 9
пултарчӗ 9
чурун 9
развед@@ 9
куҫпа 9
лӗччӗ 9
сывах 9
хамах 9
ҫарӗн 9
ӳт@@ 9
хӑтарчӗ 9
рсемпе 9
кӗнекере 9
ҫемйинче 9
килӗштер@@ 9
медицин@@ 9
юман@@ 9
тӗлтен 9
Хал@@ 9
Чечня 9
\ 9
патриот@@ 9
савӑнать 9
виҫе 9
симӗс 9
санпала 9
илтр@@ 9
эре@@ 9
Пӗчӗк@@ 9
раттӑмӑр 9
Ер@@ 9
хисеп 9
саккас@@ 9
ятӑн 9
Юратнӑ 9
ҫсе 9
Тир 9
ҫанталӑка 9
Вӗсенӗн 9
вырса 9
вунтӑваттӑмӗш 9
хӑлхине 9
»; 9
мадиансене 9
ҫука 9
тӑнӑшӑн 9
администраци@@ 9
ҫҫа 9
пӗҫер 9
апатчен 9
сывла@@ 9
ӑнӑҫ@@ 9
тура 9
юлташсем 9
айккинче 9
ветеранӗ 9
Григорий 9
Паллӑ 9
калӑпӑр 9
хутшӑнакансем 9
Ревекка 9
ывӑлӗшӗн 9
шкулӗ 9
туха 9
Лар@@ 9
тишке@@ 9
хӑшӗсем 9
турачӗсем 9
Еглон 9
ҫӳрекенӗ 9
ствипе 9
гра@@ 9
Ӗнер 9
ников 9
бю@@ 9
лармалла 9
пӑрахӗ 9
енипе 9
килекен 9
чап 9
тӗпленнӗ 9
тахҫантанпах 9
скерӗн 9
вӑраха 9
наркӑмӑш@@ 9
халӑхӑ@@ 9
тусамччӗ 9
ялӗнчен 9
мина 9
сирп@@ 9
калатӑн 9
Ватӑ@@ 9
комисси@@ 9
аталанӑвӗ 9
тӑрӑхне 9
пӗлччӗр 9
ӑсемпе 9
сӗрмелле 9
пӗлӗтсем 9
умӑрта 9
юратат@@ 9
личчен 9
хӗрӗм 9
миравай 9
процен@@ 9
мерӗҫ 9
рана 9
халсӑр@@ 9
Унтанпа 9
2006 9
72 9
87 9
тупать 9
шантарнӑ 9
тӑшманусене 9
нене 9
латма 9
хӑратӑп 9
Ҫӑкӑр 9
тӑваткал 9
хӑш@@ 9
мӗшсем 9
обществӑна 9
илессине 9
сӑлтав 9
куҫӑн 9
Пӗрлехи 9
объектсем 9
вилет 9
шра 9
слӑ 9
66 9
ц 9
тырра 9
вӑкӑрсем 9
вод 9
кандида@@ 9
есшӗн 9
Рахиле 9
Станислав 9
туп 9
манна 9
аялта 9
тӗттӗм 9
савӑнӑҫ@@ 9
рефор@@ 9
тӗлте 9
юратнине 9
ҫӳрекенсем 9
кӑсене 9
кӗшӗк 9
тупсӑмне 9
пӑлтӑрӗ 9
ҫурчӗн 9
коман@@ 9
юрӑх@@ 9
прави@@ 9
пӗлни 9
усси 9
Юн 9
кӑларас 9
ирӗ@@ 9
ывӑн@@ 9
тӳленӗ 9
лӗхре 9
курӗ 9
кӑтартрӑм 9
ҫивӗч@@ 9
нор@@ 9
ирсӗрлет@@ 9
илетпӗр 9
хулисемпе 9
асӑрхан@@ 9
тӳпенелле 9
О 9
ӗҫлекен@@ 9
аталаннӑ 9
Кӑнтӑрла 9
урисене 9
пурнӑҫламалла 9
балл 9
лӑхӑма 9
тӑрӑшатпӑр 9
гуманитари 9
лаптӑ@@ 9
йышӑнаҫҫӗ 9
вылянӑ 9
хе 9
пурнӑҫӑн 9
тран@@ 9
манса 9
Авигея 9
хутшӑна@@ 9
телеканал 9
тӑнла@@ 9
ҫынсенӗн 9
япалисене 9
районӗ 9
ҫитерей@@ 9
чӗтресе 9
ҫӑма 9
архи@@ 9
кинчи 9
ҫулпуҫӗ 9
ҫырав 9
пуҫламӑш 9
тенкӗрен 9
ҫавӑрма 9
шипе 9
кӑтартрӗҫ 9
юрлама 9
кӑкшӑ@@ 9
субъекчӗсен 9
арӑс 9
министерствине 9
;»; 9
ирттерсе 9
лӑп@@ 9
чет 9
Вӗсенче 9
88 9
хакӑ@@ 9
пурнӑҫӗпе 9
паллаштарнӑ 9
Турӑшӑн 9
пӑрахрӗҫ 9
йыша 9
кунҫулӗ 9
каҫхи 9
Це@@ 9
хӗссе 9
ҫӗрӗсем 9
Валера 9
институтне 9
хутӑш@@ 9
чирӗпе 9
юлнисем 9
исене 9
йӑл@@ 9
слан@@ 9
Месопота@@ 9
пӑшӑрхантарать 9
татӑр 9
пултарулӑхӗпе 9
Хир@@ 9
пулакан 9
тертӗн 9
ӗҫлетпӗр 9
обществӑра 9
культурине 9
уксах@@ 9
кӑтартӑвӗсене 9
ҫырас 9
ӑрусерен 9
Утӑ 9
антарса 9
юррине 9
циллӗ 9
унталла 9
пуҫлаҫҫӗ 9
Олимпиад@@ 9
свидетель@@ 9
сведенисене 9
ултала@@ 9
тӑвассине 9
аласа 9
йӗрлесе 9
тӑшманӗсен 9
часрах 9
ҫӗнетсе 9
хӳме@@ 9
арӑмӑр 9
юратакан 9
стажне 9
хар 9
тӳремлӗхӗнче 9
пултарӗ 9
пулӑшнипе 9
вилӗме 9
ринчи 9
тӑрӑшаҫҫӗ 9
Акат@@ 9
ӳкӗтсене 9
кирлех 9
хӑнӑхнӑ 9
графи 9
ҫемьеллӗ 9
грамо@@ 9
мир@@ 9
сыхлан 9
лей@@ 9
юбилей@@ 9
выльӑхсем 9
хатӗрӗсен 9
пуянлӑхне 9
Ялсенче 9
Ӗҫе 9
меди@@ 9
зин 9
асап@@ 9
ӗрчесе 9
ҫип 9
эмел 9
пуррипе 9
аптратсан 9
ҫуршар 9
Пурнӑҫра 9
кунӗпех 9
Ахава 9
вӗлерет 9
тӑвакансен 9
усала 9
ҫирӗплетес 9
лӑхупа 9
ила 9
сӑмахӗнчен 9
килӗсене 9
пӑхатӑп 9
регистра@@ 9
юлччӑр 9
ҫӑлӑнайман 9
тив 9
йӑвал@@ 9
тытӑр 9
ӗлкӗр@@ 9
артисчӗсем 9
сасӑпа 9
мара 9
пӑлхат@@ 9
ракансен 9
пурӑнакансенчен 9
выльӑхсене 9
лесси 9
юлашкинчен 9
пӳлӗмсем 9
67 9
тӗнчине 9
телефон@@ 9
килӗшсе 9
Ай@@ 9
юмах@@ 9
чӗркуҫленсе 9
Ачасен 9
йӑри 9
пурӑнтӑмӑр 9
илччӗр 9
хуласемпе 9
Азот 9
калӑ@@ 9
техни@@ 9
Сыв@@ 9
ҫуралнине 9
кра@@ 9
пӗлтӗрхи 9
тӑлӑха 9
ферезе@@ 9
Сим 9
терес 9
меллеччӗ 9
экономикӑн 9
чӑнласах 9
урапа 9
Киров 9
тасалмалли 9
зра 9
ханаансен 9
сӗнеҫҫӗ 9
кӗнине 9
упӑшка 9
ламалли 9
бок@@ 9
конкурсӗнче 9
библиоте@@ 9
пӗлтерӗп 9
каях 9
лӗпӗр 9
Гражданин 9
улӑштармалли 9
договор@@ 9
«( 9
)» 9
Килӗш@@ 9
марӑмӑр 9
чинчен 9
пӗлтерчӗҫ 9
СССР 9
мӑшне 9
шер@@ 9
мелӗпе 9
прависемпе 9
шак 9
хӗлӗ 9
лене 9
рай 9
тӑвне 9
ть 9
Кру@@ 9
маф 9
касма 9
хуҫалӑха 9
1992 9
хыҫран 9
ҫиттӗр 9
процента 9
операци 9
аяла 9
ах@@ 9
ирӗл@@ 9
хӑтӑлмалли 9
тирӗ@@ 9
тӗппипех 9
заказ@@ 9
резер@@ 9
йӗркеленнӗ 9
Пенси 9
танпа 9
Кла@@ 9
пурӑна 9
ҫӑмӑлах 9
вӑййи 9
ҫӑварӗ 9
рӗр 9
таврӑнӑр 9
ҫыпӑҫ@@ 9
чӑрма@@ 9
81 9
сахалрах 9
аслашшӗ 9
вӑрманта 9
виллине 9
ҫырӑва 9
тусене 9
чӗтрен@@ 9
дан 9
тӑкӑн@@ 9
Вӑрман@@ 9
ӑма 9
йышлӑн 9
енте@@ 9
усене 9
пултарулӑхӗ 9
пӗтерӗп 9
пас 9
литерату@@ 9
лартрӑмӑр 9
Хӑйсем 9
ыталаса 9
хӑваратӑп 9
ҫӗрӗсене 9
ӗҫлетчӗ 9
тӑрӑвӗ 9
Ҫурчӗн 9
алӑх 9
ватпӑр 9
Гесем 9
мала@@ 9
хастарӗсем 9
Авессало@@ 9
Вефсамис 9
Атте@@ 9
карчӑ@@ 9
ҫӳрен 9
хӑйшӗн 9
пӗлекен@@ 9
парни@@ 9
произведени@@ 9
летчӗ 9
пӗтес 9
пиҫсе 9
палӑртмалли 9
хуҫалӑхне 9
тӗтӗркӗ@@ 9
тӗрекӗ 9
театр 9
чухӑн@@ 9
йӗрӗнчӗк 9
ҫирӗ@@ 9
Тавах 9
шӑтӑк@@ 9
тарӑн@@ 9
итлемесессӗн 9
Иудей@@ 9
пӳлӗмре 9
лли 9
лес 9
ӗҫлерӗм 9
хӑруш@@ 9
Гра@@ 9
вӗренӳре 9
выртсассӑн 9
ҫитерӗ 9
Тӑтӑш 9
пурнӑҫлассипе 9
ҫырми 9
палли 9
вӗр 9
аванрах 9
тракторпа 9
такине 9
кадрсем 9
ретне 9
Мих@@ 9
%@@ 9
шӑмачӗ 9
ссишӗн 9
тулашӗнчи 9
Председателӗн 9
ника@@ 9
хӑтарӗ 9
нимӗнпе 9
Кай@@ 9
Кармил 9
ҫпа 9
Астар@@ 9
ҫапа 9
центрӗсем 9
ӗмӗтленет 9
заяв@@ 9
тытӑнсан 9
ӗнче@@ 9
ӳн 9
Юрӑн 9
шин@@ 9
суйла@@ 9
класри 9
ярӑн@@ 9
хулкан@@ 9
израильсене 9
витӗҫ 9
илтсем 9
Йӗ@@ 9
калаҫатпӑр 9
ачаш@@ 9
ӑшӑмра 9
Кач@@ 9
ӳкӗтӗмсене 9
пӗчӗкҫӗ 9
Лийӑна 9
йӗркелӳ 9
кара 9
ҫикӗ 9
вӑрлӑхне 9
a@@ 9
мӗш@@ 9
риза 9
лӑскер 8
хра 8
улттӑ@@ 8
Вӑрнар 8
ова 8
Гор@@ 8
Гер@@ 8
ӑрӑвне 8
центр 8
итленӗ 8
тӑшманӑмсене 8
керменне 8
йӗркеллӗн 8
аппӑшӗ 8
хулне 8
илен@@ 8
Кӳке@@ 8
ҫри 8
вӗренекенсем 8
Нимӗнле 8
ҫнӗ 8
Иуде@@ 8
пра 8
тытман 8
транспорчӗ 8
филистим 8
тархаслама 8
ҫилл@@ 8
Кӗнеке 8
тусӗ 8
хупӑлчине 8
сли 8
кӗмелле 8
ӗҫтерсе 8
ҫӗнтерме 8
рессине 8
ҫутҫанталӑк 8
пӑхрӗ 8
памаҫҫӗ 8
килтӗн 8
садне 8
пылак 8
преступлени@@ 8
хӗле 8
ратӑн 8
илтӗнет 8
чуралӑх 8
кермен 8
ковӑн 8
тусӑ@@ 8
Юрӗ 8
Кӑштах 8
предприятие 8
вӑхӑтлӑх 8
ланиччен 8
сле@@ 8
каҫпа 8
планнӑ 8
ари 8
патша@@ 8
тармашкӑн 8
Мамре 8
тӗнлӗ 8
хуҫу 8
килмесессӗн 8
Сисара 8
макӑ@@ 8
курӑнмасть 8
ураписем 8
хӗпӗртесе 8
смоква 8
Ман@@ 8
тӑванӑрсене 8
мерӗр 8
еймӗн 8
маха 8
ерт@@ 8
Тун@@ 8
кӗре 8
ӗҫченӗсене 8
жи@@ 8
Кӗҫӗн 8
тӑратать 8
пыл@@ 8
ҫурмалла 8
касӑ@@ 8
физи@@ 8
ятӗнчен 8
таттӑмӑр 8
пушхирӗнчен 8
рие 8
юрататтӑм 8
Гава@@ 8
хурах 8
инчи 8
сӑввисене 8
Ионафанпа 8
чысларӗҫ 8
2020 8
чӑтма 8
хуҫӑ@@ 8
Ыт@@ 8
урапине 8
Уява 8
Турӑпа 8
килӗн 8
стипен@@ 8
илнисем 8
тутар 8
конкурсне 8
ҫурҫӗрелле 8
Иезавель 8
шарӑн 8
Ылтӑн 8
турта 8
Ҫавӑнпах 8
аморрейсем 8
кӗрӗп 8
Ҫичӗ 8
паратчӗ 8
сунатпӑр 8
капит@@ 8
тӳлеҫҫӗ 8
Таня 8
йывӑртарах 8
йӗп@@ 8
уҫҫ@@ 8
Гаал 8
лаптӑкӗсене 8
ирттересси 8
патш@@ 8
Д 8
вырӑнӗнчен 8
тӑпрана 8
халӑхсенчен 8
Михайлович 8
кулленхи 8
асла@@ 8
сулӑн@@ 8
ярӑ@@ 8
енисем 8
лап@@ 8
чисемпе 8
сӑмахӗ@@ 8
тасаттӑр 8
Хефер 8
класа 8
пуҫӗпе 8
кӗрӗ 8
Майӑн 8
пунктӑн 8
механи@@ 8
нӑҫ@@ 8
шана 8
Ча@@ 8
Алексеевич 8
Дмитри@@ 8
ӳкерме 8
пӗлместӗр 8
Хӳ@@ 8
тӑшмансем 8
хӑйсемех 8
ачӑрсем 8
пасем 8
аҫӑ@@ 8
эрне@@ 8
япали 8
ӗҫлесси 8
парнепелен 8
тымарӗ 8
шала 8
тару 8
тупӑклӑха 8
пациен@@ 8
пӗлӗвӗ 8
ҫитертӗм 8
обществӑ@@ 8
предприниматель 8
иевусейсене 8
иевусейсем 8
ҫынни@@ 8
ярӗҫ 8
ламасть 8
терӗп 8
Тавра@@ 8
Спектак@@ 8
эле@@ 8
истори 8
тӑмпа 8
Девора 8
хушать 8
ӗҫшӗн 8
аптӑра@@ 8
Хӑшӗ 8
йӗрӗхӗсене 8
шо@@ 8
усрава 8
ҫырлана 8
газ 8
участо@@ 8
Александровна 8
паллашрӑмӑр 8
юпи@@ 8
культурӑн 8
Вӑтам 8
ӑнах 8
кӗве 8
ҫӑлӑн@@ 8
X@@ 8
аммонсене 8
канашӗ 8
филистима 8
пӑрӑнчӗ 8
лӗм 8
юлмиччен 8
выҫӑпа 8
рекен 8
пӗтӗҫ 8
сех@@ 8
там@@ 8
лемелли 8
тӗтӗрнӗ 8
сил@@ 8
пулатпӑр 8
ярасшӑн 8
Игорь 8
салам 8
тусӑм 8
урай@@ 8
Иофор 8
стика 8
уйӑрӑлнӑ 8
Бихри 8
Тинех 8
конкурсра 8
йӑп 8
шал 8
вулавӑш 8
левитсен 8
Амми@@ 8
шаддай 8
Хӗве@@ 8
юхать 8
ҫулсен 8
никсен 8
ӑсталӑх 8
опыт 8
ҫылӑхӗшӗн 8
ҫырӑнса 8
тек@@ 8
Аз@@ 8
священникӑн 8
тавралӑха 8
улшӑнса 8
Сывӑ 8
илтерчӗ 8
Борис 8
куҫӗпе 8
шӑкӑл 8
Нумайӑшӗ 8
Мари 8
этемӗн 8
хӗве@@ 8
проектсем 8
Куҫ@@ 8
эп 8
трен@@ 8
хус@@ 8
чарша@@ 8
аван@@ 8
поселенийӗн 8
сти 8
кӗлтӑвӑр 8
патӑмран 8
ӗрет 8
пуҫларӑмӑр 8
ашшӗсен 8
Дивон 8
хӑварӗ 8
Цо@@ 8
кӑра@@ 8
тымар 8
сферӑра 8
хутлӑхне 8
процентне 8
Ионафанӑн 8
ӗҫтеш@@ 8
ҫыннуна 8
чӗк 8
шкулпа 8
пурнӑҫла@@ 8
лог 8
калатӑр 8
Пас@@ 8
шӗвекӗ 8
килмерӗ 8
Авраа@@ 8
ниепле 8
йӗплӗ 8
транспорчӗпе 8
аттеме 8
нахах 8
Елиав 8
Аминадав 8
ыт 8
аталану 8
пулмашкӑн 8
Ӗнен@@ 8
хӗрарӑмӑн 8
прокура@@ 8
Ыттисем 8
ата@@ 8
ирхи 8
ӗмӗрӗнче 8
хӑю@@ 8
хырса 8
инновациллӗ 8
Николаевич 8
искусствӑ@@ 8
дея@@ 8
татӑлнӑ 8
аманнӑ 8
йӗркелекен 8
теприсем 8
кӗтеҫҫӗ 8
Аҫу 8
хуҫӑл@@ 8
искус@@ 8
ланакан 8
айлӑмӗнче 8
Далида 8
районӗнчен 8
шкулти 8
ҫӳрен@@ 8
уйӑха 8
Хӗрӗ 8
Калинин 8
пӗтерӗ 8
кӗнекине 8
районсенче 8
институтӗнче 8
йӗркелеҫҫӗ 8
Каин 8
налук@@ 8
чӗллӗ 8
пӑрҫа 8
вилме 8
канмалли 8
атех 8
ыйтӑвне 8
ҫусем 8
ырӑлӑху 8
сӑну 8
тейӗпӗр 8
Маргарита 8
Герман@@ 8
Кӑш@@ 8
лемесӗр 8
тмен 8
чӑсене 8
объективлӑ 8
водитель@@ 8
ьев 8
мер 8
хӑрат@@ 8
кавар 8
пурӑнни 8
ӑнланма 8
ҫурри 8
бизнеса 8
86 8
интерессен 8
комис@@ 8
интересӗсем 8
при 8
ҫума 8
якатса 8
лес@@ 8
кӗртмелли 8
йышӗн 8
тураса 8
тултар 8
обществи 8
леҫсе 8
еткерлӗхне 8
ӳстерес 8
тассипе 8
сӑй@@ 8
син@@ 8
йывӑҫран 8
Прокуратура 8
правилисене 8
тупӑклӑх 8
редак@@ 8
тӑрӑшнипе 8
фон 8
лӑма 8
раштавӑн 8
тупаҫҫӗ 8
91 8
№) 8
указӗпе 8
пултаратӑп 8
ҫулпуҫ@@ 8
евӗрлӗ@@ 8
тӗпчев@@ 8
хулӑ@@ 8
ывӑтнӑ 8
шкулсене 8
кор@@ 8
пулнӑшӑн 8
шӗвек 8
Ангел 8
юрӑсене 8
паллисем 8
ҫийӗнчи 8
хыҫал 8
Чӗл@@ 8
услам 8
Сигона 8
кашнийӗн 8
ҫитӗнекен 8
куратпӑр 8
каяшсене 8
Кен@@ 8
Пулӑ@@ 8
хастарлӑн 8
Бо@@ 8
еви@@ 8
тӗслӗхсем 8
куратӑн 8
пӑлхав@@ 8
ялавӗ 8
семпех 8
ума 8
шӑллӗне 8
Адам 8
тӑхӑрҫӗр 8
тапхӑрӗнче 8
хисепӗ 8
шывӗн 8
Маттур 8
хисе@@ 8
ҫурӑм 8
тӗлӗнмелли 8
пӑхӑнмалла 8
хӳтӗлесе 8
ранпа 8
Х 8
енлӗн 8
предпринимательсем 8
предприятисен 8
тӗкӗнмен 8
цил@@ 8
Ваал@@ 8
тӑшмансен 8
эко@@ 8
ЮТВ 8
Крым 8
ҫурхи 8
пӗтерчӗ 8
ҫӳреттӗмӗр 8
килмелле 8
тупанӗ 8
Яковле@@ 8
хӗсметре 8
хаклама 8
пӗрре@@ 8
хуҫалӑхсем 8
Санран 8
агроно@@ 8
атлетика 8
путеккине 8
арчи@@ 8
служб@@ 8
вырт 8
пӗрчӗ 8
хутшӑнман 8
Филипп 8
хресчен 8
мерӑ@@ 8
кӑларасси 8
ӗлкӗрей@@ 8
савӑнтарчӗ 8
сӑнӗ 8
Вырӑ@@ 8
ҫырнӑччӗ 8
Пушкӑртстан 8
Лазар@@ 8
шыҫӑ 8
Кӗркунне 8
лагер@@ 8
мур 8
урӑххи 8
мла 8
Ҫакнашкал 8
кук@@ 8
айӑпӗ 8
анлӑн 8
программи 8
саманта 8
ҫамрӑка 8
таврӑнтӑм 8
вӑран@@ 8
чӑт@@ 8
шӑнкӑравласа 8
Иевосфей 8
конгресӗн 8
Николаев@@ 8
грамм 8
умӗнхи 8
алсем 8
тӑватпӑр 8
интер@@ 8
ҫыхӑнӑ@@ 8
кунталла 8
калӑпӑшлӑ 8
ӗмӗтленнӗ 8
Комисси 8
юратӑр 8
халӑ@@ 8
хӑвартӑр 8
Валака 8
ыйтупа 8
экзамен@@ 8
умӑртан 8
ратӑр 8
ҫӗршывӗ 8
менни 8
шӑва@@ 8
пӗлӗҫ 8
раш@@ 8
алӑх@@ 8
тӑкакӗсен 8
Аха@@ 8
тӳлев@@ 8
Диплом 8
наципе 8
автономийӗн 8
грам@@ 8
шывӗнчен 8
ҫырмаран 8
тр@@ 8
лартӑр 8
вах 8
хит 8
пӑрахӑр 8
илемӗпе 8
вӗлерес 8
специалисчӗсем 8
ҫимӗҫӗсене 8
хӗррипе 8
Каинан 8
туризм 8
патшисем 8
никӗ 8
Тинӗс 8
манман 8
сӑмахна 8
типӗтнӗ 8
ашаксем 8
курӑкӗн 8
хаҫатӑн 8
вӗрен 8
асту 8
хули@@ 8
меслет 8
рем 8
васкавлӑн 8
Ҫӗ@@ 8
кандидат@@ 8
пӗтет 8
Пред@@ 8
халлӗн 8
кулли 8
Ачасемпе 8
пуҫна 8
иде@@ 8
иккӗн 8
юпа@@ 8
калӑп@@ 8
патшанӑн 8
тӑрсах 8
рев@@ 8
завод 8
танӑ 8
заявлени 8
ьевна 8
льсем 8
стена 8
Рав@@ 8
саламларӗҫ 8
юлӗҫ 8
тенӗрен 8
пайӑр@@ 8
пӑшӑрханса 8
Егорович 8
арӑму@@ 8
йӗрӗх@@ 8
сий 8
продукци 8
Филиппо@@ 8
пӗлсех 8
мӗрсем 8
граждансем 8
сӑм@@ 8
Ульянов 8
ҫӑр@@ 8
хӑваланӑ 8
тиччен 8
тарӑр 8
Сӑмах@@ 8
аякран 8
тивӗҫтернӗ 8
чысларӗ 8
темле 8
Европа 8
ско@@ 8
пултарулӑхра 8
патшалӑхӗн 8
производствин 8
эстрада 8
кӑрӗ 8
Ав 8
йӑнӑш@@ 8
Ҫуркунне 8
палӑртатӑп 8
дер@@ 8
Турӑ@@ 8
вулакансен 8
хаҫата 8
программӑпа 8
Эк@@ 8
ница 8
телекан@@ 8
ҫех 8
савӑнӑҫлӑн 8
пилӗкне 8
зар@@ 8
филологи 8
арӑмӗ@@ 8
сӑмахӑмсене 8
чпа 8
псем 8
лӑхӗшӗн 8
авари@@ 8
мӑшкӑ@@ 8
чатӑ@@ 8
мӗре 8
ави@@ 8
шыраҫҫӗ 8
S@@ 8
латтӑм 8
пичче 8
чатӑрӗпе 8
курнӑҫ@@ 8
Ут@@ 8
куҫма 8
историне 8
ӑмӑртусене 8
каламаллине 8
маш@@ 8
шухӑшлама 8
меннипе 8
шарла@@ 8
сарӑлнӑ 8
форма@@ 8
калӑп 8
сӗнӳсем 8
ансат@@ 8
вин@@ 8
Виҫҫ@@ 8
какӑрпа 8
тапӑр@@ 8
телей@@ 8
курӑн 8
кел 8
васкавлӑ 8
тытӑнтӑм 8
Манасси@@ 8
тӑшманӗ 8
пунктне 8
автономлӑ 8
унитарлӑ 8
учрежденийӗн 8
ашшӗсем 8
Серге@@ 8
саламланӑ 8
прав@@ 8
ҫуккипе 8
сӗтӗрсе 8
ҫыран@@ 8
Ваала 8
чатӑрӗсене 8
варринчи 8
дизай@@ 8
эрех@@ 8
аҫӑр 8
ҫитерсессӗн 8
Тури 8
кассинче 8
Давир 8
аф@@ 8
Парне 8
Раҫҫей@@ 8
должноҫне 8
Яланах 8
Тӑватӑ 8
ушкӑна 8
бюджечӗ 8
пытармарӗ 8
Галгал 8
ывӑлӑрсем 8
процентпа 8
Сен@@ 8
Иерусалимран 8
чипер 8
ссене 8
вӗлерччӗр 8
Хулара 8
питӗрсе 8
Нево 8
Клара 8
сассипе 8
ҫутта 8
тӑрантарса 8
маршрутсене 8
Аран 8
кӗтеслӗ 8
тессине 8
юмӑ@@ 8
ҫӑлӑнӑҫ 8
ҫитер 8
ывӑлусемпе 8
тӑвар@@ 8
кӑларӑп 8
коммуни@@ 8
лупа 8
ҫӗрӗре 8
тайӑл@@ 8
арта 8
витамин@@ 8
кӑвакарчӑн 8
кайӑксенчен 8
тӑвакан@@ 8
Лавана 8
ӑмӑрту 8
куракансен 8
центнер 8
электротехника 8
сыр@@ 8
памашкӑн 8
му 8
Витали 8
Иок@@ 8
пӑнчӑ 8
ҫемьесем 8
теплиц@@ 8
тапа 8
тупас 8
ахӑртнех 8
ҫырмара 8
нач@@ 8
текст@@ 8
савӑнӑ@@ 8
Тутарстанра 8
нӑҫемӗн 8
?.. 8
тӑвӑ@@ 8
тма 8
чее@@ 8
ҫӗнӗ@@ 8
Ҫӗмӗрле 8
ленӗшӗн 8
ҫыннинчен 8
кӗтретсем 8
аванах 8
евӑн 8
кӗтӗр 8
пулӑшӑвӗн 8
льте 8
варне 8
адвокат@@ 8
Малтанах 8
сӗсемпе 8
вӗрентӳ 8
за 8
тарсан 8
лем 8
сипленнӗ 8
тус 8
Иудӑпа 8
тӑхӑнтарт 8
кӗмӗ@@ 8
Фу@@ 8
анӑҫалла 8
Чул@@ 8
ятӑмӑр 8
Семенович 8
чысланӑ 8
хаҫачӗ 8
ҫӳр@@ 8
диплом 8
нисемшӗн 8
Ванеяна 8
Гагарин 8
Колхо@@ 8
виткӗ@@ 8
шутлан@@ 8
ӗненсе 8
ҫӗнтерӳ 8
япала@@ 8
хурлан@@ 8
пулӑша@@ 8
рав 8
тӗлӗнсе 8
малашлӑх 8
канӑн 8
ҫӗклеме 8
ыйтма 8
ҫӳремен 8
Сал@@ 8
Ситтим 8
сарлакӑ@@ 8
Мат@@ 8
лесен 8
лӑк 8
Пасар 8
нихӑш 8
иртеҫҫӗ 8
шухӑшӗ 8
ҫанталӑ@@ 8
ҫулҫӳрев@@ 8
пӗтӗмле@@ 8
2004 8
Амессая 8
летӗр 8
куҫупа 8
ник@@ 8
Иванович 8
лӑхӑм 8
аллунта 8
скерӗ 8
куракансем 8
тумтирӗсене 8
Вӗ@@ 8
паллӑсемпе 8
тирне 8
плӑ 8
тулаш@@ 8
юридически 8
таварсем 8
ялӗн 8
хӗртӗн@@ 8
Октябре 8
ЧНК 8
авлан@@ 8
Ефра@@ 8
мухтӑр 8
тӑл@@ 8
Мааха 8
тухтӑр@@ 8
ҫарамас 8
мон 8
ҫырусем 8
корпусӗ 8
Ло@@ 8
производствине 8
мӑшкӑл 8
ҫӗршывран 8
вырӑнна 8
хатӗрленсе 8
чурин 8
вырнӑ 8
шисене 8
комӗн 8
килограмм 8
ПР 8
Христоса 8
макӑрса 8
парат@@ 8
Юра@@ 8
паллӑсем 8
ҫҫех 8
хывӑ@@ 8
чухлех 8
Аттепе 8
Ҫирӗп 8
хӑвӑ@@ 8
систерсе 8
юлни 8
лас@@ 8
Вас@@ 8
Асанне 8
кӑлартӑр 8
таракансем 8
акчӗсен 8
университетӗнче 8
Каде@@ 8
экономикин 8
Ҫӳлхуҫапа 8
чӳлме@@ 8
автобу@@ 8
виҫҫӗшӗ 8
ӗпӗр 8
Ог 8
пӗрлешӗ@@ 8
организацийӗсен 8
шӗл@@ 8
ланӑ@@ 8
йӑлӑннӑ 8
Тукай 8
Те 8
гимнази@@ 8
кӗнчен 8
кӑкӑр@@ 8
выльӑху 8
тухрӑмӑр 8
хурӑп 8
вунултӑ 8
пурӑнӑҫа 8
Мелхола 8
тӑршшӗпе 8
полк 8
n@@ 8
йӑваш@@ 8
това 8
асӑрхаса 8
кайӑкне 8
ҫаплипех 8
цер 8
хисепе 8
темшӗн 8
йӑхӑн 8
пулта@@ 7
хӳхӗм 7
ьял 7
ӗҫлерӗ 7
Нихӑҫан 7
шупа 7
хими 7
сӗтелӗ 7
вӑкӑрпа 7
вӑкӑ@@ 7
пӗвер 7
ӑмӑ@@ 7
сӗткенне 7
Оля 7
Сӑн@@ 7
стер@@ 7
Ахитув 7
Патшана 7
пӗтмест 7
сах@@ 7
Трак 7
пач 7
ҫӑлтӑрсем 7
ймен 7
тунисене 7
сӑнӑпа 7
Мер@@ 7
ӑнлантарчӗ 7
пуҫлӑхсем 7
чӑ 7
ради@@ 7
ҫемйи 7
кӗҫӗннине 7
инӑна 7
Пре@@ 7
шуйттан 7
Яш 7
вӑрлӑхна 7
чунӗпе 7
чин@@ 7
Ҫулла 7
ачасемшӗн 7
нау@@ 7
чирӗсенчен 7
ирга 7
Яла 7
пухӑнса 7
От@@ 7
хӑрушсӑрлӑхне 7
тивӗҫтермелли 7
ачам 7
пӗҫҫи 7
хапхин 7
Ӑн@@ 7
Ливан@@ 7
сулӑ@@ 7
тинӗс@@ 7
ҫитерӗп 7
чарай@@ 7
чечекӗ 7
абзацне 7
эрехне 7
чарма 7
Афек 7
Лота 7
Июнӗн 7
ларӑвӗнче 7
лайӑхлатас 7
Хет 7
кӑларӑм 7
ӑшӗнчи 7
0 7
командӑна 7
предмет 7
олимпиа@@ 7
пӑрӑн 7
ӳлӗ@@ 7
тур 7
иккӗмӗшӗ 7
Дантес 7
ҫынну@@ 7
кӗсен@@ 7
чӗрӳне 7
сӗрхе 7
черет@@ 7
тӗслӗхрен 7
ҫитерчӗ 7
нӗҫемӗн 7
асран 7
аллӑмра 7
квалифика@@ 7
функциллӗ 7
Анат 7
Чура@@ 7
лартать 7
ҫиеле 7
чыс@@ 7
айлӑмӗ 7
депутачӗсем 7
Израильшӗн 7
ден@@ 7
учрежденийӗсем 7
Вениаминсен 7
Кино 7
туртӑн@@ 7
хыҫал@@ 7
подряд@@ 7
Завод 7
усранӑ 7
ҫан@@ 7
Вилӗмсӗр 7
предприятисемпе 7
произведенийӗсене 7
виссон 7
Пуху 7
Салпаад 7
Маш@@ 7
фараонпа 7
кине@@ 7
Иарим 7
ҫӑлӗ 7
мим 7
хӗпе 7
Тӑварлӑ 7
Иорданӑн 7
тивӗҫлине 7
хӑтӑлса 7
198@@ 7
тӗви@@ 7
пыра 7
милици 7
евӑна 7
ӗҫлемелли 7
анма 7
Иерова@@ 7
алӑн 7
хунтан 7
ҫӗршӗн 7
Шкул@@ 7
нать 7
Роза 7
Егоров 7
специали@@ 7
Атлашевский 7
СХК 7
паратчӗҫ 7
ҫӗҫӗ 7
кӑнтӑрти 7
вӑйсӑр 7
ырхан 7
таврашӗ 7
куҫать 7
вырӑнпа 7
тӗрленӗ 7
алӑхӑм 7
механизатор 7
чула 7
шанчӑ@@ 7
Хапха 7
хав@@ 7
пӑрахман 7
стратег@@ 7
наукисен 7
вилсен 7
тапхӑрӗ 7
пулнӑскер 7
Иеровоамӑн 7
калатчӗ 7
сыхӑ 7
Ҫулталӑ@@ 7
чӗрӗл@@ 7
сад 7
лӑхӗсене 7
пӑхсан 7
курмаҫҫӗ 7
васкасах 7
иртмелле 7
рӑ 7
тараканни 7
командирӗ 7
пуҫлӑхӗпе 7
саманара 7
пӗтӗ@@ 7
памастӑп 7
лӑхӑн 7
хӗрарӑмсене 7
поликли@@ 7
пӗлнине 7
шутран 7
чуста 7
;@@ 7
ҫӗнетес 7
тӑсмалла 7
татма 7
уйӗ 7
алтса 7
Маг@@ 7
сер 7
тытӑма 7
Пултарулӑх 7
Хӑвӑр@@ 7
Унра 7
районсен 7
хушаҫҫӗ 7
тӗре@@ 7
тимӗрҫӗ 7
анпа 7
ттӑн 7
Авгу@@ 7
Валери@@ 7
таратӑн 7
жан@@ 7
хӑвӑнпа 7
Фавор 7
пепке@@ 7
пулмасан 7
шӳр@@ 7
сӗте 7
Пӗрисем 7
асӑрхарӑм 7
суйлавлӑ 7
тапӑрта 7
пуҫса 7
аппӑшӗпе 7
аминь 7
хуран@@ 7
мол 7
тӑнипе 7
ресур@@ 7
хӑвалама 7
сехӗрлентерсе 7
ҫавӑрӑп 7
пӗтӗмлетӗвӗсем 7
проекчӗ 7
Пултар@@ 7
преми 7
кӗҫӗр 7
тӗслӗхре 7
каламалли 7
чӗрчуна 7
Ашшӗне 7
Усал 7
тӳрӗ@@ 7
тӳре@@ 7
районсенчи 7
тӳлетӗр 7
куккуру@@ 7
вилмен 7
Киле 7
Йӳ@@ 7
хутшӑ@@ 7
ӳпне 7
йӗрӗ@@ 7
ӑссӑр 7
сив@@ 7
чирпе 7
калта 7
ППЭ 7
Амалика 7
кӑшкӑрнӑ 7
чари 7
сигн@@ 7
атӑ 7
чатӑрӗнчи 7
аллу@@ 7
Израильсем 7
Иордан@@ 7
До@@ 7
йышпа 7
тинӗ@@ 7
хӗм@@ 7
Ҫурчӗ 7
калам 7
профессие 7
Ялан 7
леҫҫӗ 7
кӑкӗ 7
ишӗлекен 7
Мин@@ 7
Ватӑ 7
Белар@@ 7
ҫук@@ 7
кисемпе 7
рахчӗ 7
нисемпе 7
кӗлетке 7
Реги@@ 7
ачусене 7
вӗҫленсен 7
Кул@@ 7
кӑларӑмсем 7
ӳкере@@ 7
пукан@@ 7
рев 7
Шал@@ 7
Андреева 7
ьев@@ 7
яс 7
Или@@ 7
Сцена 7
асанне 7
хампа 7
Ҫӗрулми 7
конкуренци 7
продукцие 7
вӗлерӗр 7
купи 7
Саншӑн 7
кӳре 7
хуҫам 7
пунктра 7
хуҫаланать 7
Тас@@ 7
мел 7
йӑлӑнса 7
хуҫин 7
84 7
го 7
пикеннӗ 7
ӗмӗшӗ 7
таврара 7
пурӑнӑҫне 7
фер 7
кӗрешӗ@@ 7
III 7
кӗрӳшӗ 7
ӑстайлӑ 7
пӳрне@@ 7
Урияна 7
сӗнетӗп 7
курмалли 7
сарта 7
пайӑр 7
ҫитменнипе 7
Ик@@ 7
тытӑнчӗ 7
вӗҫер@@ 7
килтен 7
уйрӑмӗнче 7
ссӑн 7
тантӑ@@ 7
хуҫана 7
хӑрса 7
хӑрушсӑрлӑх 7
тивӗҫтереҫҫӗ 7
тӗрӗсех 7
абзацсем 7
тайӑлнӑ 7
кӗтӗвӗ 7
кӗсенчен 7
дар 7
вӗлересшӗн 7
тисенчен 7
кӗвӗпе 7
Никитин 7
Юрату 7
Израиль@@ 7
Вил@@ 7
сыхла@@ 7
сферисенче 7
мӗллӗ 7
субсиди 7
килӗшет 7
хӑвармалли 7
Чӗмпӗр 7
киленӗҫӗ 7
ҫӑлкуҫ 7
укҫа@@ 7
тӳл@@ 7
уйӑхӗ 7
Тӑрӑш@@ 7
торие 7
Кив@@ 7
рон@@ 7
пӗлтерес 7
техникӑна 7
сасартӑк 7
кур 7
кафед@@ 7
кӗрешме 7
служба 7
историе 7
тӑванӑм 7
тӑвӗнчен 7
евӗрлӗскер 7
Тӗрӗ@@ 7
хакларӗҫ 7
курӑксем 7
96 7
врач 7
Ӗмӗ@@ 7
ӳте 7
Тӑваттӑмӗш 7
Р 7
аммонсем 7
ӑнласа 7
ҫаврӑн 7
Ам@@ 7
чурана 7
тармасть 7
ӗҫлес 7
Малаш@@ 7
путев@@ 7
амантнӑ 7
хыттӑн 7
хӑрушла 7
шуй@@ 7
улшӑну 7
Маларах 7
ам@@ 7
комиссийӗ 7
1999 7
2003 7
хирӗҫӗвӗ 7
хирӗҫӗве 7
саккунпа 7
евна 7
урок 7
организма 7
картлашка 7
600 7
Предприним@@ 7
ьне 7
тивӗҫтерес@@ 7
лӑхсене 7
пӗрлӗхӗ@@ 7
кӑтартни 7
кенӗ 7
Карл 7
мати@@ 7
чухне@@ 7
йӑхташ@@ 7
хуни 7
вапа 7
тӑратчӗ 7
хӑма@@ 7
куҫӑр 7
пӑрахрӑм 7
ӗненекенсем 7
граждан 7
хӑшпӗр 7
Анатольевич 7
кӗвӗ@@ 7
ӗҫӗшӗн 7
ӗҫлемест 7
священникӗсене 7
Ур@@ 7
ел 7
шта@@ 7
Риммон 7
кон 7
рӑш 7
мп 7
тарават@@ 7
пиллӗ 7
статйине 7
Галаадӑн 7
ком 7
Шупашкар@@ 7
академик 7
нӑҫ 7
карӑ@@ 7
ҫекӗлӗсемпе 7
Шыва 7
хӗне 7
Ютран 7
спортсменӗсем 7
хирӗҫле 7
уйӑрӑ@@ 7
ташласа 7
ӗнентер@@ 7
вӑййисем 7
тӑванна 7
ыйту@@ 7
ӗҫлетӗп 7
Чӳре@@ 7
мун@@ 7
сурӑхӗсене 7
йышӗнчен 7
ушкӑнри 7
рабо@@ 7
тӗлӗнтерчӗ 7
всен 7
ҫапать 7
Самари 7
ирттерни 7
мене 7
муниципалитет@@ 7
страниц@@ 7
иудейсене 7
вари 7
ваттисем 7
Эрне@@ 7
реест@@ 7
сор@@ 7
аташса 7
Астӑватӑп 7
тӗлпулӑ@@ 7
Максимов 7
пӗл 7
Ӑшӑ 7
тупӑклӑхне 7
наз@@ 7
этем@@ 7
ҫӑтса 7
хытса 7
докуменчӗсене 7
ҫаврӑнӑшне 7
Ассур 7
пиччӗшӗсем 7
Ҫынсен 7
Германи 7
пӗсем 7
тӑратчӗҫ 7
тӑнӑҫлӑ 7
илтмелле 7
Кӳршӗ 7
чемпионӗ 7
чавса 7
хапӑл@@ 7
вӗренӗве 7
кӗтӗмӗр 7
Иеффая 7
юланут@@ 7
Витали@@ 7
ӗш 7
тӑрӑша@@ 7
агрофир@@ 7
чӑмӑрт@@ 7
Герар 7
Саррӑна 7
яла@@ 7
1962 7
тӑшманна 7
вӑйпитти 7
дӑн 7
арҫынӗ 7
аталанать 7
Чече@@ 7
пӗтме 7
литературине 7
вӗрентетчӗ 7
¦¦ 7
паллаштарма 7
хушу@@ 7
латас 7
ҫыхӑну@@ 7
шанӑҫ 7
ланчӗҫ 7
Ивано@@ 7
Сува 7
аркатнӑ 7
кашнин 7
Сӗнтӗрвӑрри 7
Ура 7
Патшалӑха 7
Енох 7
пукан 7
пуҫлӑхӗсен 7
проспек@@ 7
Рама 7
фе 7
ца 7
Фара@@ 7
чирне 7
шурал@@ 7
хӗҫрен 7
хӑварӑп 7
халичченех 7
алл@@ 7
ҫӑмар@@ 7
тӑкӗ 7
Санпа 7
таврӑнчӗ 7
ӑнланмалла 7
уҫрӑмӑр 7
реестрне 7
тӑмран 7
савӑнӑҫпа 7
ҫурла 7
Ытла 7
артист@@ 7
тка 7
Беероф 7
пултару@@ 7
туррисем 7
пӑс 7
тӗрӗссине 7
тӑкӑнса 7
куҫкӗрет 7
Махир 7
кӑшкӑра 7
Тав@@ 7
мон@@ 7
упӑшкин 7
тупӑшӗсем 7
обязательствисем 7
йӑлӑ 7
Хӑйсене 7
ефодпа 7
кӑкӑрлӑх 7
ыйтаҫҫӗ 7
Асаил 7
иртни 7
ист 7
Фран@@ 7
апатне 7
хуҫалӑхӑн 7
пере@@ 7
тарассипе 7
пӗррехинче 7
писатель@@ 7
йӗркелет 7
тӳссе 7
усен 7
кастарман 7
чӗтре@@ 7
хис@@ 7
уйра 7
Кеиле 7
вӑрлӑха 7
хуҫалӑхсенче 7
лакансен 7
урамри 7
Ҫӗнтерӳ@@ 7
тинкер@@ 7
пӗрлештерет 7
виле@@ 7
йӗрӗхсем 7
кӗлетке@@ 7
юпасем 7
иртмен 7
фак@@ 7
150 7
станра 7
пӑснӑ 7
айӑ@@ 7
Прио@@ 7
Ана 7
тӗрӗслеме 7
Аҫӑр 7
витти 7
Анатри 7
вӑраннӑ 7
Вирсавияна 7
йӑпат@@ 7
Раҫҫее 7
сме@@ 7
хра@@ 7
ӳкӗт 7
ҫыхӑ 7
хурӑн 7
тираж@@ 7
Ҫитес 7
Ҫӑмӑл 7
аров 7
ввине 7
йывӑҫӗн 7
ҫынсемшӗн 7
тытӑнать 7
ссем 7
Мӑшӑрӗ 7
мӑрпа 7
Ароер 7
тӳремлӗхри 7
усса 7
лармасть 7
какай@@ 7
ашӗпе 7
вӗчӗрхен@@ 7
паллаштарчӗҫ 7
паллаштар@@ 7
вӑрҫӑран 7
Каина 7
ҫӗклем 7
ятран 7
ӑпӑр 7
кӑларчӗ 7
ӗрсем 7
театрӗн 7
филистимсемпе 7
электронлӑ 7
Саша 7
пов 7
ализ@@ 7
Елеазар@@ 7
ор 7
шухӑшла@@ 7
лӑхӗнче 7
яччӑр 7
Ирӗклӗх 7
Эльза 7
несӗ@@ 7
театра 7
хучӗҫ 7
ҫӳрӗ 7
евич 7
явӑҫтармалла 7
ЧП@@ 7
пӗлмесӗр 7
Анге@@ 7
скин 7
ятӑма 7
ӳкрӗҫ 7
халалне 7
вӑш 7
туслӑх 7
чуптунӑ 7
пӑрахӑҫланӑ 7
шӑрҫ@@ 7
мах@@ 7
витӗн@@ 7
вӑнса 7
чӑх 7
тӑраканӗ 7
ӳсӗмне 7
ҫиккер 7
вӗрентрӗ 7
кӑмӑлу 7
марри 7
дин@@ 7
Бар@@ 7
кунҫулу 7
ҫитӗнӳсене 7
центрӗнче 7
пурӑнтӑм 7
лавкка@@ 7
пахчара 7
паратӑн 7
пытармасӑр 7
ҫӗнтерес 7
ҫыхат@@ 7
юка 7
Иафет 7
йышӑнса 7
тай 7
пуласлӑхӗ 7
ттӗм 7
пурлӑхпа 7
Черкесов 7
ген@@ 7
Кирлӗ 7
хыпарланӑ 7
ӗҫлекенсене 7
револю@@ 7
Хура@@ 7
Коррупципе 7
управ@@ 7
аслисене 7
граждан@@ 7
инвестици@@ 7
тори@@ 7
ев@@ 7
s@@ 7
u@@ 7
резиден@@ 7
канса 7
ӗмӗтленме 7
Ананьевна 7
Пултаракан 7
сук@@ 7
больницӑра 7
хупӑлчи 7
херувим 7
тисемпе 7
Литература 7
кӑлартӑм 7
ярай@@ 7
Ҫӳлхуҫа@@ 7
уйӑхрисенчен 7
аслӑраххисене 7
Михей 7
шухӑшлаҫҫӗ 7
Рехов 7
тене 7
Самарире 7
Коля 7
аптӑраса 7
шуралнӑ 7
хысна 7
тӗсӗпе 7
форумӗнче 7
хӳтӗлет 7
рӗсене 7
цийӗнче 7
илетчӗ 7
Пахчара 7
s 7
организацийӗсемпе 7
хах 7
комплексне 7
пулӑшӑ@@ 7
туртать 7
мӑшӑрне 7
анчӗ 7
Хирти 7
Чар@@ 7
япӑх@@ 7
пӗчӗкренех 7
тӗв@@ 7
Мирун 7
халӑхра 7
пурсӑ@@ 7
каникула 7
пӗтертӗм 7
организ@@ 7
Каҫхине 7
дра 7
Иазер 7
тӑсӑлать 7
лагерьте 7
каннӑ 7
Мӑшӑрӗпе 7
хулкан 7
Ыр@@ 7
ел@@ 7
пӑтӑр@@ 7
хушшӑртан 7
Валя 7
Амрам 7
йывӑрлӑхсем 7
тӑпӑл@@ 7
вунпилӗк 7
кӑмпа 7
кӑнтӑрлахи 7
Давидшӑн 7
или@@ 7
ишӗлсе 7
кӑсӑкланчӗ 7
акушер 7
хутлӑхӗнче 7
лӗкӗ 7
лекрӗ 7
Иванов@@ 7
еврейсен 7
ҫутӑличчен 7
кке 7
физкультура 7
учителӗ 7
сия 7
сасс@@ 7
ҫунакан 7
хӑпарать 7
вӗҫлеме 7
пӗҫерме 7
приятире 7
ҫуллӑ 7
ратчӗ 7
ҫывӑхрах 7
ӗмӗрхи 7
насси 7
ниц@@ 7
режиссерӗ 7
фаим 7
ҫӑлсам 7
сума 7
каяллах 7
расчӗ 7
шӑр 7
ҫӗсене 7
Иисусӑн 7
ӗҫлекенсен 7
тасатнӑ 7
бр@@ 7
ҫылӑхӗсемшӗн 7
улатӑпа 7
предприятийӗсен 7
пултӑмӑр 7
ҫакнӑ 7
Дамас@@ 7
термен 7
уйӑхӗсенче 7
Уйрӑ@@ 7
ҫыравҫӑ 7
сӑнара 7
хӑвӑнтан 7
ӳшӗн 7
ыррӑн 7
территорийӗ 7
ушкӑнӗнче 7
ды@@ 7
вӑйлӑ@@ 7
капа 7
ҫывӑхра 7
нет 7
каяй@@ 7
тӑрӑшакан 7
кассине 7
зм 7
шӑтӑка 7
.), 7
Елеазара 7
чӗреллӗ 7
Кунсӑр 7
олимпиад@@ 7
кӑтартаҫҫӗ 7
чиккисене 7
управлени@@ 7
пӑталанӑ 7
япал@@ 7
ҫыравҫӑсем 7
ҫӗклен 7
Иоси@@ 7
шӑтса 7
калча@@ 7
пӗлтерӗш@@ 7
ҫырни 7
ӳкӗтне 7
Эмилия 7
выляҫҫӗ 7
парӑнса 7
хӑлха@@ 7
Дагон 7
промышлен@@ 7
сывпуллаш@@ 7
тель 7
Ҫуртӗнче 7
хӗвелтухӑҫ 7
Инга 7
Волков 7
виличченех 7
хатӗрӗсем 7
ранпах 7
пурах 7
шсене 7
аукцион@@ 7
шанӑҫ@@ 7
телевизор@@ 7
ӗҫмелли 7
улӑхса 7
хӗрринчен 7
Амнона 7
амӑшӗ@@ 7
университет@@ 7
киличчен 7
кӗрӗҫ 7
асӑнта 7
Кӗтне 7
сӑвва 7
асӑну 7
хаксем 7
хӑвартӑм 7
Валерия 7
ҫурални 7
производ@@ 7
священникпа 7
Ашмарин 7
пӑлхан@@ 7
курӑнми 7
чунран 7
тарсассӑн 7
самант@@ 7
ҫӑкӑрне 7
представи@@ 7
тупа@@ 7
тупӑнӗ 7
ҫырмари 7
вырӑнсен 7
иксӗр 7
68 7
хӗсме@@ 7
пӑрӑх@@ 7
демографи 7
училищине 7
фарисе@@ 7
саламласа 7
ноҫ 7
амал@@ 7
Юлия 7
монран 7
тӑмалли 7
Чуна 7
аҫ@@ 7
паллаштарать 7
чашӑ@@ 7
ҫӑкӑрсем 7
ҫаклан@@ 7
термелли 7
илемне 7
ствӑна 7
ҫывӑхарса 7
утрӗ 7
хупӑ@@ 7
маннипе 7
кустӑр@@ 7
Амессай 7
Чун@@ 7
кураймӑн 7
Ҫут 7
туянать 7
чунна 7
юсанӑ 7
тупрӑмӑр 7
пророксем 7
парассине 7
суха 7
тайнӑ 7
Пушар 7
ҫулӑма 7
Ултӑ 7
Муниципалитетӑн 7
памасӑр 7
тиве@@ 7
тутарса 7
класси@@ 7
вӑтамран 7
вӑрласа 7
аннӳне 7
пӑсса 7
командир 7
пулнӑччӗ 7
Техника 7
Пурӑнмалли 7
тирке@@ 7
хӑмла 7
ӳстермелли 7
Аса@@ 7
кӑшӑлӗ 7
тӑрринчи 7
кӗмӗлне 7
тасалӑх@@ 7
синкек 7
контракчӗн 7
ҫури 7
ноҫ@@ 7
дар@@ 7
Павлович 7
лӑхӑ@@ 7
сий@@ 7
туллӑ 7
Скворцов 7
ковский 7
кесар@@ 7
Пал@@ 7
чӗрӳнте 7
хутшӑнакансене 7
Правительствине 7
пурӑнӑп 7
ҫутатса 7
сӑрчӗ 7
Ленинград 7
Катя 7
шаннӑ 7
сӑрлан@@ 7
Ярослав@@ 7
эрехпе 7
полити@@ 7
ӗҫте@@ 7
Юр 7
170 7
кӑмӑллӑн 7
ӗлкӗрсе 7
Мӑшӑр@@ 7
сарлака 7
компьютер 7
Пӗтӗ@@ 7
рӑсем 7
I@@ 7
амӑшӗсен 7
Исаакпа 7
терет@@ 7
конкурен@@ 7
кӑк@@ 7
тултарать 7
Ҫавӑн@@ 7
компетен@@ 7
тӑш@@ 7
Ахимелех 7
цисемпе 7
парнӳне 7
пӑрахсассӑн 7
учрежденийӗсенче 7
хӑю 7
ние 7
тавӑракан 7
ярсан 7
маллӑ 7
пӳрнипе 7
тасатса 7
стви@@ 7
ноҫа 7
тенкӗ@@ 7
Варни 7
ҫуралнисене 7
сӳс@@ 7
ҫирӗпленсе 7
хуппи 7
кӑллӑ 7
Дима 7
Туррушӑн 7
июлӗн 7
явӑҫтарма 7
тасалакан 7
акран 7
аҫӑрсем 7
нана 7
семлӗ 7
сӑнни 7
проекчӗн 7
пӗлместӗн 7
ати@@ 7
тӑхӑнмалли 7
текенсем 7
ҫич@@ 7
хӳтлӗхӗ@@ 7
нат@@ 7
кидар 7
ҫушӑн 7
метрлӑ 7
Сала@@ 7
ало@@ 7
Иле@@ 7
тӑрӑшакансем 7
чев 7
кӗлтума 7
учитель@@ 7
кӳреслӗхне 7
хаклас 7
дистан@@ 7
тӑмасассӑн 7
акционерсен 7
Кӗр@@ 7
арен@@ 7
Гу@@ 7
кӑкӑрлӑхӑн 7
Елисее 7
сирпӗтӗ 7
аҫупа 7
патӑп 7
l@@ 7
дне 7
ӑнӑҫусем 7
хаваспах 7
туйӑн@@ 7
Ятар@@ 7
ччӗ@@ 7
кӗтӗвӗнчен 7
ҫҫине 7
2001 7
чинче 7
Кедес 7
Ертӳ@@ 7
тасат 7
капӑрлатнӑ 7
пиччӳ@@ 7
ҫавӑн@@ 7
тӑхӑнмашкӑн 7
арки 7
L@@ 7
Ох@@ 6
лавк@@ 6
ларах 6
Содо@@ 6
купи@@ 6
Сывлӑ@@ 6
технологийӗсене 6
ҫӗрсемпе 6
ӑшаланӑ 6
ай 6
моав@@ 6
Фегора 6
урокра 6
Ҫак@@ 6
ень@@ 6
унашкал@@ 6
ӳкерчӗксем 6
тийӗ 6
Общество 6
Игнатьева 6
шӑнӑҫ@@ 6
тӗлӗш@@ 6
Валентин 6
Анти@@ 6
партин 6
секретарӗ 6
ушкӑнӗн 6
тӑвӑлса 6
Комсомоль@@ 6
командӑсем 6
салтаксем 6
аяк@@ 6
кӗртеҫҫӗ 6
пӗтиччен 6
кӳрес@@ 6
Азария 6
Садокпа 6
хӑтар 6
Еммор 6
чыссӑр@@ 6
шухӑшсем 6
ҫӗлен@@ 6
пухӑва 6
Алексе@@ 6
фору@@ 6
ертӳҫӗ 6
цийӗпе 6
Уҫӑ 6
куншӑн 6
Тухса 6
79 6
тӗрек 6
Ила 6
Замврий 6
парнинчен 6
цик@@ 6
хапха@@ 6
спортра 6
издели@@ 6
сӗнчӗ 6
сӑртран 6
Хаҫат 6
Телей@@ 6
сту@@ 6
спектакле 6
путекне 6
Хур@@ 6
аялалла 6
Кама 6
сарнӑ 6
хелефейсемпе 6
фелефе@@ 6
Геф@@ 6
министр 6
мероприятийӗсем 6
профиль@@ 6
хӑвӑлӗ 6
хапхинчен 6
Галиле@@ 6
чыла@@ 6
Ҫуртӑн 6
лаптӑк 6
продукцийӗн 6
инкекрен 6
старик 6
ҫимелли 6
анинче 6
Сахӑр 6
кӑларай@@ 6
тябрӗн 6
Наталья 6
патак 6
ҫӑлма 6
тухтӑрсем 6
иккӗленӳллӗ 6
рал 6
ПК 6
тӗплӗ 6
самантсем 6
студентсен 6
ҫитни 6
Ҫавнашкал 6
Сур 6
вӗренекенӗсемпе 6
эш@@ 6
пыратчӗҫ 6
Шкула 6
училищинчен 6
цер@@ 6
тӗлпулу 6
авиа@@ 6
училищи@@ 6
онра 6
хавал@@ 6
пӑча@@ 6
каҫар 6
пӑхатпӑр 6
автомат@@ 6
малал@@ 6
хӑрсем 6
кӗмӗлле 6
Силомра 6
туянасси 6
тӗк@@ 6
Дмитриев 6
Миллин 6
тӑрӑхӗ@@ 6
ертӳҫисемпе 6
вӑчӑ@@ 6
патшипе 6
пӗтериччен 6
наркӑмӑ@@ 6
рефаим@@ 6
Шеме@@ 6
Хогла 6
мӑм 6
хӑвӑлӗнче 6
пассажирсене 6
Тӗр@@ 6
калаччӑр 6
тумаҫҫӗ 6
пуканӑм 6
ющи 6
Петӗр 6
Администра@@ 6
ҫуртсенче 6
Кре@@ 6
пурӑнӑҫпа 6
вилӗмпе 6
тӑванӗсемпе 6
Иудӑн 6
нчен 6
пӗлтӗр@@ 6
священниксен 6
ашшӗсенӗн 6
ҫӗршывсен 6
хӗл@@ 6
сӑнама 6
тӑрӑшрӗ 6
акан@@ 6
фее 6
арчипе 6
докторӗ 6
профессор 6
каятчӗ 6
израильсен 6
хӗллехи 6
сӗткен@@ 6
Гивӑна 6
Владимиров 6
Иави@@ 6
Федоров 6
тӑхӑнма 6
сӗтел@@ 6
ктор 6
хӳре 6
упрамалла 6
дивизи@@ 6
Донор 6
кукаш@@ 6
урамӗнче 6
общежи@@ 6
Евдокия 6
евсен 6
юрата@@ 6
умран 6
мухтантӑр 6
теекенӗ 6
сипленме 6
ҫимӗҫӗн 6
Хавал 6
илӗртӳ@@ 6
рейтингӗнче 6
ӳре 6
ҫӑнӑх@@ 6
тивӗҫтерессине 6
чемпионат@@ 6
трениров@@ 6
айӑпне 6
иртме 6
Арти@@ 6
Ревек@@ 6
бюджетран 6
перечене 6
экспертиза 6
урим 6
ҫийӗнче 6
вырӑну 6
курайманнисене 6
хусем 6
тумастӑп 6
ҫӑпа 6
ҫаврӑ@@ 6
манӗ 6
Сак@@ 6
16@@ 6
ушкӑнӗсене 6
ланасси 6
ӑр@@ 6
Ци@@ 6
пене 6
ӗҫсемпе 6
хӑваракан 6
Гедеона 6
ӳпкеленӗ 6
терсем 6
ушкӑнпа 6
Иудӑна 6
дпа 6
заводӗнче 6
Килти 6
Ифамар 6
рынокне 6
политикине 6
пулӑшӗ 6
ӗшенсе 6
Иаиль 6
аттине 6
хавхалантарма 6
Перекет 6
деев 6
лартасси 6
Афгани@@ 6
станран 6
хушшӑмӑра 6
ҫуртсен 6
фестивальне 6
хупма 6
пытарма 6
шӗл 6
фонд 6
ҫса 6
хӑварать 6
ҫӗмрен@@ 6
предмет@@ 6
энерги 6
перекет@@ 6
пӑталат@@ 6
тивӗ 6
чинов@@ 6
ывӑлпа 6
телекурав 6
рӗсем 6
рейтинг@@ 6
теш@@ 6
каҫарсам 6
Атӑ@@ 6
Жуков 6
Сонам 6
тинӗсри 6
ленеҫҫӗ 6
кинӗ 6
Енан 6
йышӑнусем 6
тайлӑ@@ 6
ларсассӑн 6
тӑшмана 6
хывакан 6
вӗлерт@@ 6
цио@@ 6
Темшӗн 6
хӑрамалла 6
тупанӗнчен 6
Пулас 6
упранать 6
Вӑрлӑх 6
Мах@@ 6
вра 6
пыратӑн 6
Вавилон 6
хулисенчен 6
тӗме 6
ҫакӑн@@ 6
Федо@@ 6
щи@@ 6
чаплӑрах 6
Тах@@ 6
медале 6
ялӑн 6
ланӑҫ 6
сюже@@ 6
маннисем 6
хисепре 6
ыталарӗ 6
хӑтарма 6
аталантармалла 6
кӳни 6
аваннине 6
улӑштаракан 6
пулӑшни 6
хӑпарчӗ 6
#@@ 6
уд@@ 6
мур@@ 6
халӑхӗсен 6
пушшех 6
кат 6
лта 6
ӗрен@@ 6
кисен 6
тӑршшӗне 6
эрешлесе 6
пӗлет@@ 6
ҫуннӑ 6
кере@@ 6
тустарса 6
ларчӗҫ 6
Пӗтӗмпех 6
ймасть 6
кӗске@@ 6
шӑммисене 6
юратӑвне 6
хӗрх@@ 6
еннипе 6
тӗртсе 6
хӑвартӑн 6
ишӗл@@ 6
радиора 6
Чӑвашла 6
манӑр 6
Арба 6
поч@@ 6
промышленность 6
сак 6
тӑшманӗсенчен 6
ҫиччӗр 6
ӳстерет 6
Пӑр@@ 6
Социаллӑ 6
йӑмӑкӑм 6
ҫӑлас 6
Изреель@@ 6
писате@@ 6
тилхе@@ 6
тивӗҫтерсе 6
каймастӑп 6
Левит 6
пурӑнччӑр 6
Пӗтӗмпе 6
Чутай@@ 6
ҫуратакан 6
кӳрентермен 6
Палӑртнӑ 6
Урӑхла 6
нин@@ 6
унашкал 6
тнине 6
цийӗсене 6
тӑратмалла 6
документсене 6
пӳлӗмӗн 6
тти@@ 6
Ывӑл 6
ҫитерет 6
канӑ 6
Шупашкартан 6
куляннӑ 6
журналист@@ 6
Зиф 6
яврӗҫ 6
сирпӗ@@ 6
текенни 6
чӑтӑм@@ 6
пулмалли 6
тасалнӑ 6
Аф@@ 6
туртма 6
кластер@@ 6
хирӗ@@ 6
ткӑ@@ 6
Май@@ 6
мил@@ 6
Каҫ@@ 6
зер@@ 6
Органи@@ 6
чӗрипе 6
пӗтӗ 6
ӳкӗ 6
микро@@ 6
вырӑнтах 6
асси@@ 6
вӗҫлени@@ 6
вӑрри 6
тути 6
вӗрсе 6
мсӑр 6
Чӑвашкино 6
1932 6
мрах 6
курми 6
Ишлей 6
хӑвах 6
ҫӳҫ@@ 6
82 6
жа 6
кабель 6
хӑратса 6
пралу@@ 6
вилетӗп 6
опытлӑ 6
педагог 6
З 6
Васильева 6
кадрсене 6
1942 6
секретар@@ 6
ноҫӗ 6
тислӗк 6
йӑнӑ@@ 6
Тӗрӗс@@ 6
цифрӑ@@ 6
ӑнланатпӑр 6
кӳнте@@ 6
каварлаш@@ 6
ҫӳретчӗ 6
кани@@ 6
инҫех 6
яра 6
евсем 6
ализа@@ 6
штат@@ 6
хутшӑну 6
пункт 6
должность 6
Хала@@ 6
мера 6
талла 6
урай 6
витаминсемпе 6
ҫулран 6
уйрӑм@@ 6
Чӗлхе 6
аттемӗрсене 6
расран 6
хунь@@ 6
йывӑҫӑн 6
чурама 6
Аммиуд 6
виҫҫӗ@@ 6
тимлӗрех 6
тра@@ 6
йӑра 6
чӗлхи@@ 6
сутать 6
пуҫарса 6
ҫырнинче 6
Лидия 6
апатпа 6
Ӗҫре 6
шӑши 6
служби 6
саккунӑн 6
шӑхӑрса 6
кӳнине 6
хӑть 6
пӗлсессӗн 6
списокне 6
нумаййӑн 6
спортсмен 6
юрлаҫҫӗ 6
1938 6
орфографи@@ 6
Шӑмӑршӑ 6
палат@@ 6
том 6
аммонсемпе 6
пултараймастӑп 6
Ори@@ 6
сӑнарсем 6
Идуме@@ 6
йышӑнӑ@@ 6
Горький 6
летме 6
полици 6
ҫыхлан@@ 6
тусам 6
хиртен 6
термо@@ 6
канура 6
алӑра 6
чӗрӗк 6
мӑри 6
Нава@@ 6
Рамӑна 6
каштасем 6
ытларахӑшӗ 6
хӑраман 6
Хӑйпе 6
чӗтӗре@@ 6
Феман 6
палӑртасси 6
саккунӗсене 6
Толик 6
пиҫӗхсе 6
сисӗнчӗ 6
ывӑлӑмҫӑм 6
стре@@ 6
ҫӳрени 6
пӗртте 6
R@@ 6
e@@ 6
вулакан@@ 6
пророксен 6
каймасть 6
1973 6
стро@@ 6
пӑчи 6
йӗркисем 6
пӗлӗвне 6
лаптӑкне 6
пысӑклат@@ 6
чулран 6
паракансен 6
тӗрмене 6
ташлама 6
карт@@ 6
вӗтӗ 6
спе@@ 6
ҫыпҫӑ@@ 6
стади@@ 6
ҫӳресессӗн 6
Пӑл@@ 6
инженер 6
тутан@@ 6
пуҫӗнче 6
нар@@ 6
кӗрешесси 6
гим@@ 6
пиччӗшне 6
опе@@ 6
кам@@ 6
Адраазар@@ 6
мӗнӗпе 6
тӑсма 6
ксенчен 6
патшасене 6
тӳпепе 6
алхас@@ 6
пики 6
Анжелика 6
илмӗп 6
керӗ 6
сакӑрвунӑ 6
плат@@ 6
килӗштерет 6
Ассири 6
Атнаш 6
вӑйй@@ 6
тӳлес 6
ашака 6
хыҫа 6
пӗриншӗн 6
Астартӑсене 6
ҫӗкленчӗ 6
тӑтӑмӑр 6
ӗнне 6
кӗнекесем 6
ирттертӗмӗр 6
АН@@ 6
ОВ 6
Универси@@ 6
Аминь 6
каламарӑм 6
ҫӗртех 6
руна 6
республикӑ@@ 6
шухӑшсӑр 6
ыта@@ 6
худож@@ 6
тӑррисем 6
шухӑшлать 6
чысла@@ 6
зе@@ 6
статус@@ 6
строй@@ 6
парнийӗ 6
ҫылӑхӗнчен 6
чака 6
из@@ 6
пиллеме 6
тӗсӗ 6
уксу@@ 6
Ачаранах 6
Савӑ@@ 6
Елчӗкри 6
Бюджет 6
сӗпе 6
саккунӗсен 6
курасси 6
Финанс 6
историйӗпе 6
пулӑмсене 6
пӑч@@ 6
Адраазара 6
япӑххине 6
илӑн 6
гар@@ 6
обществӑн 6
сла 6
тӳпине 6
куҫҫулӗ 6
тӑкрӗҫ 6
сутакан 6
япалапа 6
Сиф 6
сакӑрҫӗр 6
ларакансем 6
ира 6
аф 6
сӑннине 6
хутшӑнас 6
Иероваал 6
пулнисем 6
130 6
Цу@@ 6
плӗ 6
вӑчӑра@@ 6
Алевтина 6
лӗме 6
юлнисене 6
кӑма 6
Силома 6
Лаванӑн 6
Амери@@ 6
тури@@ 6
ҫийӗ@@ 6
тӑхӑр@@ 6
дине 6
микроэлемен@@ 6
хуҫуна 6
Тухӑ@@ 6
маз@@ 6
отчет@@ 6
Тал@@ 6
йышӑнмасть 6
Михайло@@ 6
ӑнтӑл@@ 6
чет@@ 6
организацийӗсем 6
ҫӳретӗр 6
пӑшӑрхан 6
Сывлӑш 6
пӗтер 6
Вефсамисра 6
ния 6
Яковлева 6
кӳчӗҫ 6
кӑч 6
Сарӑна 6
сипет 6
строй 6
Архипов 6
,@@ 6
тыта@@ 6
тыр 6
кӳрш@@ 6
лаш 6
юлташ 6
службине 6
ыттине 6
старо@@ 6
ҫӗнтерчӗ 6
улшӑнать 6
Тутарстанӑн 6
ӳнер@@ 6
чӗлхесем 6
стат 6
аталанаҫҫӗ 6
фло@@ 6
Макед 6
хакан 6
типӗтсе 6
хатӗрле 6
гат 6
кет 6
лартмалли 6
пушхирти 6
тӳремлӗх@@ 6
Манра 6
Кунашкал 6
халӑхӗнчен 6
санти@@ 6
ада 6
Сиго@@ 6
арҫынни 6
каланӑччӗ 6
Ага@@ 6
мӑрта 6
пилӗкӗнчен 6
хӑнӑхман 6
лани@@ 6
тухӑҫлӑхӗ 6
тӗрӗсленӗ 6
ҫулӗнчен 6
пей@@ 6
Физ@@ 6
институчӗн 6
цен@@ 6
янӑра@@ 6
нимӗҫсем 6
офицер 6
ӳтлӗ 6
ҫитеҫҫӗ 6
пуҫарнӑ 6
тӗпчесе 6
пуҫҫапӑр 6
тель@@ 6
ултав@@ 6
лӗхсене 6
ппи@@ 6
чӗнӗр 6
чӗрӗ@@ 6
асатте 6
лам 6
пӑшӑл@@ 6
хетсем 6
евейсем 6
Арфаксад 6
Фестиваль 6
тӗлпул@@ 6
яваплӑх 6
хӗрхенекен 6
Мегид@@ 6
Хӑра@@ 6
учительсем 6
вӗрентмелле 6
арӑмна 6
пиллӗп 6
Ҫӳлхуҫамӑра 6
тупӑк@@ 6
номерӗ 6
ӗмӗрӗпех 6
ҫӗрӗпех 6
ӑнланнӑ 6
хӑвата 6
таҫта 6
Аньхой 6
ҫухалччӑр 6
Сӗн@@ 6
хушшӑмӑрти 6
Шӗвеке 6
учрежд@@ 6
манӑҫ@@ 6
хутшӑнусене 6
анлӑлатма 6
арҫынсенчен 6
циленӗ 6
уру 6
пинчен 6
Веор 6
шутласан 6
ӳллӗн 6
ашакӗсене 6
палламан 6
.@@ 6
ҫӗршывӑ@@ 6
сехе@@ 6
ҫитмелле 6
пӳрчӗ 6
сакӑрвун 6
ҫырт@@ 6
кӑшӑл@@ 6
руш@@ 6
парн@@ 6
ӑмӑртӑ@@ 6
пӑхас 6
раз@@ 6
организа@@ 6
фор 6
ҫырмалла 6
кӑтартрӑн 6
сет 6
Сеп@@ 6
килӗнчи 6
пенӗ 6
пурин@@ 6
футболла 6
тӗрӗслӗх 6
сотрудни@@ 6
рисенӗн 6
Лида 6
тытрӗ 6
васкаса 6
вӗренни 6
микрорайон 6
Авиуд 6
Сӑвӑсем 6
клубӗ 6
Михайлов 6
тытнине 6
Саве@@ 6
пытар 6
хӗс@@ 6
Кӑмӑ@@ 6
кивел@@ 6
курмӑ@@ 6
ттӑмӑр 6
калӑпӑ@@ 6
чан 6
анат@@ 6
ҫӗршывпа 6
ӳкерсе 6
факультетне 6
Камсем 6
хӑна@@ 6
издатель@@ 6
никамӑн 6
слива 6
кӗллӗ 6
тӳсӗм@@ 6
тӑрӑшни 6
пӑрахнине 6
ашшӗ@@ 6
патшисене 6
курӑнчӗ 6
сова 6
кӗмӗлпе 6
ҫухалать 6
Вӗренекенӗсем 6
Васильев@@ 6
ковпа 6
ришӗн 6
шӗсен 6
сисӗнет 6
класран 6
пиччӗшӗпе 6
автан 6
мӗччӗ 6
упрать 6
Шурӑ 6
ҫӳҫлӗ 6
салтаксене 6
Ушкӑнра 6
виҫҫӗн 6
190@@ 6
факультет@@ 6
сав@@ 6
илтекен 6
хӑйсенчен 6
ресрен 6
дояр@@ 6
ҫухалтӑр 6
студент 6
тӑсрӗ 6
туятӑн 6
депута@@ 6
94 6
чарнӑ 6
юланутҫӑ 6
рсенче 6
ҫӳллӗрех 6
хавшат@@ 6
поселен@@ 6
падежри 6
паркӗсен 6
тӑкӗҫ 6
каррисене 6
тӑрмаш@@ 6
йӑван@@ 6
Кеней 6
Тин 6
тӑпа 6
тапхӑра 6
лӗсенче 6
хӑюлӑх 6
тӗлӗнтер@@ 6
пӗшк@@ 6
ланӑн 6
салатнӑ 6
илсем 6
курӑнӑп 6
ӗненме 6
Паллаш@@ 6
гина 6
мӑк 6
тӗкел 6
ҫемьесен 6
атор 6
курам 6
тий 6
ыйтӑр 6
мухтанма 6
кӑларт@@ 6
орфографи 6
фи 6
кӑшкӑртнӑ 6
Евро@@ 6
тӑшманусен 6
объектсене 6
предприятийӗн 6
енӗсене 6
исӗр 6
лараҫҫӗ 6
массине 6
тинех 6
вӑййи@@ 6
У 6
Маной 6
сшӗн 6
ларӑр 6
астӑвӑр 6
ҫапӑҫура 6
Инкек 6
ҫамрӑ@@ 6
Мишши 6
премийӗн 6
ологи 6
дие 6
хушӗ 6
пӳртне 6
апӑс@@ 6
Пушкин@@ 6
юла@@ 6
хӑпа 6
телӗсем 6
салат@@ 6
имен@@ 6
тивӗҫсем 6
Типӗ 6
илтӗнсе 6
йӗпе@@ 6
кинне 6
ачаранах 6
университечӗ 6
якат@@ 6
членӗсене 6
савӑк 6
кӗлеткине 6
вакласа 6
тана@@ 6
урал@@ 6
килетӗп 6
туйӑмне 6
гектара 6
унччен@@ 6
Правительствин 6
енни@@ 6
Тӳрех 6
керменӗнче 6
Ҫылӑх 6
тӑкак@@ 6
материал 6
кӗте@@ 6
саплаш@@ 6
каса@@ 6
тон@@ 6
ҫимен 6
асӑрх@@ 6
йышӑнчӗҫ 6
тӑпри 6
ывӑҫ 6
1948 6
ыйтнипе 6
Юрӑпа 6
пӳсем 6
ҫимӗҫпе 6
пахчи@@ 6
ачӑрсене 6
ҫилпе 6
тишкерсе 6
хистет 6
ҫиччӗ 6
ҫырлахах 6
фельдшерпа 6
упранӑ 6
пписем 6
сута 6
ӑнлантӑм 6
Вӑхӑ@@ 6
ӑшши 6
хӗрлӗрех 6
уя 6
управӑ@@ 6
контракт 6
тӗпӗ@@ 6
каймӗ 6
хӑвармӗ 6
чӗлхин 6
илекенсем 6
хастарӗ 6
кӑларатӑп 6
хулӑн 6
лӑпӑр 6
сапан 6
ҫаврака 6
вок@@ 6
пис@@ 6
мая 6
ӗншӗн 6
нирен 6
ках 6
ҫемҫе 6
выляни 6
граду@@ 6
ӑхнӑ 6
тӑртат@@ 6
ӗҫӗме 6
чарӑнчӗ 6
тупӑшу 6
си 6
пиҫиххи 6
чыслӑн 6
санато@@ 6
тавҫӑ@@ 6
тупасси 6
Елкана 6
ӗненес 6
оф 6
аппӑшӗн 6
йӑмӑкӗн 6
хӑварнине 6
яратпӑр 6
пысӑклатнӑ 6
тасамарлӑхне 6
Вӗҫ@@ 6
чӑпар 6
Авто@@ 6
нимӗҫ 6
пуҫӑм 6
Ҫӗршывра 6
ӗрчетсе 6
Онан 6
Шела 6
Фарес 6
ванчӑ@@ 6
продукцине 6
Иосафата 6
обществӑлла 6
хӗлле 6
тухнӑскер 6
салтакран 6
тӳрӗлӗх@@ 6
сыввӑн 6
ҫурчӗсем 6
ҫуталса 6
гра 6
ӗве 6
ссен 6
екене 6
гектар@@ 6
тӳсе@@ 6
кенсене 6
ҫемйипе 6
пуҫламӑш@@ 6
ӗшӗ 6
Кук@@ 6
ирттерес 6
дыня 6
вӑйран 6
Дор 6
каясси 6
Рустэм 6
мӑс 6
вӗҫ 6
Чы@@ 6
чӗрене 6
ҫывхар@@ 6
пӑхсам 6
шӑммине 6
айккинелле 6
ферминче 6
кумӑ 6
Хӑвӑртрах 6
участокӗсем 6
ферезейсене 6
ӗмӗрӳ 6
идуме@@ 6
лампадисене 6
тултарса 6
аташ@@ 6
ҫумӗнчен 6
хӑтартӑн 6
курӑнакан 6
хӑшӗн 6
Владимирович 6
Сас@@ 6
тре@@ 6
поэт 6
Зи@@ 6
кӑтартнӑшӑн 6
Милло 6
ҫӑра@@ 6
вӑхӑтлӑха 6
заведени@@ 6
госпиталь@@ 6
Наас 6
Часах 6
кулянса 6
бульварӗ 6
ШӖ@@ 6
хускан@@ 6
курмастӑп 6
хаксене 6
Юх@@ 6
сунса 6
Чӑвашсен 6
Ҫулсем 6
пункчӗ 6
шин 6
МИ@@ 6
ӑмӑртӑва 6
чиккисенче 6
чутласа 6
йӗрӗх 6
Тӗнче 6
йывӑрлӑха 6
Ҫимӗ@@ 6
асамлӑ 6
ывӑлун 6
тавӑрас 6
кайнисем 6
шӑтӑ@@ 6
Ши@@ 6
ҫуралас 6
тупмалла 6
илемлетнӗ 6
ссисем 6
кунӗсенче 6
ссӗм 6
катӑп 6
Хусана 6
кулать 6
ӑрусен 6
кайнипе 6
кило@@ 6
вӗлерӗ 6
тухтӑрӗ 6
пуҫламалла 6
шатӑртат@@ 6
Тус@@ 6
йи@@ 6
чне 6
тӗне 6
чӗкне 6
кӗлмӗҫ 6
ӳпкелесе 6
пил 6
патрах 6
йӑла@@ 6
ачамсем 6
хӳтӗлекен 6
чӗнчӗ 6
най@@ 6
чӗлхем 6
ҫӑла@@ 6
вӑранса 6
тарассишӗн 6
ултавҫӑ 6
сӑмаху 6
Вӗреннӗ 6
дача 6
ӳктӗр 6
аша 6
хӗрхенмесӗр 6
1945 6
хуҫамӑма 6
Программа 6
хана@@ 6
специалис@@ 6
кӑшӑл 6
Хан@@ 6
Семеновна 6
тӑмалӑхне 6
специаль@@ 6
ачи@@ 6
хӗрхенсем 6
Шкулсенче 6
зма 6
тавӑҫ 6
электрон 6
пуҫлӗҫ 6
выртмалла 6
тенки 6
Нимӗҫ 6
ҫуп@@ 6
сунчӗ 6
чӳре@@ 6
Пра@@ 6
хирелле 6
пулманран 6
кӑш 6
ларакан@@ 6
патӗнчех 6
V@@ 6
лерех 6
тивӗҫлипех 6
ӳнтен 6
хывӑп 6
хуса 6
арӑмӑн 6
Мӗнпе 6
шла 6
оборудовани@@ 6
уйӑраҫҫӗ 6
ҫитӗнтереҫҫӗ 6
комбай@@ 6
Пӳр@@ 6
Каланӑ 6
тивлетне 6
ҫӑнӑхран 6
куҫарма 6
тамӑка 6
хатӗрленет 6
вилӗм@@ 6
ланӑшӑн 6
совет 6
как 6
аяккалла 6
ӑрӑвӗнчи 6
шанчӑклӑн 6
1941 6
центрне 6
кранах 6
халлӑ 6
рӑпӑр 6
сооружени@@ 6
курӗҫ 6
биологи 6
Сувар 6
пытармашкӑн 6
илӗртет 6
сферӑри 6
Самар@@ 6
Луз 6
активлӑ 6
кӗчӗҫ 6
сорт@@ 6
решет@@ 6
чарусем 6
рам@@ 6
хулисенчи 6
артисчӗ 6
юлнӑччӗ 6
тӑракансен 6
специалист@@ 6
Адер 6
обла@@ 6
ҫӗсенчен 6
иссоп 6
лаканӗ 6
корпуссене 6
ӗнӗ 6
кайӑк@@ 6
цисен 6
Геде@@ 6
тинче 6
иртӗх@@ 6
раймӑн 6
туюна 6
кӗрӗр 6
ҫурчӗсене 6
почта 6
Мускавран 6
дов 6
спектакльте 6
урипе 6
ҫуртӑн 6
Сӑкӑт 6
ҫӑмӑллӑнах 6
харамлӑх 6
пӑрӑнман 6
кӑларнине 6
йӑвашлантар@@ 6
Ермон 6
ятушӑн 6
шка@@ 6
ҫывӑха@@ 6
ленхи 6
ӗҫӗр 6
ятупа 6
Чер@@ 6
пирус 6
комбайн 6
Аммо@@ 6
хуччӑр 6
ницкий 6
аллисем 6
юридици 6
раканни 6
арӑмсем 6
Мику@@ 6
субъекчӗсем 6
председательне 6
Ҫӗрле 6
ӑмӑртӑвне 6
пӑсӑл@@ 6
нат 6
енне@@ 6
ҫӗнтерӳҫӗ 6
Салтак 6
выльӑхӗпе 6
художник 6
ҫӑварӑм 6
етӗр 6
волейболла 6
ҫӳрекенни@@ 6
лӗхрен 6
Ҫав@@ 6
рӑнаҫҫӗ 6
кайичченех 6
энер@@ 6
Единая 6
Россия 6
ылтӑн@@ 6
вӑхӑтӗнчи 6
шайлашу@@ 6
юхтаркӑч@@ 6
йӗркесӗр@@ 6
чӗнтернӗ 6
Тырӑ 6
пӗлтертӗм 6
Алӑ@@ 6
джи@@ 6
Салман 6
йине 6
Асор 6
ПП@@ 6
вран 6
уйне 6
ҫисенчен 6
кӑшкӑрт@@ 6
;] 6
тӑшмансене 6
тарнӑшӑн 6
еттӗмӗр 6
Ҫирӗм 6
Атя 6
аяккарах 6
ҫутаткӑҫа 6
юрлӑр 6
таврапӗл@@ 6
айккине 6
лахай 6
Миша 6
чуптуса 6
юпӑн@@ 6
йӑхӗнче 6
нимӗ@@ 6
кӑларни 6
вулать 6
келесе 6
моавсен 6
ҫутаткӑҫ@@ 6
Кӗҫӗнни 6
каччӑсем 6
лекрӗм 6
тӑватӑр 6
хӗрри 6
ҫӗкленет 6
ӗҫӗсемшӗн 6
сӑнар 6
Романов 6
мӑкӑрланса 6
организацийӗн 6
шӑна 6
механизаторсем 6
абзацсене 6
юрӑхлисене 6
ҫитнисем 6
вӗлермеллех 6
япаласенӗн 6
июнӗн 6
тивӗҫе 6
йӑлӑ@@ 6
Кле@@ 6
багаж 6
Район@@ 6
ӗмӗтпе 6
кӑштахран 6
тсенче 6
лӗп 6
резервӗн 6
хамран 6
ҫуртӑр@@ 6
патакпа 6
ӗҫле 6
Бен 6
ӳл@@ 6
Ахимаас 6
Спорт@@ 6
Таппуах 6
рольне 6
Нарспи 6
мӗпӗр 6
лай 6
хуҫалӑхсене 6
ҫимӗҫӗ 6
хӗрарӑмӗн 6
ветерансен 6
тӑктӑр 6
хӑйнеевӗр 6
хӑватӑ@@ 6
ҫуртӑм 6
од@@ 6
Тимӗр@@ 6
паттӑрӗсене 6
ҫатма 6
дат@@ 6
пусакан 6
ӗненнӗ 6
i@@ 6
уйрӑмлӑх 6
хастарлӑх 6
ӳсен@@ 6
хаярланса 6
кӑмакана 6
Ярму@@ 6
Канашне 6
Ҫӗлен 6
чӗл@@ 6
чемпио@@ 6
Фарра 6
пырасси 6
ырлӑхӗшӗн 6
тытатӑп 6
тула 6
Мариама 6
ӗнеҫҫӗ 6
сассӑнах 6
вӗре 6
Ахан 6
витӗр@@ 6
2019 6
малӑхне 6
ҫывха@@ 6
газ@@ 6
отрасль 6
арчана 6
вӗҫленчӗ 6
Завдий 6
хӑрушсӑр@@ 6
йышлӑланса 6
херувимне 6
пӑрӑсӗ 6
калтана 6
;- 6
хӑвӑртлӑхпа 6
лампа@@ 6
хӗвел@@ 6
итлевне 6
шев 6
сӑрантан 6
ҫре 6
вӑра@@ 6
чӑмӑртаннӑ 5
Ҫывӑ@@ 5
медаль 5
Степанович 5
суту@@ 5
уласа 5
пурнӑҫланса 5
цифра 5
пӗтӗмлетсе 5
180 5
градусран 5
йӗркеленеҫҫӗ 5
гсем 5
фильмсем 5
ӳкерӗн@@ 5
Пӗлместӗп 5
йӑран 5
теретӗр 5
черкке 5
фар@@ 5
ауди@@ 5
кӗртмен 5
пасар 5
вырнаҫтарни 5
пӗлтерӗ 5
пӑрах 5
Павелпа 5
хурсан 5
Радио@@ 5
вӑюпа 5
тӑкма 5
ҫиллӳне 5
пӑрса 5
пурпӗр 5
фермӑра 5
тӗрӗслерӗҫ 5
шӗн@@ 5
бюджетне 5
уд 5
фат 5
Адони@@ 5
лит 5
чирӗсем 5
Ҫывӑр@@ 5
Вале@@ 5
кӗпӗр@@ 5
хӑварӑпӑр 5
Иосифӑн 5
тӑшманӑн 5
шсем 5
Сара@@ 5
справ@@ 5
каланинчен 5
тухӑн 5
чество 5
ӗҫленӗскер 5
хамӑрпа 5
Савӑн@@ 5
кӗртмешкӗн 5
Пурӗ 5
вӗренеҫҫӗ 5
консультаци 5
чӳрече@@ 5
калаҫ 5
юратнӑран 5
кологи 5
пӗверӗ 5
пӳрисемпе 5
Иудейсем 5
тӗрӗслевӗ 5
заводне 5
сиссе 5
кипарис 5
килӗм 5
Хуняма 5
ава 5
пред@@ 5
пухӑвӗнче 5
кодек@@ 5
услови 5
савни 5
нехи 5
Темле 5
патриот 5
воспитанийӗ 5
асфальт 5
Союзӗн 5
Ефи@@ 5
мов 5
нӑп 5
ӗлнӗ 5
вӗрекен 5
пиччӳн 5
метра 5
ирттеретпӗр 5
налукран 5
хирӗ 5
Юлташсем 5
летсе 5
Поли@@ 5
Мемфи@@ 5
фейӗн 5
хӑтарса 5
тупӑшура 5
Шан@@ 5
ҫитекен 5
Хун@@ 5
калаҫасшӑн 5
тӑрат 5
питӗр@@ 5
кенни 5
килмеҫҫӗ 5
парнӗрсене 5
шанӑҫне 5
чупма 5
шыҫ@@ 5
сывалса 5
сали 5
Ҫавӑнта 5
тӑракансенчен 5
мине@@ 5
тӗлӗнчен 5
юрӑхсӑра 5
пӳрне 5
хутшӑнатпӑр 5
библиотекӑна 5
йӗрне 5
Ради@@ 5
переда@@ 5
Вла@@ 5
ямасӑр 5
Тӳпере 5
ҫӳретчӗҫ 5
аморрей 5
Моава 5
Малтан@@ 5
ьевсен 5
Сив@@ 5
темпера@@ 5
итлес 5
ҫылӑхӑрсемшӗн 5
тивес 5
асапа 5
сукма@@ 5
винче 5
ҫемйи@@ 5
мӑшӑра 5
Михайловна 5
апрелӗн 5
хушу 5
утать 5
нуша 5
кураймасть 5
личченех 5
тӑраканскер 5
Адвокат@@ 5
манмалла 5
канашлӑ 5
Ҫырма 5
пурӑнмалӑх 5
них@@ 5
чӳречерен 5
тикун 5
вилӗмсӗр 5
чӗркуҫ@@ 5
хӳсе 5
Бог@@ 5
тӳремлӗх 5
пророкӗсене 5
Григор@@ 5
профессипе 5
1985 5
водительсен 5
туртӑмӗ 5
Василь@@ 5
чӑна 5
айлӑма 5
Хӗллехи 5
Хатӗр 5
кӳлсе 5
сӳре@@ 5
Председателӗ 5
иртрӗм 5
чару@@ 5
Савей 5
кӑтартман 5
Ывӑлӗсем 5
пӗҫерт@@ 5
Калӑ@@ 5
чирсемпе 5
шав@@ 5
Георгий 5
доклад 5
палӑртрӗҫ 5
Анастасия 5
СХПК 5
хапсӑн 5
мӑнтӑр 5
род@@ 5
Еве@@ 5
ыйтусемпе 5
лӑхӗсем 5
каларӑмӑр 5
аттемӗр 5
хушӑнса 5
йӗркелени 5
хысакӗ 5
Конкурс 5
Семе@@ 5
рацион@@ 5
эфир@@ 5
намӑс@@ 5
килччӗр 5
улталаса 5
тӑраттӑр 5
ларнине 5
тӑраничченех 5
юрлат@@ 5
ташӑ@@ 5
шухӑшларӑм 5
манпала 5
тӑнӑҫлӑн 5
Хурал@@ 5
шӑп@@ 5
пеккине 5
тивертсе 5
экономикӑри 5
таса@@ 5
Кӗл@@ 5
езер 5
ида 5
уголовлӑ 5
тупӑшӑ@@ 5
сӑлтавсем 5
култа 5
штаб@@ 5
политики 5
мӑшӗн 5
ывӑҫ@@ 5
ӗҫтернӗ 5
заво@@ 5
ҫӑва@@ 5
ӑсталама 5
мухтана@@ 5
ачисемшӗн 5
хӑтӑлайман 5
надзор@@ 5
рӑм@@ 5
Поти@@ 5
шывсӑр 5
Рагу@@ 5
Васема@@ 5
кӗмӗш 5
пӑрусен 5
такасен 5
путексен 5
ҫитӗнтерме 5
тыл@@ 5
комплексӗнче 5
Мина 5
йӗркеллех 5
вилли 5
Шӑл@@ 5
вырӑнӗнчех 5
юлтӑм 5
ӑшшине 5
Ахӑртнех 5
манӑҫа 5
ҫаврӑнма 5
Авдий 5
ҫыранлӑхӗ 5
Президент 5
рӑнакан 5
пӳлӗмлӗ 5
туянтӑм 5
каҫи 5
Тӑва@@ 5
арамей 5
Вафуилӑн 5
кӗреймӗн 5
хсем 5
кӗреймӗ 5
хӗпӗртет 5
Мерива 5
хусене 5
халне 5
хочу 5
!.. 5
Назаро@@ 5
Степ@@ 5
Месопотамие 5
хаярлӑхӗ 5
вилни 5
ец 5
палласа 5
Таҫта 5
юлмалли 5
2000 5
ҫарӗсен 5
мӗнре 5
банк 5
кор 5
пӑлтӑр@@ 5
пусаҫҫӗ 5
Рос@@ 5
тӗспе 5
Верзеллий 5
вутра 5
ӗнтен 5
сылтӑмарах 5
ьева 5
Васанри 5
уста@@ 5
тытӑмлӑхӑн 5
должноҫри 5
абзац@@ 5
пункчӗсемпе 5
апостол@@ 5
пӑчӑртаса 5
каларӑр 5
куркана 5
Комсо@@ 5
уявра 5
ҫӳремелли 5
курассине 5
усӑн@@ 5
ӳкерӗп 5
лауреачӗ 5
темӗнле 5
касс@@ 5
Коше@@ 5
хӗтӗр@@ 5
кӗперӗ 5
шӑпи@@ 5
ленмен 5
лешсем 5
йӑшне 5
чӗшӗн 5
ҫек@@ 5
ҫилленчӗ 5
хӗрӗсенчен 5
ирсӗрленнӗ 5
вут@@ 5
тамӑк 5
ҫурӑмӗ 5
Строитель@@ 5
пурнӑҫланипе 5
лӗсен 5
цилес 5
санитар@@ 5
ена 5
требовани@@ 5
технологисене 5
шӑллӑр 5
сыхлать 5
предприятийӗсем 5
тессе 5
шкапри 5
Хӑруш@@ 5
лӑхсӑр 5
ҫӗнетме 5
виттине 5
хакланӑ 5
кӗле@@ 5
ӗҫлесен 5
Агаре 5
йӑлӑнатӑп 5
кӑмакаран 5
хальхинче 5
Кас@@ 5
музейне 5
Атӑл@@ 5
ларатчӗ 5
куракан@@ 5
пулӑсене 5
пыракан@@ 5
ҫийӗҫ 5
кӗрлет@@ 5
меншӗн 5
Ҫӗрпӳри 5
ҫутӗҫ 5
пӗтермелли 5
Ҫӑл@@ 5
гетика 5
тасамарлӑхӗ 5
ҫывӑрмалли 5
сӗртӗнет 5
мӑмпа 5
ӑслӑлӑхпа 5
килӗшӗве 5
Варав@@ 5
Колхоз@@ 5
мили@@ 5
пулӑшаканӗ 5
янӑрарӗ 5
Туррунтан 5
рӑмпа 5
ья@@ 5
магнит 5
патшин 5
Учитель 5
канскер 5
хатӗрлет@@ 5
хов@@ 5
Егоро@@ 5
ӗҫленипе 5
пуй@@ 5
Эрех 5
Мӑшӑр 5
Гоморра 5
ыйтакан 5
эмел@@ 5
дер 5
«@@ 5
каясран 5
сӗрлесе 5
Тӑрӑшу@@ 5
кӑнт@@ 5
ирсӗрленсе 5
залӗнче 5
таратчӗ 5
пасене 5
кӗвви 5
сӗнӳ 5
телерадиокомпани@@ 5
жсем 5
сӗткенӗ 5
центрӗ 5
хӳтӗлемелли 5
тухат@@ 5
кӑсӑклантӑмӑр 5
каҫне 5
ханса 5
ҫитрӗн 5
чурупа 5
пуҫкӑшӑ@@ 5
пӑрахрӑн 5
тартӑн 5
Хецрон 5
Оси@@ 5
наш@@ 5
ӑстала@@ 5
сыхлас 5
чакарас 5
тӗтӗркӗчне 5
хӳтӗлеме 5
фаши@@ 5
ҫакланнӑ 5
халлӗнех 5
ҫыннишӗн 5
кинемей 5
ҫитӗнтерет 5
пусӑран 5
процеду@@ 5
сип@@ 5
вӑйлатма 5
Туррӑма 5
сассӑ@@ 5
Александра 5
хуҫинчен 5
чирленӗ 5
мӗм 5
спор@@ 5
кварталта 5
аэро@@ 5
тӑратмалли 5
Катюк 5
лист@@ 5
юрларӗ 5
Ирӗклӗ 5
вилтӗр 5
Темӗн 5
ланӑччӗ 5
тетра@@ 5
ҫӗнелсе 5
пырасса 5
ӑсенче 5
сурӑхсемпе 5
чӗнеҫҫӗ 5
кулнӑ 5
чукун 5
магистра@@ 5
тирпейлекен 5
Сӗ@@ 5
тпӗр 5
ҫарсенӗн 5
Ҫӳлхуҫ@@ 5
кӗрекенӗ 5
каҫару 5
ӑстал@@ 5
астумастӑп 5
сек@@ 5
пыман 5
стат@@ 5
театрӗ 5
Муниципалитетсем 5
правӑна 5
шӑршине 5
Хӑшпӗр 5
Республи@@ 5
Кайӑк 5
спортӑн 5
каймалли 5
хуйхӑр@@ 5
Саул@@ 5
Альбина 5
ярӑнса 5
тӑвайкки 5
корруп@@ 5
Нико@@ 5
августӑн 5
сӑррӑн 5
илӗртсе 5
ҫыпҫӑнса 5
хӑя@@ 5
сӑнӳкерчӗ@@ 5
Хӗрача 5
Тӗрӗслев 5
шӑпӑр 5
Кара@@ 5
Ҫемье@@ 5
Авен@@ 5
чутах 5
ҫынвӗлерен 5
Сихем@@ 5
шӑрш@@ 5
сисмесӗрех 5
ҫиллипе 5
халалӑн 5
шул@@ 5
йӑхӗсен 5
Фоноте@@ 5
кӗрсенех 5
туйрӑм 5
вӑрҫин 5
орденне 5
асаилӗ@@ 5
сыхлама 5
кӑрлачӑн 5
кӳрӗп 5
хуман 5
тӑпра@@ 5
чӗрӗлӗх 5
сывлӑшӗ 5
территорийӗсене 5
театрӗнче 5
тӳрӗлӗхӗме 5
вӗренекенӗсене 5
Трофимов 5
айван 5
айван@@ 5
регионӑн 5
пухӑннисем 5
Карти@@ 5
хытаркӑчӗсене 5
кӗмӗлрен 5
картине 5
1925 5
тумтирӗн 5
98 5
трен 5
Галгалран 5
пымасть 5
пля@@ 5
йывӑҫсене 5
асламӑшӗ 5
канӑ@@ 5
хутӑн 5
хӳхле@@ 5
пуҫлӑхсене 5
вӗл@@ 5
тенех 5
1943 5
Иаир 5
тивӗҫет 5
долж@@ 5
млрд 5
астӑва@@ 5
мович 5
вӑйсӑр@@ 5
Крылов 5
Бела 5
Тытса 5
Тӑракан 5
пинпӳсемпе 5
ҫӗрпӳсем 5
ҫӗрсен 5
куҫман 5
хутшӑну@@ 5
чӗней@@ 5
сывпуллашнӑ 5
лӗхшӗн 5
юратмастӑп 5
теретчӗ 5
Конституцийӗпе 5
Мероприятие 5
хастарсем 5
вунпӗрмӗш 5
атель@@ 5
ӑшала@@ 5
Кӑрла@@ 5
/@@ 5
асаплӑ 5
васкӑр 5
пӗлтерӳсене 5
хӑпартма 5
Ытти@@ 5
Ҫӗпӗр@@ 5
юлӑр 5
усрарӗ 5
Ҫӑлтӑр 5
Берлин 5
аталантарассипе 5
шывӑ@@ 5
культурин 5
ҫӗршер 5
стере@@ 5
сутас 5
чылаях 5
стер 5
Тӑх@@ 5
матне 5
харпӑрлӑх@@ 5
пуҫлатӑп 5
сессӗнех 5
равҫӑ 5
ҫитӗнсе 5
пуласшӑн 5
служащи@@ 5
шалӑ@@ 5
ӳсни 5
ппипе 5
бор@@ 5
пӑхӑнман 5
илер 5
сунчӗҫ 5
хасшӑн 5
кӗретӗр 5
хуняш@@ 5
Исаакӑн 5
Фим@@ 5
кати 5
пӗтмен 5
впе 5
Хуларан 5
мӑнуксем 5
аслисен 5
тухтӑрсене 5
Президи@@ 5
Аксу 5
ветеран 5
Угаслов 5
пӑлан 5
вырӑнӑма 5
Красно@@ 5
Хупӑ 5
никӗсӗсем 5
тео@@ 5
препаратсем 5
зпа 5
Чечен 5
алпа 5
шӑмми 5
кашта 5
пӑрӑссем 5
вӗҫӗнчен 5
памарӗҫ 5
Агафья 5
Йывӑҫсем 5
кисрен@@ 5
паратӑр 5
аттепе 5
Есевонра 5
Ӑс@@ 5
картлашкапа 5
акчӗпе 5
хинче 5
кӗмӗлӗ 5
пӗтетпӗр 5
чара 5
интереслен@@ 5
Тепрехинче 5
нал 5
Хӑвӑнтан 5
паллайман 5
меро@@ 5
акансем 5
Тӗлӗнмелле 5
чка 5
конкурссем 5
кӗртекен 5
Пӗччен 5
уявӑн 5
волейбол 5
секцине 5
упӑшкам 5
сивӗн@@ 5
паянах 5
хуратӑп 5
пӗлтерӳ 5
ҫӗршывӗнче 5
иртӗ 5
левита 5
килӗм@@ 5
Мано@@ 5
зов 5
аппӑшне 5
шырамалла 5
шӳт@@ 5
смен 5
апатлану 5
усӑл@@ 5
ҫта 5
бро@@ 5
Ваасан 5
Адраазар 5
сӑнанӑ 5
кисренсе 5
ҫурӑлса 5
мулӗ 5
хупланӑ 5
ӗнченех 5
ачашӑн 5
качака@@ 5
чу 5
ипе 5
Улма 5
Хамос 5
ятлӑскер 5
пахчана 5
вырӑнаҫтарнӑ 5
оркест@@ 5
Кала 5
вилене 5
тӑру@@ 5
пурӑнӑпӑр 5
фондӗнчен 5
мӑрт@@ 5
ефод@@ 5
вӗренес 5
пӗве@@ 5
Тӑват@@ 5
хӳми 5
сулхӑн@@ 5
терин 5
улмине 5
нӗскере 5
артистсем 5
яни 5
карапсем 5
Урал 5
Ян@@ 5
Мӑн@@ 5
Лаврен@@ 5
моря@@ 5
ким@@ 5
дан@@ 5
раххине 5
Черет@@ 5
экономикӑна 5
программӑсем 5
пулӑшасса 5
отрасль@@ 5
сӑк@@ 5
энциклопе@@ 5
шӑтас@@ 5
янӑраса 5
чӗрке@@ 5
чӗрес@@ 5
аманнисене 5
пӑри 5
илессишӗн 5
сӗчӗпе 5
наградӑ@@ 5
фермӑна 5
ререн 5
хӑватупа 5
мухтавлӑхна 5
Упӑшки 5
пӗтереймен 5
арҫынпа 5
ЯХПК@@ 5
завочӗ 5
абзацӗсене 5
объекчӗсене 5
полномочи 5
самантсене 5
тельсем 5
хӑмӑш@@ 5
илтернӗ 5
Ач@@ 5
шӑллӑм 5
аякри 5
фили@@ 5
тӑрӑшрӑм 5
кусене 5
ҫырлапа 5
сезон@@ 5
витре 5
керменӗ 5
сарӗ 5
хураллама 5
юлташсемпе 5
Гивӑра 5
Ада@@ 5
Марфа 5
Миц@@ 5
Еле@@ 5
пуҫпа 5
тимре 5
шатра 5
арман 5
этемрен 5
Сала 5
Евер 5
Парла@@ 5
тыттарса 5
лапа@@ 5
Наассон 5
ункисем 5
лабора@@ 5
оборудованийӗ 5
академине 5
чӗлхерен 5
Офнипе 5
мире 5
куҫсем 5
вӗренекенсен 5
липех 5
педагог@@ 5
Фамаре 5
уявӑр@@ 5
урисем 5
выльӑхӑн 5
йӗке@@ 5
ҫӗрӗрте 5
Жу@@ 5
хуравӗ 5
Пуҫлӑх 5
Патшалӑхне 5
кунашкалли 5
алист 5
айӑплама 5
пуҫланӑ@@ 5
Ӑс 5
хунисене 5
ӳсӗмӗ 5
Киссон 5
меслет@@ 5
ҫанталӑкра 5
патшамӑм 5
савӑнмалла 5
Кузьмина 5
сывлӑхӗ 5
яваплӑхпа 5
серепе 5
ҫӗрӳнте 5
хисепленӗ 5
кӗмсӗр@@ 5
статистика 5
пӗтӗм@@ 5
условисенче 5
натчӗ 5
ня@@ 5
асаннесем 5
палӑрма 5
Челябинскра 5
терей@@ 5
тавӑрӗ 5
Махана@@ 5
имран 5
Ог@@ 5
Едреи 5
автомашина 5
фей 5
паллаштаракан 5
тӗрӗк 5
хутра 5
хакланине 5
хисен 5
сӑлтавсене 5
заявление 5
пиҫих@@ 5
мапа 5
упӑ@@ 5
ипотека 5
специалистсене 5
Вӑрнар@@ 5
шӑршӑ@@ 5
итлеменшӗн 5
жюри 5
республикӑна 5
00 5
пси@@ 5
планламалли 5
документа 5
Ога 5
йывӑҫҫи 5
техники 5
Ӗҫленӗ 5
должноҫ@@ 5
вим 5
пусӑмне 5
турине 5
таканӗ 5
ӳстере@@ 5
хӗнеме 5
анова 5
сенни 5
Ана@@ 5
халлӗхе 5
Сӗнтӗрвӑр@@ 5
Ҫыннӑн 5
тӳресем 5
памарӗ 5
уҫать 5
мелӗсемпе 5
хӑпартнӑ 5
сӑввӑ@@ 5
хистерӗ 5
Хӑнасем 5
енине 5
меннисем 5
ҫитӗнет 5
Ух@@ 5
мӗскӗн@@ 5
ҫӗрӗр 5
ялсенчен 5
пуртӑ 5
административлӑ 5
пӗлтерӗр 5
Навуфее 5
ҫитеймен 5
Пӗлтӗрхи 5
Муркаш@@ 5
ҫулӗсене 5
Григорьевич 5
пысӑкланнӑ 5
Авессана 5
Укра@@ 5
пӗрлештерме 5
юраманнине 5
кӗрпе 5
Авия 5
керменӗн 5
пурӑнакансемпе 5
тӗрӗ@@ 5
хӑйне@@ 5
техникумне 5
ҫапӑҫрӗҫ 5
пӗртӑванне 5
сумне 5
ҫӗклет 5
ӗмӗт@@ 5
пӗҫ 5
стажӗ 5
аро@@ 5
типе 5
этемлӗх 5
110 5
экземпля@@ 5
ҫулталӑкӗпех 5
тни 5
ҫилӗ 5
Машина 5
тухнӑранпа 5
лӑхӑртан 5
ӑмӑртнӑ 5
Зах@@ 5
гимн@@ 5
пӗлтернине 5
каларӑш 5
ҫуратма 5
Вӗренме 5
онкологи 5
юнь 5
ирттерчӗ 5
Дафанпа 5
пусар@@ 5
Ливна 5
Маре@@ 5
майсемпе 5
онӑн 5
купал@@ 5
Пӳрт@@ 5
мирен 5
Тӑшман 5
Иааца 5
тупаласа 5
тӑрӑн@@ 5
Красноармейски 5
ӗҫлен@@ 5
теҫетке 5
посе@@ 5
ӗллӗ 5
каят@@ 5
Альтук 5
рекла@@ 5
ушкӑнӗпе 5
ывӑлӑмпа 5
кулӑш 5
анӑҫ@@ 5
вулатӑп 5
ирӗкӗ 5
ҫитӗҫ 5
Ев@@ 5
фестивалӗн 5
хавша@@ 5
Цеф@@ 5
Бри@@ 5
председате@@ 5
замести@@ 5
иксӗл@@ 5
чӳлмекре 5
алли@@ 5
кӗсле 5
ья 5
Наталия 5
новна 5
мероприятисем 5
куран 5
тавара 5
пултармалли 5
Кабинетне 5
эткер@@ 5
Анно@@ 5
аҫуна 5
ертӳҫине 5
Вӗрентӳ 5
итлесшӗн 5
Тӳпе 5
ирӗклӗрех 5
уксах 5
ттӑр 5
Сер@@ 5
еве@@ 5
пӗтерччӗр 5
Моисе@@ 5
кӳршӗ@@ 5
Совет@@ 5
хӗрхеннӗ 5
кишӗн 5
килӗшмест 5
евре@@ 5
аттемӗрсен 5
Сыл@@ 5
пла 5
хаҫатсенче 5
пӗрлӗх 5
Тарҫисем 5
картинче 5
мастчӗҫ 5
пӗвӗпе 5
чӗрех 5
пурӑнчӗ 5
Йӗпре@@ 5
миндаль 5
хуппине 5
сӳсе 5
тӑрӑнса 5
Тир@@ 5
есси 5
хамӑртан 5
ӑмӑртусем 5
вуниккӗ 5
Пиччӗ@@ 5
ҫуртсене 5
Леш 5
чунӑ@@ 5
ачаранпах 5
нӑй@@ 5
саккӑр@@ 5
вырӑнсемпе 5
тӗпченӗ 5
арӑм@@ 5
хӳхленӗ 5
кӑлпасси 5
кро@@ 5
чӗп 5
Миш@@ 5
Сихема 5
шывӗпе 5
Куславкка 5
аҫӑрсенӗн 5
патшан 5
Ӗпхӳ 5
тӳррине 5
арӑн 5
суеҫ@@ 5
пулсанччӗ 5
чӗрӗрсем 5
Тӑлӑх 5
Патша@@ 5
чӗреме 5
ирсерен 5
ҫӑлтӑр@@ 5
регионта 5
ҫынах 5
тӗнчипех 5
пӗҫермелле 5
призер@@ 5
тытакан 5
мӑшӑрпа 5
пултартӑмӑр 5
ашаку 5
ҫӳреччӗр 5
Вӑрт@@ 5
сӑлтавне 5
авантарах 5
юратакансене 5
ҫывӑхарах 5
пӑтра@@ 5
сайтӗнче 5
каччӑна 5
сӗне@@ 5
паттӑрсен 5
кӑсемпе 5
Хайхи 5
моряк 5
сипе@@ 5
пӗрлештерсе 5
упрас 5
кӳршисем 5
килсех 5
чах 5
патӑмӑра 5
Гефа 5
запасӗсене 5
терекенсене 5
Гад@@ 5
службӑна 5
184 5
хурлӑхлӑ 5
ҫыннах 5
хим 5
комсо@@ 5
Хаваслӑ 5
проектпа 5
пӗтерсех 5
ртса 5
кӑшкӑртӑр 5
Елиасаф 5
карас 5
тӑхӑмна 5
ӗнер@@ 5
хучӗпе 5
вӗҫтерсе 5
автомашин@@ 5
енсе 5
лайӑххи 5
хутшӑнтӑмӑр 5
Эмел 5
препара@@ 5
Дина 5
сайта 5
Тӑш@@ 5
пуҫаруллӑ 5
филистимсенчен 5
вап@@ 5
вырнаҫа@@ 5
мӑма 5
ларӑвӗ 5
илран 5
арҫын@@ 5
Пуш 5
педагогсем 5
ашакӗ 5
Яракана 5
автобус 5
палли@@ 5
Беф@@ 5
тумлам 5
настой@@ 5
курӑнма 5
ҫуна 5
хӳттинче 5
пултарӗҫ 5
кӑтартӑр 5
кӗрне@@ 5
ҫителӗклех 5
статйипе 5
тӗсне 5
предприятийӗ 5
килӗшӳсене 5
контракчӗпе 5
службинчи 5
квалификаци 5
требованийӗсем 5
сыпӑкӑн 5
чурӑс 5
пурлӑхӗн 5
ность 5
илемлӗн 5
пулӑш 5
культурӑсем 5
ҫарат@@ 5
сӗмлӗхе 5
кӗретчӗ 5
шах@@ 5
сике@@ 5
кенсен 5
призерӗ 5
суйламан 5
таҫтан 5
выртаҫҫӗ 5
ҫирӗплӗхне 5
Кирилл 5
ҫеккунт 5
хӗрӗсен 5
пӗрлӗхне 5
ессине 5
адрес@@ 5
больницин 5
тӗпсӗр 5
онал 5
Писательсен 5
союз@@ 5
профессо@@ 5
Аллилуева 5
шӑра 5
ларӑвне 5
йӗнине 5
мӑнукӗсем 5
Харо@@ 5
курӑксене 5
Ара@@ 5
рат 5
сыхланӑ 5
Хусан@@ 5
Лен@@ 5
тӑвана 5
наград@@ 5
уполномоченнӑй 5
Уполномоченнӑй 5
пырай@@ 5
лака 5
хул 5
Егоровна 5
Симӑн 5
тепӗр@@ 5
хирсе 5
ҫирӗк 5
курӑкӗ 5
ӳтӗн 5
пӗлтермешкӗн 5
итлет 5
канлӗх 5
эксперт@@ 5
Купӑ@@ 5
ҫурӑмлӑ 5
малтан@@ 5
патӑмра 5
йӗркин 5
лӑн@@ 5
Чак 5
ок 5
пайласа 5
еткерлӗхӗ 5
Пӳрте 5
савӑнтарнӑ 5
отря@@ 5
течӗн 5
ЬЕВ 5
кулленех 5
тӗсе@@ 5
вӗлермешкӗн 5
йӑлӑннине 5
ҫимесӗр 5
пичетле@@ 5
Иерусали@@ 5
Ашшӗпе 5
Узиил 5
чарусене 5
передачӑсем 5
ҫӑварупа 5
тасатать 5
Сихеме 5
Меро@@ 5
прияти 5
культурипе 5
кантра@@ 5
Гера 5
атя 5
кӗвӗҫекен 5
рук 5
ывӑлӑрсене 5
ӳсӗм 5
пӗлтеретӗп 5
иличчен 5
татать 5
сунӑ 5
туррӑ@@ 5
асӑрхасан 5
тем@@ 5
путӑк 5
гитара 5
хоккеист@@ 5
юлай@@ 5
юланутҫисем 5
пырӗҫ 5
сценари@@ 5
тытрӗҫ 5
пӑртак 5
Енос 5
территорийӗнчи 5
тумтирсем 5
Мини@@ 5
пултартӑр 5
Тивӗҫлӗ 5
Ҫакӑншӑн 5
Шул@@ 5
янах 5
Пӗлтер@@ 5
арканнӑ 5
Кирил@@ 5
тухрӑн 5
Ыр 5
еврейсем 5
Кӗне@@ 5
Мафусал 5
пӑхмаҫҫӗ 5
пычӗҫ 5
Севастополь 5
хавхалану 5
тӑмаҫҫӗ 5
Аморрей 5
ҫамрӑксемпе 5
хоккейла 5
тертлен@@ 5
лӑран 5
страх@@ 5
ялан@@ 5
шуйханса 5
зала 5
ҫӗне@@ 5
лавккана 5
ҫитерчӗҫ 5
екенсене 5
пӑрахӗҫ 5
ҫел@@ 5
сарӑлмасть 5
1950 5
ами 5
ачасенчен 5
сып@@ 5
стан 5
Филиппова 5
куҫҫуль 5
сӑнарлӑ 5
кӗрлесе 5
Зар@@ 5
арӑмпа 5
ҫыпӑ@@ 5
пичечӗн 5
конкурсӗ 5
кунӗсене 5
упӑшкинчен 5
пуҫӑ@@ 5
паркӗн 5
сехете 5
Выльӑх@@ 5
пресс 5
ҫӑмарта 5
туяпа 5
логсем 5
бин 5
ӗҫекен 5
Алӑ 5
юк 5
ҫитеймест 5
сирпӗттӗр 5
ҫывӑхӑ@@ 5
хыпаласа 5
шултра 5
расшӑнччӗ 5
пусӑрӑн@@ 5
Кошкинский 5
шарламарӗ 5
упрамалли 5
Ӑслӑ@@ 5
утӑма 5
хуҫса 5
вырнаҫтарас 5
типӗтме 5
прине 5
ветеринари 5
кайманнине 5
туйӑмӗ 5
хор@@ 5
делега@@ 5
тертӗм 5
тӑраннӑ 5
сӗртӗнекен 5
вакланӑ 5
шайран 5
эх 5
нинех 5
куҫарасси 5
комиссариат@@ 5
Умра 5
хушӑн 5
нӑранпах 5
каҫӑр 5
млӗ 5
майра 5
ресто@@ 5
тӑхӑн 5
хӗрри@@ 5
хаяррӑн 5
Елабугӑри 5
чӗркенӗ 5
чӑл@@ 5
касман 5
пурӑнсан 5
Бай@@ 5
преступлени 5
витамин 5
палӑраҫҫӗ 5
Республикине 5
ывӑтрӗ 5
хинех 5
Атароф 5
ханаан@@ 5
ентешсем 5
кӗричченех 5
Каласа 5
килӗп 5
Игнат@@ 5
музе@@ 5
хутӑш 5
илтӗ 5
Обще@@ 5
направ@@ 5
ӗмӗрте 5
ҫӑлтӑр 5
тӑшманусем 5
ус 5
ровка 5
Авимелех@@ 5
тера@@ 5
чӗрку@@ 5
минута 5
Професси 5
судьясен 5
хурасси 5
ҫултанах 5
рассишӗн 5
Оксана 5
йӑхӗпе 5
ыйтӑвӗ 5
нем 5
литературӑпа 5
станри 5
ӑри 5
концер@@ 5
килни 5
воф 5
Аварим 5
харӑсах 5
ҫамрӑкӑн 5
Хӗрарӑмсен 5
калаҫар 5
ҫӑмӑллӑх 5
ҫыннипе 5
чӗнмесӗр 5
шӑрпӑк 5
илекенсен 5
предприятисенче 5
бригад@@ 5
илнӗччӗ 5
несем 5
тӳрем 5
юсан@@ 5
чирлесен 5
ӑстисем 5
Архипова 5
заведующийӗ 5
телекоммуникаци 5
юриех 5
Юн@@ 5
шисем 5
уявсем 5
пуянлӑха 5
ҫухалса 5
пулӑшмалла 5
таврашне 5
эпи 5
сӑпра@@ 5
вӗрент 5
йӗрӗ 5
лица 5
вич@@ 5
постанов@@ 5
уйӑрнине 5
улталан@@ 5
йӳҫӗтсе 5
ҫӑкӑрӗ 5
тӗвесем 5
йывӑҫҫинчен 5
хупӑннӑ 5
Сӗнтӗр@@ 5
пӑруланӑ 5
литературин 5
Пиччӗшӗсем 5
паль@@ 5
инфратытӑм 5
ранхи 5
каҫать 5
илмест 5
ыйтмасть 5
кӗлмӗ@@ 5
Ифамара 5
Чылайӑшӗ 5
хӳтӗленӗ 5
тивӗҫрӗ 5
Циф@@ 5
Кунтан 5
чӗсенчи 5
ӳпре 5
хутран 5
илищ@@ 5
йӗркелӳ@@ 5
ытлашши@@ 5
усенчен 5
кӗрӗш@@ 5
хака 5
комплекслӑ 5
коопера@@ 5
сай 5
хӗсӗрле@@ 5
чемпионатӗнче 5
ленийӗн 5
генерал 5
тис@@ 5
шӑпӑр@@ 5
чпе 5
чарӑнсассӑн 5
рӑх@@ 5
йӑлари 5
пилӗк@@ 5
кӗпер@@ 5
завод@@ 5
юлташӗсемпе 5
улпу@@ 5
ӳкет 5
патшаран 5
халӑхсемпе 5
сӑл@@ 5
Унашкал 5
халран 5
импорта 5
политикӑна 5
сӑмахӗсемпе 5
зра@@ 5
хускалнӑ 5
ҫемйине 5
Никифо@@ 5
кӑмӑлланӑ 5
ент 5
мӑйӑ@@ 5
хулӑнӑш 5
102 5
карти 5
донор@@ 5
Ремалия 5
зия 5
Факей 5
Боль@@ 5
ӑнӑҫлӑн 5
хатӗрленнине 5
Аршинова 5
хакли 5
чӗсенчен 5
пиҫӗх@@ 5
оборудовани 5
хирсене 5
ӗмӗрлӗ 5
мӗнлине 5
хулпуҫҫи 5
вӑрах@@ 5
кунтӑ 5
чечекне 5
пустар@@ 5
Ноемин@@ 5
корпус@@ 5
пуҫе@@ 5
Кор@@ 5
ыратать 5
Мелхолӑна 5
виде@@ 5
диск 5
ҫумра 5
термин@@ 5
сухала@@ 5
укҫин 5
лӑпкӑ@@ 5
йынӑш@@ 5
йӗни 5
нӑя 5
пӑхӑнтарса 5
пурнӑҫри 5
ҫитеймерӗ 5
хӗсӗрлесе 5
Яхве 5
Аль@@ 5
ҫыннисемшӗн 5
кастарнӑ 5
документ 5
пӗрне@@ 5
сӑна 5
хитон 5
хӳтӗлев 5
ок@@ 5
хыр@@ 5
сыр 5
лиг@@ 5
ӳтӗре 5
терессине 5
шалта 5
лава 5
Ҫуркунне@@ 5
йӑхта@@ 5
вунсакӑр 5
тыттарнӑ 5
хӗрарӑмӗсене 5
сет@@ 5
120 5
Ҫем@@ 5
тейӗ@@ 5
каятчӗҫ 5
хӑраҫҫӗ 5
Мамӑш 5
пӗсене 5
преподаватель@@ 5
тавлӑ 5
ентешӗ@@ 5
ӑшӑнта 5
пӗтичченех 5
неллӗ 5
ронран 5
Воробьев 5
Ҫырӑва 5
нушисем 5
пулӑва 5
вӗрентекенӗ 5
Саулран 5
тӑвансене 5
коллектив@@ 5
Беэр 5
кӗтессине 5
аялтан 5
псаломӗ 5
тӗмӗ 5
ӳнте 5
тӗлӗшӗнчи 5
асапӑ@@ 5
ҫулталӑкра 5
фольклор 5
Николаева 5
ултав 5
сивле@@ 5
ӗсӗр 5
Сурков 5
вӗренмелли 5
Ҫыхӑну 5
тивмен 5
пушмак 5
Чугун 5
Иллари@@ 5
Пирогов 5
Конкур@@ 5
кӳнтелен@@ 5
чаха 5
мӗсенче 5
ҫите@@ 5
проекчӗсем 5
ҫиетӗр 5
Илья 5
управлени 5
йӗркесен 5
итлемерӗр 5
коллектив 5
Урожай 5
1944 5
дсем 5
резервӗ 5
ҫӑвӑ@@ 5
V 5
пӗрешкел 5
Сӗтел 5
вӑран 5
искусствӑлла 5
Илларионович 5
Програм@@ 5
кӗрӗ@@ 5
ялӗсенче 5
юратман 5
пӗчӗкки 5
жнӑй 5
ҫулнӑ 5
таж 5
тина 5
контей@@ 5
туяна 5
кампа 5
фестивалӗ 5
хайланӑ 5
Сумлӑ 5
чиркӗве 5
калаҫрӑм 5
кӗрешес 5
йӑпӑл@@ 5
баскет@@ 5
болла 5
верӑн 5
вылярӗҫ 5
вай@@ 5
администрацине 5
пара 5
Пушкӑртстанри 5
ула 5
лашасем 5
районӗсенче 5
хирӗҫӳ 5
Антонина 5
пуҫтах 5
1990 5
ССР 5
пӑсӑ@@ 5
во 5
хетсене 5
евейсене 5
Сӑма@@ 5
тасалса 5
тӗнне 5
ҫуралнӑскер 5
ухмах@@ 5
клад@@ 5
хисеплеҫҫӗ 5
тари@@ 5
колхоза 5
утрӑм 5
Куҫар@@ 5
Май 5
мас 5
пӑхӑна@@ 5
хуна 5
ҫирӗплетрӗҫ 5
Пухӑвӗн 5
рул@@ 5
Антонов 5
музейӗн 5
ӳкрӗм 5
тӗнчипе 5
температури 5
Пит@@ 5
Рахиль@@ 5
вылянине 5
хӑтартӑм 5
телефон 5
тарҫӑм 5
хӑрхӑму@@ 5
журналистсем 5
полиграфи@@ 5
патшинче 5
паллисене 5
Пичче 5
коррупципе 5
стана 5
паракансем 5
органсем 5
Оф@@ 5
лартнӑччӗ 5
йышӑнӑвӗпе 5
хӑнӑхтарнӑ 5
Цури@@ 5
ӳсемпе 5
вырнаҫрӑм 5
ӳрӗк 5
ҫӗклерӗ 5
пултарасса 5
хуравлать 5
мухтавлӑхӑма 5
уран 5
вӗренекенне 5
инноваци 5
тинӗсре 5
ненӗн 5
йӳҫӗлле 5
специальноҫ@@ 5
Юрӑ@@ 5
ӑсран 5
шакла 5
Лахис 5
Шута 5
кӗтекен 5
тырӑ@@ 5
макӑрни 5
пухӑнчӗҫ 5
пайӗнчен 5
Тем@@ 5
вуланӑ 5
Исинбаева 5
утма 5
васкать 5
телеви@@ 5
тупӑнсассӑн 5
пуканне 5
Шимрон 5
опычӗпе 5
агре@@ 5
бри@@ 5
каль@@ 5
вани 5
ӑсталӑхӗпе 5
пыратчӗ 5
израиль@@ 5
конь@@ 5
тайса 5
пулмаллине 5
обществӑпа 5
тӑршшӗнче 5
тассине 5
Хӑвӑра 5
Ҫитменнине 5
новсем 5
ҫыр 5
нире 5
Любовь 5
процес@@ 5
пӑшал 5
Пушкинӑн 5
илтетӗп 5
программӑн 5
тунипе 5
Мордвинов 5
виткӗч 5
Иоас 5
поселени 5
пинччӗ 5
Володя 5
ӳкӗҫ 5
вулакансене 5
Федотов 5
Демо@@ 5
хакпа 5
чечекӗсем 5
хӑйтытӑмлӑхӑн 5
Мариам 5
хып@@ 5
ҫухалчӗ 5
ӗҫӗсемпе 5
ҫиллентерсе 5
ҫсен 5
бом@@ 5
Салам 5
пӗрле@@ 5
астӑ@@ 5
Э 5
тӑшманӗсем 5
хирур@@ 5
парӑпӑр 5
ӗнчине 5
пӑш 5
каяссине 5
шӑла 5
Миро@@ 5
ҫӑпӑр 5
лапамра 5
вак@@ 5
пашал@@ 5
юратӗ 5
йышӑннине 5
пӗрмаях 5
пӗтерчӗҫ 5
суйлаҫҫӗ 5
Попов 5
анге@@ 5
саксем 5
ҫисессӗн 5
минче 5
ҫулӑн 5
Авирон 5
хупӑр@@ 5
полковник 5
ялтах 5
яка 5
мӑйракаллӑ 5
хутлӑхӗн 5
донор 5
Чӑвашсем 5
лесни@@ 5
кӑрӑ@@ 5
Владислав 5
дик@@ 5
килӗпе 5
йӗнерлесе 5
Курӑ@@ 5
кӗм 5
ещ@@ 5
Фал@@ 5
тасем 5
бен@@ 5
кӑтартнипе 5
Зинаида 5
хетсен 5
аяларах 5
музей@@ 5
сӗмлӗх 5
ӗх 5
пуҫҫап 5
айӑпӗшӗн 5
митин@@ 5
вырма 5
экспо@@ 5
халӑхупа 5
шӑммӑм 5
сачӗ 5
ҫутанкка 5
Ҫанталӑк 5
нен 5
реда@@ 5
херувимсем 5
ҫавӑраҫҫӗ 5
Халиччен 5
Вифлеем@@ 5
таварӗн 5
Египетӑн 5
турра 5
хӑвӑн@@ 5
экономикине 5
пинлӗ 5
Ну 5
синкерлӗ 5
сӑхнӑ 5
кӗтӗвӗсем 5
стӑн 5
Шурча 5
Авель 5
Симо@@ 5
инфек@@ 5
масем 5
тумӗ 5
пуҫкӑшӑль 5
шӑрҫапа 5
лова 5
ӑсма 5
проекчӗсен 5
сӑк 5
угле@@ 5
Кав@@ 5
купӑ@@ 5
служащийӗсене 5
принцип@@ 5
сӗртӗр 5
пӑлтӑрӑн 5
кӑмӑллӑх 5
Финееса 5
тӑкӑп 5
ҫуначӗпе 5
хуласенчен 5
хамӑ@@ 5
дивизийӗ 5
рун@@ 5
Фурманов 5
тапхӑрсене 5
тытӑнӗ 5
ид@@ 5
Тул 5
парнӳсене 5
хупла@@ 5
почтальонка 5
хӑварчӗҫ 5
талӑ@@ 5
1000 5
Кӑна 5
ҫыхӑнман 5
тӑшманӑрсем 5
ӗненӗр 5
би 5
Эсто@@ 5
Гелвуй 5
СК 5
кайӑкран 5
хӑвалать 5
чунӗнче 5
илтнӗччӗ 5
Асиро@@ 5
Яковлевич 5
тӑвӑл 5
заведующи@@ 5
Пуҫлӑхне 5
сетӗнчи 5
ru 5
урайне 5
месле@@ 5
Александрович 5
явап 5
туслашма 5
пророкӗ 5
текенсен 5
хутса 5
ҫыхӑнтарма 5
ҫыртӑм 5
папа 5
хупа 5
ылхана@@ 5
ферма 5
тӳрре@@ 5
производствӑсем 5
инӑн 5
Мӑшӑрӑм 5
чӳ@@ 5
тӑсӑл@@ 5
космонавт 5
канал@@ 5
пӑрахӑҫа 5
илеймен 5
шухӑшламасӑр 5
хутшӑнасси 5
салхуллӑ 5
ирӑн 5
кӑлараҫҫӗ 5
инвали@@ 5
йӗн@@ 5
лерӗмӗр 5
савӑтне 5
нефть 5
вӑрҫа@@ 5
ҫулпуҫ 5
тармаллине 5
хӑватсем 5
районӗсен 5
ҫет@@ 5
хатӗрӗсене 5
лӗк@@ 5
асаттесем 5
илнипе 5
вӗлерекен@@ 5
ҫӗрӳн 5
пуҫлансан 5
ный 5
мий 5
Амӑшне 5
Энтри 5
Арка@@ 5
процентран 5
тийӗсем 5
шикленсе 5
800 5
инвестицийӗсем 5
тӑванусем 5
хыҫалалла 5
хӑюҫа@@ 5
Адонияна 5
тыткалакан 5
яшка 5
велосипедпа 5
Изма@@ 5
Стрелоксен 5
Ира 5
асне 5
ҫыпӑҫтарса 5
пиҫиххи@@ 5
ҫивиттипе 5
теччӗр 5
келех 5
тӑмччӗ 5
вӑрлӑху 5
йӑп@@ 5
g@@ 5
ҫырман 5
кассинчи 5
Енӗш 5
тытсассӑн 5
чӗмекӗ 5
тӗрнӗ 5
хрес@@ 5
Андреев 5
ирӗклӗхӗсене 5
евӗрлех 5
хӗресленекен 5
w@@ 5
80@@ 4
проез@@ 4
бронза 4
Покров@@ 4
начальник 4
ҫыхӑнусем 4
ӗҫлетӗр 4
ӗҫлерӗҫ 4
йӗнер@@ 4
окассе@@ 4
Ном@@ 4
доклада 4
отпуск 4
Патри@@ 4
от 4
Петюк 4
пӑтал@@ 4
интеллиген@@ 4
ялла 4
400 4
Фир@@ 4
Тарук 4
Анаткас 4
ней@@ 4
хол@@ 4
ҫӑка 4
тора 4
никӗ@@ 4
зер 4
Геро@@ 4
премье@@ 4
Ефрон 4
Махпела 4
передача 4
вос@@ 4
лашу@@ 4
мач@@ 4
ЭКРА 4
ЯХ@@ 4
командиров@@ 4
ӗҫлев 4
1980 4
эпизо@@ 4
Чувашия 4
Асси@@ 4
арти@@ 4
Кам@@ 4
самолет 4
Сызра@@ 4
курс 4
Оро@@ 4
ӗсӗк@@ 4
Анан@@ 4
танк 4
Масси@@ 4
Веф@@ 4
хор 4
Тови@@ 4
лата 4
вана 4
аллер@@ 4
Неф@@ 4
Роге@@ 4
ило@@ 4
награда 4
1983 4
ГИБДД 4
майо@@ 4
умри 4
Иофам 4
мӑкӑр@@ 4
Пуч@@ 4
ҫӗнӗлле 4
ӗмӗтне 4
хӳ 4
ҫӗнтерӳҫӗсене 4
Гаврило@@ 4
круж@@ 4
управля@@ 4
инжене@@ 4
компьютер@@ 4
ска 4
халан@@ 4
фоноте@@ 4
Александров 4
Баана 4
Иевос@@ 4
Нау@@ 4
баян 4
ӑнне 4
Хеле@@ 4
технику@@ 4
Гаврилов@@ 4
стадиона 4
лнӑ 4
Ну@@ 4
сади@@ 4
ӑшӑн@@ 4
энерги@@ 4
футбол 4
ӳксессӗн 4
Симеона 4
диспан@@ 4
пози@@ 4
ӗнекен 4
ӑшӑр@@ 4
1928 4
маран 4
Пурӑн@@ 4
Аро@@ 4
Аре@@ 4
Хирама 4
Палад@@ 4
Кааф@@ 4
ӗҫлей@@ 4
прес@@ 4
Сил@@ 4
Искари@@ 4
води@@ 4
ӗрех 4
тичченех 4
Ивник 4
тр 4
ӳтри 4
Никифорович 4
Светлан@@ 4
Архи 4
модерни@@ 4
питти 4
мака 4
километр 4
редакто@@ 4
зан 4
ган 4
ӳсме 4
ӗнме 4
ӳпкеле@@ 4
Ахиезер 4
Пагиил 4
Ахира 4
тупи@@ 4
Турген@@ 4
Донор@@ 4
Мен@@ 4
Вер@@ 4
чете 4
Сеннаар 4
ӳснине 4
тавраш@@ 4
фу 4
ракана 4
Митта 4
пике@@ 4
ӳтпе 4
Римма 4
Шӗ@@ 4
Данило@@ 4
ӑрусем 4
Лукианов 4
Вен@@ 4
Естао@@ 4
Емельянов 4
Ханох 4
Чура 4
Петя 4
пӗттӗр 4
Степанова 4
Фин@@ 4
багажа 4
1966 4
иксӗ@@ 4
путене 4
…» 4
ӳпкелетӗр 4
пу 4
тете 4
ӳсме@@ 4
Лав@@ 4
свидетельство 4
кӗшӗ@@ 4
прото@@ 4
сертифика@@ 4
ангел 4
Физкультур@@ 4
ҫӳҫӗ 4
Сатай 4
ҫӳрес 4
Агрофирма 4
Ольдеевская 4
ЗАО 4
журналистика 4
Рамофа 4
Каиафа 4
фермер@@ 4
маг@@ 4
тут@@ 4
1975 4
Кра@@ 4
аслӑрах@@ 4
др 4
Станьял 4
Демен@@ 4
Кондратьевич 4
Елицур 4
Шеде@@ 4
тон 4
Иаков@@ 4
Сур@@ 4
ов@@ 4
тӳ 4
компонен@@ 4
Иль@@ 4
отряд 4
Елам 4
Кедорлао@@ 4
Сигор 4
ӗҫченӗсемпе 4
Викторина 4
рех@@ 4
ӗсенчи 4
ӑсан@@ 4
жгут 4
Изд@@ 4
ательство 4
пункта 4
капитал@@ 4
кали 4
Георги@@ 4
механизатор@@ 4
перечен@@ 4
Коммун@@ 4
Мир 4
Октябрь@@ 4
Елишама 4
Авидан 4
Гидео@@ 4
объект 4
мор@@ 4
дка 4
ҫӑмӗнчен 4
шай 4
Ой@@ 4
ҫырӑвӗ 4
ятам 4
Шаал@@ 4
Елон 4
Екрон 4
Елли@@ 4
вов 4
Есевон@@ 4
Ар 4
награ@@ 4
перех 4
ҫӗнӗлӗх 4
стин 4
Сандриков 4
Шоми@@ 4
Хри@@ 4
Иовав 4
тапра@@ 4
хист@@ 4
Иофор@@ 4
Евграфо@@ 4
мото@@ 4
нан 4
статисти@@ 4
мер@@ 4
Сарпи 4
лки 4
ҫӳхе 4
Ульянов@@ 4
скра 4
ье 4
Кир@@ 4
кать 4
Иоанн 4
Мел@@ 4
ез@@ 4
вӑн@@ 4
ҫырла@@ 4
форма 4
Нахора 4
ҫӳрӗҫ 4
ӗҫлемесӗр 4
ӳсте@@ 4
пеле 4
церна 4
тап 4
зина 4
Телей 4
ҫер@@ 4
поход 4
тьев 4
ӑнланать 4
православ@@ 4
Гевал 4
ӳтӗм 4
комби@@ 4
Андре@@ 4
ӗҫей@@ 4
Махир@@ 4
ОО@@ 4
Би@@ 4
экспер@@ 4
представ@@ 4
Шамма 4
Иаред 4
роф 4
Иевус 4
Клуб 4
Нафанаил 4
Хусарсафема 4
Гофониил 4
кабине@@ 4
ӳсӗм@@ 4
ӑхса 4
ҫыннӑрсем 4
Мас@@ 4
династи@@ 4
ҫӑпан@@ 4
Малелеил 4
ҫӑнӑхпа 4
Порфир@@ 4
ьевич 4
мӗс 4
Вет@@ 4
сехӗр@@ 4
йывӑ@@ 4
ООО 4
Чеч@@ 4
фин@@ 4
ӗмех 4
Краснов 4
ланипе 4
чие 4
Команд@@ 4
лейтенан@@ 4
оникс 4
тивле@@ 4
Тюмень 4
больници@@ 4
Эр@@ 4
ченӗ 4
ӗмсӗр 4
ҫыпҫӑн@@ 4
дий 4
?] 4
Петра 4
ӗнесем 4
ӗнене 4
кон@@ 4
теори@@ 4
потреби@@ 4
ган@@ 4
чут@@ 4
алан@@ 4
вса 4
танпах 4
330 4
мор 4
историк 4
кӑҫ@@ 4
журн@@ 4
алис@@ 4
серви@@ 4
Матрена 4
ФА@@ 4
Интернацион@@ 4
воин@@ 4
Ҫил@@ 4
Валер@@ 4
моф 4
Кири@@ 4
афаим 4
Фегор 4
Фас@@ 4
Ус@@ 4
ют@@ 4
Правитель@@ 4
шӑ 4
яз@@ 4
ское 4
совхоз 4
Волго@@ 4
град@@ 4
фия 4
дни@@ 4
струк@@ 4
пахи 4
тая@@ 4
зан@@ 4
ӗре@@ 4
пь@@ 4
ъ@@ 4
1986 4
сержант 4
Навуфей 4
тире 4
столо@@ 4
Шо@@ 4
Ӳс@@ 4
ректор 4
еш@@ 4
чее 4
Зел@@ 4
Маша 4
Еммора 4
ВА 4
ленех 4
ӑмӑртӑвӗнче 4
аб@@ 4
сла@@ 4
Сав@@ 4
ҫӗрӗнчех 4
блокнот 4
Яганева 4
Стра@@ 4
103 4
ӗлкӗрет 4
ҫӗнтернине 4
Роди@@ 4
Гарашкин 4
ино@@ 4
Елифа@@ 4
десан@@ 4
матиз@@ 4
ӳсрӗҫ 4
Поэ@@ 4
рей 4
Маон 4
Матве@@ 4
273 4
участ@@ 4
ӑмӑрсем 4
Авеле 4
ӗлсе 4
тӑш 4
G@@ 4
13@@ 4
60@@ 4
r@@ 4
c@@ 4
зада@@ 4
Совхо@@ 4
ӗрчет@@ 4
Специали@@ 4
Соломо@@ 4
хӑрмӗш 4
хавш@@ 4
ӑсчахсен 4
рее 4
кӗрӳ@@ 4
РАНХиГС 4
хен 4
яс@@ 4
кушкина 4
корпора@@ 4
преми@@ 4
Цар@@ 4
Аве@@ 4
тарь 4
Ахса 4
ӳне 4
огра@@ 4
Ефрема 4
271 4
Ухов 4
цент@@ 4
Андри@@ 4
Степанов 4
Раамсес 4
Илиополь 4
Сай@@ 4
циен@@ 4
Профес@@ 4
Талвир 4
зы@@ 4
ӗҫсемшӗн 4
Шӑмӑр@@ 4
шеф 4
вӑра 4
ӗмӗрӗпе 4
ким 4
Иерихона 4
ная 4
пропаганд@@ 4
оде@@ 4
Рефиди@@ 4
экскур@@ 4
ӗҫлеччӗр 4
стри 4
пье@@ 4
лӑнах 4
ИГ@@ 4
роз@@ 4
ӗшре 4
ӳстересси 4
Стат@@ 4
клар@@ 4
Ицгар 4
бассей@@ 4
Поэт 4
этно@@ 4
метр@@ 4
ҫӳрӗп 4
17@@ 4
Тай@@ 4
агроном 4
Хап@@ 4
еме 4
рӑнӗ 4
тана 4
Пластик 4
Сера@@ 4
фима 4
Борисов@@ 4
Валенти@@ 4
ҫӗннине 4
хытаркӑ@@ 4
распис@@ 4
инженер@@ 4
Вифлеема 4
хӑмсене 4
бин@@ 4
ҫӑварунтан 4
ҫулу 4
кру@@ 4
фаф 4
Дивла@@ 4
Восор 4
ҫӗклӗҫ 4
ҫырчӗ 4
гре@@ 4
удобр@@ 4
грант 4
илен 4
уни@@ 4
1939 4
тиверт@@ 4
план 4
пӑл 4
ские 4
Айя 4
пулемет@@ 4
характеристи@@ 4
Шева 4
Нав@@ 4
рим 4
Секела@@ 4
автор 4
спи@@ 4
ничченех 4
прокат@@ 4
лӗнрех 4
став@@ 4
вуннӑ@@ 4
Болгар@@ 4
гана 4
Иавок 4
канала 4
шкина 4
льтра@@ 4
фиолет 4
ҫӑвартан 4
ҫӳретме 4
вам 4
ҫырнипе 4
вви 4
санк@@ 4
илов 4
пром 4
Апа@@ 4
вле@@ 4
транспор@@ 4
Уках 4
ранӗ 4
пове@@ 4
художе@@ 4
ӑстисен 4
таш 4
вав 4
але@@ 4
Наг@@ 4
мл@@ 4
Вифлееме 4
лавкка 4
Петербур@@ 4
фран@@ 4
цуз 4
Медицина 4
Восток 4
ппу@@ 4
Египет@@ 4
Союз@@ 4
поэзи@@ 4
Инд@@ 4
сочин@@ 4
экзамен 4
Гроз@@ 4
музы@@ 4
кита@@ 4
ката 4
Тымар@@ 4
Ефре@@ 4
псалтир@@ 4
шав 4
Нарко@@ 4
вс@@ 4
Никола@@ 4
мари 4
Рефаим 4
Ӗне 4
ӑскер@@ 4
Руви@@ 4
хулар@@ 4
Тимофеев 4
теми 4
Паль@@ 4
ней 4
Патӑрье@@ 4
Хофф@@ 4
сто@@ 4
конверт@@ 4
Ури@@ 4
Салмана 4
Уч@@ 4
ҫӳремелӗхне 4
Космодемьян@@ 4
Театр 4
Елимелех 4
ӑсталӑхлӑ 4
чӗк@@ 4
ӳкрӗ 4
анн@@ 4
шет@@ 4
юрис@@ 4
ӳстерни 4
1974 4
мобили@@ 4
Трофимо@@ 4
хӗрес@@ 4
фио@@ 4
ҫыпӑҫтар 4
Матро@@ 4
КО@@ 4
Федера@@ 4
1994 4
само@@ 4
журнали@@ 4
Фалек 4
патши@@ 4
стра 4
юри 4
VI 4
АО 4
что 4
сайт 4
D 4
пух 4
халалӑ@@ 4
Саккун@@ 4
пор@@ 4
капи@@ 4
шать 4
Кӳр@@ 4
сӗрлӗх 4
кий 4
Маханаим 4
кашни@@ 4
элек@@ 4
ӗҫсӗрлӗх 4
ҫӗмр@@ 4
Зарница 4
врач@@ 4
Китай 4
слан 4
ӑмӑртусенче 4
оби@@ 4
Тури@@ 4
сакӑр@@ 4
Ноя 4
коридо@@ 4
Юбил@@ 4
мак@@ 4
пет@@ 4
онов 4
Лермон@@ 4
Некра@@ 4
Ним@@ 4
род 4
ство@@ 4
Палӑ@@ 4
мрӑ@@ 4
Халева 4
климата 4
Менаим 4
Мор@@ 4
мре 4
Ена@@ 4
ӳр@@ 4
Раду@@ 4
шек 4
евский 4
Космодемьянская 4
вой 4
Смирнов 4
норматив@@ 4
пель@@ 4
ӳстерес@@ 4
Дамаск 4
асатте@@ 4
индек@@ 4
вз@@ 4
Ӗҫӗ 4
Симе@@ 4
Казахстан 4
вари@@ 4
ҫӑлла 4
сере@@ 4
Ани@@ 4
Иеси@@ 4
суверени@@ 4
Деклара@@ 4
чӑсем 4
зе 4
Сис@@ 4
Святослав 4
Вадим 4
Пророк 4
ларан 4
Ецион 4
ресшӗн 4
Пере@@ 4
Щирий 4
реклама 4
тинг 4
Валла 4
журнала 4
Шелумиил 4
Регу@@ 4
ром 4
ҫыххи 4
коллед@@ 4
ӑрӑвӗнчисене 4
куля@@ 4
клин@@ 4
хала@@ 4
Лив@@ 4
методи@@ 4
Пенуэл 4
библиотекарь 4
Кры@@ 4
пей 4
ҫыруҫӑ 4
Казах@@ 4
При@@ 4
фоф 4
бюджета 4
ӑстайлӑн 4
ҫӳретпӗр 4
капӑр@@ 4
лат 4
ҫӑнӑхӗнчен 4
шки 4
хыса@@ 4
ҫыхмалли 4
Иисус@@ 4
ӑсчахсем 4
нав 4
ҫӑвать 4
каток 4
ӳнти 4
ӗҫтер@@ 4
1918 4
5000 4
матика 4
сть 4
уко@@ 4
серен@@ 4
Иу@@ 4
кӑшӑ@@ 4
апа@@ 4
ҫӗнтерчӗҫ 4
Зевул 4
1500 4
Мир@@ 4
парт@@ 4
Иармуф 4
Кол@@ 4
мара@@ 4
Сергий 4
ӗҫӗре 4
клум@@ 4
ӗҫӳ 4
ӑшӑт@@ 4
министерство 4
шкин 4
Теат@@ 4
гал@@ 4
сту 4
Хак@@ 4
автоно@@ 4
чирӗ@@ 4
гимн 4
Тю@@ 4
тӳрӗлӗхӗ@@ 4
презента@@ 4
Юри@@ 4
Есхол 4
стар 4
ӗлкине 4
Елчӗ@@ 4
Води@@ 4
ӑсти@@ 4
Сик@@ 4
ҫӑкӑрӑ@@ 4
жал@@ 4
сӑнӑ@@ 4
лоф 4
Галаад@@ 4
Соснов@@ 4
ӗҫтешлӗхӗн 4
Нем@@ 4
баль@@ 4
крах@@ 4
Кузнецов 4
гло@@ 4
отпуска 4
Одоллам 4
ӑсчах 4
Берлина 4
Пушкӑрт@@ 4
Сле@@ 4
неж@@ 4
цеил 4
лайман 4
ере 4
Прокоп@@ 4
хура@@ 4
инский 4
Лазо 4
Зелфа 4
рекор@@ 4
Ира@@ 4
диа@@ 4
Рак@@ 4
ҫыхӑнтар 4
ҫивӗ@@ 4
Кер@@ 4
Дол@@ 4
Вӗренекен@@ 4
ву 4
площадка 4
оли@@ 4
Ш 4
сӗк@@ 4
куб@@ 4
Кули@@ 4
ря@@ 4
обязатель@@ 4
W@@ 4
Харран@@ 4
юрист 4
ҫыхӑнтармалли 4
cap 4
орган 4
ведом@@ 4
лари@@ 4
Анфиса 4
кия 4
ена@@ 4
профессион@@ 4
.) 4
Ахино@@ 4
ӗҫсенчен 4
ӑшӑм 4
Авра@@ 4
Трофи@@ 4
надав 4
хӳх@@ 4
янтӑ@@ 4
Хорма 4
халат@@ 4
Ладыков 4
квантум 4
Патш@@ 4
иевусе@@ 4
Лит@@ 4
Самари@@ 4
лахи 4
транспорт@@ 4
ӳстертӗмӗр 4
Ҫирӗ@@ 4
Таш@@ 4
пуса@@ 4
констру@@ 4
гражданин 4
Хацар 4
рова 4
Молоха 4
ӑрат@@ 4
шӑнкӑ@@ 4
ӑскӑ@@ 4
сишӗн 4
хне 4
ӑнкарса 4
1а 4
Стади@@ 4
?@@ 4
Гацор 4
ӳтӗр@@ 4
Кедрон 4
пере 4
Саман@@ 4
Аскалон 4
ҫулсерен@@ 4
Резер@@ 4
Куйбы@@ 4
февра@@ 4
Слу@@ 4
ҫӑвӑннӑ 4
вербов@@ 4
%. 4
Аппара@@ 4
тя@@ 3
режис@@ 3
драматур@@ 3
костю@@ 3
видео 3
Ахимелеха 3
Варнава 3
Малов 3
фера 3
Каҫал 3
Музей 3
Библиоте@@ 3
хоре@@ 3
скор@@ 3
тама 3
Вра@@ 3
комбинат 3
ҫӳл@@ 3
макӑр@@ 3
сӗт@@ 3
документа@@ 3
Владик 3
Ахуза@@ 3
Полина 3
сени@@ 3
Киброт 3
Гатта@@ 3
сче@@ 3
счет 3
журналисти@@ 3
иу@@ 3
дей 3
Авен 3
реж@@ 3
съ@@ 3
кӳ 3
Гончарова 3
АККОНД 3
Труд 3
ательсен 3
Влади@@ 3
Шикар@@ 3
сли@@ 3
канал 3
Доф@@ 3
Иерихо@@ 3
мей 3
хими@@ 3
торф 3
офи@@ 3
Аиалон 3
Михмас@@ 3
мульт@@ 3
Ассо@@ 3
Петро@@ 3
Сидо@@ 3
холо@@ 3
юлӗн 3
Гарашкина 3
Ры@@ 3
пелен 3
197@@ 3
тустар@@ 3
Виноградов 3
рт 3
Зайцев 3
пам 3
Компози@@ 3
лари 3
Ржанов 3
заведу@@ 3
Владимирова 3
Анат@@ 3
весто@@ 3
региона 3
дикто@@ 3
Кимгам 3
картина 3
Деменцова 3
Кудря@@ 3
шова 3
Никитина 3
Александрова 3
Силь@@ 3
пьедестал 3
Цы@@ 3
Фермер 3
Мая@@ 3
Вячеславо@@ 3
Асри@@ 3
Шем@@ 3
инспе@@ 3
Танзеля 3
Семенов@@ 3
гун 3
Андрее@@ 3
Роспотреб@@ 3
мол@@ 3
ӳп@@ 3
гит 3
ресурс 3
гран@@ 3
терапев@@ 3
стомато@@ 3
помидо@@ 3
туммим 3
Масса 3
Рас@@ 3
Харрана 3
Риф@@ 3
Неффали@@ 3
Варака 3
Авино@@ 3
гидро@@ 3
поро@@ 3
Варна@@ 3
хие 3
Серух 3
Федоро@@ 3
Слава 3
Эт@@ 3
лепе@@ 3
Дадюков 3
46@@ 3
XIV 3
маях 3
Нума@@ 3
рецеп@@ 3
психо@@ 3
зах 3
равне 3
диван 3
143 3
лиги@@ 3
Ело@@ 3
Парти@@ 3
Хӗра@@ 3
Фор@@ 3
Тук@@ 3
1970 3
проезд 3
Энер@@ 3
Дагона 3
валь@@ 3
рока 3
Эльз@@ 3
Дик@@ 3
тӑмӗш 3
ента@@ 3
вей 3
ствен@@ 3
око@@ 3
Сокхо@@ 3
ера 3
ӗҫемӗн 3
Роман@@ 3
овна 3
коттед@@ 3
мониторин@@ 3
невро@@ 3
лех@@ 3
Фаллу 3
Харми 3
!@@ 3
дание 3
брус@@ 3
Херуви@@ 3
лиех 3
Иотва@@ 3
йӗл@@ 3
Син@@ 3
каларӑ@@ 3
пова 3
Ҫырӑ@@ 3
Авиге@@ 3
Турри@@ 3
фортепиано 3
Све@@ 3
Света 3
конвер@@ 3
Шев@@ 3
Вафу@@ 3
Астӑ@@ 3
Ависа@@ 3
Лев 3
Лап@@ 3
писем 3
поэта 3
рек 3
укҫ@@ 3
Лена 3
Гаф 3
Фаана@@ 3
камне 3
мандра@@ 3
II 3
1926 3
Тимирясов 3
ҫекӗ@@ 3
хода 3
Макарова 3
тахран 3
кли 3
Ари@@ 3
ина@@ 3
Ливни 3
Шимей 3
Максима 3
город 3
лег@@ 3
Мис@@ 3
полин@@ 3
ария 3
комбайнер 3
Сидоров 3
Гос@@ 3
пасти 3
блет@@ 3
Проле@@ 3
Гамалиил 3
Педац@@ 3
Культу@@ 3
панӑ@@ 3
ЛП@@ 3
дро@@ 3
илес@@ 3
индекса@@ 3
Хучель 3
Вика 3
Гадер 3
Санаваллат 3
спортзал 3
Цора 3
Иф@@ 3
Ваалаф 3
Бене 3
петру@@ 3
рали@@ 3
миома 3
Тӗрӗсле@@ 3
карт 3
практика 3
Ефремо@@ 3
Ст@@ 3
Афанасьев 3
Министр 3
Тинӗ@@ 3
пьеде@@ 3
Гавафон 3
вали@@ 3
финал 3
пӗреш@@ 3
мата 3
сра@@ 3
Спи@@ 3
доно@@ 3
шам 3
ори@@ 3
экскурси@@ 3
at@@ 3
kz 3
ӑслӑлӑх@@ 3
математи@@ 3
зил@@ 3
Олимпи@@ 3
Федор 3
кирпӗ@@ 3
ҫуртун@@ 3
наркоти@@ 3
троллейбу@@ 3
ӑччӗ 3
СМ 3
диагноз 3
семен@@ 3
Никифорова 3
Урӑх@@ 3
самоле@@ 3
Васили@@ 3
института 3
филармо@@ 3
сисме@@ 3
вариан@@ 3
кол 3
чко 3
Викто@@ 3
кус@@ 3
учеб@@ 3
ИА@@ 3
тета 3
Мицра@@ 3
конкур@@ 3
даль@@ 3
1300 3
Краснодар@@ 3
але 3
Гар@@ 3
пӗшӗн 3
Анд@@ 3
оп@@ 3
пло@@ 3
Учи@@ 3
лок@@ 3
Наха@@ 3
Зерах 3
монов 3
Сере@@ 3
Иахле@@ 3
университет 3
ӗлле 3
Иерихон@@ 3
Глад@@ 3
аппара@@ 3
ӗччен 3
юна@@ 3
обязательстви@@ 3
скульп@@ 3
хон@@ 3
Рем@@ 3
СВС 3
СТРОЙ 3
Пушкина 3
путек@@ 3
Кес@@ 3
Киттук 3
Анатольевна 3
путник 3
Сания 3
ловна 3
бат@@ 3
Валериановна 3
Чувашии 3
федера@@ 3
анийӗ 3
Дж@@ 3
публи@@ 3
Коллек@@ 3
Аргов 3
Григорьева 3
сфера 3
препарат@@ 3
ня 3
тӑсене 3
Семен 3
дя@@ 3
логистика 3
хет@@ 3
автопрокат@@ 3
Циве@@ 3
гимна@@ 3
синаго@@ 3
Рустам 3
Минних@@ 3
Шайми@@ 3
тӗнчи@@ 3
Тина 3
Канделаки 3
Рев@@ 3
терт@@ 3
ути@@ 3
бой 3
нь 3
апте@@ 3
Настой@@ 3
хӑртан 3
атлети@@ 3
Мадуров 3
рона 3
Ефер 3
Ахзи@@ 3
ог@@ 3
Саму@@ 3
дотря@@ 3
Еме@@ 3
реф 3
Ахор 3
Гек@@ 3
арон 3
Шар@@ 3
Мехи@@ 3
Доик 3
лили 3
ОАО 3
Кузь@@ 3
емӗн 3
гад@@ 3
фос@@ 3
Соф@@ 3
Геннад@@ 3
Владимировна 3
посо@@ 3
Корнило@@ 3
ӗвӗ 3
альбом 3
вила 3
Агага 3
кӗмӗл@@ 3
пуст@@ 3
ҫӳллӗ@@ 3
каллӑ 3
болит 3
ттипе 3
категори@@ 3
фет 3
Екро@@ 3
Феофанович 3
Бори@@ 3
Тип@@ 3
гастро@@ 3
Ефремова 3
поселени@@ 3
Краснова 3
тонов 3
Кузнецова 3
замен@@ 3
ссу 3
варлӑ 3
Кеназ 3
Гаврилов 3
Вол@@ 3
судо@@ 3
Голливу@@ 3
ие@@ 3
1968 3
Кармил@@ 3
ция 3
Комис@@ 3
Акаде@@ 3
e 3
Математи@@ 3
исе@@ 3
сертифик@@ 3
Цвет@@ 3
атит 3
Навала 3
ЧФ 3
Кит@@ 3
тим 3
депутат 3
Египе@@ 3
отлич@@ 3
Леон@@ 3
)@@ 3
руб@@ 3
Селлу@@ 3
Кена@@ 3
коро@@ 3
карь 3
Священни@@ 3
йӗркел@@ 3
ҫемй@@ 3
дуэ@@ 3
ӑсчах@@ 3
кул 3
удоб@@ 3
Кап@@ 3
Ҫӳл@@ 3
Даниил 3
Россельхоз@@ 3
Добролюбо@@ 3
Коман@@ 3
or@@ 3
Ишлей@@ 3
цион@@ 3
орден 3
Артем@@ 3
жек 3
Хай@@ 3
Кондратьев 3
кален@@ 3
модель@@ 3
совод 3
Венг@@ 3
Инке@@ 3
Нимра 3
Хин@@ 3
Журналист 3
Слонов 3
факуль@@ 3
зака@@ 3
сорт 3
ате@@ 3
тӑкӑ@@ 3
устав@@ 3
кӑнӗ 3
уса 3
театрали@@ 3
мыс@@ 3
Бахури@@ 3
иудей@@ 3
!] 3
ҫимӗ@@ 3
тчӗ 3
Пари@@ 3
Реда@@ 3
чурӑ@@ 3
пласт@@ 3
куро@@ 3
созы@@ 3
вине 3
мова 3
Гессур 3
Кари@@ 3
Яковлев@@ 3
лов@@ 3
Дружба 3
ната 3
Наву@@ 3
тӗт@@ 3
еп@@ 3
резуль@@ 3
ание 3
хер 3
Ама@@ 3
Македо@@ 3
Хӑна@@ 3
дра@@ 3
заня@@ 3
Нелли 3
духов@@ 3
Елизавета 3
Там@@ 3
ленок 3
агра@@ 3
Степан 3
Марков 3
Бет 3
шине@@ 3
хала 3
Раз@@ 3
кружок 3
вина 3
104 3
эт@@ 3
ноя@@ 3
алкоголь 3
Мероприяти@@ 3
Волж@@ 3
бун@@ 3
еди@@ 3
Рицпа 3
Пасхи 3
люблю 3
январ@@ 3
техно@@ 3
Коми@@ 3
сре@@ 3
шим 3
госпитале 3
провин@@ 3
Сӑвӑ@@ 3
гомор 3
Наука 3
Соловье@@ 3
Борисо@@ 3
Аполлос 3
Калашников 3
тник 3
снаря@@ 3
назоре@@ 3
Цен@@ 3
Хел@@ 3
Хамитов 3
Арно@@ 3
нтан 3
Део@@ 3
мидо@@ 3
1981 3
преподаватель 3
1953 3
мя@@ 3
Адама 3
механизатора 3
ит 3
музее 3
Тахпен@@ 3
еса 3
дера 3
Ген@@ 3
ува@@ 3
Нафе@@ 3
1929 3
ю 3
Санкт 3
регио@@ 3
аппарат 3
Бреслер 3
отстав@@ 3
полков@@ 3
термино@@ 3
миллиар@@ 3
Заред 3
ентеш@@ 3
Арбитра@@ 3
студентка 3
лехи 3
мес@@ 3
Давыдов 3
Депутат@@ 3
Пил 3
ора@@ 3
дь@@ 3
Содома 3
тапхӑ@@ 3
Сверд@@ 3
190 3
Ив@@ 3
Анто@@ 3
Арава 3
Эду@@ 3
прокат 3
Турганова 3
Пен@@ 3
Мил@@ 3
нормати@@ 3
троту@@ 3
ачу@@ 3
сей 3
исти@@ 3
комиссари@@ 3
пединститу@@ 3
Дмитриева 3
Дишон 3
иш@@ 3
Фамнаф 3
Сараи 3
ҫӳрев@@ 3
Ҫӗнтер@@ 3
Тимир@@ 3
Энтузиа@@ 3
Оза 3
учи@@ 3
района 3
содерж@@ 3
1991 3
Ыл@@ 3
шаш@@ 3
Поля@@ 3
Управ@@ 3
прокуро@@ 3
майор 3
волон@@ 3
Тро@@ 3
пети@@ 3
килӗ@@ 3
тракторист 3
]! 3
Белков 3
пӑшӑр@@ 3
Зорге 3
Ассоциа@@ 3
бор 3
гета@@ 3
ель 3
Иоафам 3
Тракто@@ 3
рист 3
диагно@@ 3
режи@@ 3
пробле@@ 3
раф 3
Юлташ@@ 3
университе@@ 3
респонден@@ 3
Собча@@ 3
D@@ 3
1921 3
Инженер 3
терафим 3
пассажир@@ 3
сей@@ 3
дис@@ 3
мит 3
уллин 3
Феко@@ 3
Заволж@@ 3
Ильи@@ 3
языка 3
ждан 3
кунне@@ 3
Онегин 3
Моцар@@ 3
Филистим@@ 3
номина@@ 3
мой 3
!/ 3
анализ@@ 3
аслаш@@ 3
тетнӗ 3
Электри@@ 3
Кабине@@ 3
колго@@ 3
Гешем 3
Поль@@ 3
шех 3
Элекҫ@@ 3
нашкалли 3
паю 3
лагере 3
сна 3
1947 3
куру@@ 3
Менделе@@ 3
Тол@@ 3
стой 3
Черны@@ 3
шевский 3
Шевченко 3
цов 3
кипаж 3
Аксаков 3
веден@@ 3
Планета 3
ӳн@@ 3
прогноз@@ 3
тумтирӗ@@ 3
ара@@ 3
Вирсави@@ 3
штан@@ 3
кӑткӑ@@ 3
енко 3
комплекс 3
фирма 3
тархасла@@ 3
Аллилу@@ 3
ия 3
ҫити@@ 3
41@@ 3
кисенче 3
Досто@@ 3
Чай@@ 3
Тель@@ 3
мид@@ 3
Гиезий 3
Ровоама 3
Вениамин@@ 3
вод@@ 3
информа@@ 3
Семен@@ 3
Ермола@@ 3
вир 3
ЧА@@ 3
вырна@@ 3
Уро@@ 3
азбу@@ 3
укроп 3
Лаис 3
ҫулхи@@ 3
192@@ 3
ориен@@ 3
ленекен 3
декре@@ 3
отпус@@ 3
вес@@ 3
Тӗлӗн@@ 3
тти 3
Юма@@ 3
Фон@@ 3
Офир 3
роман@@ 3
1976 3
Ии@@ 3
туризма 3
Самойлова 3
над@@ 3
лке 3
X 3
Стар@@ 3
Мотори@@ 3
1972 3
КПСС 3
зу@@ 3
Ел 3
Ники@@ 3
Исто@@ 3
самб@@ 3
кӑрпа 3
+ 3
мки 3
щ@@ 3
ологи@@ 3
Моска@@ 3
перӗ 3
теп@@ 3
ансамбль 3
диабе@@ 3
дежур@@ 3
тивлет@@ 3
зор 3
Дантеса 3
шавтотран@@ 3
типо@@ 3
Щ@@ 3
циф@@ 3
Рах@@ 3
Константи@@ 3
Ангела 3
Докумен@@ 3
Черке@@ 3
бело@@ 3
ато@@ 3
Зе@@ 3
Кана@@ 3
ытӑ 3
приговор 3
Чан@@ 3
тович 3
шет 3
Асен@@ 3
Эн@@ 3
дим 3
Ац@@ 3
жен@@ 3
Карина 3
тали 3
аний 3
Рахмат@@ 3
Константинов 3
Мари@@ 3
пӗрмӗш 3
аспиран@@ 3
Сефер 3
артис@@ 3
ханан 3
все 3
Оз@@ 3
вича 3
Хор@@ 3
Хора@@ 3
Наговицы@@ 3
Колос 3
Мясников 3
Арсентьевна 3
повар 3
Сабан@@ 3
мет@@ 3
Максимова 3
ҫутаткӑ@@ 3
президен@@ 3
Вифса@@ 3
Агги@@ 3
Фен@@ 3
фет@@ 3
кубок 3
строя 3
Таи@@ 3
квартал@@ 3
казарма 3
под@@ 3
Гри@@ 3
конди@@ 3
раци@@ 3
генера@@ 3
рус@@ 3
проф@@ 3
бак@@ 3
пенсионер@@ 3
коммуника@@ 3
Ухсай 3
слесар@@ 3
ирӗ 3
хав 3
срока 3
бли@@ 3
каҫарӑ@@ 3
надзор 3
инспекто@@ 3
ӑваш 3
Завод@@ 3
чева 3
Кис@@ 3
дей@@ 3
Петруша 3
рюкова 3
психологи@@ 3
ану 3
запас@@ 3
Берия 3
штра@@ 3
ЕВА 3
нка 3
Наташа 3
Духов@@ 3
Фаина 3
кови@@ 3
Алексеева 3
коммер@@ 3
ФХ 3
125 3
кни@@ 3
поль@@ 3
Кӑн@@ 3
нике 3
Гиези@@ 3
акпа 3
хо 3
Алексан@@ 3
Тимофеевна 3
Мы 3
Оливема 3
цар 3
Матвеевич 3
1935 3
грес@@ 3
Хват@@ 3
абитуриен@@ 3
Суринов 3
агент@@ 3
Голи@@ 3
1988 3
Мясникова 3
Строительство 3
Воло@@ 3
Дзерж@@ 3
Жданов 3
тал 3
Стре@@ 3
Мак@@ 3
Хуҫ@@ 3
Энгель@@ 3
спонсо@@ 3
тӗнче@@ 3
Викентий 3
Авел 3
Мехо@@ 3
ӗрте 3
все@@ 3
Сапож@@ 3
кӗпех 3
площадки 3
Павлова 3
йӗлтӗр@@ 3
тит 3
Сири@@ 3
Хмель@@ 3
Сла@@ 3
хов 3
Аврель@@ 3
фельдшер 3
Крем@@ 3
тахҫан@@ 3
b@@ 3
ДТ 3
истор@@ 3
Гошен 3
Море 3
Гена 3
re@@ 3
gu@@ 3
50@@ 3
физ@@ 3
m@@ 3
Нео@@ 3
миллиарда 3
ся@@ 3
Гирсо@@ 3
Предприяти@@ 3
163 3
мӑл 3
лӗхӗсене 3
бол 3
дов@@ 3
Рыбас 3
мра@@ 3
Юрьевич 3
вӑрт@@ 3
193@@ 3
начӗ 3
Сидорова 3
иску@@ 3
кла 3
рой 3
ренех 3
Товия 3
стран 3
Фро@@ 3
Институ@@ 3
...@@ 3
Крылова 3
Ровоа@@ 3
предпринимате@@ 3
артиста 3
Иог@@ 3
Сель@@ 3
до 3
мэ@@ 3
ВДПО 3
Еглона 3
Кузьмин 3
марта 3
лада 3
Гарин 3
ҫавра@@ 3
табак 3
Валаа@@ 3
вани@@ 3
Патриар@@ 3
сов@@ 3
мини@@ 3
уллина 3
страте@@ 3
Тӗс@@ 3
Иах@@ 3
Шил@@ 3
Галгал@@ 3
кух@@ 3
инвесто@@ 3
999 3
кг 3
Моло@@ 3
Строй@@ 3
наф 3
Харь@@ 3
тро@@ 3
вест@@ 3
продуктив@@ 3
суда 3
Рамоф 3
Садо@@ 3
совхо@@ 3
очер@@ 3
Фес@@ 3
туал@@ 3
гане@@ 3
зароды@@ 3
Настя 3
Бион 3
Талан@@ 3
Махла 3
Ноа 3
Семенов 3
призер 3
Оле@@ 3
цева 3
Конкурен@@ 3
бюллет@@ 3
Федорова 3
Слак@@ 3
из 3
Аня 3
Вефиле 3
хас@@ 3
пассажира 3
кӑп@@ 3
Магдалина 3
Елцаф@@ 3
ЗИ@@ 3
сестра 3
магистраль 3
кондитер@@ 3
моло@@ 3
Акатуй 3
Фам@@ 3
Орна 3
гер 3
атлет 3
галсту@@ 3
Хеврон@@ 3
геро@@ 3
Денис 3
инвестор 3
фини@@ 3
автомобил@@ 3
Аккаро@@ 3
фир 3
шли 3
4а 3
324 3
Азербайд@@ 3
доль@@ 3
цен 3
бил@@ 3
Бан@@ 3
пли@@ 3
пӑрахӑ@@ 3
ГСВГ 3
Анаф 3
Механизатор 3
Иохаведа 3
пле 3
классика 3
Ӗп@@ 3
МЧ@@ 3
Яр@@ 3
гербици@@ 3
Кис 3
эпи@@ 3
Ярды 3
пурт@@ 3
Путь 3
Ленина 3
274 3
стиль@@ 3
Тер@@ 3
Кошкин 3
председатель 3
правитель@@ 3
1946 3
Гесс@@ 3
юри@@ 3
кӗҫ 3
Инду@@ 3
гон@@ 3
гор 3
лиде@@ 3
ств 3
Золотой 3
Орды 3
ской 3
уйгур@@ 3
чӗме@@ 3
1917 3
бы@@ 3
мир 3
Ливана 2
Энергети@@ 2
Кро@@ 2
вело@@ 2
бай@@ 2
биат@@ 2
Гомор@@ 2
кт 2
льни@@ 2
ково 2
Кубня 2
Поч@@ 2
мье@@ 2
гри@@ 2
ирӗн 2
гли@@ 2
сат 2
Анаста@@ 2
филос@@ 2
пот 2
ложен@@ 2
Октябр@@ 2
стратеги@@ 2
вели@@ 2
дисене 2
иль 2
рович 2
губ@@ 2
Миха@@ 2
дол@@ 2
соб@@ 2
Санавал@@ 2
Иоха@@ 2
вед@@ 2
структура 2
позд@@ 2
Иеву@@ 2
дум@@ 2
ГТО 2
лона 2
Деменцо@@ 2
менской 2
материала 2
Рен@@ 2
инстру@@ 2
Сеира 2
варӗ 2
кооперати@@ 2
соль 2
расче@@ 2
Раав 2
лога 2
хом 2
Ефрона 2
коллек@@ 2
мно@@ 2
ета 2
ваш 2
Ты@@ 2
Кеде@@ 2
патри@@ 2
лаччӗ 2
онер@@ 2
ё@@ 2
изве@@ 2
композито@@ 2
Давид@@ 2
ево 2
ттарма 2
дель@@ 2
сон 2
Инвести@@ 2
пленки 2
дами 2
Иав@@ 2
сло@@ 2
Ть@@ 2
ть@@ 2
цион 2
Еммо@@ 2
дина@@ 2
адво@@ 2
цо@@ 2
Фалмая 2
компози@@ 2
ату 2
Эль@@ 2
бока 2
ҫирӗпп@@ 2
конгрес@@ 2
кс 2
леви@@ 2
тухья 2
Авед@@ 2
Аведдара 2
картлаш@@ 2
коми@@ 2
Лахи@@ 2
ява@@ 2
ССС@@ 2
ца@@ 2
вве@@ 2
Аиал@@ 2
Риммо@@ 2
Ашшӗ@@ 2
автора 2
степень 2
кори@@ 2
ЧН@@ 2
ӗклӗх 2
Мускав@@ 2
электри@@ 2
илова 2
сал 2
судь@@ 2
Вик@@ 2
торов 2
началь@@ 2
дал 2
кате@@ 2
устав 2
прил@@ 2
авок 2
клет@@ 2
чат@@ 2
телеканала 2
реки 2
гил 2
ских 2
езд 2
Нор@@ 2
экспери@@ 2
Проф@@ 2
уче@@ 2
фона 2
юбил@@ 2
Сочи 2
Сокхофа 2
); 2
Зива 2
кенни@@ 2
Пор@@ 2
печ@@ 2
Макси@@ 2
реке 2
край@@ 2
оптими@@ 2
динами@@ 2
гие 2
ҫиел@@ 2
семин@@ 2
чески 2
Сем@@ 2
гитар@@ 2
ход@@ 2
l 2
чувашского 2
края 2
лка 2
Спар@@ 2
няя 2
Навал@@ 2
Езе@@ 2
Вавилона 2
аве 2
алим 2
Под@@ 2
горова 2
гли 2
Маа@@ 2
Клавдия 2
миллион@@ 2
лето@@ 2
мей@@ 2
стерӗ 2
Бор@@ 2
бренд 2
ОБ@@ 2
писатель 2
раль@@ 2
кадет@@ 2
Зве@@ 2
рева 2
стату@@ 2
чино 2
ьевича 2
За 2
Пухӑ@@ 2
рина 2
Восто@@ 2
стри@@ 2
корм 2
Махира 2
иза 2
арова 2
Ленинград@@ 2
автобуса 2
Месопо@@ 2
тами 2
име@@ 2
вец 2
они 2
ботани@@ 2
колледж 2
вите 2
хова 2
старшина 2
пыт@@ 2
ом 2
брез@@ 2
Воро@@ 2
локсен 2
Ново@@ 2
гани@@ 2
затор@@ 2
Фонд 2
Бу@@ 2
потреб@@ 2
союз 2
удостовер@@ 2
ско 2
форум 2
Аморрей@@ 2
Акра@@ 2
Андреев@@ 2
ефо@@ 2
Дени@@ 2
F@@ 2
преподавате@@ 2
баш@@ 2
наступ@@ 2
тельность 2
колит 2
льд@@ 2
Амо@@ 2
асанне@@ 2
Сти@@ 2
Кадеса 2
совет@@ 2
илев 2
вни@@ 2
Владимиро@@ 2
Теп@@ 2
лы@@ 2
чел 2
пайка 2
новат@@ 2
орла 2
бухгал@@ 2
алах 2
аҫӑр@@ 2
сферӑ@@ 2
Фестивал@@ 2
демо@@ 2
упа@@ 2
пляж 2
Чурачик@@ 2
мина@@ 2
Дал@@ 2
Токио 2
страны 2
ии 2
старт 2
тебе 2
тие 2
лева 2
салху@@ 2
комп@@ 2
Сиона 2
Прокопьева 2
пенсионерка 2
Надав 2
\@@ 2
витӗм@@ 2
., 2
РО@@ 2
Черно@@ 2
мы@@ 2
Тех@@ 2
Констан@@ 2
верени@@ 2
темати@@ 2
Гера@@ 2
симова 2
]? 2
райпо 2
Пят@@ 2
…@@ 2
Лиза 2
фам 2
холдинг 2
товар@@ 2
ове@@ 2
Тимофеева 2
настоя@@ 2
пера@@ 2
пысӑ@@ 2
лам@@ 2
сим 2
Каф@@ 2
ници@@ 2
ӗренпе 2
p@@ 2
n 2
Иезаве@@ 2
паке@@ 2
ҫиви@@ 2
Акконд 2
ро 2
панкре@@ 2
аспи@@ 2
Свет@@ 2
%, 2
центра@@ 2
тех@@ 2
осемен@@ 2
таврӑ@@ 2
коммен@@ 2
Механи@@ 2
ёл 2
Афанасьева 2
цина 2
катастро@@ 2
Хус@@ 2
мато@@ 2
Он 2
Асаила 2
h@@ 2
энерго@@ 2
звез@@ 2
любви 2
осы@@ 2
Блэ@@ 2
Пӗтӗм@@ 2
тей 2
валери@@ 2
ень 2
сил 2
тысяче@@ 2
кашу 2
профилак@@ 2
рос@@ 2
ьяна 2
Чебоксары 2
Смо@@ 2
пыла@@ 2
Иордана 2
Илларионо@@ 2
эконом@@ 2
гру@@ 2
дисципли@@ 2
Сергеев@@ 2
Васильевича 2
Прохо@@ 2
лӑлла 2
Рыба@@ 2
утра 2
какая 2
тела 2
фило@@ 2
гла 2
оссе 2
зах@@ 2
гат@@ 2
шуйт@@ 2
лич@@ 2
мани@@ 2
Федотова 2
Тет@@ 2
боль@@ 2
Гессур@@ 2
диктан@@ 2
ммо@@ 2
рост@@ 2
их 2
Ты 2
хочешь 2
знать 2
кого 2
стань 2
чери 2
копи@@ 2
снай@@ 2
йе 2
Дали@@ 2
фунда@@ 2
сектор 2
муниципалите@@ 2
лайччен 2
архитек@@ 2
Ием@@ 2
ваши@@ 2
тво@@ 2
ҫӳрет@@ 2
Самсо@@ 2
Вален@@ 2
агронома 2
Адо@@ 2
Везе@@ 2
онлай@@ 2
трактори@@ 2
КА@@ 2
Солнечный 2
ҫылӑхӑр@@ 2
кустар@@ 2
Гала@@ 2
алаф 2
Хамо@@ 2
Душ@@ 2
юков 2
Гончаро@@ 2
ччӗҫ 2
уто@@ 2
мотив 2
ито@@ 2
музыкан@@ 2
Уз@@ 2
елле 2
номер 2
Свято@@ 2
ӑҫ 2
ҫура 2
Ахитофе@@ 2
поль 2
Доб@@ 2
ры@@ 2
Шик@@ 2
Уд@@ 2
симво@@ 2
словар@@ 2
ҫие@@ 2
правда 2
экс@@ 2
Й 2
редактор 2
дава 2
уда 2
экстра@@ 2
Кады@@ 2
Весе@@ 2
юс@@ 2
ЧАП 2
кум@@ 2
чек 2
ям 2
акционер@@ 2
лӑхах 2
изне@@ 2
пру@@ 2
хри 2
порта 2
ред@@ 2
зага@@ 2
Ч 2
Факе@@ 2
Герара 2
Мӑшӑ@@ 2
парла@@ 2
ими 2
опти@@ 2
На 2
мать 2
ька 2
бер@@ 2
давно 2
знает 2
вы 2
ывӑлӗ@@ 2
Рехо@@ 2
дор 2
Евг@@ 2
сения 2
сим@@ 2
дефици@@ 2
холодиль@@ 2
уполномочен@@ 2
партнер@@ 2
Наст@@ 2
дит 2
огне@@ 2
ты 2
Стро@@ 2
Фой 2
емен@@ 2
произведен@@ 2
свидетель 2
тупан@@ 2
кого@@ 2
Пол@@ 2
траге@@ 2
бле@@ 2
Вит@@ 2
нӑш 2
кӗтре@@ 2
куп@@ 2
Атар@@ 2
Рим@@ 2
вя@@ 2
лелле 2
кимов 2
директор 2
Уполномочен@@ 2
Виктори@@ 2
има 2
Брян@@ 2
результат 2
афа@@ 2
Мит@@ 2
Кӗҫ@@ 2
тук 2
Бы@@ 2
националь@@ 2
ларӑ@@ 2
анох 2
шах 2
Волкова 2
олив@@ 2
гиль@@ 2
Нов@@ 2
рек@@ 2
Коро@@ 2
Гонч@@ 2
композитор 2
экологи@@ 2
мень 2
клуба 2
Ой 2
—@@ 2
евича 2
козла 2
Оливе@@ 2
Салпа@@ 2
сам@@ 2
Пучкова 2
Гахила 2
борт 2
лице@@ 2
дя 2
гель@@ 2
Челябинск 2
лод@@ 2
1926@@ 2
.). 2
Иоа@@ 2
Без@@ 2
стӑ@@ 2
лья@@ 2
ло 2
тна 2
такси 2
тамӑ@@ 2
сило@@ 2
попу@@ 2
дови@@ 2
ферен@@ 2
мари@@ 2
Победы 2
Сте@@ 2
умӑн@@ 2
Ес@@ 2
атова 2
педагоги@@ 2
Маханаима 2
Сванид@@ 2
Эко@@ 2
лӗн@@ 2
Три@@ 2
парка 2
ск@@ 2
ситуа@@ 2
Алман@@ 2
рисенче 2
брига@@ 2
аморрей@@ 2
йсемпе 2
Денисова 2
Крас@@ 2
Меди@@ 2
меже@@ 2
иннова@@ 2
фея 2
сист@@ 2
хулпуҫ@@ 2
сарла@@ 2
канику@@ 2
шен@@ 2
Капернаум 2
виҫӗм@@ 2
Челябин@@ 2
пӗтерей@@ 2
Пӳ@@ 2
рахпа 2
онова 2
зам@@ 2
де 2
дека@@ 2
Бала@@ 2
Депу@@ 2
Уках@@ 2
ҫӗм@@ 2
рои 2
дара 2
срах 2
вел@@ 2
лили@@ 2
ью@@ 2
Приволж@@ 2
Сло@@ 2
Руст@@ 2
Дес@@ 2
бар@@ 2
биоти@@ 2
журналиста 2
Миля 2
Сару@@ 2
Кӗҫӗн@@ 2
комбинат@@ 2
Арада 2
йӑр@@ 2
выстав@@ 2
вере 2
холдин@@ 2
мҫӑм 2
обыкнов@@ 2
Рамо@@ 2
Саф@@ 2
орден@@ 2
хушшин@@ 2
тера 2
мн@@ 2
шат@@ 2
социо@@ 2
зь@@ 2
демьян@@ 2
умӗн@@ 2
зажи@@ 2
шит 2
лей 2
стал@@ 2
спон@@ 2
ҫанччен 2
каф 2
мень@@ 2
философи@@ 2
илина 2
гуру 2
мила 2
лим 2
лӑш 2
пливо 2
космо@@ 2
ствозн@@ 2
кив@@ 2
ору@@ 2
ему 2
сесс@@ 2
Ҫанталӑ@@ 2
ющи@@ 2
цени@@ 2
предложение 2
Иеровоама 2
факт 2
цивили@@ 2
жо@@ 2
нок 2
почтальон@@ 2
юбиле@@ 2
сквер@@ 2
статй@@ 2
пелля@@ 2
веще@@ 2
пали 2
марах 2
тема 2
Христо@@ 2
Михайлова 2
Мара@@ 2
наҫ@@ 2
корреспонден@@ 2
чай@@ 2
кех 2
тӑрш@@ 2
СИ@@ 2
Мерари@@ 2
автономи@@ 2
диктант 2
сорта 2
антибиоти@@ 2
Выпус@@ 2
фонд@@ 2
почтальон 2
санне 2
ытал@@ 2
наша 2
Ганним 2
Азе@@ 2
мона 2
ску@@ 2
Добро@@ 2
станӑн 2
Оль@@ 2
СМ@@ 2
вен 2
мелӗхне 2
ступ@@ 2
хатар@@ 2
ката@@ 2
Маль@@ 2
цев 2
филисти@@ 2
ӗскер 2
ҫутал@@ 2
цы@@ 2
Ата@@ 2
чеб@@ 2
Халь@@ 2
конце@@ 2
Интер@@ 2
квар@@ 2
горо@@ 2
док 2
Кото@@ 2
трак@@ 2
ФЦ 2
нова@@ 2
террито@@ 2
Леони@@ 2
сн@@ 2
Аза@@ 2
ҫен 2
рейтин@@ 2
ОБЖ 2
гова 2
Ленин@@ 2
автомобиль@@ 2
пуҫҫи 2
лати 2
Ль@@ 2
Красноармей@@ 2
эф@@ 2
Мур@@ 2
уст 2
кашӑ@@ 2
Осо@@ 2
ед@@ 2
Павловича 2
Исинба@@ 2
d@@ 2
k@@ 2
Секелаг 2
Ефро@@ 2
Ушкӑн@@ 2
IV 2
то 2
i 2
аз 2
идеологи@@ 2
Юрат@@ 2
крес@@ 2
культур@@ 2
рӑх 2
Изрее@@ 2
МЧС 2
повер@@ 2
кавар@@ 2
пун@@ 2
Анже@@ 2
мемори@@ 2
сарай 2
Елисе@@ 2
вуник@@ 2
Элек@@ 2
щик 2
Рай@@ 2
лентерсе 2
Нар@@ 2
пенсио@@ 2
Апайка 2
Зем@@ 2
автомат 2
таль@@ 2
Сванидзе 2
Вете@@ 2
Виде@@ 2
сертификат 2
Рабо@@ 2
миллиона 2
Иуд@@ 2
серо@@ 2
обели@@ 2
эсте@@ 2
Дар@@ 2
ҫӗнел@@ 2
садик 2
Воо@@ 2
техникум 2
Пис@@ 2
пуль@@ 2
арме@@ 2
седе@@ 2
Иису@@ 2
рез@@ 2
запа@@ 2
бел 2
хол 2
Фимнаф@@ 2
кӑрал@@ 2
Егло@@ 2
кандидат 2
дет@@ 2
биле@@ 2
требо@@ 2
хум@@ 2
Свя@@ 2
ший 2
Кайӑ@@ 2
учительница 2
кос 2
Автор 2
лук 2
ҫитмӗ@@ 2
Чӗм@@ 2
тӗпрен@@ 2
ум 2
вантум 2
век 2
Голан 2
абри@@ 2
Тӑрӑ@@ 2
эстра@@ 2
Жд@@ 2
кӗнек@@ 2
седательне 2
каял@@ 2
нума@@ 2
хло@@ 2
од 2
Рус@@ 2
спут@@ 2
меле@@ 2
грани@@ 2
Маке@@ 2
изде@@ 2
пауэрлиф@@ 2
Фото@@ 2
Калинин@@ 2
град 2
коорди@@ 2
Малы@@ 2
заго@@ 2
Бер@@ 2
бур@@ 2
Президен@@ 2
Сергеева 2
цем 2
лад 2
ул 2
сара@@ 2
его 2
T@@ 2
ытлара@@ 2
гла@@ 2
зон@@ 2
Министерство 2
кафе@@ 2
эти@@ 2
ему@@ 2
рец 2
шат 2
най 2
дай 2
вет 2
Гари@@ 2
ило 2
Хец@@ 2
гал 2
еле@@ 2
гов 2
мпи@@ 2
проз@@ 2
Ахима@@ 2
Сидона 2
ҫемь@@ 2
верси@@ 2
./ 2
сӑран@@ 2
нача@@ 2
иммунитет 2
скал 2
Фасги 2
жд@@ 2
эффектив@@ 2
Вефо@@ 2
Ирӗ@@ 2
шӑрпӑ@@ 2
тябр@@ 2
конту@@ 2
Хат@@ 2
моль 2
Вос@@ 2
рил 2
нами@@ 2
расс@@ 2
хӳхӗ@@ 2
митри@@ 2
организм 2
хоро@@ 2
завода 2
атель 2
бюро 2
Космо@@ 2
ачӗ 2
́ 2
Александ@@ 2
Авер@@ 2
фельдшер@@ 2
гыш 2
Галаада 2
горе 2
укро@@ 2
мый 2
P@@ 2
t@@ 2
илисти@@ 2
Хале@@ 2
зам 2
Ж 2
Жен@@ 2
Казахстана 2
ЗА@@ 2
крае@@ 2
Езд@@ 2
рынок 2
Ялан@@ 2
коню@@ 2
эн@@ 2
t 2
пели@@ 2
маль@@ 2
ӗпен 2
махор@@ 2
Владими@@ 2
тӑрлахи 2
бригади@@ 2
ниверси@@ 2
пел 2
паспорт 2
Радо@@ 2
?», 2
боеви@@ 2
Башки@@ 2
оружен@@ 2
Голиафа 2
Люди 2
нит 2
Офи@@ 2
Круп@@ 2
Асӑн@@ 2
O@@ 2
K@@ 2
S 2
шина 2
Спиридо@@ 2
Тимо@@ 2
лӗнех 2
шевская 2
программ@@ 2
мие 2
шӑма@@ 2
уш@@ 2
старости 2
друж@@ 2
лий 2
тьева 2
гар 2
Верзел@@ 2
каз@@ 2
ҫарамас@@ 2
Але@@ 2
ьян 2
Об@@ 2
кула@@ 2
клиен@@ 2
нище@@ 2
ды 2
атӑр@@ 2
дез@@ 2
спир@@ 2
ббо@@ 2
кед@@ 2
тӗрсе 2
стреми@@ 2
вери@@ 2
шкӑн 2
взя@@ 2
визи@@ 2
a 2
усь 2
Арсент@@ 2
бассейн 2
докто@@ 2
ветери@@ 2
Аминадава 2
ӳкӗтӗ@@ 2
Рефа@@ 2
фу@@ 2
страхан@@ 2
ҫат 2
режиссе@@ 2
Горлица 2
субси@@ 2
Спа@@ 2
*@@ 2
консерватори@@ 2
Афека 2
гид@@ 2
Дав@@ 2
жа@@ 2
боже@@ 2
административного 2
быть 2
Болгарии 2
поза@@ 2
которые 2
ским 2
перене@@ 2
.. 2
хора@@ 2
свято@@ 2
Елифаза 2
хле@@ 2
намӑ@@ 2
чков 2
гер@@ 2
теҫет@@ 2
мо 2
систе@@ 2
или 2
портре@@ 2
снайпер 2
Иери@@ 2
сӑпай@@ 2
Дави@@ 2
тракто@@ 2
кидар@@ 2
w 2
Вино@@ 2
Или 2
ное 2
Иеро@@ 2
Шупашк@@ 1
фони@@ 1
ӗнчисене 1
цы 1
кола 1
героев 1
отдыха 1
Заву@@ 1
Мясо@@ 1
твор@@ 1
малӑх@@ 1
юлми@@ 1
две@@ 1
тки 1
преподав@@ 1
уча@@ 1
ден 1
России 1
ветера@@ 1
имей 1
сельхоз@@ 1
утран 1
Развитие 1
образования 1
годы 1
дия 1
разде@@ 1
Гел@@ 1
Ос@@ 1
говор 1
анс 1
ҫий@@ 1
свиде@@ 1
перепис@@ 1
Пла@@ 1
мя 1
дал@@ 1
буль@@ 1
Не 1
ваться 1
тобой 1
стано@@ 1
пуле@@ 1
стаж 1
лӗне 1
сержан@@ 1
отде@@ 1
Беэ@@ 1
жи 1
тепиано 1
вирту@@ 1
вая 1
колен@@ 1
Посад@@ 1
вка 1
акку@@ 1
постав@@ 1
аук@@ 1
ҫуль 1
Отече@@ 1
Больш@@ 1
Федора 1
трат@@ 1
Кузне@@ 1
мма 1
год 1
год@@ 1
вира 1
дь 1
съез@@ 1
оск@@ 1
подвод@@ 1
ртнӑ 1
рован@@ 1
сеть 1
Лахис@@ 1
фил@@ 1
Маду@@ 1
фото 1
Елабу@@ 1
ҫанах 1
тетя 1
цеп@@ 1
вера 1
Бел@@ 1
Верхние 1
ены 1
левой 1
гля@@ 1
дятся 1
чится 1
среди 1
мимо 1
солдат@@ 1
Москва 1
ческая 1
лихора@@ 1
чным 1
мом 1
рак 1
Иар@@ 1
сель@@ 1
дере@@ 1
Раамсе@@ 1
вру@@ 1
Проспек@@ 1
вало@@ 1
упӑшк@@ 1
деви@@ 1
кула 1
ьми 1
интервью 1
востока 1
номи@@ 1
Вз@@ 1
скоро@@ 1
жная 1
йский 1
Домаш@@ 1
газета 1
бок 1
Станис@@ 1
университета 1
читель@@ 1
Тре@@ 1
нен@@ 1
сю@@ 1
жет 1
дем 1
цова 1
элемен@@ 1
гене@@ 1
Емелья@@ 1
степ@@ 1
щий 1
механиз@@ 1
кем 1
раб 1
Авимелеха 1
колледжа 1
пенси@@ 1
река 1
спектак@@ 1
леччӗ 1
Судь@@ 1
национ@@ 1
амби@@ 1
учре@@ 1
Пену@@ 1
стари@@ 1
Нат@@ 1
али 1
выпускник 1
конструк@@ 1
финанси@@ 1
пота 1
сест@@ 1
лив@@ 1
зако@@ 1
шкар 1
Ашмар@@ 1
относи@@ 1
налог 1
посто@@ 1
аст@@ 1
актив@@ 1
нец 1
Аи@@ 1
сна@@ 1
ӗлӗк@@ 1
зверо@@ 1
полы@@ 1
горь@@ 1
чная 1
воспитан@@ 1
ффа@@ 1
лож@@ 1
“ 1
Токи@@ 1
пӗлмест@@ 1
пинпӳ@@ 1
инте@@ 1
стру@@ 1
Наго@@ 1
Его 1
долго 1
дать 1
Будь 1
вниматель@@ 1
могу 1
сказать 1
собе@@ 1
кана@@ 1
Вениами@@ 1
пос@@ 1
фора 1
плерех 1
нака@@ 1
долина 1
разве@@ 1
душ@@ 1
Анху@@ 1
Статья 1
резерва 1
мали@@ 1
Ҫ 1
Фамар@@ 1
вши@@ 1
Калаш@@ 1
ники 1
мело@@ 1
удосто@@ 1
реш@@ 1
Давы@@ 1
Чуваш@@ 1
хлебо@@ 1
строи@@ 1
скла@@ 1
голов@@ 1
полномочен@@ 1
мик 1
тӳпен@@ 1
уди@@ 1
Наф@@ 1
C 1
аг@@ 1
ытлаш@@ 1
пери@@ 1
стов 1
Асс@@ 1
Евера 1
зато@@ 1
Сандри@@ 1
Нагор@@ 1
аз@@ 1
v 1
u 1
бов 1
конф@@ 1
лекар@@ 1
ственный 1
соло@@ 1
дки 1
девя@@ 1
шени@@ 1
пя@@ 1
юхтаркӑ@@ 1
ом@@ 1
Ҫӗрпӳ@@ 1
Ароера 1
сенажа 1
специальность 1
умлӑ 1
]@@ 1
яд@@ 1
ций 1
форми@@ 1
мешк@@ 1
Амв@@ 1
прием@@ 1
" 1
99 1
Ь@@ 1
Анато@@ 1
рут 1
кӑт 1
Елабуг@@ 1
Николь@@ 1
Кали@@ 1
но 1
Министра 1
креп@@ 1
тавӑн 1
повест@@ 1
полка 1
деева 1
ист@@ 1
ваплӑ 1
Дево@@ 1
куль@@ 1
страд@@ 1
аптрат@@ 1
Оне@@ 1
растя@@ 1
раб@@ 1
хен@@ 1
слова 1
довых 1
лений 1
част@@ 1
ные 1
моли@@ 1
слови@@ 1
пон@@ 1
Вез@@ 1
центра 1
ПО 1
Сквор@@ 1
берег 1
вул 1
круг@@ 1
них 1
мена 1
Валериано@@ 1
Чебок@@ 1
сама 1
мае 1
Иарму@@ 1
Соб@@ 1
Вороб@@ 1
тики 1
прен 1
пору@@ 1
приз@@ 1
Гре@@ 1
доне@@ 1
ремонт 1
Ово@@ 1
Пло@@ 1
биологи@@ 1
ралла 1
текста 1
Генна@@ 1
атӑпа 1
наш 1
ука@@ 1
Корн@@ 1
Ханаан@@ 1
Хи@@ 1
Ӗ 1
демографи@@ 1
вета 1
сон@@ 1
тракторе 1
робо@@ 1
вӑта@@ 1
ҫырлаха@@ 1
иру@@ 1
фут@@ 1
бол@@ 1
Голо@@ 1
Сева@@ 1
Мена@@ 1
стабиль@@ 1
Нахо@@ 1
шутлана@@ 1
Архи@@ 1
сезон 1
масштаб@@ 1
Вара@@ 1
критери@@ 1
Производ@@ 1
КВ@@ 1
Марпосад@@ 1
Тетя 1
отец 1
ете 1
хлеб 1
никого 1
жает 1
неви@@ 1
стӑр@@ 1
ения 1
Адво@@ 1
вол@@ 1
цент 1
Хет@@ 1
Татарстан 1
ших 1
указ@@ 1
Высо@@ 1
яро@@ 1
жир@@ 1
приказ@@ 1
альные 1
услуги 1
c 1
космонав@@ 1
выра@@ 1
маму 1
свою 1
дел 1
аты@@ 1
клю@@ 1
алом 1
Гав@@ 1
Иеровоа@@ 1
це 1
аллин@@ 1
Сисар@@ 1
Спе@@ 1
циаль@@ 1
диало@@ 1
прово@@ 1
Вурнар@@ 1
Лес@@ 1
Объ@@ 1
Елимеле@@ 1
фесси 1
ске 1
Таппу@@ 1
настав@@ 1
два 1
Амина@@ 1
Минист@@ 1
довщи@@ 1
экспе@@ 1
фема 1
ще 1
Ост@@ 1
таран@@ 1
др@@ 1
бло@@ 1
Аскар 1
гум@@ 1
поло@@ 1
Липо@@ 1
директора 1
лауре@@ 1
нил 1
форума 1
язы@@ 1
Ря@@ 1
Пич@@ 1
чӳ 1
воп@@ 1
шем 1
секре@@ 1
Баш@@ 1
зубов 1
консерват@@ 1
стит 1
ню 1
эм 1
льго@@ 1
ҫыхӑ@@ 1
Вес@@ 1
Виф@@ 1
зай@@ 1
Сол@@ 1
гол@@ 1
вӗрет@@ 1
бир@@ 1
хулин@@ 1
тушӑн 1
ща@@ 1
жне@@ 1
Бес@@ 1
фоно@@ 1
минера@@ 1
трех 1
града 1
Михма@@ 1
тасала@@ 1
лечеб@@ 1
Жи@@ 1
наро@@ 1
поля@@ 1
рея 1
Три 1
R 1
рын@@ 1
сада 1
Здоровье 1
теля 1
Иосаф@@ 1
Ҫеҫ@@ 1
объектив@@ 1
связь 1
ачӑ@@ 1
Проек@@ 1
поселение 1
ост@@ 1
прият@@ 1
йипе 1
шама 1
бак 1
рефа@@ 1
Турру@@ 1
Поло@@ 1
све@@ 1
щение 1
Красночетайского 1
Мади@@ 1
техникума 1
Буль@@ 1
исто@@ 1
родах 1
сӑрӑх@@ 1
лита 1
суб@@ 1
Аси@@ 1
муни@@ 1
ы 1
ых 1
моро@@ 1
тӗрне@@ 1
чист@@ 1
хани@@ 1
автори@@ 1
гги@@ 1
ати 1
блок@@ 1
свя@@ 1
представление 1
органи@@ 1
дур@@ 1
енный 1
оро@@ 1
воо@@ 1
Даф@@ 1
кти@@ 1
нур@@ 1
Сме@@ 1
РТ 1
сор 1
запе@@ 1
сари@@ 1
водо@@ 1
види@@ 1
Мясни@@ 1
сты@@ 1
семе@@ 1
тебя 1
Земля 1
замет@@ 1
Иевосфея 1
ление 1
Русс@@ 1
Все@@ 1
зна@@ 1
прод@@ 1
муниципал@@ 1
тетӑн 1
хӳтӗл@@ 1
ино 1
форов 1
наф@@ 1
Кат@@ 1
велосипе@@ 1
вили@@ 1
чки 1
чрезвы@@ 1
Ях@@ 1
матур@@ 1
Мелхо@@ 1
картофе@@ 1
лю 1
центнера 1
бере@@ 1
Арфак@@ 1
Каин@@ 1
уж 1
енная 1
предпис@@ 1
скан@@ 1
тузи@@ 1
бина 1
Ол@@ 1
каш 1
Шай@@ 1
бот@@ 1
вид 1
тилмӗр@@ 1
наи@@ 1
смы@@ 1
слов 1
дел@@ 1
милли@@ 1
писатели 1
дружбу 1
оне 1
После@@ 1
дний 1
хурӑн@@ 1
нера 1
дядя 1
Хӑвӑн@@ 1
Произ@@ 1
ведени@@ 1
провод@@ 1
финан@@ 1
ПАО 1
лӑна 1
пиҫӗ@@ 1
Иода@@ 1
трит 1
задача 1
памяти 1
твоей 1
раста@@ 1
тренни@@ 1
над 1
Козло@@ 1
чина 1
Арши@@ 1
Мало@@ 1
Иссахара 1
фара@@ 1
сая 1
Кая@@ 1
чь 1
мок 1
Сӑва@@ 1
ряд 1
ще@@ 1
Али@@ 1
вса@@ 1
Вефсамис@@ 1
офице@@ 1
стакан@@ 1
Тимофе@@ 1
бей 1
Пав@@ 1
лик 1
дец 1
Сури@@ 1
ҫух@@ 1
ровна 1
Елиава 1
ӑрӑв@@ 1
бла@@ 1
Гац@@ 1
Гриша 1
чтения 1
консульта@@ 1
активи@@ 1
филистим@@ 1
зерен 1
@ 1
плет@@ 1
килограм@@ 1
шке 1
Хисе@@ 1
пӑчӑр@@ 1
пел@@ 1
чатки 1
Зна@@ 1
эффек@@ 1
фотографи@@ 1
ат 1
аген@@ 1
су 1
учен@@ 1
седатель@@ 1
комите@@ 1
Пер@@ 1
Смир@@ 1
Юл@@ 1
структу@@ 1
сте 1
гвоз@@ 1
Кеиль 1
колхо@@ 1
хора 1
комитета 1
Герм@@ 1
нина 1
иля 1
хене 1
пӗчӗ@@ 1
Васан@@ 1
Иосифо@@ 1
аларах 1
школ 1
Дора 1
фь 1
дисци@@ 1
Доро@@ 1
закон 1
даров 1
русского 1
Зим@@ 1
янин 1
сети 1
жизни 1
рный 1
Нафана 1
мӑрти 1
ς@@ 1
лог@@ 1
Рово@@ 1
Афанас@@ 1
Пионерская 1
Иари@@ 1
затор 1
тупӑшу@@ 1
Хори@@ 1
кинелле 1
соблаз@@ 1
нитель 1
смир@@ 1
лит@@ 1
том@@ 1
ленные 1
солнцем 1
цес@@ 1
Апосто@@ 1
сасар@@ 1
Тебя 1
деле@@ 1
Эф@@ 1
виссо@@ 1
Гон@@ 1
чный 1
Семено@@ 1
алкого@@ 1
харак@@ 1
шеб@@ 1
Лы@@ 1
анним 1
щит 1
Экономи@@ 1
нал@@ 1
мыш@@ 1
гражданина 1
кӑл 1
импор@@ 1
гут 1
тел 1
ся 1
Иоан@@ 1
отре@@ 1
ҫӑлӑнай@@ 1
ктора 1
бренда 1
оль@@ 1
Асир@@ 1
любовь 1
тить 1
вание 1
Взя@@ 1
тренера 1
Баху@@ 1
Полномо@@ 1
чиллӗ 1
дина 1
тала 1
кто 1
лая 1
сат@@ 1
пары 1
T 1
экономики 1
услы@@ 1
Раҫҫ@@ 1
P 1
Даго@@ 1
прия@@ 1
Факея 1
компью@@ 1
сфер@@ 1
коммун@@ 1
Y@@ 1
Алатыр@@ 1
акушер@@ 1
семь 1
лли@@ 1
шен 1
бит 1
оба 1
рот 1
кӑмака@@ 1
скать 1
мия 1
ях 1
Ено@@ 1
Маф@@ 1
неме@@ 1
По 1
ҫеккун@@ 1
пяти 1
асфаль@@ 1
Так 1
Наде@@ 1
"". 1
ада@@ 1
мец 1
лидер 1
стоян@@ 1
дино 1
гия 1
уч@@ 1
еҫ@@ 1
ома 1
Из@@ 1
верт@@ 1
Ааро@@ 1
дыков 1
хокке@@ 1
лко@@ 1
диви@@ 1
кинемато@@ 1
реб@@ 1
знаю 1
пью 1
смерти 1
коз@@ 1
ико@@ 1
Тво@@ 1
афа 1
Амес@@ 1
вре@@ 1
Тра@@ 1
асаф 1
хӑру@@ 1
Первомай@@ 1
эксперти@@ 1
Иц@@ 1
Фале@@ 1
d 1
o 1
виль@@ 1
Едре@@ 1
паласа 1
Тыт@@ 1
мето@@ 1
вел 1
доро@@ 1
Сим@@ 1
капитала 1
тте 1
ридо@@ 1
небо 1
осенью 1
ало 1
A@@ 1
N@@ 1
одо@@ 1
гей 1
Солов@@ 1
гордость 1
моя 1
храма 1
нито@@ 1
теку@@ 1
Председатель 1
рый 1
уст@@ 1
Богат@@ 1
врача 1
E@@ 1
y@@ 1
ҫителӗк@@ 1
Евре@@ 1
аммо@@ 1
лер@@ 1
рер 1
Мама 1
завтра 1
опять 1
приду 1
работу 1
пшени@@ 1
цей 1
вил 1
Измаила 1
Пон@@ 1
Спек@@ 1
сили@@ 1
муль@@ 1
министра 1
Бол@@ 1
маги@@ 1
Шим@@ 1
дек@@ 1
жный 1
нарко@@ 1
преступ@@ 1
кол@@ 1
чре@@ 1
Капернау@@ 1
Сигора 1
Корруп@@ 1
Лай@@ 1
СС@@ 1
тая 1
чемпионка 1
приорите@@ 1
договор 1
Лаи@@ 1
Ахитофела 1
желе@@ 1
лина 1
Бл@@ 1
фильма 1
Вавил@@ 1
ема 1
лел 1
ина 1
Так@@ 1
Клав@@ 1
Сидон@@ 1
нӑш@@ 1
тол@@ 1
U@@ 1
A 1
Чувашской 1
Республике 1
Иеффа@@ 1
ӑмӑрту@@ 1
крат@@ 1
дев@@ 1
орке@@ 1
стран@@ 1
иссо@@ 1
лашки 1
бов@@ 1
телефо@@ 1
рыв 1
Фили@@ 1
рӑнти 1
День 1
Пусть 1
всегда 1
будет 1
солнце 1
Бессмертный 1
Тург@@ 1
ания 1
z@@ 1
мам 1
изи@@ 1
дрович 1
сыл@@ 1
Бли@@ 1
энергети@@ 1
Хами@@ 1
Зак@@ 1
Махи@@ 1
ренни@@ 1
Ноем@@ 1
лок 1
Авари@@ 1
дом@@ 1
вновь 1
строить 1
пересе@@ 1
лять 1
спортсмена 1
Риц@@ 1
страхо@@ 1
Око@@ 1
той 1
Кӑҫ@@ 1
арма 1
шко@@ 1
пристав@@ 1
гари@@ 1
ъек@@ 1
цар@@ 1
Гадо@@ 1
оста@@ 1
обер@@ 1
Гофони@@ 1
анович 1
СТ@@ 1
Раҫҫе@@ 1
Гир@@ 1
Иафе@@ 1
дем@@ 1
Акса@@ 1
Оно 1
выпус@@ 1
шев@@ 1
коор@@ 1
окру@@ 1
Ста@@ 1
сӑрӑн 1
Сибир@@ 1
музыкальные 1
g 1
прило@@ 1
Площа@@ 1
кут 1
люб@@ 1
Муз@@ 1
зали@@ 1
Проект 1
сбор@@ 1
Канаша 1
животного 1
проис@@ 1
хождения 1
воен@@ 1
бабу@@ 1
ниторин@@ 1
обработ@@ 1
жах 1
пожар@@ 1
кло@@ 1
атора 1
кӑрла@@ 1
Иес@@ 1
спек@@ 1
* 1
Есе@@ 1
уэрлиф@@ 1
иг@@ 1
Гла@@ 1
верен 1
лиги 1
резвы@@ 1
лика 1
юнӗн 1
окрестность 1
Одол@@ 1
анти@@ 1
пти@@ 1
сва@@ 1
лиз@@ 1
руко@@ 1
дож@@ 1
метро@@ 1
лара 1
пио@@ 1
некоторые 1
вания 1
своих 1
может 1
древ@@ 1
чуваши 1
ствовали 1
кое 1
устано@@ 1
вшегося 1
находились 1
под 1
сильным 1
влиянием 1
язык 1
котором 1
составля@@ 1
лись 1
бумаги 1
был 1
ности 1
новую 1
почву 1
скими 1
цами 1
пригла@@ 1
вшимися 1
службу 1
голь@@ 1
сывпул@@ 1
Победа 1
гас 1
факультет 1
черк@@ 1
релле 1
H@@ 1
фараон@@ 1
РА 1
вро@@ 1
тӗве@@ 1
уз@@ 1
щен@@ 1
агропромышлен@@ 1
Двор@@ 1
храм 1
муниципалитета 1
любо@@ 1
зами 1
Пр@@ 1
вели 1
Ябло@@ 1
тӑнӑҫ@@ 1
сӑллӑ 1
Амно@@ 1
клевера 1
Сау@@ 1
Сило@@ 1
ью 1
дам 1
льник 1
участок 1
Назо@@ 1
явление 1
срок 1
тӑрла 1
чуж@@ 1
инки 1
ртнӗ 1
Ела@@ 1
Ахимеле@@ 1
суббот@@ 1
пиллӗк@@ 1
колле@@ 1
Производство 1
учили@@ 1
щи 1
Сава@@ 1
Хусарса@@ 1
Сред@@ 1
Волга 1
фоль@@ 1
Ермона 1
Лад@@ 1
кафе 1
Узи@@ 1
Есевона 1
гази@@ 1
башни 1
училище 1
Ним 1
рух 1
лом 1
комплекса 1
чим 1
вит 1
агрегат@@ 1
мино@@ 1
Авиафара 1
оператив@@ 1
Шор@@ 1
степен@@ 1
голо@@ 1
золо@@ 1
ины 1
народных 1
аниях 1
чувашей 1
Среди 1
ваний 1
чувашских 1
встречаются 1
такие 1
будто 1
являются 1
отра@@ 1
жением 1
общественно 1
поряд@@ 1
которого 1
соответству@@ 1
ющая 1
были 1
сены 1
область 1
религи@@ 1
оз@@ 1
ных 1
ственных 1
суще@@ 1
которым 1
молился 1
приносил 1
свои 1
жертвы 1
Этим 1
лым 1
тым 1
ственным 1
мог 1
административ@@ 1
более 1
ед 1
институт 1
Агар@@ 1
Елиц@@ 1
Педа@@ 1
арий 1
."". 1
Хира@@ 1
Псалом 1
фра@@ 1
КП@@ 1
бель@@ 1
Мать 1
Ань@@ 1
зиди@@ 1
пто@@ 1
вода 1
вала 1
чное 1
дело 1
точ@@ 1
нашкал@@ 1
характери@@ 1
линии 1
огня 1
ҫып@@ 1
Осень 1
Расс@@ 1
ход 1
"" 1
Гада 1
пожалуйста 1
говори 1
отцу 1
меня 1
тюрь@@ 1
поса@@ 1
дят 1
Михе@@ 1
Наша 1
тест@@ 1
контро@@ 1
коз 1
инвести@@ 1
Батырев@@ 1
вхо@@ 1
стик 1
трав@@ 1
чем 1
хран@@ 1
Скворцова 1
..@@ 1
сион@@ 1
реги@@ 1
сыпа@@ 1
сир 1
Сто@@ 1
лета@@ 1
Эл 1
лимпи@@ 1
даго@@ 1
хатарлӑ 1
печени 1
Пӗлтӗр@@ 1
предлож@@ 1
хито@@ 1
души@@ 1
Исса@@ 1
фим 1
Зам@@ 1
­ 1
Тя@@ 1
Она 1
Само@@ 1
республики 1
воспит@@ 1
ллейбу@@ 1
спо@@ 1
чами 1
Тради@@ 1
ратив@@ 1
праздники 1
чуваш 1
лер 1
Завуло@@ 1
служби@@ 1
Кус@@ 1
коле@@ 1
щ 1
судья@@ 1
рия 1
электротехни@@ 1
-@@ 1
Знамя 1
ение 1
пен 1
подчин@@ 1
нес@@ 1
обо@@ 1
мӑш@@ 1
дома 1
Неффалима 1
семейных 1
талантов 1
шавто@@ 1
ге 1
Ука@@ 1
От 1
навод@@ 1
система 1
парламен@@ 1
яти@@ 1
десят@@ 1
ГС 1
