, 34218
. 28417
и 17211
в 9302
на 4921
не 4845
- 4407
: 4078
; 3933
И 3597
с 3399
его 2640
что 2414
из 2103
"" 2036
к 2005
по 1818
от 1648
их 1636
сказал 1627
[ 1615
он 1589
я 1548
у 1442
В 1399
? 1360
Господь 1307
за 1286
как 1269
то 1181
все 1148
для 1145
же 1133
а 1073
ты 1009
они 930
но 893
будет 885
о 876
! 841
Я 840
] 829
это 803
до 799
ему 767
или 761
чтобы 755
во 721
меня 695
ее 681
ибо 666
было 655
ли 644
вы 636
так 626
мне 619
Бог 618
когда 613
1 607
пред 604
Он 595
2 593
был 575
« 572
время 569
по@@ 569
день 566
им 565
мы 563
тебе 545
3 543
5 541
тебя 538
если 538
есть 529
за@@ 526
них 521
всех 509
вот 509
ни 500
которые 488
не@@ 486
только 485
лет 483
вы@@ 470
4 469
— 469
него 466
да 462
про@@ 458
ю 456
она 454
ные 451
6 451
народ 450
сынов 438
года 432
ки 432
ный 432
Чувашской 431
Господа 428
вас 428
году 425
10 422
который 421
ной 420
"", 419
кто 417
бы 414
8 409
сын 406
7 405
у@@ 399
ним 395
А 394
9 393
ных 393
на@@ 386
были 384
№ 384
Его 383
того 381
при@@ 372
там 371
Республики 371
ного 361
Если 361
земле 359
нас 359
дом 358
человек 357
) 356
нет 356
15 352
12 351
Не 349
один 349
11 348
Господу 347
вам 347
твой 347
дома 346
Но 343
со 343
ным 341
при 339
сына 336
ная 335
еще 335
ное 329
ка 328
14 328
– 327
с@@ 327
своего 326
пусть 325
в@@ 325
16 323
13 321
20 321
мой 320
о@@ 319
На 319
землю 316
е 315
царь 313
"". 311
Когда 310
17 308
Давид 303
Ты 302
земли 302
до@@ 299
нам 298
( 296
том 295
над 294
твоего 293
18 291
19 291
Моисей 291
слова 290
руки 289
быть 285
С 285
те 282
ную 281
21 280
ку 277
тот 276
сделал 275
города 273
себя 273
22 272
сыны 267
дал 265
этом 264
ы 263
после 262
ном 260
та 259
ем 259
будут 258
... 257
отца 255
от@@ 255
пере@@ 253
детей 252
очень 251
между 249
ет 249
свою 249
против 248
ей 247
себе 247
много 245
потому 244
23 242
своих 238
народа 237
жизни 237
], 235
раз 235
25 234
т 234
была 233
24 232
ке 232
сказали 232
весь 232
говоря 229
Это 228
Бога 227
всем 227
й 227
говорит 224
имя 224
со@@ 223
взял 223
тогда 222
Чувашии 220
ют 220
под@@ 218
30 218
ко 217
По 217
Иисус 217
Моисею 214
раз@@ 214
Израилевых 214
нем 212
год 211
этого 211
У 210
свои 210
человека 208
два 207
Как 207
ны 205
дня 205
больше 202
без 202
место 201
ла 201
говорил 201
царя 199
С@@ 198
ко@@ 198
своей 198
ила 197
надо 197
я@@ 197
под 196
пошел 195
людей 194
ными 193
Вот 192
где 192
также 191
ской 191
26 190
об@@ 190
твоих 190
свой 188
вать 186
сказала 186
пришел 186
должен 186
три 185
По@@ 185
нужно 185
ро@@ 184
мо@@ 184
которую 184
27 183
з@@ 183
всего 180
Они 180
республики 180
28 179
более 179
ней 179
ли@@ 178
свое 178
м 176
работы 176
Израиля 175
У@@ 175
29 175
нее 174
тысяч 174
люди 174
ского 174
может 173
сынам 173
ними 173
одного 172
ре@@ 171
Мы 171
слово 170
]. 170
сердце 170
во@@ 169
будешь 169
семь 169
После 168
ть 168
и@@ 167
жертву 167
». 167
дней 167
пре@@ 167
своим 167
ни@@ 166
сегодня 165
священник 165
моего 165
О@@ 165
Тогда 164
каждый 163
сего 163
тобою 163
Меня 162
пришли 162
то@@ 162
» 161
воз@@ 161
этот 160
можно 159
», 159
31 159
ется 158
ле@@ 158
района 157
ви@@ 157
Господом 156
твои 156
сей 156
л 155
об 154
грех 154
которых 154
Израилевы 153
д 153
б@@ 152
кой 152
из@@ 151
своему 151
Господи 150
чем 150
дни 150
вами 150
вал 150
уже 149
го@@ 149
жить 148
вместе 147
которое 147
ва 147
но@@ 147
ди@@ 146
хорошо 146
ве@@ 146
среди 146
д@@ 145
ваши 145
России 144
г 144
ков 143
ж@@ 143
ский 142
Саул 142
буду 142
жизнь 142
всегда 141
отец 141
стал 140
На@@ 140
ш@@ 139
ч@@ 139
ту 138
ло@@ 138
Из 138
пять 138
ются 137
ком 137
ать 137
ра@@ 137
ская 136
город 136
должны 136
е@@ 135
тся 135
т@@ 135
бе@@ 135
бо@@ 134
чтоб 134
ился 134
воды 133
ма 133
сам 133
месте 133
вали 133
работу 132
скинии 132
вая 132
той 132
нами 131
теперь 131
стали 131
сказать 131
другой 131
де@@ 131
перед 131
колена 131
вой 130
ешь 129
ились 129
должно 129
перевозок 129
деревне 128
су@@ 128
чего 128
двух 128
ра 127
А@@ 127
здесь 127
Мне 127
ну 126
земля 126
дочь 126
собрания 126
через 126
дает 125
32 125
жителей 125
ности 125
И@@ 124
ка@@ 124
послал 124
ку@@ 124
рублей 124
,] 123
ва@@ 123
м@@ 123
Давида 122
се@@ 122
ность 122
шь 121
чи@@ 121
делать 120
Все 120
поле 120
части 120
ром 120
ме@@ 120
даже 120
которая 119
илась 119
35 119
При@@ 119
33 119
Так 119
твоей 119
которого 118
ь 118
34 118
кого 118
пошли 117
па@@ 117
ками 117
К 116
г@@ 116
царю 116
Она 116
ри@@ 116
ст@@ 115
ду@@ 115
словами 115
О 115
народу 115
культуры 115
руку 114
стороны 114
времени 114
ныне 114
других 114
вает 113
доме 113
вер@@ 113
го 113
имени 113
рас@@ 113
ения 112
жил 112
мои 112
ваших 112
Богу 112
тоже 112
говорить 111
работать 111
вышел 111
40 111
те@@ 111
нашей 111
умер 110
цы 110
женщина 110
горе 110
Для 109
ти@@ 109
повелел 109
Д@@ 109
эти 109
доколе 108
п@@ 108
Господня 108
скажи 108
дела 107
ров 107
ву 107
ские 107
поставил 107
дело 107
лице 107
Федерации 106
ство 106
кровь 105
Иаков 105
лица 105
места 105
ления 105
Что 105
ши@@ 105
та@@ 104
двадцать 104
твое 104
душа 104
ских 104
регулярных 104
ос@@ 103
да@@ 103
никто 103
одной 103
одежды 103
мною 103
твоему 103
ском 102
вых 102
ение 102
Египетской 102
""; 102
моя 102
своими 102
дай 101
этой 101
сть 101
деревни 101
дети 101
говорили 100
Российской 100
всей 100
приношение 100
Давиду 100
ковчег 100
му 99
около 99
жена 99
всю 99
идет 99
вос@@ 99
че@@ 99
раза 99
ции 99
ма@@ 98
ничего 98
пустыне 98
две 98
пить 98
ному 98
республике 98
ми 98
ду 98
твоим 98
В@@ 97
Со@@ 97
ше@@ 97
хо@@ 97
нему 97
вают 97
са 97
ис@@ 97
де 97
Про@@ 96
ться 96
ках 96
лицем 95
к@@ 95
За 95
дали 95
матери 95
36 95
ру@@ 95
годы 94
друг 94
вым 94
жену 94
ваш 94
скота 94
сие 94
сделали 94
Израиль 94
опять 93
голову 93
моей 93
вашего 93
н 93
Поэтому 93
б 93
ры 92
Израилевым 92
мир 92
душу 92
городе 92
Господень 92
своем 92
смерти 92
одна 91
са@@ 91
От 91
путь 91
а@@ 91
жи@@ 90
нашего 90
пи@@ 90
говорят 90
р@@ 90
ле 90
вала 89
развития 89
идти 89
лы 89
наших 89
Да 89
войны 89
заменить 89
Сегодня 89
будете 89
ющие 89
га 89
Ему 88
ло 88
ства 88
ды 88
ями 88
ением 88
ющих 88
]; 87
зо@@ 87
пе@@ 87
нибудь 87
работе 87
ме 87
тому 87
отвечал 87
локтей 87
ев 87
крови 87
назад 87
месяца 87
язык 87
/ 87
йте 86
сто 86
мало 86
городов 86
Во 86
н@@ 86
жертвы 86
сти 86
ющий 86
горы 86
тов 86
Е@@ 85
али 85
каждого 85
большой 85
мать 85
дать 85
ца 85
си@@ 85
]: 85
взяли 85
вые 85
му@@ 85
твою 85
статьи 84
лю 84
другие 84
Ибо 84
десять 84
первый 83
Аарон 83
ям 83
души 83
хлеб 83
жены 83
сии 83
сделай 83
тридцать 83
мое 82
37 82
скот 82
Тебя 82
сих 82
родила 82
сторона 82
ля@@ 81
жертвенник 81
ско@@ 81
школе 81
ания 81
р 81
­ 81
лись 81
тысячи 81
увидел 81
прошлом 80
й@@ 80
работа 80
ете 80
ил 80
ников 80
сейчас 80
брата 80
господин 80
ча@@ 80
могут 80
дам 79
Только 79
тем 79
ю@@ 79
туда 79
ки@@ 79
власти 79
ях 79
га@@ 79
поразил 78
жили 78
ление 78
ении 78
ста 78
часть 78
наши 78
дочери 78
ночь 78
дабы 78
моих 77
ту@@ 77
стала 77
которой 77
х 77
пред@@ 77
твоя 77
ой 77
ала 77
Кто 77
глаза 77
сил 77
прежде 76
наш 76
Мой 76
ание 76
х@@ 75
одно 75
гу 75
ходить 75
Боже 75
участие 75
встал 75
сыновей 75
Божий 75
отцу 75
живет 75
ваться 75
До 75
возьми 75
начал 74
ник 74
За@@ 74
ё@@ 74
це@@ 74
При 74
сиклей 74
ники 74
ались 74
з 73
вышли 73
38 73
вместо 73
сто@@ 73
числе 73
удел 73
2015 73
К@@ 73
юсь 73
ста@@ 72
врагов 72
сделать 72
Республике 72
народов 72
сло@@ 72
Михаил 72
всему 72
Иосиф 72
сти@@ 72
сами 72
поколение 72
школы 71
Самуил 71
Сейчас 71
ское 71
общество 71
моему 71
кроме 71
ый 71
ходил 71
ноги 71
раб 71
всякий 71
весьма 71
всесожжение 71
Аарону 70
слов 70
ре 70
жители 70
образования 70
тех 70
рук 70
овец 70
брат 69
откры@@ 69
Богом 69
потом 69
ался 69
эту 69
вого 69
ам 68
стра@@ 68
ру 68
дополнить 68
несколько 68
жи 68
глазами 68
разных 68
народом 68
Не@@ 68
гор@@ 68
новые 68
Совета 68
чрез 68
Соломон 67
ья 67
пол@@ 67
вода 67
сыновья 67
50 67
раба 67
стан 67
П@@ 67
ника 67
Г@@ 67
поэтому 66
праздник 66
закона 66
шел 66
тами 66
господина 66
пойди 66
новых 66
Га@@ 66
бы@@ 66
какой 65
.""; 65
слову 65
Чебоксары 65
хлеба 65
другого 65
станом 65
Египта 65
знает 65
Мои 65
воду 65
пути 65
ом 65
ят 65
Кроме 65
сельского 65
ф@@ 65
тельца 65
Аарона 64
вывел 64
ла@@ 64
деревню 64
пятьдесят 64
ры@@ 64
сторону 64
четыре 64
Там 64
ен@@ 64
районе 64
Здесь 64
стро@@ 64
ний 63
ба@@ 63
услышал 63
куда 63
Твоего 63
Отец 63
жа@@ 63
ция 63
вание 63
ан@@ 63
39 63
ша@@ 63
одну 63
собою 63
Вы@@ 63
либо 63
би@@ 63
ль@@ 63
чи 63
2014 63
жертвенника 63
гору 62
выше 62
вокруг 62
знаю 62
ею 62
Потом 62
которым 62
сорок 62
ною 62
Израильтяне 62
местного 62
сь 62
Израилем 62
Моисея 62
ЧР 62
является 62
вечера 62
абзаце 62
завет 62
дочерей 62
вещи 62
гу@@ 62
хозяйства 62
труда 62
кам 62
ению 61
ью 61
ющего 61
чувашской 61
нельзя 61
всесожжения 61
ми@@ 61
ческих 61
государственной 61
сыну 61
вом 61
стана 61
жен 61
Я@@ 61
чувашский 61
муниципальных 60
вший 60
вошел 60
Ка@@ 60
жу 60
здоровья 60
ха 60
ами 60
конца 60
котором 60
взять 60
цию 60
), 60
бу@@ 59
тук 59
ин@@ 59
цу 59
таких 59
кон@@ 59
итак 59
видел 59
людьми 59
Чтобы 59
мою 59
братьев 59
чу@@ 59
ши 59
начала 59
Вы 59
поля 59
42 59
ги@@ 59
вания 59
дерева 59
посе@@ 59
41 59
этих 59
ых 59
служить 59
сы@@ 59
тя@@ 58
ским 58
ги 58
скую 58
дают 58
Николай 58
рабов 58
седьмой 58
обра@@ 58
общества 58
людям 58
пер@@ 58
рами 58
43 58
ну@@ 58
чувашского 58
От@@ 58
Н 58
работал 57
Б@@ 57
начальник 57
До@@ 57
говорю 57
силы 57
Конечно 57
1@@ 57
ворот 57
шли 57
даст 57
шесть 57
мом 57
слу@@ 57
илось 57
стороне 57
лу 57
положил 57
ана 57
оттуда 57
будем 57
хочется 57
). 56
Итак 56
сюда 56
самоуправления 56
прошел 56
вый 56
рука 56
аться 56
же@@ 56
л@@ 56
ря@@ 56
Который 56
лу@@ 55
Господне 55
ь@@ 55
ти 55
пла@@ 55
отправились 55
зло 55
стало 55
второй 55
человеку 55
серебро 55
закон 55
моим 55
одежду 55
пове@@ 55
пойду 55
ходили 55
сколько 55
возьмет 55
ким 55
граждан 55
вался 55
стве 55
ющим 55
навстречу 55
бюджета 55
поселения 55
жен@@ 55
кор@@ 55
дому 54
Еще 54
царем 54
большое 54
Т@@ 54
руке 54
Авраам 54
водою 54
языке 54
ние 54
ради 54
страны 54
вопросы 54
дороге 54
Го@@ 54
М@@ 54
образом 54
чу 53
возможность 53
Ш@@ 53
мен@@ 53
Иакова 53
лен@@ 53
всеми 53
алась 53
минут 53
жив 53
Саула 53
такой 53
ах 53
пу@@ 53
свя@@ 53
хлебное 53
кая 53
работ 53
моло@@ 53
Се@@ 53
священнику 53
милость 53
сме@@ 53
хи@@ 52
се 52
организации 52
44 52
помощь 52
Филистимляне 52
зна@@ 52
ль 52
шу 52
Иордана 52
хотел 52
Моего 52
.] 52
завета 52
Иоав 52
муж 52
вается 52
зи@@ 52
45 52
работает 52
процентов 52
ясь 52
Государственного 52
оби@@ 51
часто 51
ве 51
19@@ 51
Мо@@ 51
све@@ 51
поло@@ 51
ческого 51
ди 51
Бе@@ 51
видели 51
ля 51
начали 51
цен@@ 51
благо@@ 51
друга 51
Сыны 51
скажет 51
Чебоксарах 51
фа 51
стар@@ 51
третий 51
песни 51
отдал 51
иди 50
2016 50
Сергей 50
кова 50
Ионафан 50
все@@ 50
стать 50
Ко@@ 50
серебра 50
фараон 50
моря 50
дел 50
скому 50
дов 50
отцов 50
Тебе 50
редакции 50
этим 50
ды@@ 50
родной 50
тер@@ 50
государственного 50
такие 49
рах 49
ины 49
бро@@ 49
деятельности 49
тель@@ 49
села 49
Владимир 49
конечно 49
ших 49
ня@@ 49
Однако 49
ые 49
обо@@ 49
мужа 49
ум@@ 49
щи@@ 49
вались 49
пола 49
службы 49
реки 49
языка 49
могу 49
ял 48
море 48
ешьте 48
щ@@ 48
расположились 48
тах 48
фараона 48
воцарился 48
сильно 48
направ@@ 48
сту@@ 48
пали 48
Ме@@ 48
честь 48
Израилев 48
оде@@ 48
лучше 48
женщины 48
щий 48
али@@ 48
трех 48
огонь 48
ге 48
ший 48
сделает 48
нечист 48
гре@@ 48
закон@@ 48
щие 48
Иисуса 48
Ф@@ 48
чувашском 48
цев 48
должна 48
богам 48
фараону 48
силу 47
ством 47
администрации 47
мы@@ 47
сердца 47
Иисусу 47
двенадцать 47
Си@@ 47
ину 47
руководитель 47
шая 47
Об 47
ночью 47
войну 47
ов 47
благословил 47
кий 47
пар@@ 47
Их 47
предел 47
рядом 47
меч 47
племенам 47
мира 47
чер@@ 47
вших 47
убил 47
твоем 47
лю@@ 47
тесь 47
Иордан 47
участок 47
спорта 46
принес 46
чный 46
ании 46
сию 46
золота 46
призвал 46
рабы 46
ска@@ 46
Л@@ 46
ье 46
мед@@ 46
Авессалом 46
З@@ 46
голос 46
знал 46
помощи 46
пойдет 46
стью 46
ц@@ 46
среды 46
глаз 46
детьми 46
пор 46
бес@@ 46
завтра 46
оно 46
заповедал 46
тро@@ 46
стоит 45
последние 45
уровне 45
клялся 45
кие 45
спросил 45
Ре@@ 45
Филистимлян 45
няя 45
сразу 45
многих 45
школу 45
стихи 45
скинию 45
количество 45
ж 45
род@@ 45
хотя 45
ческие 45
щих 45
остались 45
большая 45
ческий 45
Мое 45
Господню 45
лся 45
мужеского 45
землею 45
елеем 45
число 45
46 45
ницы 45
овна 44
семьдесят 44
кое 44
пока 44
видеть 44
очами 44
Э@@ 44
предал 44
Глава 44
никогда 44
многие 44
сни@@ 44
другим 44
дите 44
хочет 44
ностью 44
Во@@ 44
республиканского 44
области 44
стре@@ 44
местах 44
мог 43
нова 43
Петр 43
построил 43
цар@@ 43
жать 43
жертвеннике 43
Иосифа 43
лом 43
какое 43
дить 43
сле@@ 43
ева 43
щение 43
Однажды 43
программы 43
сказав 43
ходит 43
мая 43
ар@@ 43
соответствии 43
лении 43
сделаю 43
Иакову 43
такого 43
Почему 43
века 43
поли@@ 43
ал@@ 43
школ 42
убе@@ 42
ся 42
мясо 42
рода 42
любит 42
вопрос 42
ню 42
населения 42
йся 42
ба 42
шает 42
братья 42
Жаль 42
Беф 42
Н@@ 42
пойдем 42
нею 42
царей 42
делал 42
изложить 42
Египет 42
кро@@ 42
тель 42
родил 42
гра@@ 42
городах 42
отвер@@ 42
месяц 42
заповеди 42
вшись 42
рил 42
глазах 42
вет@@ 42
живут 42
умрет 42
детства 42
воро@@ 41
лять 41
Твой 41
ф 41
2@@ 41
увидев 41
никого 41
принесли 41
придет 41
Может 41
учиться 41
побе@@ 41
заклю@@ 41
вод 41
голоса 41
молодых 41
Чувашского 41
необходимо 41
вен@@ 41
нить 41
следующей 41
отве@@ 41
семье 41
регионов 41
порока 41
заме@@ 41
брату 41
подо@@ 41
мечом 41
пал 41
жд@@ 41
рабу 40
нов 40
ало 40
мов 40
священника 40
ден@@ 40
могли 40
мама 40
род 40
возвратился 40
весе@@ 40
пло@@ 40
следующего 40
содержания 40
ор@@ 40
дой 40
ще 40
гру@@ 40
лась 40
сте@@ 40
уби@@ 40
боль@@ 40
много@@ 40
знаешь 40
привел 40
Мною 40
немного 40
умереть 40
вне 40
агнцев 40
шие 40
деле 40
лением 40
бере@@ 40
свет 40
знаком@@ 40
ров@@ 40
знают 40
защи@@ 40
оставил 40
шей 40
народы 40
пос@@ 40
нежели 40
ели 40
вую 39
получ@@ 39
долго 39
люблю 39
гнев 39
осталось 39
собрались 39
Ле@@ 39
почему 39
ща 39
вашим 39
порядок 39
слуги 39
мал@@ 39
Саулу 39
Ч@@ 39
48 39
пря@@ 39
Министров 39
вай 39
глава 39
сельских 39
органов 39
Иерусалим 39
внимание 39
домой 39
ответ 39
ять 39
меры 39
эта 39
хочу 39
некоторые 39
средств 39
любил 39
дут 39
нашел 39
Ангел 39
Ли@@ 39
кра@@ 39
территории 39
чь 39
Таким 39
шься 39
ния 39
написано 39
давать 39
нечетная 39
ую 39
вели@@ 38
обла@@ 38
Господним 38
Ним 38
хи 38
чно 38
кри@@ 38
войне 38
принесет 38
вечером 38
лению 38
нил 38
Илия 38
щего 38
Игнатьев 38
волов 38
2012 38
утром 38
тело 38
Ц@@ 38
старейшины 38
овнов 38
муки 38
Иуда 38
деньги 38
тру@@ 38
коров 38
ляют 38
вшие 38
Алексей 38
мест 38
огнем 38
Ма@@ 38
четная 38
бра@@ 38
ак@@ 37
вина 37
сом 37
домом 37
дайте 37
значи@@ 37
ений 37
разные 37
% 37
зачем 37
ого 37
мали 37
роды 37
живых 37
э@@ 37
вошли 37
Израильтян 37
ке@@ 37
Есть 37
чной 37
сынами 37
края 37
фи@@ 37
отде@@ 37
жение 37
делает 37
станет 37
су 37
Нужно 37
прошли 37
без@@ 37
пошла 37
шки 37
столбов 37
Ве@@ 37
язва 37
Ар@@ 36
развитию 36
Один 36
М 36
Надо 36
Ие@@ 36
увидели 36
шим 36
вне@@ 36
абзац 36
уго@@ 36
равно 36
согрешил 36
сов 36
утра 36
кар@@ 36
тить 36
Ж@@ 36
развитие 36
Ра@@ 36
49 36
47 36
освя@@ 36
гото@@ 36
начале 36
ху@@ 36
Александр 36
тан@@ 36
Исаак 36
стен@@ 36
ц 36
ман@@ 36
Мария 36
вар@@ 36
ческой 36
телей 36
ваются 36
молодежи 36
тия 36
вернулся 36
выми 36
жет 36
коло@@ 36
зд@@ 36
Х@@ 36
воде 36
первые 36
»; 36
экономики 36
любовь 36
ьте 36
новый 36
роди@@ 36
уста 36
наша 36
этому 36
твоими 36
мной 36
?"" 36
большие 36
втором 36
богов 36
Ми@@ 36
Твое 35
Твои 35
ел 35
кино 35
тил 35
пришлось 35
име@@ 35
Например 35
вра@@ 35
ходят 35
зе 35
женщин 35
отцам 35
Израилева 35
ству 35
июня 35
продукции 35
стране 35
Са@@ 35
кою 35
дороги 35
Чувашия 35
солнце 35
слушать 35
па 35
приняли 35
руках 35
подле 35
кими 35
сила 35
ближнего 35
гласа 35
зан@@ 35
Исав 35
жертва 35
тели 35
кому 35
вил 35
семьи 35
органами 35
це 35
ран@@ 35
именно 35
авто@@ 35
покры@@ 35
закры@@ 35
поступил 35
скими 35
тела 35
писать 35
одному 35
армии 35
правде 35
забо@@ 35
такое 35
Теперь 35
именем 35
фе 35
ски 35
правда 35
дви@@ 35
дно 35
проектов 35
завер@@ 34
Ва@@ 34
щения 34
чных 34
ств 34
вола 34
сторон 34
утвер@@ 34
чного 34
дет 34
бе 34
сла@@ 34
никами 34
ат@@ 34
имена 34
лишь 34
почти 34
тыс 34
най@@ 34
избрал 34
сы 34
условия 34
ило 34
руками 34
остается 34
горя@@ 34
памяти 34
наследие 34
сты@@ 34
Израилю 34
момент 34
ро 34
Через 34
июля 34
районной 34
Соломона 34
самого 34
Ки@@ 34
тое 34
фе@@ 34
рано 34
дух 34
написал 34
позво@@ 34
числу 34
найти 34
законом 34
ких 34
связи 34
Пусть 34
вал@@ 34
Р@@ 34
ником 34
плен@@ 34
тит 34
ано@@ 34
одним 34
стов 34
2017 34
скры@@ 34
ваю 34
душе 34
100 34
улице 34
берегу 34
птиц 34
реализации 34
вод@@ 34
семействам 34
кую 34
шло 34
девушка 33
рова 33
вя@@ 33
чки 33
огне 33
работали 33
ить 33
рукою 33
рам 33
Та@@ 33
помогает 33
произ@@ 33
сама 33
мол@@ 33
даю 33
царство 33
ст 33
3@@ 33
щая 33
сен@@ 33
приношения 33
ванием 33
играть 33
Но@@ 33
головы 33
Дети 33
валась 33
пойдите 33
сем 33
рав@@ 33
останется 33
порядке 33
Очень 33
детям 33
оставили 33
шка 33
молока 33
шесты 33
двора 33
сообщил 33
голо@@ 33
сты 33
тая 33
нять 33
третьего 33
краси@@ 33
каждом 33
лов 33
вайте 33
сел 33
сердцем 33
про 33
гла@@ 33
выйти 33
рассе@@ 33
ими 33
пригла@@ 33
нуть 33
конкурс 33
роду 33
одном 33
семей 32
емых 32
Ку@@ 32
греха 32
ваше 32
ым 32
п 32
вчера 32
ций 32
благоухание 32
предприятия 32
три@@ 32
тые 32
храма 32
обратно 32
Ханаанской 32
родителей 32
крупного 32
че 32
ещё 32
ствует 32
ребенка 32
60 32
2013 32
фо@@ 32
сно@@ 32
конкурсе 32
ево 32
Республика 32
каз@@ 32
мал 32
нок 32
лен 32
работников 32
имеет 32
яв@@ 32
Об@@ 32
основ@@ 32
четыреста 32
учи@@ 32
работала 32
Хорошо 32
теля 32
приня@@ 32
правед@@ 32
си 32
ое 32
чные 32
аль@@ 32
избавил 32
взя@@ 32
мся 32
дя 32
Раз@@ 32
уме@@ 32
другом 32
владение 32
ща@@ 32
дро@@ 32
Г 32
плат@@ 32
дил 32
ото@@ 32
очистит 32
ницу 32
настоящее 32
рать 32
креп@@ 32
суд 32
маршрутам 32
нашли 32
сему 31
4@@ 31
ы@@ 31
Египтяне 31
дала 31
священников 31
челове@@ 31
семя 31
ведь 31
получили 31
государственных 31
приятное 31
показал 31
ня 31
Сын 31
нашим 31
укра@@ 31
рить 31
потер@@ 31
опреде@@ 31
Потому 31
возьмите 31
родился 31
будто 31
ателей 31
Посему 31
70 31
шестьдесят 31
легко 31
мужей 31
Среди 31
организаций 31
господину 31
словом 31
остался 31
частью 31
вести 31
камень 31
разме@@ 31
став@@ 31
царствовал 31
знать 31
Ави@@ 31
знаете 31
однолетних 31
право@@ 31
двести 31
Уважаемые 31
проекта 31
кры@@ 31
хоро@@ 31
дем 31
правду 31
Хотя 31
открыл 31
умерли 31
зависит 31
нов@@ 31
сфере 31
шу@@ 31
ните 31
шерсти 31
чувашские 31
слуг 31
селе 31
её 31
письмо 31
мнению 31
молоко 31
отпустил 31
встре@@ 31
рабами 31
прошлого 31
Под@@ 31
ван@@ 31
лены 31
отметил 31
зло@@ 30
смо@@ 30
зал 30
совсем 30
встань 30
неба 30
дит 30
52 30
безопасности 30
обе 30
Каждый 30
какие 30
храм 30
ков@@ 30
предприятий 30
пришла 30
интерес@@ 30
жали 30
тол@@ 30
Ду@@ 30
стояли 30
оба 30
жда@@ 30
входа 30
долине 30
Бо@@ 30
облако 30
часов 30
выде@@ 30
тых 30
нул 30
шатер 30
Израиле 30
держать 30
ит 30
щим 30
емся 30
П 30
нач@@ 30
Царь 30
целях 30
другому 30
Манассиина 30
период 30
вышла 30
хоть 30
Су@@ 30
вшего 30
тив@@ 30
Нет 30
подошел 30
Аврааму 30
сестра 30
положи 30
шла 30
ответствен@@ 30
ятся 30
аро@@ 30
кре@@ 30
лож@@ 30
родам 30
разви@@ 30
пора@@ 30
Свя@@ 30
Юрий 30
измен@@ 30
вс@@ 30
класса 30
ще@@ 30
делали 30
ленных 30
ровать 30
стол 30
скажу 30
поколения 29
зар@@ 29
Лю@@ 29
Твоих 29
шего 29
раду@@ 29
наверное 29
самое 29
Авенир 29
Авимелех 29
Закон 29
кровью 29
специаль@@ 29
Пре@@ 29
взяла 29
скажут 29
колен 29
бойся 29
стара@@ 29
вить 29
сыном 29
сим 29
Главы 29
Ю@@ 29
уст 29
Сам 29
работают 29
домов 29
лил 29
выши@@ 29
рев@@ 29
дне@@ 29
сошел 29
фа@@ 29
лось 29
чувашских 29
жит 29
сверх 29
ушел 29
любви 29
месяцев 29
богатство 29
благословен 29
пол 29
говорила 29
столбы 29
Египтян 29
стом 29
женою 29
51 29
Лаван 29
обязанности 29
каждой 29
очищения 29
твор@@ 29
менее 29
ха@@ 29
Иванова 29
Божия 29
55 29
двадцати 29
изрек 29
слава 29
съ@@ 29
отцом 29
лич@@ 29
отметить 29
исполнять 29
отцами 29
бюджетных 29
близ@@ 29
Ни@@ 29
ненави@@ 29
целью 29
исполнительной 29
Твою 28
стоял 28
пы@@ 28
шается 28
строительство 28
Аврам 28
жает 28
лежит 28
обще@@ 28
Иерусалиме 28
вое 28
денег 28
дорогу 28
стить 28
читать 28
начальники 28
собрание 28
цией 28
великий 28
кости 28
говори 28
огня 28
дости@@ 28
строительства 28
будущем 28
доб@@ 28
щу 28
Чувашский 28
восемь 28
Хе@@ 28
чен@@ 28
прошло 28
вед@@ 28
положить 28
енные 28
Ха@@ 28
делайте 28
первых 28
осно@@ 28
вз@@ 28
шить 28
быстро 28
близ 28
отсюда 28
взо@@ 28
конкурса 28
Моя 28
колено 28
Также 28
хранить 28
стада 28
районов 28
востоку 28
лях 28
столько 28
случае 28
рамках 28
пал@@ 28
тра@@ 28
зу 28
ени@@ 28
ены 28
цами 28
дами 28
ляется 28
Твоя 28
обре@@ 28
помо@@ 28
министра 28
новой 28
ющая 28
проект 28
рабочих 28
чуть 28
святилище 28
скажите 28
дах 28
пом@@ 28
возможности 28
чка 28
гля@@ 28
цель 28
2011 28
называ@@ 28
помочь 28
пле@@ 28
жения 28
коже 28
ставить 28
лей 28
каче@@ 27
!"" 27
радио 27
Авраама 27
Египте 27
спа@@ 27
законы 27
тый 27
чей 27
шение 27
знали 27
собра@@ 27
впереди 27
РФ 27
говоришь 27
Этот 27
производства 27
ляет 27
ница 27
приносите 27
крас@@ 27
нало@@ 27
поставили 27
Говорят 27
бед@@ 27
он@@ 27
дей@@ 27
чуваш 27
фу 27
приходил 27
постав@@ 27
лями 27
откровения 27
тельно 27
Хоть 27
хватает 27
Ро@@ 27
рассказал 27
сети 27
добро 27
нашему 27
Моим 27
наде@@ 27
поразили 27
лук 27
десяти 27
тал 27
нужны 27
мире 27
дар@@ 27
5@@ 27
путем 27
рой 27
гро@@ 27
подножия 27
ство@@ 27
80 27
Ху@@ 27
произведения 27
зу@@ 27
женщину 27
видно 27
лем 27
самый 27
бу 27
заповедую 27
ежедневно 27
тяжело 27
полу@@ 27
исключить 27
меж@@ 27
создать 27
нашем 27
провести 27
ге@@ 27
ефы 27
плоть 27
прода@@ 27
ше 27
назна@@ 27
комиссии 27
следующий 27
ись 27
заве@@ 27
первом 27
мат@@ 27
мужчин 27
тор@@ 27
связано 27
меча 27
другое 27
жал 27
образ 27
соз@@ 27
социальной 27
лено 27
иначе 27
пример 27
вшим 27
веки 27
един@@ 27
взяв 27
тянин 27
Ру@@ 27
Твоему 26
таким 26
поч@@ 26
совместно 26
девя@@ 26
затем 26
исто@@ 26
цветы 26
теле@@ 26
лес 26
получить 26
книги 26
провер@@ 26
ил@@ 26
Ели@@ 26
Господних 26
объя@@ 26
слышал 26
ху 26
Закона 26
ству@@ 26
молодой 26
образование 26
шения 26
Израильский 26
дей 26
пит 26
мелкого 26
Людмила 26
выс@@ 26
хозяйство 26
опусто@@ 26
лег@@ 26
вича 26
доро@@ 26
нется 26
фы 26
проро@@ 26
пророков 26
разве 26
друзья 26
жный 26
ток 26
отрока 26
процента 26
будь 26
удела 26
камни 26
мер@@ 26
наук 26
ходила 26
камнями 26
живущих 26
своею 26
убежал 26
ты@@ 26
Эти 26
пустыню 26
хом 26
уто@@ 26
цов 26
оказывается 26
самых 26
кан@@ 26
новым 26
чита@@ 26
Затем 26
законодательством 26
Валаам 26
ковой 26
сия 26
тных 26
раздра@@ 26
поя@@ 26
совер@@ 26
ост@@ 26
стано@@ 26
шили 26
запа@@ 26
солнца 26
здоро@@ 26
давно 26
чку 26
окру@@ 26
Ди@@ 26
зем@@ 26
богат@@ 26
жертв 26
нашими 26
днем 26
Ио@@ 26
Чебоксарского 26
предместья 26
услышав 26
выйдет 26
кла@@ 26
собира@@ 26
жилья 26
щают 26
жел@@ 26
газеты 26
владе@@ 26
искать 26
Судебный 26
государственный 26
исчисление 26
деревнях 26
уровень 26
всякое 26
ш 26
лучших 26
наше 26
двери 26
Пере@@ 26
поко@@ 26
стри@@ 26
чет@@ 26
мо 26
важ@@ 26
Твоей 26
люби@@ 26
нюю 26
Эта 26
Сар@@ 25
ног 25
Де@@ 25
игры 25
неделю 25
сить 25
Исаака 25
боялся 25
принять 25
чистого 25
напо@@ 25
родились 25
поутру 25
жа 25
нах 25
техни@@ 25
гает 25
ски@@ 25
труд@@ 25
системы 25
Народ 25
дела@@ 25
правильно 25
впредь 25
побежал 25
осуществления 25
ем@@ 25
миром 25
дол@@ 25
идешь 25
шен 25
истреб@@ 25
мя@@ 25
ствовал 25
сове@@ 25
шать 25
некоторых 25
гал 25
гости 25
моем 25
особенно 25
Ше@@ 25
подня@@ 25
елей 25
гом 25
действительно 25
ть@@ 25
петь 25
учителя 25
козла 25
лить 25
Шу@@ 25
атель@@ 25
ющихся 25
абзацем 25
политики 25
жим 25
бросил 25
чили 25
мужчина 25
Лу@@ 25
прикоснется 25
замуж 25
Ви@@ 25
зву@@ 25
зла 25
государства 25
ющей 25
русском 25
сельской 25
сокру@@ 25
голове 25
годах 25
деревня 25
разговари@@ 25
ев@@ 25
подобно 25
изменения 25
которыми 25
декабря 25
само@@ 25
высо@@ 25
исполня@@ 25
ани@@ 25
увидит 25
щает 25
Всех 25
зе@@ 25
Яковлева 25
успе@@ 25
старейшина 25
угодно 25
Казани 25
гать 25
никам 25
школах 25
Сначала 25
чие 24
Перед 24
Твоим 24
ческом 24
животных 24
вре@@ 24
Него 24
мирную 24
муж@@ 24
ственного 24
Пока 24
националь@@ 24
ча 24
золотом 24
рез@@ 24
убить 24
хозяйстве 24
парень 24
первого 24
пил 24
прав@@ 24
бле@@ 24
вопль 24
ез@@ 24
Вениамина 24
Можно 24
Особенно 24
жене 24
вашими 24
пра@@ 24
тий 24
самом 24
год@@ 24
вперед 24
дию 24
поддержки 24
специалистов 24
проходит 24
ленные 24
Рахиль 24
54 24
поклонился 24
всякого 24
будьте 24
другую 24
лый 24
оцени@@ 24
строить 24
жные 24
пало 24
очи@@ 24
шек 24
вила 24
триста 24
щен@@ 24
народе 24
тие 24
января 24
деся@@ 24
сильнее 24
инвестиционной 24
проведения 24
Ахав 24
2010 24
Яковлев 24
иных 24
иску@@ 24
соблю@@ 24
поро@@ 24
бежал 24
улуч@@ 24
ожи@@ 24
ч 24
перво@@ 24
родного 24
великим 24
принести 24
спе@@ 24
То@@ 24
мужем 24
тен@@ 24
небо 24
лял 24
Хананеев 24
способ@@ 24
зн@@ 24
чески 24
скоро 24
брать 24
науч@@ 24
неужели 24
удалось 24
То 24
благоволение 24
экономи@@ 24
должностей 24
война 24
вшиеся 24
принимать 24
производи@@ 24
Ее 24
Елена 24
роль 24
гну@@ 24
ато@@ 24
жат 24
узнал 24
тем@@ 24
наверно 24
привы@@ 24
сделался 24
собой 24
отцы 24
пля@@ 24
ало@@ 24
ина 24
води@@ 24
службу 24
славу 24
субъектов 24
пят@@ 24
зная 24
муниципальным 24
согласился 24
бла@@ 24
пророк 24
Или 24
вла@@ 24
четырех 24
дорож@@ 24
обсу@@ 24
главы 23
продол@@ 23
информации 23
откуда 23
Рабо@@ 23
никакой 23
веч@@ 23
жилищах 23
будущее 23
район 23
вою 23
стан@@ 23
локтя 23
совершен@@ 23
изменений 23
участвовали 23
другая 23
фонда 23
дия 23
насы@@ 23
ваем 23
очередь 23
бывает 23
ходите 23
поселение 23
ша 23
Авессалома 23
Именно 23
Иерихона 23
ёт 23
разру@@ 23
шестьсот 23
делай 23
идут 23
Многие 23
зы@@ 23
сегодняшний 23
окна 23
Кириаф 23
награ@@ 23
аны 23
лена 23
помню 23
пож@@ 23
простер 23
вании 23
ска 23
соблюдать 23
предо 23
шую 23
осквер@@ 23
собрал 23
отдела 23
жезл 23
учеников 23
уч@@ 23
рабо@@ 23
ден 23
мин@@ 23
жребий 23
День 23
дии 23
нят 23
городских 23
судьба 23
иль@@ 23
пяти 23
знаем 23
Иван 23
выда@@ 23
чить 23
гами 23
видит 23
начальника 23
вой@@ 23
гор 23
тре@@ 23
миллионов 23
благословение 23
тяж@@ 23
пры@@ 23
держи@@ 23
врага 23
мастерство 23
ок 23
пойдешь 23
ува@@ 23
хотят 23
Кар@@ 23
училище 23
свободное 23
янин 23
гектаров 23
Тобою 23
голубой 23
силь@@ 23
колхозе 23
цем 23
одно@@ 23
90 23
пока@@ 23
вашей 23
статье 23
выра@@ 23
повинности 23
устро@@ 23
плен 23
вон 23
обе@@ 23
ковчегом 23
кольца 23
рост 23
семью 23
жила 23
доброе 23
назвал 23
повелению 23
виде 23
учеб@@ 23
повер@@ 23
связанные 23
рождения 23
дар 23
Москве 23
часа 23
супруга 23
помазания 23
далее 23
чение 23
ан 23
человеком 23
анию 23
соревнованиях 23
Интернет 23
недавно 23
крепкого 23
помогают 23
поставь 23
мяса 23
увидеть 22
лы@@ 22
траву 22
поле@@ 22
болезни 22
нес@@ 22
валось 22
вся 22
Своего 22
бил 22
очах 22
Ахи@@ 22
Сем@@ 22
мест@@ 22
иногда 22
цели 22
твер@@ 22
проек@@ 22
чная 22
учебы 22
великое 22
дорогою 22
морю 22
Те@@ 22
пя@@ 22
сена 22
Васильевич 22
рен@@ 22
иметь 22
агнца 22
какая 22
чит 22
%. 22
продолж@@ 22
перешел 22
словам 22
изберет 22
чему 22
права 22
слы@@ 22
уде@@ 22
постановления 22
Великой 22
книгу 22
воззвал 22
кру@@ 22
апреля 22
пищи 22
спро@@ 22
ви 22
защиты 22
усили@@ 22
половина 22
следующие 22
Аморреев 22
нули 22
учился 22
Светлана 22
иду 22
лах 22
пункта 22
спортом 22
здоровье 22
принадлежит 22
святыня 22
тельцов 22
сидеть 22
приготов@@ 22
молодежь 22
кол@@ 22
янина 22
мые 22
Тот 22
ствуют 22
уважа@@ 22
обоих 22
школа 22
трудо@@ 22
чения 22
совет 22
щи 22
явля@@ 22
девушек 22
расска@@ 22
зывать 22
размно@@ 22
спать 22
напи@@ 22
книге 22
буду@@ 22
солдат 22
рт@@ 22
наме@@ 22
собрали 22
ФЗ 22
нице 22
великая 22
районах 22
обеспечения 22
гостей 22
просил 22
шил 22
глу@@ 22
следует 22
Петрова 22
переда@@ 22
ер@@ 22
им@@ 22
различных 22
емые 22
далеко 22
увели@@ 22
прош@@ 22
сохран@@ 22
позади 22
употреб@@ 22
граждан@@ 22
успоко@@ 22
шку 22
чув@@ 22
победи@@ 22
Божию 22
старо@@ 22
иным 22
газета 22
прине@@ 22
нести 22
другу 22
братьям 22
щем 22
узнать 22
Ивана 22
дет@@ 22
настоящего 22
являются 22
служ@@ 22
современ@@ 22
попа@@ 22
хочешь 22
Иоава 22
ждение 22
Бу@@ 22
шем 22
зов 22
ван 22
вели 22
водой 22
пищу 22
инвестиций 22
вились 22
священником 22
шему 22
ребенок 22
Да@@ 22
вовек 21
услышали 21
классов 21
жно 21
качества 21
которому 21
ци@@ 21
Дух 21
течение 21
партии 21
тотчас 21
священники 21
йтесь 21
Вениами@@ 21
окончания 21
душой 21
поднял 21
ходи 21
услуг 21
принял 21
сохранить 21
началь@@ 21
едино@@ 21
приносит 21
возложит 21
называют 21
северу 21
добрые 21
множество 21
профессии 21
снял 21
приноси 21
привели 21
осмо@@ 21
мероприятий 21
ческую 21
слышали 21
сельскохозяйственной 21
всякой 21
золото 21
произошло 21
сельское 21
ри 21
тарифам 21
например 21
приве@@ 21
отношения 21
млн 21
Благодаря 21
средства 21
городу 21
нашу 21
хотелось 21
грехи 21
золотых 21
ваясь 21
нен@@ 21
память 21
дорог 21
щаются 21
родном 21
Слу@@ 21
нили 21
ходе 21
обо 21
боро@@ 21
широ@@ 21
престоле 21
сне@@ 21
Себе 21
стран 21
Анна 21
обеспечить 21
кругом 21
Цар@@ 21
Самсон 21
группы 21
постоянно 21
Много 21
сму@@ 21
работники 21
дится 21
Необходимо 21
участ@@ 21
задачу 21
ствовать 21
забы@@ 21
Рас@@ 21
настоящей 21
настоящим 21
зако@@ 21
сказ@@ 21
тут 21
мыс@@ 21
вского 21
духов@@ 21
заметил 21
мым 21
найдется 21
тно 21
чуж@@ 21
Никто 21
зер@@ 21
кат@@ 21
ься 21
Мар@@ 21
деревень 21
находится 21
Больше 21
бесе@@ 21
Иосифу 21
беззаконие 21
вопро@@ 21
принима@@ 21
конце 21
памятник 21
53 21
Моава 21
охра@@ 21
гря@@ 21
мероприятия 21
чает 21
горо@@ 21
пшеничной 21
телям 21
имен 21
ско 21
город@@ 21
родители 21
Из@@ 21
Отца 21
нуж@@ 21
дальше 21
Мать 21
счастья 21
Даже 21
бизнеса 21
считать 21
смог 21
атели 21
гов 21
веру@@ 21
ира 21
зачала 21
предать 21
час 21
нула 21
тонн 21
шее 21
вел 21
Мама 21
инструмен@@ 21
елея 21
или@@ 21
радостью 21
сс@@ 21
русского 21
гой 21
октября 21
приме@@ 21
плод 21
Статья 21
обы@@ 21
святилища 21
селами 21
никакого 21
одежда 21
Иа@@ 21
дерево 21
вслед 21
погиб@@ 21
пределы 21
становится 21
искус@@ 21
ровали 21
ченных 21
реш@@ 21
Нам 21
сова 21
птицы 21
истинно 21
Валерий 21
Мою 21
национальной 21
чил 21
Валак 21
чистым 21
шен@@ 21
нарек 21
обществу 20
вшихся 20
осла 20
умертвил 20
мова 20
Ан@@ 20
семени 20
Ал@@ 20
ян 20
ческая 20
сожжет 20
возвратились 20
нару@@ 20
успехов 20
мимо 20
Соломону 20
испол@@ 20
поме@@ 20
хорошее 20
дверь 20
Е 20
сторо@@ 20
емого 20
двумя 20
первую 20
взаимо@@ 20
коле@@ 20
позиции 20
устанавли@@ 20
чать 20
возвы@@ 20
Ор@@ 20
лений 20
Татьяна 20
похо@@ 20
подру@@ 20
строитель@@ 20
пересе@@ 20
возложил 20
дя@@ 20
ило@@ 20
хлебом 20
мужчины 20
управления 20
обна@@ 20
ходя 20
Самуилу 20
дождь 20
согла@@ 20
старости 20
Федерального 20
62 20
ворота 20
Манассии 20
класс 20
расположен@@ 20
купил 20
Сии 20
61 20
муниципального 20
установленном 20
мере 20
куп@@ 20
верну@@ 20
чая 20
достаточно 20
низ@@ 20
ляжет 20
последнее 20
Юрия 20
бери 20
Ольга 20
лова 20
Лидия 20
подоб@@ 20
енных 20
писал 20
самой 20
разум@@ 20
телем 20
Му@@ 20
вдохнов@@ 20
раст@@ 20
внутри 20
Всегда 20
очи 20
Ф 20
явился 20
тные 20
мана 20
млрд 20
отвечали 20
можем 20
ём 20
творчества 20
заклятию 20
памят@@ 20
Воз@@ 20
улицу 20
ёл 20
доступ@@ 20
подножий 20
200 20
телями 20
кал@@ 20
вклю@@ 20
ес@@ 20
языком 20
вошедших 20
пятьсот 20
чным 20
тяже@@ 20
щую 20
пес@@ 20
любят 20
альные 20
самые 20
решение 20
повы@@ 20
любить 20
кать 20
Хеврон 20
республика 20
заду@@ 20
большим 20
марта 20
Федеральным 20
однако 20
вол@@ 20
копье 20
камней 20
получают 20
жителям 20
гн@@ 20
мощ@@ 20
бывшие 20
сне 20
Дол@@ 20
Николая 20
ствие 20
написать 20
учить 20
гон@@ 20
самая 20
Пи@@ 20
Гедеон 20
печ@@ 20
старейшин 20
сравнению 20
годом 20
Моих 20
учреждений 20
разговор 20
вста@@ 20
щать 20
состав 20
настроение 20
жной 20
истории 20
Иорданом 19
прекрас@@ 19
выступил 19
заместитель 19
касы 19
мых 19
приез@@ 19
давал 19
пророка 19
стат@@ 19
ехать 19
сено 19
приходится 19
всякую 19
Себя 19
четной 19
Павел 19
холо@@ 19
вашему 19
ближе 19
Хочется 19
отдыха 19
ковых 19
чек 19
поступать 19
плакали 19
жем 19
Сер@@ 19
жных 19
ран 19
прило@@ 19
дь 19
Иудейского 19
ата 19
58 19
посылал 19
месту 19
ком@@ 19
прекра@@ 19
решения 19
Президент 19
принимают 19
мор@@ 19
дан@@ 19
ежегодно 19
направо 19
Лариса 19
детстве 19
точ@@ 19
станут 19
новую 19
приходили 19
депутаты 19
полити@@ 19
тво@@ 19
хотите 19
умень@@ 19
семьей 19
Жи@@ 19
новое 19
ян@@ 19
разде@@ 19
ввел 19
Иерусалима 19
йти 19
рит 19
ара 19
ослов 19
напа@@ 19
показали 19
смерть 19
предусмотренных 19
Чувашская 19
показать 19
растет 19
двор 19
ав@@ 19
Ри@@ 19
летописи 19
Учитель 19
дано 19
тай@@ 19
восто@@ 19
отме@@ 19
чал 19
прокля@@ 19
особо 19
сохра@@ 19
сили 19
вижу 19
Мин@@ 19
Галаад 19
классе 19
девушки 19
жан@@ 19
стакана 19
чет 19
основе 19
Ивановна 19
службе 19
Фа@@ 19
спас@@ 19
международ@@ 19
годов 19
боялись 19
огор@@ 19
домах 19
условий 19
лан@@ 19
курения 19
Геннадий 19
какую 19
колхоз@@ 19
услышь 19
мого 19
Вер@@ 19
рина 19
большого 19
Ак@@ 19
региона 19
завесу 19
песню 19
ково 19
плохо 19
Виталий 19
ждать 19
пункте 19
поражение 19
покрывала 19
уз@@ 19
ов@@ 19
финансо@@ 19
готовить 19
чуваши 19
Род@@ 19
поставить 19
благополучия 19
мер 19
четвертый 19
весом 19
сиклю 19
ноч@@ 19
ин 19
свобод@@ 19
скрижали 19
лые 19
немало 19
стану 19
остано@@ 19
коз@@ 19
статью 19
завесы 19
Идуме@@ 19
водо@@ 19
цам 19
сосуды 19
зации 19
деревен@@ 19
боле@@ 19
установ@@ 19
праздника 19
пишет 19
актив@@ 19
уж 19
плата 19
объедин@@ 19
великого 19
кали 19
пору@@ 19
несли 19
лым 19
смотреть 19
вно 19
правой 19
характера 19
ефода 19
ся@@ 19
ыми 19
уши 19
сон 19
тится 19
пости@@ 19
Самое 19
ностей 19
соревновались 19
Желаю 19
тым 19
Исааку 19
ложки 19
навсегда 19
кле@@ 19
истребил 19
Пилат 19
рожд@@ 19
добро@@ 19
теп@@ 19
меньше 19
чай@@ 19
племени 19
ец 18
ман 18
йской 18
можешь 18
образ@@ 18
пое@@ 18
Ваал 18
сок 18
нику 18
другими 18
ющиеся 18
республиканском 18
нится 18
праздником 18
Ах@@ 18
истори@@ 18
семья 18
нию 18
гри@@ 18
вет 18
Вместе 18
мало@@ 18
родных 18
кас@@ 18
жени@@ 18
пережи@@ 18
шал 18
опера@@ 18
соб@@ 18
благодаря 18
жизнью 18
смогла 18
поль@@ 18
Пушкина 18
яр@@ 18
яне 18
мала 18
метров 18
объявил 18
блю@@ 18
щается 18
лят 18
первенцев 18
дел@@ 18
гне@@ 18
упо@@ 18
перешли 18
хорошие 18
Со 18
основания 18
привле@@ 18
пустыни 18
чное 18
стой 18
программу 18
счастье 18
хотели 18
ефод 18
Леви@@ 18
ур@@ 18
фор@@ 18
пассажиров 18
родные 18
послушал 18
пусты@@ 18
Иоаву 18
заболе@@ 18
братьями 18
клю@@ 18
тон@@ 18
мера 18
Израилевыми 18
ус@@ 18
бабу@@ 18
луч@@ 18
обет 18
виногра@@ 18
очисти@@ 18
чали 18
хлебного 18
проклятие 18
Чи@@ 18
сцену 18
враги 18
всякая 18
семян 18
городской 18
совершил 18
отдых 18
отдать 18
сер@@ 18
ваний 18
ющую 18
знания 18
исполнилось 18
будучи 18
образо@@ 18
план@@ 18
Иудина 18
позвал 18
полномочий 18
местных 18
стане 18
ват@@ 18
средней 18
бан@@ 18
решил 18
ходи@@ 18
смотря 18
совета 18
щены 18
сум@@ 18
Пос@@ 18
еди@@ 18
сообщила 18
мир@@ 18
дли@@ 18
нарекла 18
связь 18
целый 18
левитов 18
течет 18
истечение 18
етесь 18
зом 18
добычу 18
служил 18
мастер 18
составля@@ 18
ченные 18
предаст 18
Отечественной 18
меди 18
зы 18
Ке@@ 18
Ша@@ 18
фестивале 18
радость 18
дверей 18
ющее 18
гнева 18
Иванов 18
2009 18
кина 18
работа@@ 18
подтвер@@ 18
ющийся 18
нен 18
анием 18
Курс 18
ялся 18
енного 18
государственном 18
значение 18
Вооз 18
летние 18
книг 18
священному 18
козлов 18
приходит 18
страш@@ 18
вилось 18
щен 18
интересов 18
тепло 18
муниципальной 18
лагеря 18
наз@@ 18
войти 18
специально 18
Чебоксар 18
мыш@@ 18
освобо@@ 18
случилось 18
необходи@@ 18
организовать 18
увидела 18
тки 18
домы 18
рых 18
нии 18
всадни@@ 18
остановились 18
гали 18
сферы 18
кля@@ 18
Николаева 18
колесницы 18
мини@@ 18
лям 18
убили 18
попро@@ 18
друзьями 18
первое 18
слугам 18
приобре@@ 18
кожи 18
ляя 18
"": 18
поступ@@ 18
утро 18
Значит 18
ляли 18
нике 18
стран@@ 18
полностью 18
глубо@@ 18
идите 18
умерла 18
трудно 18
Ба@@ 18
счита@@ 18
Соломо@@ 18
Марина 18
правую 18
щему 18
бли@@ 18
ценностей 18
Юра 18
семи 18
литературы 18
истреблю 18
предприятиях 18
Бы@@ 18
лов@@ 18
ложить 18
вырос 18
отправ@@ 18
получения 18
пожар@@ 18
помощью 18
вало 18
хотела 18
старается 18
Пу@@ 18
провели 18
построить 17
ова 17
задача 17
умо@@ 17
Оказывается 17
ственный 17
счет 17
сестры 17
зани@@ 17
ученики 17
отдай 17
письма 17
нравится 17
огороде 17
сят 17
группе 17
сидел 17
Филистимлянина 17
обложил 17
объектов 17
созд@@ 17
силою 17
вечно 17
трудолюби@@ 17
водил 17
скор@@ 17
послали 17
Израильтянами 17
Иудеи 17
радости 17
вов 17
Сколько 17
обуча@@ 17
создал 17
цом 17
гут 17
пи 17
больших 17
производ@@ 17
тив 17
тою 17
ут 17
уча@@ 17
предлож@@ 17
щении 17
Дру@@ 17
шедшие 17
поклоня@@ 17
местности 17
спортивных 17
деревья 17
страну 17
язы@@ 17
ходя@@ 17
хват@@ 17
алось 17
делу 17
левитам 17
рай@@ 17
ари@@ 17
колесниц 17
литься 17
ственной 17
поса@@ 17
Без 17
хороших 17
рии 17
сельхоз@@ 17
Николаевна 17
жей 17
ствовали 17
изд@@ 17
тянина 17
нат@@ 17
избран@@ 17
русский 17
стены 17
Хо@@ 17
студен@@ 17
мысли 17
Кабинета 17
благослов@@ 17
медицинских 17
хро@@ 17
дея@@ 17
укреп@@ 17
Сихем 17
мами 17
замет@@ 17
взошел 17
задачи 17
академии 17
злое 17
ситуации 17
удив@@ 17
Иеровоама 17
Израильских 17
заставля@@ 17
думал 17
стами 17
Пе@@ 17
ена 17
жды 17
жал@@ 17
ей@@ 17
почил 17
нин 17
самым 17
2018 17
сит 17
собирать 17
главный 17
площади 17
встав 17
Ядрин@@ 17
Па@@ 17
шала 17
числа 17
Михаила 17
стакан 17
воевать 17
вах 17
лиц 17
итогам 17
отда@@ 17
пор@@ 17
яет 17
маленькая 17
лит 17
Сауло@@ 17
7@@ 17
федерального 17
меч@@ 17
пти@@ 17
Стар@@ 17
помилуй 17
щей 17
ате@@ 17
ждали 17
труд 17
нения 17
кин@@ 17
пу 17
приятно 17
мероприятие 17
спраши@@ 17
выполня@@ 17
выросли 17
насе@@ 17
деревенских 17
организо@@ 17
попал 17
шают 17
хозяй@@ 17
кин 17
хле@@ 17
пись@@ 17
сражение 17
гово@@ 17
Всего 17
Чуваш@@ 17
мастер@@ 17
сво@@ 17
парня 17
встали 17
ган@@ 17
ум 17
мудрость 17
вшийся 17
част@@ 17
судьею 17
чест@@ 17
цари 17
слож@@ 17
Внести 17
законодательства 17
:"" 17
привести 17
пус@@ 17
семей@@ 17
солдат@@ 17
Моему 17
Манасси@@ 17
еду 17
нит 17
тием 17
500 17
обещал 17
участвовать 17
покоя 17
постро@@ 17
исчислено 17
колене 17
мед 17
объяви 17
университет 17
какого 17
оценке 17
лет@@ 17
Было 17
воспиты@@ 17
Ну 17
своеобраз@@ 17
плакал 17
жесто@@ 17
Сири@@ 17
каком 17
сор@@ 17
недо@@ 17
ны@@ 17
уве@@ 17
геро@@ 17
Зна@@ 17
чала 17
входу 17
вид 17
органы 17
праздники 17
9@@ 17
шке 17
укрепля@@ 17
яз@@ 17
земля@@ 17
Наши 17
Наша 17
гнать 17
посему 17
жением 17
ати@@ 17
пойти 17
ваша 17
ванию 17
постанов@@ 17
мам 17
спо@@ 17
Чу@@ 17
убьет 17
прове@@ 17
полез@@ 17
двое 17
проводят 17
Татарстана 17
лам 17
вырастили 17
везде 17
тии 17
имел 17
противо@@ 17
57 17
университета 17
скло@@ 17
последний 17
запре@@ 17
рован@@ 17
волшеб@@ 17
вернуть 17
светильник 17
председателя 17
лиш@@ 17
довер@@ 17
останавли@@ 17
любишь 17
пересечения 17
ая 16
нового 16
евского 16
ул 16
земель 16
жар@@ 16
старейшинам 16
положили 16
окончил 16
ье@@ 16
можете 16
владения 16
ногах 16
херувимов 16
славы 16
мени 16
Комсомоль@@ 16
пис@@ 16
полтора 16
твоею 16
Мадианитян 16
перес@@ 16
повре@@ 16
потока 16
слад@@ 16
эта@@ 16
отправили 16
министр 16
юноша 16
заколет 16
скиниею 16
покро@@ 16
ней@@ 16
югу 16
желание 16
удовлетво@@ 16
достой@@ 16
даль@@ 16
девять 16
выходил 16
обраща@@ 16
коро@@ 16
мас@@ 16
трость 16
спасти 16
право 16
ательно 16
вился 16
вну@@ 16
передачи 16
ветеранов 16
дитя 16
мечта 16
шат 16
сочин@@ 16
кажется 16
пили 16
раньше 16
Разве 16
связанных 16
давали 16
напечат@@ 16
уб@@ 16
повеление 16
прав 16
жив@@ 16
мелкий 16
лили 16
победителей 16
Где 16
Ханаанскую 16
плодов 16
отправился 16
Пер@@ 16
кала 16
уничто@@ 16
национального 16
Ги@@ 16
сделала 16
мужу 16
поставит 16
донесли 16
округе 16
сад 16
ствия 16
видя 16
6@@ 16
пустил 16
берет 16
начальником 16
нка 16
россий@@ 16
рождении 16
сильный 16
сделайте 16
гли 16
вину 16
!» 16
обществе 16
положений 16
актами 16
стоять 16
первым 16
ополчениям 16
притво@@ 16
вят 16
органа 16
полномочия 16
качество 16
ягод 16
чаша 16
качестве 16
душею 16
плоти 16
извест@@ 16
бить 16
значит 16
ственные 16
коллеги 16
щими 16
правиль@@ 16
волосы 16
Филистимлянами 16
нечисто@@ 16
постель 16
опыт 16
супругой 16
меди@@ 16
стихотвор@@ 16
развивать 16
чен 16
вспоминает 16
чай 16
воин@@ 16
Янти@@ 16
повысить 16
леса 16
мую 16
Хевроне 16
вного 16
истребится 16
уш@@ 16
команда 16
отпусти 16
тили 16
проводили 16
послов 16
ставил 16
печати 16
осуществлении 16
вечер 16
спокойно 16
здравоохранения 16
Елеазар 16
бывших 16
народной 16
жается 16
полей 16
мет@@ 16
войска 16
домо@@ 16
Ангела 16
каж@@ 16
хвал@@ 16
показ@@ 16
Иеффай 16
историю 16
программ 16
Чувашском 16
экономического 16
делают 16
край 16
травы 16
жая 16
разре@@ 16
объявит 16
мар@@ 16
руковод@@ 16
сбудется 16
половине 16
Урмар@@ 16
дове@@ 16
молодого 16
ляются 16
моими 16
Твоею 16
голода 16
век 16
врагам 16
Али@@ 16
лых 16
покрывало 16
надцати 16
ковчега 16
смертью 16
душ 16
рия 16
связ@@ 16
диться 16
поступили 16
щее 16
ситтим 16
брусьев 16
открыли 16
Божие 16
вав 16
Дана 16
мнение 16
Олимпи@@ 16
уда@@ 16
врагами 16
подви@@ 16
системе 16
вино 16
выку@@ 16
Вос@@ 16
организовали 16
приносить 16
сед@@ 16
ут@@ 16
красивая 16
искусства 16
ход@@ 16
играли 16
данное 16
увидишь 16
дадут 16
целе@@ 16
домаш@@ 16
сред@@ 16
семена 16
сите 16
ено 16
настоя@@ 16
руководи@@ 16
Одна 16
йского 16
Человек 16
узна@@ 16
прямо 16
цвета 16
Про 16
смотри 16
Россия 16
царства 16
стене 16
ственно 16
?» 16
опоя@@ 16
гнул 16
Иоси@@ 16
сушен@@ 16
послед@@ 16
позволит 16
логи@@ 16
Ин@@ 16
священ@@ 16
священные 16
заслуженный 16
процедить 16
зя@@ 16
ковского 16
пов 16
Мал@@ 16
Васильев 16
откро@@ 16
отпустить 16
стихов 16
днях 16
ственных 16
избира@@ 16
Ши@@ 16
тари@@ 16
Моавитских 16
свет@@ 16
мертвых 16
пределов 16
лицу 16
центре 16
Саулова 16
межмуниципальным 16
ального 16
бал@@ 16
Рувим 16
приле@@ 16
оста@@ 16
бов 16
шите 16
Сво@@ 16
Лот 16
полях 16
шно 16
работой 16
роги 16
устроил 16
цах 16
роп@@ 15
тать 15
8@@ 15
Гор@@ 15
альных 15
мах 15
технологий 15
использу@@ 15
няется 15
вол 15
театра 15
государ@@ 15
внутренности 15
Фе@@ 15
добавить 15
овощи 15
пил@@ 15
неу@@ 15
регионального 15
отделения 15
нув 15
всё 15
ферме 15
героев 15
ек@@ 15
сдела@@ 15
Сынов 15
похоронили 15
Авенира 15
пятый 15
рок 15
внесении 15
призн@@ 15
шими 15
Сель@@ 15
коз 15
пят 15
обязан 15
моно@@ 15
выслу@@ 15
достав@@ 15
строй@@ 15
тора 15
небом 15
300 15
Путин 15
Сы@@ 15
Всероссий@@ 15
налево 15
оправ@@ 15
скажешь 15
Че@@ 15
имеют 15
кину@@ 15
переписи 15
ён@@ 15
выходят 15
мастеров 15
сли@@ 15
Президента 15
желает 15
высоком 15
профессиональ@@ 15
учреждения 15
пойдете 15
уд@@ 15
пошлю 15
прика@@ 15
ась 15
одни 15
армию 15
союз 15
началась 15
Ен 15
младший 15
покой 15
поднима@@ 15
виде@@ 15
дер@@ 15
мысль 15
дальнейшего 15
вающих 15
ковы 15
би 15
Галгал 15
лая 15
Иуды 15
Египтя@@ 15
назначения 15
носить 15
ближайшее 15
выходит 15
данной 15
разуме@@ 15
пой@@ 15
сады 15
доно@@ 15
шта@@ 15
жертвеннику 15
кии 15
почи@@ 15
вещей 15
детского 15
мый 15
позд@@ 15
возлияния 15
малы@@ 15
Иудиных 15
шан@@ 15
пришло 15
над@@ 15
жная 15
интересу@@ 15
рования 15
правовыми 15
люб@@ 15
поры 15
окружа@@ 15
открыть 15
выстав@@ 15
Ведь 15
ложку 15
образований 15
Такие 15
вающие 15
расс@@ 15
рабом 15
родов 15
сосед@@ 15
родственник 15
кни@@ 15
иной 15
фестиваля 15
бой 15
вле@@ 15
стаж 15
одина@@ 15
довал 15
говорите 15
получилось 15
сорока 15
километров 15
всяком 15
наблю@@ 15
кем 15
бами 15
довольно 15
беззакония 15
кает 15
упа@@ 15
подни@@ 15
ковым 15
постели 15
омы@@ 15
од@@ 15
времена 15
пройти 15
дешь 15
реб@@ 15
удосто@@ 15
Т 15
улицы 15
альный 15
Иногда 15
народного 15
дной 15
Ни 15
высоко 15
потомству 15
решили 15
летних 15
хе 15
готов@@ 15
усил@@ 15
тес@@ 15
Александра 15
команды 15
судить 15
Увидев 15
хлебов 15
шести 15
виссона 15
вшая 15
бок 15
писателей 15
сыновьями 15
мужи 15
кур@@ 15
поду@@ 15
высоко@@ 15
академи@@ 15
обуч@@ 15
женского 15
Аль@@ 15
недели 15
сня@@ 15
Галаа@@ 15
атель 15
Галаад@@ 15
Ефремовой 15
Валааму 15
вку@@ 15
молодые 15
длиною 15
Дан@@ 15
прово@@ 15
Л 15
чив 15
район@@ 15
наро@@ 15
64 15
Собрание 15
пункт 15
нала@@ 15
тельных 15
Петровна 15
обещ@@ 15
чном 15
ведет 15
держал 15
разговаривать 15
Недавно 15
газете 15
перестал 15
мен 15
вниматель@@ 15
исследо@@ 15
рий 15
рал 15
Спасибо 15
мирной 15
овладеть 15
ствуй 15
обществом 15
годных 15
зывал 15
енный 15
активно 15
традиции 15
занимает 15
йский 15
заповедей 15
придут 15
Валентина 15
Раньше 15
дрова 15
гина 15
Имя 15
перевоз@@ 15
моря@@ 15
Жизнь 15
сотрудни@@ 15
ждения 15
умение 15
реке 15
Пред@@ 15
Сарра 15
язву 15
суще@@ 15
отрасли 15
институт 15
Илий 15
важно 15
прошла 15
однажды 15
пир 15
Надежда 15
многом 15
социально 15
служили 15
строй 15
меня@@ 15
смотрит 15
глас 15
десятки 15
осуществ@@ 15
равнине 15
миллиона 15
спортив@@ 15
внуков 15
овощей 15
обман@@ 15
культурной 15
коровы 15
простран@@ 15
дете 15
вите 15
ляем 15
Давидо@@ 15
чами 15
ответственность 15
посреди 15
тё@@ 15
рованных 15
сделан@@ 15
нина 15
ателя 15
веди 15
щиеся 15
начальников 15
лекар@@ 15
вилась 15
летнего 15
продоволь@@ 15
хов 15
помазан@@ 15
ческое 15
ходим 15
книж@@ 15
побежали 15
воен@@ 15
детские 15
смотрите 15
59 15
одежде 15
школьников 15
восьмой 15
яют 15
воздаст 15
борьбе 15
приходят 15
председатель 15
тридцати 15
счастли@@ 15
цион@@ 15
подпис@@ 15
ленной 15
Галина 15
ляю 15
находя@@ 15
рая 15
выросла 15
верно 15
сад@@ 15
информацию 15
докто@@ 15
ушли 15
чат 15
выходить 15
сотворил 15
обстанов@@ 15
оказ@@ 15
вспомнил 15
опас@@ 15
протя@@ 15
пит@@ 15
Им 15
чилась 15
тысячу 15
яла 15
поставлю 15
впервые 15
держит 15
сенажа 15
арен@@ 15
Екатерина 14
предпринимателей 14
подготовки 14
Ис@@ 14
водах 14
детских 14
агро@@ 14
56 14
чаще 14
сжег 14
случится 14
ест 14
газету 14
класс@@ 14
крепость 14
мени@@ 14
стер@@ 14
ставит 14
приз@@ 14
рассу@@ 14
прожи@@ 14
напол@@ 14
меняется 14
поги@@ 14
дополнитель@@ 14
умер@@ 14
дальнейшем 14
скотом 14
вспомина@@ 14
Алексея 14
емый 14
миру 14
родилась 14
плоды 14
ченный 14
нужна 14
ступили 14
разо@@ 14
гли@@ 14
тат@@ 14
Филистим@@ 14
сбо@@ 14
добычи 14
региональ@@ 14
общего 14
обнов@@ 14
Ленина 14
вклады@@ 14
чис@@ 14
ново 14
летний 14
остальные 14
входил 14
приди 14
возношение 14
надеж@@ 14
жешь 14
Некоторые 14
Наш 14
преподав@@ 14
престол 14
нки 14
Победы 14
Син 14
Те 14
Государствен@@ 14
наи@@ 14
смогли 14
пут@@ 14
талантов 14
программе 14
ема 14
Гото@@ 14
провел 14
шею 14
южной 14
сказано 14
пятидесяти 14
шенные 14
сек@@ 14
войди 14
крат@@ 14
ческими 14
стол@@ 14
выполнять 14
упомяну@@ 14
благодар@@ 14
использо@@ 14
внутрь 14
вест@@ 14
укло@@ 14
чист 14
вна 14
слуга 14
умно@@ 14
чество 14
хороший 14
чистый 14
учителей 14
нечиста 14
войдет 14
прод@@ 14
дым 14
друж@@ 14
выкупить 14
сильных 14
прошлое 14
просто 14
эффективно 14
предупре@@ 14
водить 14
колену 14
Проклят 14
Своим 14
предпринимательской 14
нормативными 14
Законом 14
Эту 14
левиты 14
желез@@ 14
услы@@ 14
профессию 14
узнали 14
Куда 14
зыва@@ 14
объекты 14
поколений 14
сро@@ 14
указанных 14
всею 14
отрок 14
принадлежности 14
премии 14
Леонид 14
действия 14
платы 14
помогать 14
конец 14
Гри@@ 14
современных 14
ческим 14
голод 14
высоты 14
осталась 14
большинство 14
прибы@@ 14
благословит 14
печи 14
побывали 14
ениями 14
Ти@@ 14
путями 14
нужен 14
взгля@@ 14
крест@@ 14
ук@@ 14
камен@@ 14
това 14
талант 14
способности 14
приносят 14
удал@@ 14
слышать 14
чено 14
шедших 14
Ионафана 14
промышленности 14
благо 14
зави@@ 14
жки 14
всякие 14
вали@@ 14
але 14
транспортом 14
исчис@@ 14
десятых 14
ряд 14
прият@@ 14
червленой 14
мело@@ 14
Уверен 14
малого 14
ченного 14
клады@@ 14
Пра@@ 14
лежа@@ 14
ответственности 14
древ@@ 14
учетом 14
рассказывает 14
творческих 14
поэ@@ 14
вей 14
нали@@ 14
лился 14
стя@@ 14
Ге@@ 14
Лия 14
корня 14
Агафья 14
красиво 14
видом 14
объем 14
вышиною 14
держаться 14
курением 14
телец 14
ура 14
Ираида 14
чится 14
вернуться 14
велик 14
Доро@@ 14
ленного 14
теат@@ 14
собирается 14
Ведомости 14
сал 14
преж@@ 14
знамение 14
корот@@ 14
коль@@ 14
течении 14
посели@@ 14
иде@@ 14
тар@@ 14
западу 14
воинства 14
жил@@ 14
обратился 14
оса@@ 14
пользо@@ 14
правила 14
зашел 14
машину 14
Жен@@ 14
поэт 14
республиканских 14
уст@@ 14
уровня 14
творче@@ 14
алом 14
лежал 14
тетя 14
каникулы 14
пала 14
предам 14
маршрутов 14
историей 14
поколениям 14
Вирсавии 14
хуже 14
такая 14
пы 14
проводится 14
Помню 14
собствен@@ 14
исполнил 14
Неужели 14
рожда@@ 14
гимназии 14
Ааро@@ 14
Сыновья 14
небеса 14
приду 14
рассказала 14
первенец 14
согрешит 14
саду 14
подчин@@ 14
событие 14
жав@@ 14
тысяча 14
вошла 14
погребен 14
берут 14
Сигона 14
колесницу 14
ят@@ 14
народами 14
двух@@ 14
лицо 14
капи@@ 14
Це@@ 14
сделается 14
проказы 14
одоле@@ 14
сделались 14
сестру 14
пойдут 14
чную 14
построили 14
Моавит@@ 14
войско 14
радо@@ 14
знамения 14
тельные 14
ступит 14
круп@@ 14
супруги 14
заседании 14
бите 14
потреб@@ 14
новыми 14
следу@@ 14
рование 14
фронт 14
получил 14
Нему 14
летом 14
Кадес 14
заметно 14
Ханаан@@ 14
транспортных 14
большую 14
юности 14
приказал 14
действие 14
укре@@ 14
голова 14
проводить 14
Дома 14
поклялся 14
учится 14
артисты 14
возвра@@ 14
знамени@@ 14
дан 14
стая 14
князья 14
треть 14
требования 14
дру@@ 14
держ@@ 14
упор@@ 14
ведению 14
против@@ 14
взы@@ 14
виться 14
10@@ 14
овцы 14
дели@@ 14
молодости 14
сиро@@ 14
уй@@ 14
участки 14
ведения 14
цею 14
жите 14
левую 14
исключением 14
субсидий 14
Пис@@ 14
аний 14
служение 14
нял 14
вин@@ 14
месяце 14
остаться 14
прах 14
дат@@ 14
убо@@ 14
последу@@ 14
результат 14
Илии 14
бор@@ 14
остри@@ 14
Рувимовы 14
живем 14
лесу 14
такси 14
зрителей 14
Ор 14
возвратится 14
помажь 14
предан 14
коленам 14
суббота 14
вер 14
точно 14
шали 14
двум 14
женами 14
Дай 14
составил 14
Адония 14
шит 14
нулись 14
юриди@@ 14
порт@@ 14
похоро@@ 14
Вефиль 14
окрест@@ 14
породою 14
золотые 14
щит 14
инского 14
Красной 13
особ@@ 13
ад@@ 13
крупных 13
Своими 13
сви@@ 13
дные 13
заколол 13
плечо 13
счастью 13
уро@@ 13
мерт@@ 13
ждению 13
первыми 13
пропа@@ 13
отвра@@ 13
мел@@ 13
Ав@@ 13
лите 13
крышку 13
бывший 13
беспоко@@ 13
языку 13
которою 13
Асы 13
комнаты 13
север@@ 13
лицом 13
доставля@@ 13
ягоды 13
ремонта 13
ранее 13
ново@@ 13
имущество 13
беды 13
схват@@ 13
захотел 13
возму@@ 13
призыва@@ 13
исполнить 13
учат 13
закону 13
сентября 13
царствовать 13
сот@@ 13
пото@@ 13
стояв@@ 13
Время 13
дошел 13
Хоро@@ 13
раль@@ 13
реку 13
СХПК 13
паль@@ 13
создание 13
вок 13
подъ@@ 13
Действительно 13
вру@@ 13
вил@@ 13
щ 13
встречи 13
рус@@ 13
видимо 13
Моав 13
находи@@ 13
ехал 13
роде 13
мил@@ 13
вечный 13
волос 13
кормить 13
сосе@@ 13
струк@@ 13
произведений 13
Елеазара 13
торов 13
фото@@ 13
мечты 13
плю@@ 13
совмест@@ 13
значительно 13
йдите 13
трите 13
выта@@ 13
чении 13
Израильского 13
сведения 13
63 13
дая 13
жду 13
пшени@@ 13
девушку 13
тыся@@ 13
видят 13
основном 13
Люди 13
словно 13
трен@@ 13
горь@@ 13
мя 13
электро@@ 13
ведение 13
золотая 13
дель@@ 13
рабам 13
огра@@ 13
самостоятельно 13
дню 13
продолжить 13
машине 13
спортивные 13
нормально 13
выко@@ 13
технологи@@ 13
живу 13
квартиру 13
Иевусеев 13
соответству@@ 13
согласно 13
святом 13
хра@@ 13
пораз@@ 13
восста@@ 13
послу@@ 13
лится 13
артиста 13
Фар@@ 13
цве@@ 13
половины 13
законами 13
социальные 13
71 13
Моло@@ 13
познакомились 13
шении 13
Авессалому 13
Давидом 13
случаях 13
подар@@ 13
ветер 13
поно@@ 13
ступа@@ 13
выпуска@@ 13
создания 13
приказ@@ 13
беда 13
ремонт 13
кирпи@@ 13
сосуд 13
Чем 13
Наконец 13
Вол@@ 13
чики 13
тают 13
пат@@ 13
вшему 13
мите 13
Петров 13
теле 13
вымыть 13
прие@@ 13
умерщв@@ 13
возвраща@@ 13
стоят 13
ья@@ 13
проли@@ 13
Симон 13
проклят 13
вид@@ 13
доброй 13
наготу 13
проекты 13
спал 13
Сережа 13
читателей 13
скотину 13
округа 13
татар@@ 13
фестиваль 13
удо@@ 13
локоть 13
ряда 13
Свою 13
слезы 13
свидетель 13
перей@@ 13
центр 13
жению 13
трое 13
ушла 13
встретились 13
Амнон 13
реть 13
управ@@ 13
старших 13
евы 13
зря 13
грамо@@ 13
администра@@ 13
решить 13
крученого 13
пурпуровой 13
еды 13
стари@@ 13
рат@@ 13
пройдет 13
оди@@ 13
недостаток 13
участников 13
документы 13
театр 13
сеть 13
представ@@ 13
ас@@ 13
женный 13
ступ@@ 13
ень@@ 13
послан@@ 13
классах 13
шев@@ 13
щихся 13
Аммонитян 13
сидит 13
вость 13
чат@@ 13
поспе@@ 13
дядя 13
птицу 13
небес 13
серебряное 13
блюдо 13
овен 13
однолетний 13
поку@@ 13
родную 13
видите 13
нут 13
ид@@ 13
льной 13
2008 13
приводит 13
старалась 13
использовать 13
отра@@ 13
объяв@@ 13
Зо@@ 13
государственным 13
примеру 13
входит 13
прослав@@ 13
Моисеем 13
согрешили 13
пожарной 13
Елисей 13
разно@@ 13
дили 13
клятвою 13
научно 13
перемен@@ 13
внизу 13
случаев 13
возьмут 13
кость 13
мероприятиях 13
конкурсах 13
скорее 13
Хочу 13
чились 13
хожу 13
семьсот 13
Иудеев 13
Крас@@ 13
статья 13
Валерия 13
инициати@@ 13
нор@@ 13
нечистым 13
зме@@ 13
нес 13
умы@@ 13
начиная 13
бюджете 13
ума 13
смешанной 13
избавь 13
принеси 13
пру@@ 13
Нас 13
работник 13
бояться 13
занима@@ 13
дана 13
развивается 13
зывают 13
ООО 13
влек@@ 13
поэта 13
Моргаушского 13
осмотрит 13
Ной 13
деятельность 13
площад@@ 13
рые 13
годами 13
ноче@@ 13
дав@@ 13
Истинно 13
Эх 13
парней 13
иру@@ 13
Свой 13
ходящие 13
Хананеи 13
логии 13
палец 13
краю 13
сем@@ 13
технологии 13
выполнения 13
возра@@ 13
смогут 13
судей 13
духа 13
снова 13
торже@@ 13
жении 13
яться 13
Израилеву 13
Ла@@ 13
оставит 13
ана@@ 13
отошел 13
пользоваться 13
ьями 13
учени@@ 13
ожесто@@ 13
удовольствием 13
рона 13
обратил 13
ственная 13
Яков 13
заня@@ 13
Аммонит@@ 13
отправлялись 13
потомство 13
ногами 13
сен 13
отно@@ 13
Услышав 13
проис@@ 13
супруг 13
первенца 13
тали 13
иться 13
дары 13
справедли@@ 13
природы 13
Жители 13
Семей 13
пуст@@ 13
такими 13
инновацион@@ 13
трубами 13
Халев 13
долго@@ 13
цо 13
песнями 13
клу@@ 13
Дави@@ 13
бойтесь 13
изуч@@ 13
иду@@ 13
дных 13
ленный 13
Своему 13
чают 13
угне@@ 13
жатвы 13
серебряных 13
ступить 13
ющими 13
евой 13
приносил 13
18@@ 13
Нем 13
отдельные 13
сначала 13
зан 13
верблю@@ 13
ственным 13
разделе 13
музыкаль@@ 13
имея 13
кос@@ 13
выходили 13
рассмо@@ 13
продукты 13
заго@@ 13
шестой 13
каким 13
улицей 13
распоря@@ 13
шедший 13
титесь 13
фон@@ 13
удар@@ 13
согре@@ 13
роста 13
Филистимских 13
молился 12
показывать 12
Вурнар@@ 12
центров 12
получать 12
столом 12
Моави@@ 12
тяне 12
Мадиам@@ 12
чуваш@@ 12
почки 12
сальник 12
печени 12
лал 12
молодая 12
сеять 12
ьем 12
истину 12
спас 12
ии 12
небесные 12
плату 12
первен@@ 12
ен 12
стандар@@ 12
Иосафат 12
ширина 12
печат@@ 12
змей 12
кож 12
добром 12
приносили 12
рос 12
дный 12
уставы 12
Днем 12
ниж@@ 12
мужчину 12
пунктов 12
ок@@ 12
экологической 12
выпус@@ 12
внутренних 12
заболел 12
времен@@ 12
каждому 12
ственное 12
нием 12
скорби 12
опу@@ 12
жено 12
лицы 12
музей 12
Союза 12
Ефи@@ 12
Венадад 12
дие 12
приближа@@ 12
приду@@ 12
подарок 12
Челове@@ 12
оборо@@ 12
воротах 12
священникам 12
уклоня@@ 12
отметили 12
найдет 12
воло@@ 12
прока@@ 12
Египет@@ 12
пен@@ 12
очереди 12
ску@@ 12
вопросам 12
показатели 12
результат@@ 12
горе@@ 12
оне 12
список 12
подняли 12
лучшее 12
прибав@@ 12
вес@@ 12
засе@@ 12
устав 12
опы@@ 12
вдо@@ 12
праздни@@ 12
ребенком 12
Авимелеху 12
Ен@@ 12
кам@@ 12
бира@@ 12
верблюдов 12
министерства 12
готов 12
продук@@ 12
сядет 12
щаться 12
новом 12
делах 12
возраста 12
предложил 12
Еве@@ 12
покрывал 12
Иудейский 12
стабиль@@ 12
считаю 12
свят 12
льно 12
стных 12
ревно@@ 12
понесет 12
воевал 12
тился 12
Иависа 12
игра@@ 12
научил 12
прошествии 12
коп@@ 12
лую 12
явление 12
безу@@ 12
опа@@ 12
жела@@ 12
радоваться 12
Нельзя 12
лечиться 12
заку@@ 12
воскре@@ 12
поднялся 12
уставу 12
ниц 12
заплатить 12
Симе@@ 12
сокра@@ 12
стере@@ 12
трех@@ 12
гран@@ 12
теку@@ 12
проводи@@ 12
радуется 12
ненавидящих 12
ногу 12
вич 12
ярость 12
исся@@ 12
передней 12
книга 12
расшир@@ 12
встреча 12
Гада 12
масла 12
стола 12
мет 12
гнали 12
Сле@@ 12
депутата 12
ствующих 12
Ел@@ 12
вино@@ 12
организован@@ 12
сос@@ 12
кто@@ 12
клуб 12
разрешения 12
лев 12
наведу 12
Родники 12
виноградник 12
Сразу 12
ск 12
бедствия 12
младенца 12
отста@@ 12
Амалика 12
покупать 12
здоровый 12
Ирина 12
рем 12
обви@@ 12
приведет 12
легче 12
лились 12
развед@@ 12
зри@@ 12
ополчением 12
истечения 12
чувашскую 12
одежд 12
Царство 12
кров@@ 12
зелен@@ 12
различные 12
спорт 12
Гал@@ 12
городского 12
миро@@ 12
знала 12
дружно 12
Ер@@ 12
препоя@@ 12
емой 12
главой 12
Авраму 12
ляйте 12
Анге@@ 12
коней 12
находился 12
вана 12
шах 12
вому 12
совершить 12
фин@@ 12
лег 12
Фамарь 12
лист@@ 12
стань 12
поддержку 12
пей 12
тает 12
чисто 12
известно 12
дене@@ 12
приобрести 12
доброго 12
получи@@ 12
маршруту 12
бри@@ 12
оставался 12
Ивано@@ 12
проходил 12
ветви 12
вернулись 12
рины 12
СССР 12
сот 12
ешься 12
написан@@ 12
институте 12
юг 12
лок 12
чался 12
возвратись 12
ово@@ 12
гектара 12
наполненные 12
пшеничною 12
мукою 12
смешанною 12
козел 12
прибыли 12
кадров 12
новая 12
заняла 12
брали 12
жаю 12
объектив@@ 12
поворо@@ 12
отряда 12
понял 12
шены 12
2007 12
дорога 12
каменные 12
обога@@ 12
титься 12
подобного 12
проведение 12
тер 12
Первый 12
испове@@ 12
жертве 12
Ком@@ 12
Ефрема 12
продавать 12
хода 12
Нафан 12
шириною 12
пев@@ 12
каждая 12
листья 12
мки 12
крупный 12
привезли 12
I 12
нив 12
врачей 12
народный 12
Арнона 12
ьи 12
после@@ 12
напрасно 12
корм@@ 12
мит 12
осве@@ 12
раскры@@ 12
поголовно 12
Аса 12
стого 12
Петрович 12
нынеш@@ 12
злослови@@ 12
жала 12
ске 12
брал 12
лениям 12
Откуда 12
тим 12
беспокоит 12
погибли 12
Утром 12
шай 12
заключил 12
огн@@ 12
мости 12
честно 12
городом 12
Хусий 12
Моей 12
вопросов 12
знакоми@@ 12
водили 12
стер 12
смен@@ 12
важней@@ 12
ально 12
колесни@@ 12
главных 12
мерзости 12
нитесь 12
Чебоксарском 12
вной 12
гают 12
взрослых 12
зерна 12
стараться 12
трудился 12
козленка 12
Ниж@@ 12
условиях 12
Мил@@ 12
Андрей 12
ствами 12
зии 12
сцене 12
Синайской 12
автобу@@ 12
Авимелеха 12
муд@@ 12
оборудо@@ 12
жез@@ 12
женные 12
настав@@ 12
поня@@ 12
срок 12
пустили 12
ужа@@ 12
работаем 12
мона 12
бедствие 12
государство 12
листьев 12
алы 12
трактор 12
дань 12
олимпиа@@ 12
але@@ 12
попасть 12
отдель@@ 12
Вас@@ 12
песен 12
эффективности 12
енным 12
скром@@ 12
плы@@ 12
ездить 12
уни@@ 12
чья 12
имели 12
гах 12
субботу 12
Хетте@@ 12
изготов@@ 12
купить 12
Евгений 12
истребит 12
предложения 12
убийца 12
отчего 12
пома@@ 12
столбах 12
кладбище 12
Папа 12
Ло@@ 12
электрон@@ 12
улыб@@ 12
действовать 12
нешь 12
скро@@ 12
хорошая 12
знай 12
ниже 12
резер@@ 12
миллиардов 12
прощено 12
йно 12
плач 12
возмож@@ 12
дво@@ 12
отлич@@ 12
трудности 12
шат@@ 12
Хеттеев 12
отдельных 12
Был 12
уразуме@@ 12
действи@@ 12
машины 12
болезнь 12
сегодняш@@ 12
юр@@ 12
руб@@ 12
пяти@@ 12
росли 12
распростран@@ 12
голов@@ 12
полной 12
сверху 12
шко@@ 12
сбере@@ 12
Женщина 12
нау@@ 12
няли 12
Самарии 12
Гла@@ 12
даром 12
енное 12
раздела 12
члены 12
нечисто 12
Руководитель 12
дели 12
раться 12
проходили 12
зываться 12
просла@@ 12
Зар@@ 12
перевозки 12
десят@@ 12
хлебы 12
смотрел 12
сегодняшнего 12
Иеровоа@@ 12
привлекает 12
северной 12
свидетельство 12
умертвить 12
точки 12
школь@@ 12
Думы 12
участвовал 12
ближ@@ 12
половину 12
ходящих 12
Казан@@ 12
встала 12
спаса@@ 12
клин@@ 12
вё@@ 12
зай@@ 12
душ@@ 12
дят 12
Год 12
пришлец 12
нишь 12
сайте 12
участи@@ 12
ситуацию 12
добра 12
зация 12
долины 12
демографи@@ 12
бер@@ 12
высокотехнологи@@ 12
анные 12
ал 12
Мат@@ 12
исполнение 12
Государственной 12
КВН 12
немец@@ 12
активисты 12
слуге 12
господином 12
поселен@@ 12
внука 12
тракто@@ 12
лиц@@ 12
подготовили 12
мужеский 12
письмен@@ 12
рог 12
священное 12
ствам 12
умерло 12
милости@@ 12
растут 12
брус 12
шест@@ 11
мии 11
регион@@ 11
олимпи@@ 11
дево@@ 11
Дочь 11
Будет 11
богатый 11
хими@@ 11
понравилось 11
рынка 11
Авесса 11
секретар@@ 11
погу@@ 11
фер@@ 11
придя 11
источ@@ 11
чился 11
Ванея 11
длина 11
спаси 11
старшая 11
вином 11
наступ@@ 11
ополчение 11
работав@@ 11
ставлю 11
невозможно 11
болезней 11
утратив@@ 11
удоб@@ 11
ознаком@@ 11
Новочебоксарске 11
внутрен@@ 11
Ладно 11
сени@@ 11
Хирам 11
выбо@@ 11
ственни@@ 11
Учи@@ 11
чувствовать 11
жилье 11
обслужи@@ 11
прино@@ 11
шением 11
уте@@ 11
патриоти@@ 11
районного 11
центра 11
проводимых 11
площадь 11
Хеле@@ 11
Геф@@ 11
хой 11
Пес@@ 11
пребы@@ 11
возне@@ 11
»? 11
дения 11
соглас@@ 11
поста@@ 11
сквозь 11
преследовать 11
исце@@ 11
Илию 11
муниципальные 11
Всероссийской 11
временем 11
негод@@ 11
моменты 11
85 11
чены 11
Алатыр@@ 11
радио@@ 11
каждую 11
мило@@ 11
училища 11
Между 11
золо@@ 11
фильм 11
Правительство 11
чиков 11
сре@@ 11
делам 11
пришельца 11
получа@@ 11
Чер@@ 11
питания 11
вдохновляет 11
велел 11
поворачивает 11
Сергея 11
Работа 11
Ту@@ 11
Иерова@@ 11
веду 11
Председатель 11
сделают 11
еву 11
колхоз 11
""@@ 11
казалось 11
живущий 11
рыбы 11
Кре@@ 11
пробле@@ 11
участков 11
регион 11
момен@@ 11
достойно 11
сведений 11
потом@@ 11
слуш@@ 11
святым 11
трудится 11
верх 11
внутренний 11
эффектив@@ 11
вные 11
РТ 11
умрешь 11
шится 11
жребию 11
Гивы 11
Владыка 11
разными 11
гармо@@ 11
шины 11
соло@@ 11
сразиться 11
препят@@ 11
каникул 11
преступление 11
Дмитри@@ 11
руко@@ 11
тина 11
захочет 11
седь@@ 11
Сур@@ 11
возлияние 11
постоянного 11
фурун@@ 11
перечень 11
йских 11
сидели 11
следо@@ 11
Совет@@ 11
подгото@@ 11
думаю 11
предоставля@@ 11
востока 11
Исава 11
Исаву 11
сожалению 11
войдешь 11
муниципальными 11
Твоем 11
благово@@ 11
причи@@ 11
старшего 11
послала 11
вслух 11
Урия 11
мно@@ 11
65 11
бесс@@ 11
рынке 11
шаг 11
селения 11
добав@@ 11
свер@@ 11
ьева 11
Гирсо@@ 11
уста@@ 11
федеральными 11
иные 11
численность 11
тра 11
Нина 11
заводе 11
Смо@@ 11
вспомин@@ 11
боль 11
дания 11
тур 11
нись 11
Аркадий 11
прибыл 11
погребения 11
вит 11
ове@@ 11
Павлова 11
дного 11
инфраструктуры 11
бывало 11
высотах 11
рый 11
область 11
оценили 11
ницах 11
поступи@@ 11
прости 11
востор@@ 11
изне@@ 11
Жу@@ 11
наполня@@ 11
жусь 11
рассказыва@@ 11
гну 11
Асиро@@ 11
вещь 11
теми 11
любили 11
мили@@ 11
познакомился 11
нялся 11
Жела@@ 11
Аз@@ 11
ученик 11
просили 11
напомнил 11
бре@@ 11
чувашским 11
мину@@ 11
осу@@ 11
яблоки 11
потомков 11
маленький 11
май 11
слушай 11
око@@ 11
худое 11
Больш@@ 11
бабушка 11
молиться 11
оры 11
социальных 11
защите 11
российского 11
друзей 11
промышленного 11
венец 11
смир@@ 11
Ена@@ 11
оставля@@ 11
храбрых 11
интересно 11
призна@@ 11
щал 11
возопили 11
истине 11
Саулом 11
вечное 11
левит 11
желанию 11
имуще@@ 11
ветеран 11
привет@@ 11
посмотри 11
скоро@@ 11
Чебоксар@@ 11
оставаться 11
700 11
случайно 11
ющему 11
эксплуатацию 11
рин@@ 11
молодеж@@ 11
исчез@@ 11
маться 11
выяв@@ 11
тщательно 11
отмечают 11
августа 11
зывали 11
данный 11
молодежной 11
художе@@ 11
Мари@@ 11
деньгами 11
войною 11
пел 11
Каафовых 11
убежища 11
убий@@ 11
остановился 11
изгнал 11
шила 11
сильной 11
территорий 11
драмати@@ 11
наградил 11
69 11
сердцу 11
кожу 11
Откры@@ 11
серебряная 11
кадильница 11
наполненная 11
агнец 11
руководители 11
Кабинетом 11
закончил 11
выез@@ 11
ялись 11
фильма 11
Николаев 11
Ам@@ 11
Ад@@ 11
виноградни@@ 11
тысяченачаль@@ 11
домашних 11
содерж@@ 11
мость 11
2005 11
77 11
позднее 11
пересказал 11
движение 11
Конституции 11
позже 11
указан@@ 11
овладе@@ 11
открытия 11
мень@@ 11
представить 11
сно 11
информацион@@ 11
Под 11
уче@@ 11
ьей 11
квар@@ 11
возно@@ 11
Ара@@ 11
пределом 11
оказались 11
."". 11
практи@@ 11
родственни@@ 11
кушанье 11
деви@@ 11
посме@@ 11
послушай 11
лать 11
Любовь 11
Органи@@ 11
емая 11
талантли@@ 11
распро@@ 11
вопросил 11
отли@@ 11
дишь 11
Уже 11
колодезь 11
Скоро 11
директор 11
живёт 11
орган 11
ится 11
мирных 11
масте@@ 11
тила 11
выкуп 11
человеческих 11
милости 11
постоян@@ 11
Астар@@ 11
отдыха@@ 11
анов 11
восемьдесят 11
вправду 11
задач 11
худож@@ 11
тек@@ 11
аль 11
обру@@ 11
филь@@ 11
фермер@@ 11
абзацы 11
февраля 11
Россий@@ 11
события 11
Чув@@ 11
собственность 11
начальниками 11
раб@@ 11
пас@@ 11
близко 11
уцеле@@ 11
льго@@ 11
беремен@@ 11
длин@@ 11
лой 11
яли 11
благодат@@ 11
проказа 11
культуру 11
посмотреть 11
Филиппо@@ 11
люсь 11
сестрен@@ 11
хова 11
товари@@ 11
Ога 11
Еф@@ 11
интер@@ 11
национальных 11
Зем@@ 11
сож@@ 11
свидетель@@ 11
несовершеннолетних 11
тельного 11
успеш@@ 11
Какой 11
ит@@ 11
культура 11
душев@@ 11
расходов 11
закупок 11
стараются 11
автономии 11
хозяйствах 11
гонит 11
института 11
жным 11
окажется 11
ане 11
фак@@ 11
сообщили 11
царского 11
енно 11
зок 11
ночи 11
журналистов 11
чудеса 11
веден@@ 11
грани@@ 11
медицин@@ 11
учреждениях 11
хран@@ 11
представля@@ 11
пья@@ 11
вывели 11
вашу 11
признать 11
приноси@@ 11
культуре 11
уди@@ 11
красивые 11
служения 11
столо@@ 11
града 11
облег@@ 11
гам 11
стоя@@ 11
поздравили 11
анализ@@ 11
Евеев 11
состоянии 11
лучшие 11
Вениамин 11
должности 11
анами 11
сильные 11
ссо@@ 11
дочерью 11
имеются 11
строки 11
дошли 11
зависящие 11
объ@@ 11
фотографи@@ 11
кло@@ 11
Константин 11
пришельцев 11
Ферезеев 11
ктора 11
материальных 11
инвали@@ 11
трубою 11
возвратитесь 11
раска@@ 11
шись 11
жете 11
завещал 11
приблиз@@ 11
Поручаю 11
принимает 11
замещения 11
удобр@@ 11
пожил@@ 11
исследователь@@ 11
Кру@@ 11
Дерев@@ 11
имен@@ 11
каких 11
нином 11
гоня@@ 11
сла 11
плановый 11
регулируемым 11
женой 11
чувству@@ 11
сах 11
ошибке 11
стену 11
ано 11
источники 11
глав@@ 11
поражены 11
дра@@ 11
чере@@ 11
Гадовы 11
сил@@ 11
иностран@@ 11
состоится 11
мето@@ 11
анова 11
бран@@ 11
покропит 11
сан@@ 11
долгое 11
писатели 11
осенью 11
святых 11
Осо@@ 11
легковым 11
голу@@ 11
чувашей 11
слови@@ 11
почита@@ 11
тет 11
великой 11
сада 11
цветов 11
проходят 11
тный 11
вар 11
гло@@ 11
процент 11
великие 11
Валериан 11
Вефиля 11
тура 11
Садо@@ 11
моею 11
временно 11
роли 11
тука 11
сделалась 11
хорошую 11
иго 11
господ@@ 11
лени@@ 11
осуществляется 11
кли@@ 11
Иу@@ 11
газет 11
истукан 11
славе 11
греш@@ 11
проведен@@ 11
сыновьям 11
услуги 11
чресл 11
товаров 11
укры@@ 11
органом 11
75 11
ющегося 11
любимая 11
живо@@ 11
сра@@ 11
Зе@@ 11
гнет 11
Кон@@ 11
ближайшие 11
комиссия 11
многодет@@ 11
Ян@@ 11
небе 10
илет@@ 10
старший 10
тин@@ 10
силами 10
слав@@ 10
видела 10
привоз@@ 10
учё@@ 10
встречаются 10
возвести@@ 10
вова 10
увеличи@@ 10
первой 10
благословен@@ 10
бель 10
горах 10
истребить 10
звезды 10
могла 10
Пар@@ 10
субъек@@ 10
профессиональным 10
сн@@ 10
писатель 10
Садок 10
племя 10
Иеровоам 10
спортивного 10
нулась 10
российской 10
навел 10
жай 10
достижения 10
чувашскому 10
отделил 10
девочка 10
составляет 10
73 10
пища 10
Фи@@ 10
спорте 10
лит@@ 10
журналист 10
тли@@ 10
вступает 10
2002 10
неве@@ 10
весной 10
выступили 10
оту 10
рованы 10
озера 10
трели 10
чуваша 10
показатель 10
палат@@ 10
царями 10
пать 10
кипятка 10
кипятить 10
активное 10
тан 10
стратеги@@ 10
улучшение 10
тет@@ 10
Авраа@@ 10
Завуло@@ 10
выпуск 10
сельскохозяйственных 10
тесно 10
Миха 10
команду 10
хорошим 10
страха 10
участвует 10
тельным 10
гляды@@ 10
обеты 10
доброволь@@ 10
перестали 10
ствием 10
уксу@@ 10
посмо@@ 10
нерегулируемым 10
обучения 10
шево 10
ход 10
Главный 10
верху 10
физи@@ 10
соби@@ 10
Ноеминь 10
лё@@ 10
чиком 10
Гава@@ 10
ждают 10
кандидатов 10
правил@@ 10
гла 10
лечеб@@ 10
Ионафаном 10
Пить 10
столовой 10
преследовали 10
Силоме 10
компаний 10
Пушкин 10
щание 10
ада 10
Давидов 10
источника 10
Рефаимов 10
оканчивается 10
професси@@ 10
районном 10
тором 10
шайте 10
стес@@ 10
алов 10
лошадей 10
превы@@ 10
удивля@@ 10
ступил 10
бросили 10
какою 10
материн@@ 10
веду@@ 10
перен@@ 10
многоквартирных 10
шатрах 10
лениях 10
территори@@ 10
держат 10
компьютер@@ 10
свободу 10
95 10
намерил 10
колен@@ 10
Аод 10
восстал 10
Прочие 10
доныне 10
Позже 10
десятую 10
песнь 10
Небес@@ 10
поспешно 10
омоет 10
беж@@ 10
официаль@@ 10
тию 10
бабушки 10
сет 10
плодо@@ 10
спокой@@ 10
роса 10
20@@ 10
Алексе@@ 10
евича 10
чий 10
пятую 10
побили 10
Своих 10
четырнадцать 10
нях 10
поможет 10
корни 10
пустить 10
обеспе@@ 10
команд 10
яблоко 10
хозяин 10
систему 10
ночевать 10
ваете 10
призо@@ 10
акты 10
округов 10
осуществление 10
назначил 10
отце 10
умнож@@ 10
председателем 10
тобой 10
шайся 10
возьму 10
плакала 10
выбрал 10
общий 10
спектакле 10
благоприят@@ 10
причина 10
рет 10
иг@@ 10
младен@@ 10
Од@@ 10
осуществля@@ 10
прес@@ 10
кусок 10
подал 10
празднике 10
колья 10
креди@@ 10
беру 10
гоню 10
открыто 10
приоритет@@ 10
обогат@@ 10
воору@@ 10
облаке 10
водит 10
кукуру@@ 10
вожд@@ 10
упал 10
увижу 10
ленным 10
ою 10
ужас 10
никак 10
соответствующих 10
произнес 10
причин@@ 10
дание 10
Гиву 10
пересказали 10
сло 10
понима@@ 10
согласии 10
явил 10
валь@@ 10
льный 10
кажу 10
пара 10
разработать 10
имеющий 10
омыться 10
хала 10
находятся 10
тую 10
женной 10
распис@@ 10
церкви 10
Люблю 10
шо@@ 10
ам@@ 10
подготовке 10
назван@@ 10
ьевна 10
приведи 10
отпущу 10
преврат@@ 10
йди 10
чия 10
молитву 10
..."" 10
почет@@ 10
отдам 10
прогневался 10
водов 10
воздействия 10
пунктом 10
вскоре 10
Пасху 10
Пасхи 10
тел 10
вшемуся 10
стыми 10
выхода 10
меньший 10
тран@@ 10
забыл 10
работою 10
рассказать 10
предме@@ 10
писы@@ 10
прокуратуры 10
лами 10
среднего 10
прибыль 10
кино@@ 10
быв 10
дою 10
посвящ@@ 10
Анатолий 10
скажем 10
посту@@ 10
живы 10
свидетельством 10
бел 10
Божии 10
,"" 10
пови@@ 10
очередной 10
пла 10
ляла 10
рекла@@ 10
некому 10
остальных 10
рали 10
обратившись 10
вдруг 10
неожиданно 10
изгла@@ 10
половиной 10
комнату 10
чувствовала 10
добра@@ 10
пош@@ 10
щались 10
стил 10
чистоте 10
своё 10
равно@@ 10
Таких 10
динами@@ 10
ходов 10
крючки 10
обло@@ 10
отре@@ 10
посадили 10
картофеля 10
брати@@ 10
песок 10
%@@ 10
Боль@@ 10
погода 10
товой 10
шаю 10
Несколько 10
село 10
помнит 10
Доб@@ 10
тур@@ 10
навоз 10
оши@@ 10
библиотеки 10
перспектив@@ 10
говари@@ 10
92 10
обязанностей 10
жале@@ 10
организм 10
Хыпар 10
один@@ 10
нормативных 10
правовых 10
актов 10
увеличить 10
ву@@ 10
Маркса 10
дятся 10
нормати@@ 10
треть@@ 10
культурно 10
нями 10
поводу 10
удачи 10
гих 10
вечным 10
сче@@ 10
напали 10
удачно 10
Шемур@@ 10
Рахили 10
покля@@ 10
наруш@@ 10
соответ@@ 10
сообщить 10
Проспект 10
ищут 10
йдут 10
полный 10
тины 10
мель@@ 10
вто@@ 10
рую 10
ждал 10
/. 10
редко 10
четверть 10
колени 10
зав 10
удиви@@ 10
ност@@ 10
выступы 10
купи@@ 10
напря@@ 10
закрыл 10
снилось 10
игре 10
режиссер 10
муниципалите@@ 10
Канаш@@ 10
Яльчик@@ 10
лечения 10
добрых 10
техники 10
проверки 10
сорта 10
поклоняться 10
леви@@ 10
заметили 10
лес@@ 10
любя@@ 10
Гриша 10
ждет 10
останутся 10
оборот 10
баллов 10
получила 10
кораб@@ 10
Германии 10
отнял 10
Кене@@ 10
берегись 10
яется 10
град 10
мей@@ 10
двоих 10
соревнования 10
дяди 10
праздников 10
сыгра@@ 10
лод@@ 10
собы@@ 10
языков 10
блудни@@ 10
Аморре@@ 10
начина@@ 10
предприятие 10
вождем 10
купили 10
начинает 10
иссо@@ 10
любила 10
иное 10
завод 10
83 10
контро@@ 10
представления 10
скал 10
ровал 10
сняли 10
ниться 10
мок 10
моро@@ 10
Стра@@ 10
Сан@@ 10
вернулась 10
Правда 10
долг 10
голосом 10
сельскохозяйственные 10
коллекти@@ 10
ослабе@@ 10
звон@@ 10
братом 10
возвратить 10
Васанского 10
сда@@ 10
народ@@ 10
средних 10
жизненный 10
Египтянина 10
мон@@ 10
появляются 10
Валаку 10
экзамен@@ 10
стави@@ 10
учил 10
равнинах 10
ступай 10
совето@@ 10
прит@@ 10
супругом 10
нога 10
кал 10
поговорить 10
тельности 10
изобра@@ 10
хозя@@ 10
красо@@ 10
хватило 10
реализо@@ 10
запасов 10
готовы 10
вспом@@ 10
большом 10
000 10
йские 10
отм@@ 10
беззакон@@ 10
хождения 10
Стара@@ 10
работах 10
святыни 10
Ежегодно 10
беседу 10
89 10
прости@@ 10
чества 10
туристи@@ 10
должность 10
зарегистри@@ 10
ог@@ 10
жителями 10
остав@@ 10
окон@@ 10
… 10
лыми 10
любовью 10
возлюб@@ 10
нескольких 10
Ахаву 10
компетен@@ 10
развитии 10
Геннадия 10
четыр@@ 10
кося@@ 10
ностями 10
тились 10
обманы@@ 10
опублико@@ 10
Алена 10
вни@@ 10
угодное 10
менил 10
достоин@@ 10
рен 10
выполняют 10
семейство 10
открылся 10
вен 10
чувашская 10
Более 10
магази@@ 10
Отцу 10
Помо@@ 10
Объ@@ 10
ьют 10
имение 10
Наш@@ 10
известили 10
обрадо@@ 10
выбрали 10
Аха@@ 10
ави@@ 10
ставля@@ 10
линии 10
o@@ 10
лью 10
десятый 10
разрабо@@ 10
полуденную 10
ела 10
Совет 10
вложил 10
тельный 10
больнице 10
Господней 10
вных 10
проде@@ 10
Ах 10
графи@@ 10
статьей 10
учреждение 10
договора 10
""( 10
света 10
фом 10
организациями 10
представители 10
стесня@@ 10
Египетский 10
переме@@ 10
неры 10
туризма 10
успешно 10
дин@@ 10
страда@@ 10
Большие 10
сельчан 10
создании 10
Руфь 10
дождя 10
комплек@@ 10
человеческой 10
физ@@ 10
оставлю 10
Националь@@ 10
волю 10
обеспеч@@ 10
повышения 10
ока@@ 10
Саваоф 10
посрам@@ 10
учитель 10
никому 10
кругло@@ 10
подножию 10
тверды@@ 10
оставляй 10
печь 10
оставить 10
Башкортостана 10
дов@@ 10
обит@@ 10
образу 10
маленькой 10
продолжение 10
положите 10
рассказали 10
рыбу 10
яние 10
учили 10
нечисты 10
золотой 10
касин@@ 10
чрева 10
сделаешь 10
людях 10
спортсменов 10
шками 10
вайся 10
остави@@ 10
границах 10
лампады 10
ложен@@ 10
след 10
Вифлеем 10
Вре@@ 10
менно 10
берите 10
прави@@ 10
отпустили 10
нан@@ 10
окрестности 10
бизнес 10
гад@@ 10
богатства 10
Евре@@ 10
двинулся 10
старались 10
возлюбил 10
76 10
соревновании 10
секре@@ 10
вло@@ 10
хозяйств 10
освятил 10
знание 10
прогне@@ 10
улучшения 10
гала 10
Иудей@@ 10
сделалось 10
населенных 10
формиру@@ 10
гаран@@ 10
вара 10
Сове@@ 10
рай 10
углах 10
ваешь 10
пригласил 10
вари@@ 10
чебоксар@@ 10
учащиеся 10
бороться 10
вознес 10
Ю 10
открыла 10
овцу 10
Самар@@ 10
покроют 10
иноплемен@@ 10
покупа@@ 10
колосьев 10
Езекия 10
дим 10
воротам 10
приступать 10
Владимира 10
пределами 10
енном 10
Помимо 10
мечтает 10
уми@@ 10
сделано 10
разгневался 10
Мариам 10
ционных 10
зажи@@ 10
фараоно@@ 10
убийцу 10
Васильевна 10
резерва 10
косо@@ 10
современной 10
направлении 10
Автор 10
перейти 9
церковь 9
Син@@ 9
ъ@@ 9
ун@@ 9
строит 9
печали 9
око 9
фара@@ 9
духом 9
организациях 9
оценки 9
желе@@ 9
грудь 9
совершенно 9
рю@@ 9
э 9
Игнат@@ 9
услышит 9
ковский 9
Шор@@ 9
помог 9
Основ@@ 9
пальмы 9
ческому 9
останусь 9
250 9
крепкою 9
бою 9
владеть 9
платить 9
вспомнить 9
двер@@ 9
обес@@ 9
молчал 9
небесах 9
врача 9
Юноша 9
чность 9
выне@@ 9
сешь 9
стит 9
плакать 9
требует 9
измель@@ 9
квартиры 9
библиоте@@ 9
краях 9
рабства 9
двор@@ 9
проекту 9
обязательно 9
отделит 9
изделий 9
случа@@ 9
влия@@ 9
зиму 9
капитального 9
подошли 9
воспитания 9
вшими 9
усер@@ 9
иль 9
ленную 9
открывай 9
пределах 9
эфир 9
избав@@ 9
опытом 9
меш@@ 9
стопы 9
Сочи 9
емо 9
суд@@ 9
окно 9
вовремя 9
начать 9
мирные 9
литесь 9
семейства 9
Исаия 9
лоша@@ 9
Новое 9
Яд@@ 9
чам 9
царских 9
сом@@ 9
воевали 9
звание 9
щающий 9
организацию 9
студентов 9
Правительства 9
напомина@@ 9
Вирсавия 9
Михи 9
Одним 9
юбилей@@ 9
учрежд@@ 9
летия 9
учениками 9
побил 9
выборах 9
темпера@@ 9
туру 9
аров 9
гост@@ 9
Сказал 9
Гиве 9
живущей 9
некоторое 9
Жена 9
лесни@@ 9
адвокат@@ 9
изъя@@ 9
проводила 9
упадет 9
чиками 9
Марии 9
ень 9
князей 9
фараоном 9
жного 9
строил 9
награду 9
возвращался 9
Б 9
умерт@@ 9
секто@@ 9
Бихри 9
нат 9
Свое 9
гая 9
сложно 9
уку@@ 9
зра@@ 9
смел@@ 9
Пришел 9
муниципаль@@ 9
инфраструк@@ 9
Тут 9
вещ@@ 9
указыва@@ 9
наречено 9
74 9
контроль 9
гора 9
разли@@ 9
пшеницы 9
убежали 9
вершину 9
свидетелем 9
съе@@ 9
рам@@ 9
Канашского 9
Сива 9
жится 9
слышат 9
сбы@@ 9
примен@@ 9
уделы 9
зера 9
хе@@ 9
?! 9
Ибресинского 9
ответил 9
зво@@ 9
руководителем 9
жают 9
колле@@ 9
текущего 9
евых 9
Андрее@@ 9
судьи 9
богатством 9
долю 9
возгла@@ 9
истина 9
торгов@@ 9
соли 9
глубоко 9
лка 9
сельском 9
осел 9
гроба 9
тепло@@ 9
Ставлю 9
максималь@@ 9
второго 9
пись 9
Набере@@ 9
музея 9
внуки 9
Лавану 9
трудом 9
норматив@@ 9
лежат 9
пасти 9
куз@@ 9
живи 9
сту 9
учебе 9
вось@@ 9
воспитание 9
ситуа@@ 9
культурного 9
настоящий 9
взойди 9
родины 9
ведущих 9
показывает 9
сжечь 9
досталось 9
онова 9
племен 9
отношении 9
способность 9
101 9
ситуация 9
желаю 9
полчаса 9
вред 9
брусья 9
веревки 9
перепись 9
встан@@ 9
Зачем 9
библиотека 9
отроков 9
Сказав 9
делаешь 9
живою 9
нечестивых 9
чаши 9
заканчи@@ 9
пропове@@ 9
Парень 9
цени@@ 9
пришед@@ 9
требу@@ 9
словах 9
вера 9
тря@@ 9
обувь 9
выли@@ 9
погубить 9
глиня@@ 9
воспоминания 9
пасту@@ 9
математи@@ 9
ансамб@@ 9
соста@@ 9
театре 9
жайтесь 9
ствуйте 9
пресмыка@@ 9
сомне@@ 9
Вели@@ 9
свадь@@ 9
После@@ 9
Амми@@ 9
Школь@@ 9
деревян@@ 9
Егорова 9
спасение 9
шатры 9
Филистимские 9
великую 9
просить 9
учителем 9
следовали 9
своевремен@@ 9
Эл 9
снимать 9
выпуски 9
плавать 9
бежать 9
супру@@ 9
поселились 9
кир@@ 9
аккуратно 9
конкурен@@ 9
социального 9
запове@@ 9
Её 9
выполнении 9
земляков 9
комплекса 9
жало@@ 9
учились 9
!@@ 9
Ат@@ 9
промышлен@@ 9
ковые 9
едят 9
полезно 9
Массифу 9
автомобильным 9
Три 9
примет 9
субботы 9
принадле@@ 9
постановление 9
говор@@ 9
меся@@ 9
кла 9
конгресса 9
союза 9
Рем@@ 9
вож@@ 9
полно 9
ялась 9
аварий@@ 9
Алиса 9
искусств 9
бо 9
встретили 9
рабаты@@ 9
ограни@@ 9
вшей 9
тянка 9
введен@@ 9
ленная 9
центра@@ 9
крово@@ 9
жилищно 9
ссии 9
дышащее 9
находилось 9
фили@@ 9
собравшихся 9
прили@@ 9
цент@@ 9
ир@@ 9
ствен@@ 9
новы 9
тури@@ 9
шина 9
фирмы 9
приходить 9
дием 9
Сто@@ 9
начальнику 9
повели 9
ложили 9
отдавать 9
Каж@@ 9
сообраз@@ 9
педагоги@@ 9
Участ@@ 9
отступа@@ 9
поселился 9
восток 9
мался 9
медных 9
сахар@@ 9
вшую 9
Больших 9
Рувимовых 9
илова 9
ционной 9
причине 9
очист@@ 9
Галаада 9
механизато@@ 9
Иессея 9
усерд@@ 9
вки 9
собственности 9
2006 9
72 9
87 9
бума@@ 9
управление 9
возникновении 9
личной 9
Согласно 9
тени 9
планируется 9
женных 9
держали 9
ностях 9
левой 9
Чапаева 9
недостат@@ 9
ино 9
отправля@@ 9
укреплен@@ 9
ближнему 9
жь 9
довать 9
пребывания 9
ап@@ 9
син@@ 9
крепко 9
покуп@@ 9
66 9
Ур@@ 9
кон 9
племен@@ 9
орфографи@@ 9
начальникам 9
пуска@@ 9
вверху 9
маль@@ 9
довали 9
таком 9
/, 9
типа 9
сидя@@ 9
пью 9
посы@@ 9
участвуют 9
отдавай 9
талан@@ 9
Христо@@ 9
чувство@@ 9
чин@@ 9
Египетскую 9
Манассия 9
лки 9
предоставление 9
принци@@ 9
Канаш 9
залог 9
Какие 9
видишь 9
чён@@ 9
заблу@@ 9
лав@@ 9
пленки 9
сения 9
вовле@@ 9
рие 9
осемен@@ 9
нечистого 9
отни@@ 9
лета 9
Ассири@@ 9
рубить 9
институ@@ 9
жилище 9
таль@@ 9
Благодарю 9
Слава 9
картофе@@ 9
кончил 9
поднять 9
фла@@ 9
подходить 9
ответственно 9
малые 9
этими 9
ениях 9
чести 9
Тракто@@ 9
стые 9
шатре 9
язычников 9
аграр@@ 9
отрас@@ 9
чах 9
Симеон 9
главным 9
свобо@@ 9
наградили 9
пару 9
акта 9
познакоми@@ 9
;""; 9
давала 9
регули@@ 9
личных 9
88 9
Господе 9
щами 9
баню 9
еф@@ 9
Иссахаро@@ 9
пенсии 9
ходу 9
вно@@ 9
сохранение 9
самобы@@ 9
Финеес 9
священниками 9
педагогов 9
больного 9
давайте 9
славить 9
зависящих 9
широко 9
витаминов 9
побывал 9
перио@@ 9
Сие 9
Председателя 9
придти 9
бав@@ 9
добрым 9
пет@@ 9
профессионализ@@ 9
президент 9
ьет 9
врагом 9
залить 9
машина 9
дале@@ 9
внеш@@ 9
являться 9
нака@@ 9
середине 9
Симек 9
доходах 9
имуществе 9
обязательствах 9
имущественного 9
Сделай 9
соедин@@ 9
цело@@ 9
бат@@ 9
дивизии 9
Государственным 9
светильника 9
наперсника 9
надцатым 9
князь 9
главная 9
держа@@ 9
предали 9
дав 9
включа@@ 9
наса@@ 9
узнают 9
писате@@ 9
бирают 9
лек@@ 9
старшей 9
терпел 9
воспитате@@ 9
комплекс 9
дипло@@ 9
Навин 9
мудрости 9
способом 9
грамотами 9
трел 9
нисколько 9
разве@@ 9
чужих 9
пользу@@ 9
тите 9
Праздник 9
спасения 9
дашь 9
увеличилось 9
област@@ 9
уповаю 9
нелегко 9
колхоза 9
судил 9
совет@@ 9
скорб@@ 9
скрижалях 9
рукой 9
доволь@@ 9
эк@@ 9
бун@@ 9
нынешнего 9
спортсмены 9
Сун@@ 9
гимн 9
чается 9
возвратил 9
расположился 9
мальчи@@ 9
Валаама 9
Комсомольского 9
Встре@@ 9
Москов@@ 9
малых 9
Господнем 9
корову 9
звали 9
Правитель@@ 9
юношей 9
Авраамом 9
циям 9
лятся 9
оцен@@ 9
дови@@ 9
край@@ 9
глуб@@ 9
ире 9
Рав@@ 9
нуться 9
67 9
Гаваона 9
пешком 9
напис@@ 9
узнаете 9
холме 9
док 9
пели 9
спектакля 9
нулся 9
щегося 9
Почет@@ 9
ите 9
дились 9
поис@@ 9
надлежало 9
юбилей 9
Прежде 9
Божией 9
жилищ@@ 9
ик@@ 9
плот@@ 9
городами 9
собери 9
посетил 9
эстра@@ 9
техника 9
невин@@ 9
народам 9
Максим 9
регионе 9
посредством 9
програм@@ 9
Успе@@ 9
истин@@ 9
играет 9
соседи 9
маз@@ 9
замужество 9
коррупции 9
любимой 9
звания 9
ночей 9
перстом 9
фарисе@@ 9
Весе@@ 9
покров 9
женщине 9
состоя@@ 9
изли@@ 9
Вениаминовых 9
пощадит 9
языках 9
Левия 9
ябло@@ 9
результаты 9
придется 9
информационных 9
виду 9
наре@@ 9
обратились 9
явилась 9
молит@@ 9
Цивиль@@ 9
догово@@ 9
докумен@@ 9
третьем 9
располо@@ 9
бей 9
енной 9
проблема 9
Золотой 9
Министр 9
восточной 9
школьной 9
младенец 9
здоров 9
поток 9
лагере 9
1992 9
вкус@@ 9
преступ@@ 9
услышат 9
ограничения 9
данным 9
устами 9
уса 9
попросил 9
бога 9
вится 9
таться 9
новомеся@@ 9
Опять 9
хоккей@@ 9
садов 9
рабынь 9
интересовался 9
ё 9
взят 9
рассвета 9
выполнение 9
размере 9
реализу@@ 9
активи@@ 9
начин@@ 9
устах 9
заведу@@ 9
произведу 9
оставив 9
состяз@@ 9
взрослые 9
бур@@ 9
омыть 9
весен@@ 9
81 9
составила 9
призы@@ 9
чашу 9
остальную 9
Все@@ 9
Мужчина 9
спи@@ 9
довых 9
дящих 9
исче@@ 9
тва 9
пещере 9
чик 9
бесплатной 9
юридической 9
предпочита@@ 9
чисто@@ 9
шкой 9
дящий 9
зубов 9
обрат@@ 9
матери@@ 9
руководителя 9
Елеазару 9
судеб@@ 9
зами 9
обратятся 9
осталь@@ 9
женился 9
увидят 9
лице@@ 9
производство 9
Ира@@ 9
директора 9
требований 9
повеления 9
мися 9
зайти 9
Израильтянам 9
Гесем 9
праде@@ 9
приоб@@ 9
данных 9
шут@@ 9
освяти 9
камня 9
добрый 9
пела 9
Вифлеема 9
диплома 9
приобрел 9
производств 9
встретил 9
нима@@ 9
Иода@@ 9
преследу@@ 9
обыкнов@@ 9
позволь 9
еры 9
дение 9
станов@@ 9
простри 9
сниз@@ 9
верхнюю 9
образователь@@ 9
ударил 9
быто@@ 9
Прочее 9
шами 9
гумна 9
кадиль@@ 9
начало 9
глубокий 9
тыми 9
корпус 9
росла 9
республикан@@ 9
раста@@ 9
прошу 9
атся 9
разным 9
шена 9
класси@@ 9
продолжитель@@ 9
пресмыкающихся 9
ЧНК 9
зерно 9
обрезан 9
министерство 9
Земля 9
маленькие 9
вшегося 9
Международ@@ 9
взглянул 9
значения 9
Лен@@ 9
йдем 9
Давидовы 9
водителя 9
Лии 9
троих 9
хами 9
земле@@ 9
ито@@ 9
Единая 9
Тро@@ 9
лия 9
учебных 9
Египетскому 9
учит 9
шестнадцать 9
предоставления 9
университете 9
родителям 9
обу@@ 9
ударит 9
утро@@ 9
ет@@ 9
голов 9
отпу@@ 9
послуш@@ 9
возврат@@ 9
Павло@@ 9
предусмотренные 9
сумма 9
цена 9
твори@@ 9
Южная 9
наперсник 9
девушкой 9
a@@ 9
0@@ 8
высокую 8
добрую 8
Гер@@ 8
обвет@@ 8
Никогда 8
сель@@ 8
поют 8
Вспом@@ 8
бах 8
хол@@ 8
Наверно 8
громко 8
груз@@ 8
цифро@@ 8
Мемфивосфей 8
фильмы 8
независи@@ 8
покрывающий 8
правое 8
Кугес@@ 8
напился 8
осед@@ 8
нови@@ 8
Москву 8
графии 8
Блажен 8
духе 8
199@@ 8
располож@@ 8
транспорта 8
возле 8
Центра@@ 8
ствуя 8
топ@@ 8
вспомни 8
доход 8
следующее 8
Кубня 8
кола 8
Поч@@ 8
копьем 8
конкуренции 8
воспылал 8
бюджет 8
Авиафар 8
пилась 8
зре@@ 8
посыла@@ 8
помога@@ 8
стар 8
чести@@ 8
ану 8
власть 8
ничто 8
исполни@@ 8
школой 8
Мясокомбинатский 8
испы@@ 8
собере@@ 8
творческой 8
лое 8
детский 8
науки 8
жид@@ 8
мышцею 8
Павлов 8
дворе 8
сбор@@ 8
собрать 8
формирования 8
востребован@@ 8
перспекти@@ 8
спектакль 8
хлеб@@ 8
возлия@@ 8
простер@@ 8
Иуде@@ 8
парк 8
шестисот 8
дцат@@ 8
физкультуры 8
определяет 8
прини@@ 8
уроки 8
Мах@@ 8
Мамре 8
возвели@@ 8
большин@@ 8
Христос 8
Человеческий 8
0 8
площа@@ 8
речи 8
умыш@@ 8
Зи@@ 8
оказалось 8
лел 8
хая 8
Фаран 8
какому 8
Была 8
поразит 8
удивительно 8
ниц@@ 8
внимания 8
ала@@ 8
чих 8
направили 8
сон@@ 8
участву@@ 8
увле@@ 8
бр@@ 8
ждая 8
яблок 8
Новочебоксарска 8
медали 8
военных 8
авиа@@ 8
изве@@ 8
оказыва@@ 8
зверей 8
полевых 8
плотью 8
вшимися 8
смотри@@ 8
малень@@ 8
рыми 8
пожел@@ 8
аниями 8
2020 8
Веф@@ 8
пришелец 8
возненавидел 8
тной 8
вятся 8
заключили 8
Ры@@ 8
высмотреть 8
Семья 8
стипен@@ 8
поселений 8
насла@@ 8
живущие 8
нку 8
звать 8
возвышенности 8
собрании 8
милиции 8
Василь@@ 8
Дановых 8
долину 8
Ост@@ 8
скиния 8
Анхус 8
рабе 8
рассказывал 8
хорош 8
осуществить 8
заколо@@ 8
хороша 8
множества 8
четвертом 8
уж@@ 8
функ@@ 8
Количество 8
парт@@ 8
неров 8
старался 8
Д 8
сельскохозяйственного 8
рает 8
святы 8
Михайлович 8
Никак 8
ктор 8
автор 8
сделаем 8
описаны 8
хал 8
Галаадского 8
Божиим 8
крю@@ 8
лали 8
Сеир 8
положит 8
фера 8
Вну@@ 8
речь 8
зелень 8
рисо@@ 8
каждое 8
стадо 8
мудрый 8
тян 8
подме@@ 8
стреми@@ 8
Побе@@ 8
ленное 8
посуду 8
опро@@ 8
болу 8
здра@@ 8
делили 8
интеллек@@ 8
комнат@@ 8
юноши 8
пози@@ 8
благополу@@ 8
первород@@ 8
слепы@@ 8
испугался 8
Душа 8
рался 8
курение 8
сообщ@@ 8
Асир 8
поза@@ 8
гряз@@ 8
Урии 8
наход@@ 8
знамя 8
производителей 8
воспользо@@ 8
Игнатьева 8
банка 8
срав@@ 8
ветра 8
Рос@@ 8
нормаль@@ 8
старину 8
столовую 8
просвети@@ 8
тринадцать 8
Ефремова 8
Данова 8
Мерари@@ 8
Гадо@@ 8
Мадианитя@@ 8
дополнительные 8
избра@@ 8
работайте 8
пробу@@ 8
аминь 8
попали 8
зарплату 8
Алексеевна 8
двадцат@@ 8
оскверня@@ 8
развра@@ 8
вь 8
холод@@ 8
районные 8
зах@@ 8
гневе 8
сп@@ 8
притчу 8
замен@@ 8
чинов@@ 8
гнал 8
гнуть 8
стру@@ 8
помощ@@ 8
телеви@@ 8
чика 8
впа@@ 8
музее 8
Маль@@ 8
четыре@@ 8
плоди@@ 8
владыче@@ 8
живот@@ 8
ющимся 8
пеших 8
Едом 8
Цивильского 8
говой 8
Посад@@ 8
поставля@@ 8
виновным 8
Обра@@ 8
слышала 8
Мерари 8
стояла 8
группа 8
ремон@@ 8
Хал@@ 8
Иисусом 8
знаком 8
быстрее 8
успехи 8
ниями 8
неправды 8
верный 8
шающий 8
?@@ 8
Хузангай 8
живым 8
лилась 8
раскрыть 8
поднялись 8
молодым 8
компании 8
произо@@ 8
жде 8
ори@@ 8
огром@@ 8
каль@@ 8
развиваются 8
трево@@ 8
помина@@ 8
живой 8
живого 8
помазанника 8
превра@@ 8
крепо@@ 8
искали 8
алах 8
владел 8
искусством 8
прикоснов@@ 8
фрук@@ 8
колодезя 8
багажа 8
уй 8
воль@@ 8
др 8
такую 8
свободно 8
уверен@@ 8
наря@@ 8
государственную 8
направлено 8
потихоньку 8
гость 8
Иудины 8
продажи 8
вблизи 8
цены 8
кад@@ 8
Ревекка 8
местно 8
ждается 8
служи@@ 8
Надеждой 8
обсудили 8
дуба 8
выпусков 8
ждут 8
риц@@ 8
сохранения 8
специальных 8
родит 8
полюбил 8
ветром 8
Паша 8
структура 8
торию 8
вве@@ 8
Поволжья 8
проклятия 8
микро@@ 8
спортсмен@@ 8
кот@@ 8
специалисты 8
Чувашкино 8
Господни 8
нечести@@ 8
Каин 8
состарился 8
налоговых 8
родину 8
прихода 8
Вефиле 8
телевид@@ 8
брос@@ 8
Часто 8
сдавать 8
республику 8
расходы 8
входе 8
поверили 8
Вик@@ 8
Василий 8
ьев 8
Нач@@ 8
вступил 8
рану 8
потомства 8
дник 8
Дом 8
изда@@ 8
поддерж@@ 8
86 8
член 8
конфликта 8
сообщать 8
урегулированию 8
покупате@@ 8
тей 8
терпеть 8
муже@@ 8
мальчика 8
восстали 8
придешь 8
выделить 8
боюсь 8
отече@@ 8
делом 8
климата 8
дка 8
войдете 8
Иордан@@ 8
нились 8
разбил 8
одиннадцать 8
высокий 8
неугодное 8
шени@@ 8
уставом 8
депутат@@ 8
окро@@ 8
чатся 8
вся@@ 8
Вал@@ 8
одино@@ 8
находят 8
91 8
зарок 8
вышло 8
конферен@@ 8
Станислав 8
комитета 8
кома 8
утся 8
ошиб@@ 8
храни@@ 8
гайте 8
приступ@@ 8
водя@@ 8
смены 8
масштаб@@ 8
препараты 8
сосу@@ 8
стую 8
дин 8
терп@@ 8
разгово@@ 8
разноцвет@@ 8
танцами 8
разодрал 8
опе@@ 8
называли 8
делается 8
суть 8
шам 8
бане 8
женщиной 8
закал@@ 8
подчерк@@ 8
созданы 8
ары 8
поселении 8
правну@@ 8
видим 8
Ефрем 8
побы@@ 8
зовут 8
строительстве 8
созвал 8
исклю@@ 8
Вааса 8
главного 8
чилось 8
познакомиться 8
неё 8
смерт@@ 8
дереву 8
одеж@@ 8
пришельцу 8
вдове 8
девятьсот 8
поступить 8
ощу@@ 8
районный 8
чувство 8
взглянув 8
Ваасы 8
вор@@ 8
ням 8
необходимости 8
Ча@@ 8
набра@@ 8
возношения 8
жезлом 8
гуманитар@@ 8
наложница 8
предостав@@ 8
черпать 8
Интерне@@ 8
игр 8
увеличение 8
нра@@ 8
кв 8
Светланы 8
ЮТВ 8
журналы 8
проводятся 8
поклонились 8
агрофир@@ 8
дороже 8
приехать 8
трепещ@@ 8
архи@@ 8
сотрудники 8
ственными 8
арбу@@ 8
познал 8
необходимость 8
коман@@ 8
мечтал 8
гар@@ 8
Небесное 8
Боге 8
разруш@@ 8
жертвенники 8
площадки 8
Лазар@@ 8
Христа 8
пятно 8
ковчеге 8
Аминадава 8
цепочки 8
вклад 8
тного 8
гите 8
Силом 8
Месопотамии 8
посмотрел 8
показателей 8
целом 8
серьез@@ 8
угод@@ 8
член@@ 8
Иерихо@@ 8
вец 8
мгновение 8
Тал@@ 8
Слова 8
били 8
полдень 8
потоку 8
картины 8
засаду 8
каждым 8
Иевосфея 8
восхи@@ 8
сетью 8
труду 8
поддержка 8
Николаев@@ 8
мел 8
называется 8
продал 8
вшейся 8
Зак@@ 8
открылась 8
ред@@ 8
Посмо@@ 8
житель@@ 8
марки 8
правого 8
расходах 8
голубого 8
учебный 8
закля@@ 8
святы@@ 8
специали@@ 8
стам 8
шерсть 8
червлен@@ 8
финанси@@ 8
больницу 8
благослови@@ 8
указ@@ 8
вим 8
мальчик 8
туры 8
жие 8
момента 8
Волж@@ 8
начинают 8
лив@@ 8
семен@@ 8
конкре@@ 8
слась 8
всесторонне 8
Гая 8
тят 8
печаль@@ 8
трепе@@ 8
открывает 8
основных 8
сцены 8
стихах 8
оценку 8
систем@@ 8
нившись 8
тр@@ 8
сыне 8
призрел 8
горячо 8
счит@@ 8
проходить 8
одар@@ 8
лин@@ 8
Енаковых 8
гостям 8
культур 8
коллективов 8
лениями 8
хал@@ 8
дорогие 8
господствовать 8
Несмотря 8
Хора@@ 8
благословлю 8
Тат@@ 8
цвет@@ 8
отка@@ 8
пора 8
отпустит 8
оператив@@ 8
легкой 8
погибнут 8
Наверное 8
свидетельства 8
ввести 8
станьте 8
милост@@ 8
верность 8
покрыл 8
орган@@ 8
вавшись 8
шум 8
праздно@@ 8
ступают 8
Есевон 8
Аморрейского 8
познакомили 8
военачаль@@ 8
ник@@ 8
напал 8
ьтесь 8
начнет 8
тради@@ 8
зрителя 8
ложил 8
ственную 8
гнут 8
слушал 8
Ровоам 8
отвечать 8
масло 8
досту@@ 8
рынок 8
зала 8
деревенские 8
Глав@@ 8
осен@@ 8
жу@@ 8
посвятил 8
чаю 8
Аврама 8
благовон@@ 8
""? 8
вступ@@ 8
объема 8
победе 8
итоги 8
сооружений 8
шено 8
оды 8
храб@@ 8
продолжал 8
рине 8
ректор 8
Чермного 8
иле@@ 8
., 8
дружбы 8
выру@@ 8
больницы 8
система 8
появился 8
шению 8
образы 8
остаются 8
снег 8
связать 8
выпустил 8
:] 8
жений 8
крылат@@ 8
бар@@ 8
аб@@ 8
изобили@@ 8
распространяется 8
мех 8
посте@@ 8
предстоит 8
Тем@@ 8
приба@@ 8
возвратиться 8
Гергесеев 8
медленно 8
радостно 8
узнав 8
Роди@@ 8
шет 8
высшее 8
тете 8
национальностей 8
предприятии 8
Геф 8
альная 8
рей 8
некто 8
путеше@@ 8
умершего 8
зато@@ 8
Евдокия 8
чувствуешь 8
депутатом 8
Советом 8
детях 8
обычаи 8
има 8
хим 8
Кирова 8
зим@@ 8
круж@@ 8
рассказы 8
S@@ 8
суббот@@ 8
любите 8
исшествии 8
сим@@ 8
пятер@@ 8
Дан 8
проходя@@ 8
высокой 8
препара@@ 8
благород@@ 8
руп@@ 8
учебу 8
дума@@ 8
заро@@ 8
рут 8
сможет 8
унитар@@ 8
бюджет@@ 8
)"" 8
форуме 8
едой 8
звал 8
заместителя 8
успех 8
неде@@ 8
устраи@@ 8
районных 8
выйдут 8
фов 8
врач 8
ологии 8
ячменя 8
надцатый 8
Уполномочен@@ 8
Уполномоченный 8
продукцию 8
сырья 8
отвечает 8
реализацию 8
сал@@ 8
Варак 8
Фо@@ 8
физической 8
поступай 8
Впереди 8
враг 8
традиций 8
достижений 8
основной 8
специальность 8
повышение 8
прочие 8
зуб 8
зрители 8
головой 8
культур@@ 8
повест@@ 8
суше 8
Настоящий 8
отдаст 8
хам 8
вяз@@ 8
руководством 8
дная 8
оре@@ 8
гнез@@ 8
крылья 8
грехов 8
русс@@ 8
надеемся 8
опресноков 8
сельский 8
государственные 8
случаи 8
знат@@ 8
входить 8
круг@@ 8
ухажи@@ 8
обращения 8
зрения 8
узнала 8
нечи@@ 8
солнцем 8
искрен@@ 8
Рус@@ 8
коммуни@@ 8
пался 8
команде 8
собирают 8
достиг 8
Немного 8
слишком 8
медицинской 8
посо@@ 8
хранения 8
ама 8
поднимается 8
Тру@@ 8
Иок@@ 8
заготовке 8
радост@@ 8
перевод@@ 8
хан@@ 8
дыни 8
вретище 8
ступи@@ 8
мыши 8
Всё 8
вины 8
наверняка 8
проез@@ 8
Иаковом 8
поступает 8
помнить 8
надеется 8
Канаша 8
сокрови@@ 8
проблемы 8
Саруи 8
победу 8
уров@@ 8
звук 8
умира@@ 8
стаи@@ 8
соседей 8
чим 8
дям 8
общественных 8
виды 8
Ай@@ 8
гроб 8
экологи@@ 8
мировых 8
сов@@ 8
увидите 8
юно@@ 8
пон@@ 8
рабочие 8
граница 8
оценить 8
отя@@ 8
сосудов 8
лана 8
литый 8
мерзость 8
сотворит 8
Архипова 8
восходит 8
вверх 8
семидесяти 8
мертвый 8
белый 8
ука@@ 8
интере@@ 8
политической 8
соору@@ 8
весны 8
покровом 8
облака 8
написали 8
полных 8
вдова 8
дожди 8
гектарах 8
прибави@@ 8
реги@@ 8
стояло 8
твердыня 8
пунктах 8
выросло 8
оборудования 8
позо@@ 8
2004 8
болит 8
сторон@@ 8
Авра@@ 8
лечить 8
Татарстан 8
тав@@ 8
заработной 8
всесож@@ 8
твердо 8
транспорт@@ 8
оставь 8
сушенных 8
Сувар 8
говорится 8
ведом@@ 8
позволительно 8
утру 8
оставалось 8
строение 8
Расс@@ 8
Октября 8
государственное 8
десница 8
приш@@ 8
Ефра@@ 8
чист@@ 8
контракта 8
духо@@ 8
телицу 8
спросить 8
ряды 8
приготовил 8
лопат@@ 8
согласи@@ 8
мастера 8
исти@@ 8
мон 8
Никольского 8
песней 8
гло 8
лука 8
обкома 8
политике 8
работникам 8
покор@@ 8
Говоря 8
млад@@ 8
любо@@ 8
четвертого 8
служанка 8
Российского 8
подарки 8
выполняет 8
Елены 8
житель 8
заплани@@ 8
трубы 8
намер@@ 8
повяз@@ 8
напиши 8
Варни 8
началось 8
мяг@@ 8
слышу 8
правил 8
хо 8
положат 8
посты@@ 8
Бабушка 8
исполнения 8
урожен@@ 8
незаметно 8
парни 8
убы@@ 8
свете 8
Зимой 8
тай 8
говорим 8
второе 8
ровано 8
движения 8
ствах 8
взаймы 8
Нем@@ 8
Стре@@ 8
трит 8
земной 8
Гу@@ 8
нарам@@ 8
Авиафара 8
характер 8
Сихема 8
опасностях 8
старше 8
поясом 8
n@@ 8
недостаточно 8
моль 8
Израильтя@@ 8
еся 8
никах 8
херувима 8
весо@@ 8
велись 7
Влады@@ 7
езд 7
Белебе@@ 7
сан 7
вело@@ 7
послушался 7
Гомор@@ 7
пель@@ 7
онов 7
фараонова 7
обоб@@ 7
градусов 7
соединения 7
затруд@@ 7
мались 7
зарубе@@ 7
потрясая 7
Впрочем 7
красного 7
Оля 7
заработ@@ 7
картошку 7
фар@@ 7
ауди@@ 7
лукав@@ 7
льного 7
многое 7
вме@@ 7
истины 7
хора 7
писали 7
строго 7
отпуск 7
даёт 7
циях 7
воинов 7
Мер@@ 7
поздравляю 7
пользы 7
Садока 7
Нафана 7
пристав@@ 7
болезнях 7
полови@@ 7
сат@@ 7
враж@@ 7
воцар@@ 7
вшимся 7
вершине 7
тала 7
вечер@@ 7
сков 7
хла@@ 7
чению 7
ишь 7
нары@@ 7
анных 7
старые 7
числен@@ 7
клятву 7
освободил 7
Фирце 7
плачи@@ 7
ресурсов 7
представит 7
Аароновы 7
цик@@ 7
водитель 7
щена 7
завода 7
сходить 7
Ливана 7
возьмешь 7
посмотрев 7
указанного 7
будущего 7
остановить 7
установили 7
открытым 7
Гай 7
феи 7
досто@@ 7
Наготы 7
пеще@@ 7
помогли 7
ждан@@ 7
рока 7
пользуются 7
Иерихон 7
дни@@ 7
хар 7
развиваться 7
Дантес 7
читься 7
скою 7
стою 7
возмо@@ 7
мусо@@ 7
мине@@ 7
кипя@@ 7
рее 7
поддержи@@ 7
ходом 7
клад@@ 7
квалифика@@ 7
доль@@ 7
вновь 7
лар@@ 7
Сура 7
пой 7
сохранил 7
приходи@@ 7
вшее 7
нь@@ 7
стен 7
Слы@@ 7
читали 7
Ново@@ 7
Вениаминовой 7
Петро@@ 7
Нину 7
Михайло@@ 7
Развитие 7
жано@@ 7
ложке 7
белое 7
добросовест@@ 7
подряд@@ 7
отдаю 7
обрабаты@@ 7
Сере@@ 7
турных 7
бессмерт@@ 7
провозгла@@ 7
стороной 7
аха 7
номо@@ 7
Рувимова 7
Иезавель 7
рон 7
Григор@@ 7
удостоился 7
ск@@ 7
198@@ 7
водителей 7
тор 7
майор 7
Миша 7
остановилась 7
скрылся 7
оруженос@@ 7
артист 7
нена@@ 7
ляй 7
школьных 7
ожо@@ 7
новому 7
Петра 7
Хузан@@ 7
Таня 7
преде@@ 7
шилось 7
обеспечи@@ 7
Сихем@@ 7
жились 7
земельных 7
старе@@ 7
материал 7
поменять 7
остат@@ 7
федеральной 7
носил 7
крыль@@ 7
даровал 7
Никитина 7
помогали 7
наблюдать 7
третье 7
памятником 7
сдер@@ 7
меру 7
оставляли 7
Семе@@ 7
эфире 7
Сириян 7
привя@@ 7
жатву 7
пепел 7
сохраня@@ 7
тельной 7
старшим 7
просит 7
приехали 7
дедушки 7
пух@@ 7
семенем 7
хлебо@@ 7
механи@@ 7
Авер@@ 7
Наде@@ 7
расстояние 7
гражданина 7
хвалиться 7
Моавитян 7
надзора 7
Свои 7
лагерь 7
дворец 7
мул 7
Едома 7
чемпионата 7
яму 7
ону 7
пациентов 7
двинулись 7
няка 7
злосло@@ 7
сидя 7
Посл@@ 7
буль@@ 7
Араме@@ 7
бюджетные 7
субси@@ 7
правовые 7
выявления 7
необ@@ 7
строи@@ 7
нечестивые 7
веке 7
поддерживать 7
Мас@@ 7
чресла 7
младшего 7
Хар@@ 7
Сил@@ 7
воспоминаний 7
ставят 7
наследия 7
объе@@ 7
последних 7
кового 7
закол@@ 7
опасность 7
Начина@@ 7
Вениаминова 7
Каафа 7
Ефремля@@ 7
выборного 7
должност@@ 7
меняются 7
предусмотрен@@ 7
теры 7
церков@@ 7
дад 7
пророче@@ 7
Александровна 7
Ван@@ 7
Кажется 7
использовании 7
Ахитофел 7
утом@@ 7
страх 7
зайди 7
опухоль 7
блудо@@ 7
наполнилась 7
Иерихон@@ 7
Вз@@ 7
приходилось 7
поднимал@@ 7
X@@ 7
гражданам 7
пусти@@ 7
заплатит 7
копи@@ 7
кисло@@ 7
Светлан@@ 7
назначили 7
истреблены 7
ЕГЭ 7
реконструк@@ 7
поручаю 7
санитар@@ 7
Амалик 7
йдет 7
кормила 7
проверить 7
Игорь 7
выпи@@ 7
рейтин@@ 7
Хеттеянина 7
лона 7
Иофор 7
радовался 7
благодея@@ 7
привлечь 7
ансамбля 7
Кал@@ 7
Республику 7
приехал 7
училась 7
музыкальном 7
йду 7
небес@@ 7
всяким 7
родословие 7
пара@@ 7
Охра@@ 7
федеральном 7
утвердить 7
Граждан@@ 7
Даль@@ 7
Кри@@ 7
Белору@@ 7
раздели@@ 7
основательно 7
научной 7
первосвященники 7
цио@@ 7
дцы 7
возвещать 7
подош@@ 7
уровней 7
Буду@@ 7
Идумее 7
царский 7
ъя@@ 7
объявлен 7
Годом 7
Японии 7
дубравы 7
илу 7
возвращается 7
смасте@@ 7
стихотворение 7
дож@@ 7
Чеченской 7
образа 7
старец 7
западной 7
довести 7
ефа 7
разговаривает 7
Хотел 7
зале 7
Иессе@@ 7
Сокхофа 7
баш@@ 7
Аркадия 7
доби@@ 7
исполняли 7
холм 7
тную 7
коротко 7
заслу@@ 7
волно@@ 7
отдайте 7
желающих 7
прекрат@@ 7
трав 7
фаши@@ 7
четырнадцатый 7
муку 7
Ионафану 7
Вениаминовы 7
84 7
летняя 7
вести@@ 7
Вирсавию 7
Иудее 7
Оттуда 7
III 7
сна 7
исполн@@ 7
дышать 7
ступите 7
играл 7
Сти@@ 7
Оба 7
похи@@ 7
стоящие 7
отделении 7
Све@@ 7
Навала 7
сли 7
Казань 7
пери@@ 7
уко@@ 7
трава 7
зам@@ 7
информационной 7
Правильно 7
худого 7
рождать 7
посадил 7
знако@@ 7
приуч@@ 7
абзацами 7
близких 7
нами@@ 7
поклонилась 7
разор@@ 7
стад 7
Созд@@ 7
кататься 7
понимал 7
коррупцией 7
коммунального 7
Вера 7
Зри@@ 7
Вчера 7
Ульяновской 7
Далида 7
Аф@@ 7
инвестиционного 7
активных 7
дова 7
поезд@@ 7
маршрутах 7
пар 7
обосно@@ 7
разод@@ 7
дост@@ 7
ца@@ 7
анах 7
ученикам 7
предано 7
Сына 7
ленка 7
простит 7
такому 7
попала 7
ордена 7
поклон@@ 7
подобен 7
работ@@ 7
Естественно 7
созда@@ 7
глупы@@ 7
написала 7
боятся 7
96 7
Галгала 7
способный 7
храбрые 7
выходные 7
Чаки 7
желанием 7
Васильева 7
Р 7
Аммонитяне 7
бросали 7
четвер@@ 7
Пан@@ 7
щали 7
жертво@@ 7
мирового 7
зат@@ 7
Виктор 7
уходить 7
Содом@@ 7
Отче 7
Батыревского 7
сражения 7
заранее 7
выписы@@ 7
деб@@ 7
оформ@@ 7
1999 7
2003 7
капит@@ 7
заинтересованности 7
исполнении 7
должностных 7
конфликту 7
предотвращению 7
гаются 7
поняли 7
обед 7
полы 7
Синай 7
ступеней 7
очере@@ 7
600 7
объемы 7
маленькую 7
комбай@@ 7
Нак@@ 7
солне@@ 7
положив 7
душе@@ 7
отправляли 7
телеканала 7
закола@@ 7
принося@@ 7
Восто@@ 7
Карла 7
юбилея 7
мене 7
ьевой 7
комплекс@@ 7
заболеваний 7
обеих 7
будущей 7
Анатольевич 7
различными 7
грехах 7
стражу 7
посвяща@@ 7
священства 7
святынь 7
Ой@@ 7
прислал 7
Ир 7
назвали 7
нину 7
щины 7
предусмотренном 7
указом 7
возврати@@ 7
Аммонитянами 7
преступления 7
приготовить 7
рим 7
Елли@@ 7
отказ@@ 7
преисподнюю 7
сраз@@ 7
искал 7
трак@@ 7
исправ@@ 7
небу 7
притесня@@ 7
пришельцами 7
брани 7
захват@@ 7
берег 7
термо@@ 7
программа 7
серде@@ 7
Раме 7
примеров 7
Уча@@ 7
коллектив@@ 7
Раму 7
усердию 7
познаком@@ 7
летней 7
Моргауш@@ 7
пира@@ 7
Аморрей@@ 7
Есевоне 7
притвор 7
Иосифова 7
культурой 7
фора 7
внуками 7
фовых 7
отходов 7
собралось 7
нынче 7
мию 7
уходят 7
Культура 7
новости 7
земельные 7
скале 7
непокор@@ 7
встречу 7
заявление 7
тьме 7
помазал 7
лечение 7
сироте 7
нар@@ 7
Цо@@ 7
Петру 7
формы 7
мовой 7
щала 7
возрасте 7
членов 7
погло@@ 7
покрыла 7
Навал 7
Ассур 7
вающий 7
стителя 7
Всевышний 7
законодатель@@ 7
дывать 7
первородное 7
гай 7
совету@@ 7
недалеко 7
винограда 7
Василия 7
охран@@ 7
Халева 7
Иефонни@@ 7
точности 7
стараемся 7
Милка 7
Маа@@ 7
общей 7
Руко@@ 7
Песнь 7
Самуила 7
местной 7
боя@@ 7
раны 7
Гера@@ 7
республиканской 7
отпусти@@ 7
объяснить 7
прогнал 7
виновен 7
служанку 7
регионах 7
начинаю 7
Есевон@@ 7
поворачи@@ 7
ствование 7
1962 7
рекомен@@ 7
Министерство 7
заработная 7
понимает 7
ряют 7
расцве@@ 7
поступают 7
местные 7
чее 7
тесть 7
Моисе@@ 7
поступали 7
республик 7
Весь 7
надзиратели 7
благословлять 7
нер@@ 7
Нахора 7
закри@@ 7
Би@@ 7
индивиду@@ 7
контроля 7
бюджетного 7
стих 7
Адраазара 7
Евфра@@ 7
поселке 7
трост@@ 7
вдали 7
граде 7
пог@@ 7
Ено@@ 7
отремонти@@ 7
отряд 7
приготовили 7
небесных 7
парламен@@ 7
Валера 7
мского 7
молитвы 7
Лавана 7
опресноки 7
водится 7
парши@@ 7
разби@@ 7
железные 7
вторично 7
эффективное 7
ферму 7
пустила 7
дущие 7
празд@@ 7
отдельно 7
Благодарствен@@ 7
приви@@ 7
сразились 7
уделе 7
ценности 7
республиканским 7
пустыми 7
арии 7
успо@@ 7
Павловича 7
грамм 7
щиков 7
работан@@ 7
спут@@ 7
ковая 7
Чеч@@ 7
начальных 7
победить 7
возвратит 7
Меч@@ 7
ура@@ 7
конференции 7
тюр@@ 7
зма 7
странах 7
морской 7
уха 7
оставшиеся 7
пояс 7
чков 7
Фу@@ 7
пами 7
мово 7
социаль@@ 7
семьям 7
выступ@@ 7
пурпуро@@ 7
просят 7
жюри 7
Тю@@ 7
пробыл 7
публи@@ 7
Фран@@ 7
привяз@@ 7
пились 7
помя@@ 7
ады 7
мужчи@@ 7
что@@ 7
Акра@@ 7
простира@@ 7
Екате@@ 7
исы 7
написанные 7
сооб@@ 7
овраг 7
Зои 7
Ага@@ 7
эффективность 7
Ахава 7
читал 7
снять 7
поношение 7
воздви@@ 7
грам@@ 7
наведет 7
борьбы 7
строя 7
Победи@@ 7
немцы 7
закричал 7
секун@@ 7
давай 7
ином 7
150 7
административ@@ 7
писала 7
Наву@@ 7
выве@@ 7
емым 7
Бере@@ 7
поздрав@@ 7
руководителей 7
тиви@@ 7
...@@ 7
городам 7
Иевусе@@ 7
Сал@@ 7
соответствующем 7
красоту 7
культурные 7
разнообраз@@ 7
деятели 7
Красно@@ 7
зве@@ 7
человеческие 7
Симо@@ 7
номера 7
нал 7
полстакана 7
отдыхать 7
Яльчикского 7
крик 7
Адам 7
текущем 7
шан 7
Аш@@ 7
X 7
Пятилетки 7
дитянин 7
рову 7
Около 7
возвратившись 7
положу 7
подножие 7
Вра@@ 7
анное 7
уцелел 7
пойте 7
Красноармей@@ 7
кассы 7
познали 7
Причина 7
покло@@ 7
составит 7
жизн@@ 7
Вячеслав 7
идоло@@ 7
данному 7
долж@@ 7
сив 7
уважения 7
футбол 7
наказания 7
преданы 7
отдали 7
даешь 7
истребили 7
лыжах 7
Рядом 7
оставшееся 7
деревом 7
просила 7
Ирӗклӗх 7
газетах 7
мина@@ 7
способные 7
тером 7
утверждает 7
производственных 7
нарез@@ 7
ЧГ@@ 7
Ульянова 7
жишь 7
Зоя 7
начинается 7
очистить 7
прось@@ 7
Кур@@ 7
тяжелой 7
восьми 7
алкого@@ 7
готовит 7
Иудеям 7
устроился 7
ленность 7
гости@@ 7
творчестве 7
Амаликитян 7
Смотри 7
пошлет 7
позволя@@ 7
надолго 7
сикера 7
вполне 7
заклятого 7
Вон 7
баб@@ 7
Родину 7
бело@@ 7
открыты 7
трудятся 7
Моавитской 7
вспо@@ 7
ездили 7
тник 7
электри@@ 7
Черкесов 7
ору@@ 7
торговли 7
револю@@ 7
исполнитель@@ 7
Вскоре 7
уважение 7
бывают 7
тори@@ 7
увер@@ 7
выйдя 7
s@@ 7
u@@ 7
повел 7
окраине 7
злословил 7
парков 7
уходит 7
документов 7
Фир@@ 7
специализи@@ 7
назначенное 7
ждении 7
девятый 7
Новый 7
име 7
отсе@@ 7
закуп@@ 7
поверил 7
монстри@@ 7
усмо@@ 7
ницей 7
операции 7
столице 7
исчисли 7
,@@ 7
источник 7
разделил 7
использования 7
десни@@ 7
жало 7
предела 7
крес@@ 7
Хале@@ 7
вним@@ 7
копья 7
влож@@ 7
влады@@ 7
кедро@@ 7
дники 7
умирает 7
гробу 7
мрак 7
высоту 7
Маной 7
сею 7
мент 7
Члены 7
соревнований 7
Вениаминову 7
винов@@ 7
s 7
Сеспеля 7
литера@@ 7
ассоциации 7
Серге@@ 7
распространилась 7
Фараон 7
конф@@ 7
еле@@ 7
зывала 7
жре@@ 7
растений 7
общественные 7
помаз@@ 7
кресть@@ 7
столба 7
дизай@@ 7
научных 7
маслом 7
ткан@@ 7
взрослы@@ 7
экскур@@ 7
массовых 7
форме 7
гер@@ 7
потенци@@ 7
организма 7
Вся@@ 7
суп 7
сут@@ 7
министер@@ 7
попол@@ 7
устанавливает 7
заказ@@ 7
примером 7
задачей 7
уг@@ 7
Валя 7
нете 7
Сигон 7
Твоими 7
объеди@@ 7
кожа 7
поешь 7
Моими 7
обязательства 7
утрен@@ 7
идолов 7
ожесточил 7
круго@@ 7
зор 7
Иоа@@ 7
бит 7
открытый 7
государственными 7
старайтесь 7
официального 7
оружие 7
рассы@@ 7
Мини@@ 7
страже 7
Нево 7
мужественны 7
серебря@@ 7
музыки 7
группу 7
журналисты 7
хоккей 7
открылись 7
состояния 7
межмуниципальных 7
отверстие 7
вок@@ 7
родственников 7
править 7
здеш@@ 7
полк 7
паршивость 7
вости 7
Израильским 7
растер@@ 7
признательность 7
сози@@ 7
устрем@@ 7
коллектив 7
бил@@ 7
интересные 7
среде 7
щимся 7
выведу 7
агра@@ 7
Млад@@ 7
чью 7
разбой@@ 7
рана 7
кричать 7
сут 7
Рувимо@@ 7
провод@@ 7
парка 7
посу@@ 7
пятнами 7
технической 7
чкой 7
Амнона 7
электротехни@@ 7
Ребенок 7
дереве 7
понять 7
зимой 7
большими 7
схватил 7
подроб@@ 7
возможно 7
мина 7
встаньте 7
Волга 7
плодотвор@@ 7
ат 7
дворовых 7
Завулон 7
Гад 7
Иудейских 7
бросит 7
скоте 7
читате@@ 7
круг 7
радуюсь 7
Москвы 7
педагогического 7
Адонии 7
.), 7
верев@@ 7
метрах 7
подрост@@ 7
аниях 7
Авто@@ 7
двенадцати 7
МЧС 7
умывальник 7
августе 7
родному 7
поднимать 7
Ивановны 7
Владимирович 7
Вдруг 7
полевые 7
истолко@@ 7
принято 7
благодарю 7
поздравления 7
презрели 7
заповедь 7
Ваал@@ 7
Симеона 7
лучшей 7
усердно 7
привыкли 7
тилась 7
конвер@@ 7
Управ@@ 7
Лию 7
слышит 7
китай@@ 7
служит 7
отво@@ 7
массовой 7
учав@@ 7
кумир 7
международном 7
пищею 7
прибли@@ 7
мукой 7
Анто@@ 7
русских 7
браке 7
Ныне 7
имеется 7
Нов@@ 7
бин@@ 7
Семенович 7
передо 7
квасного 7
находиться 7
соломы 7
главное 7
счи@@ 7
турни@@ 7
килограм@@ 7
трав@@ 7
Взя@@ 7
рите 7
Гагарина 7
Израилево 7
ьих 7
синих 7
шив 7
прожить 7
вооруженные 7
груди 7
одоб@@ 7
Космодемьянской 7
выя@@ 7
ул@@ 7
клятвы 7
ющаяся 7
река 7
68 7
самим 7
Чувашию 7
пруд 7
хвала 7
наложил 7
том@@ 7
поднималось 7
возврати 7
Произ@@ 7
думала 7
Юлия 7
отправляют 7
стает 7
Хан@@ 7
Базар@@ 7
среднем 7
тир@@ 7
спросили 7
проводил 7
маму 7
повторить 7
станете 7
Алексеев 7
пода@@ 7
корзины 7
появ@@ 7
деятельностью 7
однокласс@@ 7
Тетя 7
устрой@@ 7
положила 7
отдох@@ 7
Мелхо@@ 7
маю 7
затво@@ 7
храни 7
состоятся 7
чувства 7
произойдет 7
животновод@@ 7
Аморрейских 7
лошади 7
тайно 7
сожги 7
посвя@@ 7
односельчане 7
худо 7
соблюдайте 7
вашем 7
тях 7
Близ@@ 7
Лота 7
Пол@@ 7
военно 7
гою 7
какими 7
недостатки 7
проживают 7
командир 7
строишь 7
гова 7
бюро 7
войдут 7
осуществлением 7
защита 7
вица 7
отступил 7
выздоровления 7
Ааронова 7
сетки 7
происшествий 7
хватит 7
состав@@ 7
услови@@ 7
жерт@@ 7
думать 7
областей 7
чными 7
отро@@ 7
веро@@ 7
самих 7
язычники 7
оно@@ 7
лага@@ 7
служите 7
дополнительных 7
выведи 7
Кан@@ 7
Мор@@ 7
Юры 7
своя 7
ходы 7
Миро@@ 7
неприя@@ 7
работав 7
констру@@ 7
Крылова 7
тишься 7
кесар@@ 7
проблем 7
устройства 7
произведени@@ 7
отличается 7
показыва@@ 7
ревность 7
Верхов@@ 7
телят 7
уроков 7
Катя 7
высох@@ 7
проводит 7
айте 7
стеною 7
избавит 7
Ярослав@@ 7
вдвое 7
.) 7
благоустро@@ 7
улыба@@ 7
дичи 7
РБ 7
глад@@ 7
спор@@ 7
хождение 7
Салам 7
полиграфи@@ 7
краевед@@ 7
мировой 7
рын@@ 7
пустит 7
Вефсамиса 7
шался 7
ропот 7
Извест@@ 7
I@@ 7
змея 7
повышению 7
умели 7
гнезда 7
кредитов 7
оф@@ 7
партнерства 7
гии 7
сконч@@ 7
предмет 7
стадионе 7
низмен@@ 7
план 7
рассве@@ 7
любой 7
настро@@ 7
народных 7
ищет 7
чекан@@ 7
тревогу 7
труб@@ 7
Республикан@@ 7
общественно 7
обрезан@@ 7
тверд 7
мужествен 7
Анато@@ 7
сожгли 7
остере@@ 7
имеющих 7
бюджетной 7
Или@@ 7
Юр@@ 7
назорейства 7
никаких 7
издалека 7
ссы 7
роз@@ 7
очищаемого 7
трудностей 7
созданию 7
вайтесь 7
устано@@ 7
посвященный 7
рь 7
бен@@ 7
встретился 7
исчислил 7
массо@@ 7
школьники 7
."" 7
Спе@@ 7
правды 7
заявлений 7
прикрепили 7
льва 7
Алексеева 7
суда 7
покрыли 7
Нарспи 7
поклялись 7
регулирующего 7
наиболее 7
соединены 7
понимать 7
Сурский 7
летнюю 7
царствования 7
l@@ 7
Мелхола 7
Иоавом 7
отпус@@ 7
искусство 7
Главе 7
несчастья 7
даты 7
матри@@ 7
распо@@ 7
Дановы 7
ску 7
донор@@ 7
концер@@ 7
свидетелей 7
престо@@ 7
мия 7
изданий 7
верхней 7
2001 7
пригод@@ 7
воскрес@@ 7
гаться 7
прикрепи 7
умеет 7
шипов 7
L@@ 7
мышцу 6
бог 6
Иш@@ 6
медаль 6
продавцом 6
формированию 6
видов 6
спорту 6
покрыло 6
нец 6
перешла 6
образовательных 6
урожай 6
внедр@@ 6
составе 6
желудо@@ 6
спектакли 6
народные 6
самодеятель@@ 6
поднесли 6
судь@@ 6
прилепи@@ 6
инозем@@ 6
поел 6
очно 6
ласко@@ 6
нехватки 6
тракторе 6
шкафу 6
ось 6
Валентин 6
тюрь@@ 6
шель@@ 6
выре@@ 6
стым 6
умножу 6
местном 6
Коман@@ 6
означает 6
распя@@ 6
ист@@ 6
дерев 6
Иодая 6
военачальник 6
нение 6
ради@@ 6
спаль@@ 6
младшей 6
ставим 6
вела 6
повину@@ 6
Спустя 6
поест 6
саранча 6
тись 6
преступлений 6
слышно 6
Левиины 6
высокою 6
Египетского 6
обеспечении 6
документа@@ 6
внутренностях 6
красоты 6
певцов 6
насколько 6
судьбы 6
Заме@@ 6
деревах 6
полага@@ 6
печать 6
одобр@@ 6
оказать 6
пот 6
убор@@ 6
ровании 6
комфорт@@ 6
Чебоксарская 6
асфаль@@ 6
Геро@@ 6
Советского 6
реж@@ 6
Фелефе@@ 6
сцен@@ 6
нову 6
Неффалимо@@ 6
Площа@@ 6
доля 6
тика 6
связаны 6
Мемфивосфея 6
путях 6
запер@@ 6
олимпиадах 6
судом 6
поступи 6
решетку 6
укрепил 6
свадьбы 6
наготы 6
слух 6
фабрики 6
кра 6
Егоровна 6
патриотизма 6
школьные 6
практики 6
обучение 6
производственного 6
Мало@@ 6
утвердил 6
повод 6
Ради@@ 6
Гаваони@@ 6
платили 6
ежемеся@@ 6
Египтом 6
множеством 6
Кам@@ 6
самоле@@ 6
поби@@ 6
долиною 6
рят 6
ьевых 6
пони@@ 6
всякою 6
Иса@@ 6
подарками 6
автомат@@ 6
пси@@ 6
Всякий 6
возгорелся 6
Завод@@ 6
Новая 6
держала 6
принадлеж@@ 6
Бессмертный 6
понедельник 6
руководителями 6
чтения 6
границей 6
надел 6
прекло@@ 6
нился 6
Иари@@ 6
равнины 6
зали@@ 6
Солен@@ 6
питал 6
устоит 6
оставлял 6
гром 6
дачи 6
находились 6
выполнили 6
Аморреи 6
Будучи 6
Зим@@ 6
Будь 6
тремя 6
пыль 6
Знаю 6
Саве@@ 6
бак 6
примеры 6
отры@@ 6
ваниями 6
Егоров 6
СХК 6
Атлашевский 6
управля@@ 6
какова 6
илен 6
щить 6
Гаал 6
уйдет 6
инвестиционные 6
резать 6
местами 6
соеди@@ 6
Иаковле@@ 6
мели 6
хорошей 6
любом 6
механизатор 6
полного 6
врат@@ 6
живот 6
дерз@@ 6
повсе@@ 6
Фер@@ 6
заниматься 6
филологи@@ 6
этап 6
возвратимся 6
наказ@@ 6
Владимиров 6
делами 6
возвращусь 6
ладонь 6
здания 6
встречается 6
притчами 6
хвост 6
жат@@ 6
маслич@@ 6
знак 6
избавиться 6
зон@@ 6
экономике 6
сси@@ 6
погреб@@ 6
вымоет 6
чистом 6
иды 6
выпу@@ 6
заслуга 6
Чувашское 6
выхожу 6
последнего 6
Николаем 6
вознесет 6
отне@@ 6
наводя@@ 6
чрево 6
вреди@@ 6
общежи@@ 6
прием@@ 6
Поль@@ 6
капитала 6
шинского 6
кия 6
оставляйте 6
просите 6
заступник 6
мудро@@ 6
упомя@@ 6
повелеваю 6
десятину 6
женщинам 6
покрас@@ 6
поликлиники 6
наименование 6
Хавал 6
привлекательности 6
богами 6
тесто 6
комплексе 6
энерго@@ 6
вочных 6
вхо@@ 6
тельная 6
тил@@ 6
расче@@ 6
хозяину 6
одною 6
головою 6
верить 6
рыв 6
блудницы 6
дую 6
Вафуила 6
городское 6
русской 6
включенных 6
эксперти@@ 6
расту@@ 6
помидоры 6
заповедям 6
Оси@@ 6
среду 6
Ефрона 6
делега@@ 6
кли 6
Валери@@ 6
состоялась 6
Аро@@ 6
Девора 6
кустов 6
протяжении 6
смертности 6
показате@@ 6
выби@@ 6
сильного 6
семьях 6
рассматри@@ 6
чайную 6
хорошего 6
чьи 6
становятся 6
Алина 6
Каафо@@ 6
Иссахарова 6
Васане 6
пом 6
члена 6
предусматри@@ 6
вани@@ 6
Апосто@@ 6
послать 6
Пав@@ 6
Иуде 6
газо@@ 6
сестрою 6
желу@@ 6
комсомольской 6
Ифамара 6
продуктив@@ 6
приведу 6
убью 6
вожат@@ 6
дёт 6
хва@@ 6
лауре@@ 6
останов@@ 6
Афгани@@ 6
прину@@ 6
явится 6
вспомню 6
самому 6
угли 6
виноградника 6
ячмень 6
Сирийцы 6
чке 6
тность 6
Архи@@ 6
Вопрос 6
вон@@ 6
пренебрег 6
сует@@ 6
стрелы 6
юношу 6
старца 6
модернизации 6
требованиям 6
выборов 6
отмен@@ 6
грудью 6
вскор@@ 6
мила 6
мальчиков 6
начнут 6
доску 6
Чувашскую 6
полу 6
танце@@ 6
храмом 6
Неффалим 6
победила 6
Молодой 6
шестом 6
удовлетворить 6
отроку 6
позвали 6
упре@@ 6
хуш@@ 6
вниз 6
продолжил 6
невестка 6
шаддая 6
дации 6
жилищного 6
спус@@ 6
Лес@@ 6
рос@@ 6
нусь 6
пускал 6
дельцы 6
богу 6
клят@@ 6
буд@@ 6
Мен@@ 6
столь 6
недостатка 6
частенько 6
тексты 6
Егоро@@ 6
казан@@ 6
»@@ 6
Неффалима 6
примыкает 6
селя@@ 6
яти@@ 6
священни@@ 6
горячей 6
придержи@@ 6
тщ@@ 6
ательной 6
дер 6
Борис 6
Большинство 6
надеялся 6
активный 6
избежал 6
Еммора 6
сили@@ 6
суде 6
измер@@ 6
поэтом 6
молодыми 6
обнимал 6
целовал 6
поспешил 6
Андреева 6
режиссера 6
вдохно@@ 6
мелодии 6
огурцов 6
помогала 6
Роман@@ 6
препода@@ 6
шенных 6
интересовались 6
пригласили 6
закре@@ 6
контрактов 6
отвечала 6
зрел 6
поверг 6
безд@@ 6
Рувима 6
Люби@@ 6
цо@@ 6
лывать 6
негати@@ 6
совершит 6
выращивает 6
компози@@ 6
Филистимский 6
процедуры 6
несся 6
затро@@ 6
вшаяся 6
стихотворения 6
венце 6
больным 6
лепешку 6
городским 6
иск@@ 6
ренни@@ 6
множеству 6
различ@@ 6
многочисленным 6
Елиав 6
потоки 6
борьба 6
умилости@@ 6
квартале 6
автомобиль@@ 6
Принима@@ 6
пова 6
удовольствие 6
оз@@ 6
проста 6
рассказ 6
дефици@@ 6
малолет@@ 6
извле@@ 6
жилищ 6
проживающих 6
Григорий 6
известил 6
злой 6
количестве 6
сде@@ 6
Москва 6
умею 6
результате 6
ственном 6
руют 6
щенных 6
обеспечивают 6
деревьев 6
муниципальному 6
наклон@@ 6
аши 6
Другие 6
Николаевич 6
вызвал 6
побить 6
подготовку 6
сперва 6
груп@@ 6
пах 6
прикоснувшийся 6
Егло@@ 6
лагал 6
поражал 6
оруженосец 6
фото 6
состоялось 6
открытие 6
Владимиру 6
очища@@ 6
Современ@@ 6
реализация 6
ЗАО 6
дошла 6
чайной 6
осла@@ 6
аф@@ 6
этапе 6
технику 6
ферме@@ 6
бесплатно 6
колхо@@ 6
зам 6
организ@@ 6
стоящего 6
нь 6
счастлив 6
голод@@ 6
небесной 6
тиями 6
построено 6
фоноте@@ 6
сынок 6
ветера@@ 6
степени 6
родственники 6
кафед@@ 6
соревно@@ 6
едет 6
возвращ@@ 6
лепешки 6
лепе@@ 6
дых@@ 6
устойчи@@ 6
чувашски 6
тестя 6
скон@@ 6
скоропостижно 6
1932 6
хранил 6
Трофимов 6
выше@@ 6
критери@@ 6
сестре 6
Ишлеи 6
узор@@ 6
гум@@ 6
Един@@ 6
82 6
пей@@ 6
успели 6
работавший 6
Ревекку 6
таки 6
возвращения 6
поход 6
еви@@ 6
обры@@ 6
провода 6
непре@@ 6
гробе 6
каш@@ 6
овну 6
живать 6
З 6
зал@@ 6
1942 6
вознесен 6
рым 6
гие 6
доста@@ 6
дорожного 6
капитальный 6
сказыва@@ 6
слышите 6
убрали 6
вдвоем 6
Самый 6
гдаш@@ 6
высокие 6
сбылось 6
Иль@@ 6
суро@@ 6
поним@@ 6
дец 6
мят@@ 6
ребята 6
поражения 6
компания 6
ализа@@ 6
недвижи@@ 6
катего@@ 6
избирательной 6
работающий 6
принадлежа@@ 6
выполнил 6
находит 6
исполнит 6
тельность 6
обязатель@@ 6
низло@@ 6
дворов 6
пчат@@ 6
опоро@@ 6
разместить 6
бога@@ 6
запретил 6
мыслей 6
обрадовался 6
воспит@@ 6
вную 6
укрепленные 6
продает 6
хули@@ 6
информация 6
приложении 6
достат@@ 6
пети@@ 6
объяснил 6
несу@@ 6
наблюд@@ 6
состоит 6
сте 6
разукра@@ 6
Амврия 6
военачальника 6
дальнейшей 6
укреплению 6
адрес 6
теплые 6
пожелали 6
питаются 6
сельские 6
подарили 6
раскинул 6
свек@@ 6
Собрания 6
Язы@@ 6
1938 6
посел@@ 6
изменение 6
допол@@ 6
Ори@@ 6
фотографии 6
сотво@@ 6
образов 6
писателя 6
Сталин 6
печен@@ 6
фамилию 6
награды 6
бели 6
достан@@ 6
емую 6
олен@@ 6
наполн@@ 6
рефор@@ 6
Московской 6
оптими@@ 6
выполнить 6
заслуженном 6
отроковицы 6
Порядок 6
ченная 6
бисером 6
Нава@@ 6
спасся 6
дине 6
служители 6
входят 6
мешки 6
Толик 6
подраста@@ 6
размест@@ 6
Сима 6
днём 6
трудиться 6
групп 6
нужды 6
Амврий 6
Самари@@ 6
глухо@@ 6
спектак@@ 6
R@@ 6
e@@ 6
Ефремовых 6
рот 6
1973 6
предки 6
статисти@@ 6
глубину 6
подготов@@ 6
послушайте 6
скалы 6
дара 6
вокаль@@ 6
волей@@ 6
команд@@ 6
посторон@@ 6
соседней 6
лив 6
бегать 6
реестр 6
сорт 6
высших 6
знамен@@ 6
возве@@ 6
щаю 6
погибнете 6
ходишь 6
Раиса 6
главою 6
теплое 6
подходите 6
оси@@ 6
поднялась 6
тин 6
жилища 6
Тем 6
актуаль@@ 6
встреча@@ 6
ужи@@ 6
мож@@ 6
Вас 6
Ела@@ 6
всесожжений 6
рее@@ 6
акции 6
хозяйствен@@ 6
кровать 6
отношений 6
пазу@@ 6
разверза@@ 6
ложесна 6
сожи@@ 6
красавица 6
маленькое 6
запро@@ 6
отверг 6
преклон@@ 6
Хамо@@ 6
мову 6
кормо@@ 6
пьян@@ 6
работая 6
возде@@ 6
бизне@@ 6
оплаты 6
концерт@@ 6
Синае 6
сбора 6
еже@@ 6
снижение 6
переработ@@ 6
ознакомил 6
быст@@ 6
сны 6
Ваалам 6
Авигея 6
Асира 6
Считаю 6
Авиафару 6
внести 6
перст 6
дое 6
телеканал 6
Крым 6
младшая 6
Чет@@ 6
захотелось 6
Сарру 6
потенциал 6
принесите 6
Сара 6
лошадь 6
прийти 6
справ@@ 6
выйдешь 6
закрыть 6
учащихся 6
считают 6
понес 6
ухо 6
женщиною 6
цветка 6
хие 6
понимают 6
ложись 6
корм 6
кувшин 6
Филипп 6
пруда 6
Махира 6
Цен@@ 6
подробно 6
льных 6
уполномоченные 6
затрат 6
надежда 6
успела 6
Константина 6
отъ@@ 6
плохое 6
)@@ 6
нашлись 6
Име@@ 6
вдовы 6
спорт@@ 6
бол@@ 6
нашлась 6
карто@@ 6
ввер@@ 6
хранение 6
проспек@@ 6
восемьсот 6
Завулона 6
поверхности 6
благодарности 6
Цу@@ 6
Осенью 6
покоилась 6
Египетские 6
жилищных 6
остаток 6
Пло@@ 6
Ефремову 6
ральных 6
уникаль@@ 6
Гадовым 6
Эффектив@@ 6
Гирсона 6
волнует 6
внутреннюю 6
слепого 6
обету 6
вырезан@@ 6
успехам 6
удостоен 6
творчеством 6
надцатом 6
ьевич 6
молодёжи 6
распространя@@ 6
шаем 6
приезжают 6
брачный 6
обязательств 6
сками 6
спосо@@ 6
мастерству 6
глины 6
возрадо@@ 6
Гаем 6
известные 6
относи@@ 6
здоровью 6
ярости 6
боги 6
лежала 6
щалась 6
прост@@ 6
возят 6
примере 6
пропитание 6
внутренней 6
достаток 6
остальное 6
победил 6
пли@@ 6
группой 6
выпускников 6
изгнали 6
живших 6
особое 6
древних 6
скрыл 6
языки 6
отношение 6
ательство 6
Аароновых 6
петлей 6
соответствовать 6
неж@@ 6
курсы 6
младших 6
жертвенников 6
приготовь 6
Тан@@ 6
лин 6
кет 6
даете 6
погнался 6
преследовал 6
поскорее 6
удостовер@@ 6
голосования 6
лья 6
сантиметров 6
Министерства 6
садо@@ 6
дерев@@ 6
периоды 6
придерживаться 6
порядка 6
давление 6
Болгарии 6
юки 6
Валаа@@ 6
скрывается 6
полезные 6
поразить 6
Кеиль 6
Семен@@ 6
Й@@ 6
подав@@ 6
Познакоми@@ 6
тучных 6
тощих 6
позволяет 6
изучать 6
непременно 6
базы 6
циони@@ 6
рон@@ 6
хих 6
нарушения 6
фея 6
ступив 6
убежище 6
регионами 6
оре 6
огород 6
постигло 6
июле 6
идолами 6
крепкий 6
Ливане 6
реест@@ 6
Фестиваль 6
уметь 6
жилые 6
жными 6
милосер@@ 6
погубит 6
Мариинско 6
техникум 6
Мегид@@ 6
зин 6
разошлись 6
телю 6
Детей 6
Трудо@@ 6
робо@@ 6
апте@@ 6
пожи@@ 6
осуществляет 6
шийся 6
емое 6
постыдятся 6
Которого 6
военный 6
метод 6
дце 6
онко@@ 6
оказал 6
сопрово@@ 6
полиции 6
позвать 6
Даф@@ 6
расширения 6
сферах 6
образовательной 6
Смотрю 6
кандидат@@ 6
конкурс@@ 6
пускали 6
читает 6
послушали 6
красотой 6
Дивон 6
Фасги 6
Вео@@ 6
убитых 6
Маке@@ 6
июне 6
пункты 6
льняной 6
став 6
венцы 6
наподобие 6
лили@@ 6
руш@@ 6
даров 6
читаю 6
истреблен 6
знам@@ 6
Ев@@ 6
Посе@@ 6
Волги 6
совхо@@ 6
заместителем 6
ваюсь 6
ложка 6
свежих 6
заяв@@ 6
собе@@ 6
прикажет 6
Кабинету 6
Сеп@@ 6
кнет 6
ответы 6
поря@@ 6
чности 6
восхвал@@ 6
спасет 6
боковые 6
снаб@@ 6
Лида 6
Хозя@@ 6
подготовить 6
сфотографи@@ 6
Собравши@@ 6
встать 6
целей 6
Надав 6
Авиуд 6
священно@@ 6
телях 6
поща@@ 6
Российский 6
отсутствия 6
Земля@@ 6
Изреели@@ 6
старшие 6
Израильскому 6
Хориве 6
мах@@ 6
поддержке 6
объявлений 6
покажу 6
понравился 6
умру 6
награда 6
пользу 6
лиз@@ 6
быка 6
скам@@ 6
факультет 6
связана 6
станем 6
просту@@ 6
странствования 6
трениров@@ 6
игра 6
равне 6
издатель@@ 6
упала 6
избави@@ 6
служба 6
Хори@@ 6
ковар@@ 6
фонд 6
ремонтные 6
целеустрем@@ 6
ата@@ 6
сильным 6
праздну@@ 6
Козло@@ 6
приходи 6
веселись 6
главной 6
ложь 6
подвер@@ 6
ениям 6
изображения 6
воинство 6
Щ@@ 6
ед@@ 6
очер@@ 6
медицины 6
возме@@ 6
вязала 6
поддерживает 6
телекан@@ 6
190@@ 6
воодушев@@ 6
многим 6
историко 6
красивых 6
представителей 6
процес@@ 6
банк 6
Маргарита 6
сфер@@ 6
ветераны 6
пера@@ 6
ген@@ 6
Ноемини 6
спасибо 6
приема 6
94 6
представительных 6
наличии 6
нитель@@ 6
трудолюбие 6
рассла@@ 6
индустриальных 6
падеже 6
боли 6
спине 6
рутся 6
завеса 6
принадлежностями 6
Ананьевна 6
жден 6
сребренни@@ 6
Всемогущий 6
наследо@@ 6
аг@@ 6
совершите 6
желания 6
женились 6
%, 6
мог@@ 6
раздел 6
депутатов 6
янное 6
третьим 6
ближай@@ 6
дино 6
умертвили 6
действию 6
Федераль@@ 6
международных 6
беременна 6
родишь 6
матика 6
новостей 6
играх 6
Беф@@ 6
педагогический 6
Европей@@ 6
16@@ 6
довольны 6
оружи@@ 6
вольно 6
вида 6
выпустить 6
рейтинге 6
памятников 6
окончании 6
экономических 6
предай 6
наконец 6
Иессей 6
выращивают 6
вый@@ 6
ясно 6
объединения 6
Кари@@ 6
семирной 6
заслужен@@ 6
профессо@@ 6
Республи@@ 6
засед@@ 6
дало 6
обиль@@ 6
дина 6
инвестиционных 6
заняли 6
агроном 6
вечерам 6
плеч 6
поды@@ 6
Саша 6
пожелал 6
сойдет 6
старик 6
привела 6
Мирон 6
Деву@@ 6
ездят 6
подел@@ 6
энергией 6
возраст 6
завершить 6
весело 6
проснулся 6
сожег 6
Красночетайского 6
веще@@ 6
запу@@ 6
Галаадские 6
Ароера 6
дц@@ 6
тренни@@ 6
смело 6
беречь 6
гордость 6
игру 6
свекрови 6
бло@@ 6
тости 6
позволило 6
сраж@@ 6
носит 6
истреби 6
знаний 6
фею 6
ванные 6
краеве@@ 6
сарай 6
издели@@ 6
стараюсь 6
Геры 6
Звез@@ 6
ревнитель 6
водят 6
бом 6
Галгале 6
тен 6
миг 6
приветли@@ 6
сельским 6
1948 6
привык@@ 6
сдать 6
статься 6
ярких 6
спортивной 6
хоккейной 6
опубликования 6
сценари@@ 6
Сме@@ 6
сливо@@ 6
дется 6
дорогах 6
получат 6
фельдшер@@ 6
акушер@@ 6
сится 6
Наватова 6
спокойствие 6
красноват@@ 6
Марию 6
Кирил@@ 6
Елену 6
пресный 6
порабо@@ 6
Евреев 6
Навалу 6
решению 6
педагоги 6
материалы 6
организу@@ 6
качественной 6
отря@@ 6
чах@@ 6
засу@@ 6
тьму 6
Сидон@@ 6
Ефремо@@ 6
исчислению 6
Ещё 6
поступал 6
Напомним 6
страхо@@ 6
формирование 6
магазин 6
содержание 6
воспол@@ 6
братия 6
напь@@ 6
послушает 6
решать 6
заключит 6
хово 6
Выражаю 6
датель@@ 6
конкурсы 6
Приволжском 6
атле@@ 6
досу@@ 6
Божи@@ 6
обор@@ 6
клуба 6
организация 6
состояние 6
встрече 6
помидо@@ 6
согласие 6
неприятелей 6
Поздрав@@ 6
тельском 6
Иеффаю 6
агрегат@@ 6
сожгут 6
пест@@ 6
крапинами 6
праведности 6
прошлой 6
пресс 6
Молодые 6
рный 6
посещения 6
щусь 6
ведут 6
горлиц 6
голубей 6
клони 6
связали 6
поиске 6
родителями 6
Вто@@ 6
ресурсы 6
захождении 6
Кошкинский 6
артистов 6
извер@@ 6
Онан 6
попало 6
служащим 6
сентябре 6
сении 6
тна 6
настроения 6
взыщу 6
Придя 6
оставила 6
птицам 6
небесным 6
зверям 6
чувствую 6
наложницу 6
частей 6
вопросами 6
предлага@@ 6
сими 6
советом 6
процедур 6
поехали 6
успел 6
ночу@@ 6
душам 6
ресто@@ 6
Сидона 6
Левий 6
достойных 6
ведении 6
Татарстане 6
Вторая 6
приближ@@ 6
шерстя@@ 6
необрезанных 6
Бай@@ 6
прого@@ 6
прежнего 6
Гадовых 6
разбили 6
надеясь 6
башню 6
веществ 6
святый 6
Ольги 6
дящие 6
Милло 6
верхние 6
Кедес 6
обработ@@ 6
тенден@@ 6
Закон@@ 6
играют 6
Эмилия 6
Петербур@@ 6
данного 6
структу@@ 6
Вначале 6
пались 6
Чебоксарский 6
щено 6
уны@@ 6
Кадесе 6
Радует 6
храме 6
ив 6
концерты 6
правившись 6
Инга 6
МВД 6
Вопро@@ 6
уполномоченный 6
гроб@@ 6
рец 6
вперёд 6
готовят 6
явились 6
Илья 6
ционные 6
напротив 6
Ахитофела 6
полным 6
снимет 6
Вечером 6
беде 6
выгнал 6
мероприятии 6
доверия 6
Ваала 6
рядами 6
послушались 6
Дер@@ 6
название 6
Егорович 6
внесли 6
правитель 6
гармонь 6
Краси@@ 6
делового 6
участники 6
оте@@ 6
Новые 6
поставила 6
живое 6
динамику 6
нале@@ 6
Ванею 6
выставки 6
тка@@ 6
Христе 6
Пет@@ 6
Зевея 6
Салмана 6
саран@@ 6
чувашскими 6
присут@@ 6
Деньги 6
возопил 6
неоднократно 6
энергию 6
лайте 6
посторонний 6
Голо@@ 6
чемпионате 6
преданность 6
тера 6
благодарность 6
ориен@@ 6
сели 6
рт 6
дожд@@ 6
сойди 6
повелено 6
доктор 6
омо@@ 6
1945 6
импортозамещения 6
друзьям 6
русские 6
сняет 6
автомобильных 6
Молодежь 6
знакомит 6
специалист 6
комиссию 6
способствовать 6
дров 6
тя 6
прекратив@@ 6
обно@@ 6
жертвоприношения 6
Заместитель 6
перевели 6
работниками 6
Реализация 6
йдя 6
пр@@ 6
нутся 6
жительства 6
тей@@ 6
рует 6
веко@@ 6
напомин@@ 6
соблаз@@ 6
отказыва@@ 6
сват@@ 6
лон 6
сайт 6
возник@@ 6
хах 6
начинать 6
математики 6
журналов 6
помен@@ 6
V@@ 6
Чермному 6
государству 6
кандидат 6
ослиц 6
оссе 6
Иванович 6
попросила 6
Вспо@@ 6
мн@@ 6
роско@@ 6
сократ@@ 6
опеку 6
помогал 6
альном 6
Яль@@ 6
Маханаим 6
орудия 6
восемнадцать 6
Дамас@@ 6
120 6
сё@@ 6
республиканский 6
зало@@ 6
1941 6
добавлять 6
лют 6
Кото@@ 6
атлетике 6
нар 6
Ровоаму 6
мясом 6
ширину 6
нужд 6
дний 6
посвящения 6
поколе@@ 6
Псалом 6
запреты 6
уверен 6
залов 6
Кла@@ 6
помолился 6
фолькло@@ 6
школьного 6
возложат 6
возложи 6
ех 6
творящий 6
черт@@ 6
езд@@ 6
Студен@@ 6
свидетели 6
полка 6
стеб@@ 6
щах 6
ризы 6
Павлович 6
пополам 6
Услышь 6
мужи@@ 6
сапог 6
верь 6
уговари@@ 6
десяти@@ 6
родство 6
ужас@@ 6
загадку 6
возвел 6
хозяина 6
заготовили 6
Гражданской 6
Сугутки 6
Олега 6
яс@@ 6
суета 6
успеха 6
партий@@ 6
определены 6
оставшихся 6
Саваофа 6
благословила 6
сельч@@ 6
тира@@ 6
фабри@@ 6
прославился 6
возглавляет 6
няла 6
выдать 6
копыта 6
ступят 6
едино 6
непрестанно 6
чине 6
Сокхо@@ 6
корпу@@ 6
теснить 6
укрепление 6
Амаликитяне 6
Газы 6
лина 6
приняла 6
тана 6
Сидоня@@ 6
площадок 6
Кры@@ 6
ничем 6
Сталина 6
Маг@@ 6
170 6
трупы 6
див 6
надзира@@ 6
ковском 6
мят 6
холода 6
работами 6
медные 6
рты 6
Гедеону 6
Израилевом 6
корзи@@ 6
показалось 6
плену 6
надобно 6
отсутствие 6
полуденной 6
тень 6
уполномоченным 6
Оф@@ 6
аловых 6
поряд@@ 6
тета 6
Исааком 6
воспитали 6
Регу@@ 6
чуде@@ 6
Яковле@@ 6
Зары 6
скверны 6
конкуренто@@ 6
пещеру 6
чею 6
пь@@ 6
тории 6
жне@@ 6
сзади 6
практику 6
государственно 6
частного 6
разделить 6
исполнится 6
драгоцен@@ 6
гается 6
йдешь 6
возносите 6
станы 6
периоде 6
стройки 6
ночле@@ 6
столицы 6
документ 6
размыш@@ 6
настоящие 6
атора 6
Ханане@@ 6
законо@@ 6
одолеть 6
;] 6
воспо@@ 6
жениях 6
органи@@ 6
стых 6
связан 6
истечении 6
официальном 6
держим 6
заметить 6
оплаки@@ 6
Перво@@ 6
подай 6
Юри@@ 6
.). 6
внезапно 6
фрон@@ 6
зап@@ 6
иного 6
пещ@@ 6
Володя 6
аном 6
сотрудников 6
белых 6
Читате@@ 6
юге 6
Едом@@ 6
молодежью 6
усилия 6
поцеловал 6
видна 6
алии 6
Сло@@ 6
бом@@ 6
воплотить 6
митин@@ 6
погибших 6
Дима 6
номинации 6
дадим 6
диа@@ 6
Павла 6
("" 6
регулиру@@ 6
оставляет 6
Самая 6
федеральных 6
примут 6
зелё@@ 6
служи 6
навести 6
заведующий 6
Иерусали@@ 6
поз@@ 6
волейбол 6
приложился 6
гнула 6
прикос@@ 6
обрезал 6
проце@@ 6
Правительству 6
сердцах 6
чешу@@ 6
форма@@ 6
состо@@ 6
рогатого 6
политику 6
стремление 6
чистую 6
Филистимля@@ 6
получив 6
стные 6
живую 6
указанию 6
доселе 6
прославит 6
Агарь 6
евич 6
чрезвы@@ 6
баль@@ 6
Пон@@ 6
днее 6
Асор 6
происходит 6
скан@@ 6
Бен 6
Ахимаас 6
горел 6
Александрович 6
диплом 6
грес@@ 6
СМ@@ 6
мусор 6
изменя@@ 6
запом@@ 6
дистанции 6
соответственно 6
третьей 6
поб@@ 6
засчиты@@ 6
посвящен@@ 6
поражу 6
яна 6
?.. 6
заколают 6
лыж@@ 6
i@@ 6
связан@@ 6
звер@@ 6
закончила 6
чину 6
повто@@ 6
вынул 6
жется 6
публичных 6
отправил 6
козу 6
прелюбодей@@ 6
пило 6
смешан@@ 6
заклятое 6
стром 6
возвратилась 6
зия 6
подбира@@ 6
рож@@ 6
размещение 6
окружающих 6
прозор@@ 6
представительного 6
зм 6
Богат@@ 6
зах 6
цер 6
2019 6
кг 6
честие 6
плет@@ 6
готови@@ 6
Филистимской 6
плано@@ 6
чемпио@@ 6
крыло 6
понимаем 6
концам 6
ехали 6
Космо@@ 6
подолу 6
ждает 6
кадильницу 6
тьма 6
крепкую 5
могуще@@ 5
турнире 5
Степанович 5
магазине 5
дун@@ 5
великих 5
Давидова 5
дальнейшему 5
180 5
Возможно 5
коллективы 5
покропил 5
курдюк 5
концерт 5
святой 5
Солдат@@ 5
известны 5
Ябло@@ 5
хозяйству 5
шенное 5
зр@@ 5
остановки 5
Саруин 5
благове@@ 5
многими 5
доклад 5
распуска@@ 5
Началь@@ 5
фу@@ 5
ногой 5
жениться 5
Нечего 5
Тра@@ 5
воспла@@ 5
великою 5
умножая 5
убей 5
Петюк 5
перебили 5
голени 5
прон@@ 5
ребра 5
фини@@ 5
упраж@@ 5
Валеры 5
обычаю 5
Еммо@@ 5
написаны 5
призвали 5
Жел@@ 5
вечеру 5
составили 5
форума 5
Старшая 5
Вете@@ 5
ветвями 5
Возвра@@ 5
оставайся 5
чуже@@ 5
стили 5
долгождан@@ 5
Соблю@@ 5
исполняйте 5
ствования 5
страдать 5
ирги 5
интересо@@ 5
консульта@@ 5
79 5
задания 5
многочисленнее 5
одних 5
дью 5
водку 5
Замврий 5
Исавовой 5
рубля 5
стегнах 5
почками 5
набрали 5
концу 5
полагается 5
посоветовал 5
кедровых 5
кипарисо@@ 5
морем 5
липы 5
высушить 5
счете 5
тору 5
кодек@@ 5
журналистики 5
счастливым 5
медицинское 5
всякому 5
пыт@@ 5
обрез@@ 5
зере 5
ломать 5
Леонида 5
прошедшем 5
съезде 5
проведении 5
проводим 5
налоговые 5
влад@@ 5
входящих 5
Друзья 5
последующее 5
любимый 5
слуша@@ 5
экономика 5
праздниках 5
отверстии 5
Гово@@ 5
шаги 5
спроси 5
ребён@@ 5
пребывать 5
десятины 5
смокв 5
вторым 5
разит 5
зовет 5
посто@@ 5
трим 5
маршруты 5
кровле 5
нительно 5
Труд 5
читала 5
газетами 5
журн@@ 5
дворах 5
многофункциональных 5
Влади@@ 5
библиотеку 5
вельмо@@ 5
страшно 5
эффективной 5
федераль@@ 5
благословили 5
Вла@@ 5
арти@@ 5
полчи@@ 5
носила 5
сесть 5
студент 5
ционного 5
отделение 5
Аморрея 5
ребёнок 5
промол@@ 5
изо 5
ряду 5
Учащиеся 5
собственного 5
Михма@@ 5
простой 5
невозмож@@ 5
пожилые 5
поражали 5
туземец 5
принося 5
делаете 5
живущего 5
ненавидит 5
Ахитува 5
Финееса 5
Андрея 5
маленьким 5
плача 5
забывать 5
вручили 5
кнул 5
рави@@ 5
Миллин 5
золотую 5
везти 5
предстали 5
пород@@ 5
яд 5
стороною 5
доходит 5
нисходит 5
Иеву@@ 5
севера 5
дум@@ 5
гана 5
равнину 5
скрывал 5
получит 5
сго@@ 5
Международного 5
1985 5
Анхусу 5
слушайте 5
законов 5
запря@@ 5
вало@@ 5
добрая 5
событиях 5
перели@@ 5
желаем 5
Скажем 5
чтение 5
вка 5
поэмы 5
Георгий 5
номинациях 5
Анастасия 5
равных 5
желай 5
добросовестных 5
жную 5
числен 5
инженер@@ 5
запис@@ 5
анный 5
фон 5
тально 5
провожал 5
разрешение 5
человеческий 5
возлил 5
Дано@@ 5
кало 5
смы@@ 5
земную 5
Будьте 5
дре@@ 5
обязаны 5
поступате@@ 5
идем 5
ребят 5
профессор 5
академик 5
телевидения 5
изменить 5
крайне 5
переходите 5
возьмем 5
сиротой 5
погребли 5
баяне 5
Федоров 5
сохранит 5
ланы 5
жертвен@@ 5
украшают 5
отнимется 5
списке 5
создавать 5
сожига@@ 5
имеете 5
прочим 5
Шем@@ 5
уголов@@ 5
командиром 5
сарая 5
поощр@@ 5
подготовка 5
причины 5
нигде 5
осквернилась 5
чиста 5
творя@@ 5
железнодорож@@ 5
Говор@@ 5
выплаты 5
свадьба 5
любящие 5
желающие 5
кабинет 5
хвалится 5
здоровых 5
Измаиль@@ 5
Поти@@ 5
царе@@ 5
телохранителей 5
велика 5
показателем 5
Рагу@@ 5
Васема@@ 5
Моисеева 5
мё@@ 5
зашли 5
включены 5
фут@@ 5
покроет 5
труп 5
мамы 5
Второй 5
Симеоновых 5
Судь@@ 5
пятнадцатый 5
выходе 5
матерь 5
разделили 5
Авдий 5
озна@@ 5
отмечено 5
счастливый 5
Два 5
солью 5
направил@@ 5
стимули@@ 5
безопас@@ 5
предприниматели 5
затрагивающие 5
огурцы 5
кедрового 5
урим 5
смотрю 5
возлага@@ 5
благослови 5
медь 5
Хорнкасы 5
!.. 5
Назаро@@ 5
Степ@@ 5
Ревекке 5
беги 5
Месопотамию 5
товых 5
пунктами 5
2000 5
ухаживать 5
навеки 5
жаться 5
товаро@@ 5
посетили 5
Нор@@ 5
Неффалимова 5
Неффалимовых 5
Завулоновых 5
останься 5
Хира@@ 5
продовольствия 5
олив@@ 5
хар@@ 5
страдает 5
Одни 5
Вышел 5
гарантии 5
щением 5
бюджетов 5
постоянной 5
достиг@@ 5
пенсионного 5
частями 5
Иуду 5
Вар@@ 5
братиями 5
дых 5
прокипяченной 5
донес 5
поне@@ 5
Иессею 5
сельскохозяйственная 5
бегу@@ 5
обращу 5
ище@@ 5
блуда 5
представи@@ 5
талантливой 5
направлению 5
Талан@@ 5
решений 5
установленных 5
енными 5
Сла@@ 5
Эт@@ 5
Коше@@ 5
рослы@@ 5
оплачи@@ 5
поучаствовать 5
князьями 5
праведен 5
потра@@ 5
лучшим 5
гим 5
Аммонитянам 5
тившись 5
щенный 5
Моем 5
девицу 5
предметам 5
понравились 5
Нар@@ 5
гос@@ 5
вкус 5
кара@@ 5
уется 5
люд@@ 5
послы 5
заплакал 5
бабочки 5
помыш@@ 5
женного 5
гвоз@@ 5
шлет 5
молю 5
неподалеку 5
увиден@@ 5
Волге 5
ширины 5
здоровы 5
регуляр@@ 5
хали 5
выпускник 5
ликви@@ 5
аварийного 5
Зелен@@ 5
евский 5
нечистоте 5
телу 5
повоз@@ 5
серебром 5
медью 5
Самсона 5
Варав@@ 5
привлека@@ 5
доноров 5
прозву@@ 5
соблюдал 5
магни@@ 5
хов@@ 5
презента@@ 5
окрестность 5
произра@@ 5
Мир 5
документации 5
дера 5
смысл 5
Учитывая 5
Михаилом 5
жер@@ 5
радуются 5
святынею 5
царствует 5
династи@@ 5
вило 5
телерадио@@ 5
Уд@@ 5
ворачи@@ 5
перейдешь 5
татель@@ 5
оружием 5
мониторин@@ 5
экологии 5
Министерством 5
ес 5
Емельянов 5
заказов 5
муниципалитета 5
полугодии 5
жившего 5
пищевой 5
отринул 5
разрушил 5
развал@@ 5
солому 5
поминаем 5
Арбы 5
живыми 5
лето 5
два@@ 5
костей 5
совершать 5
Вифлеем@@ 5
слуха 5
обеду 5
ключи 5
Степанова 5
багря@@ 5
наземным 5
электрическим 5
многочислен@@ 5
стоян@@ 5
аэро@@ 5
машин 5
лагать 5
зятем 5
искусною 5
покрывал@@ 5
гармошке 5
танца 5
Эль@@ 5
вира 5
Ури@@ 5
поражен 5
Всем 5
Сисара 5
шатра 5
приуро@@ 5
записы@@ 5
тетра@@ 5
произведение 5
альность 5
дочерями 5
предпринимательства 5
птица 5
взяты 5
родами 5
присы@@ 5
угро@@ 5
латься 5
испыты@@ 5
большей 5
растёт 5
грехе 5
подвод@@ 5
потерял 5
пайте 5
прожили 5
маршрута 5
упаси 5
запах 5
пота 5
обнажающих 5
инновационного 5
прото@@ 5
ьях 5
прежних 5
музыкой 5
журналистом 5
Тяже@@ 5
заса@@ 5
влен@@ 5
Зиф 5
слыша@@ 5
аве 5
Нико@@ 5
Живу 5
воле 5
шедшего 5
мечу 5
испугались 5
рубаш@@ 5
насчитывается 5
чко 5
местом 5
выста@@ 5
кову 5
нося@@ 5
тянуться 5
музы@@ 5
кластера 5
ническая 5
довый 5
Авениру 5
узнаю 5
четырех@@ 5
Рамоф 5
Риммон 5
воссмер@@ 5
стоимо@@ 5
женным 5
преклонился 5
Калинина 5
гори@@ 5
падет 5
километра 5
старейшинами 5
Родины 5
Елабуж@@ 5
вторых 5
видение 5
кровати 5
предашь 5
зачинал 5
основа 5
уважать 5
Кому 5
старый 5
подали 5
консолидированного 5
шед@@ 5
хозяйством 5
помогло 5
серебряные 5
Глаза 5
ницею 5
спря@@ 5
1925 5
сельскохозяйственный 5
свё@@ 5
98 5
молоком 5
бель@@ 5
исцелил 5
Мило@@ 5
доски 5
великоле@@ 5
упро@@ 5
обрел 5
заклял 5
умираю 5
похорони 5
Герман@@ 5
педаго@@ 5
культурных 5
рез 5
ента@@ 5
жди 5
среднюю 5
1943 5
позна@@ 5
коснулся 5
приношений 5
музыку 5
следы 5
бая 5
гия 5
вез@@ 5
Ари@@ 5
Бер@@ 5
оставлять 5
призываю 5
боится 5
дружбу 5
пожалел 5
возбу@@ 5
хажи@@ 5
Максима 5
ранило 5
алкоголем 5
цкого 5
воскликнул 5
ваемся 5
Изд@@ 5
предлагаю 5
участия 5
скла@@ 5
гражданским 5
правом 5
распространяются 5
гордостью 5
оценивают 5
ия 5
помогающий 5
спасающий 5
общаться 5
прил@@ 5
евна 5
одинаково 5
федера@@ 5
выте@@ 5
посад@@ 5
рост@@ 5
Египетская 5
вопи@@ 5
дцатого 5
госпитал@@ 5
затраги@@ 5
жари@@ 5
канал 5
спешите 5
начатков 5
корзину 5
пребывало 5
воо@@ 5
Общество 5
словесности 5
Сибир@@ 5
остан@@ 5
держится 5
приведите 5
Хле@@ 5
квадратных 5
Аммиуда 5
Благословен 5
тысячами 5
прокли@@ 5
обижа@@ 5
расчис@@ 5
цену 5
родившийся 5
глазу 5
объектах 5
бояз@@ 5
покрытия 5
служащих 5
уроках 5
заговор 5
правопорядка 5
переехала 5
принесут 5
Пожал@@ 5
пожалуйста 5
нивший 5
праши@@ 5
гром@@ 5
дере@@ 5
йскую 5
степриим@@ 5
восклиц@@ 5
забрать 5
Контро@@ 5
уме 5
мович 5
предприниматель 5
одея@@ 5
Есевона 5
Испол@@ 5
купаться 5
Горького 5
пределам 5
воздвиг 5
Макси@@ 5
сывает 5
медный 5
рыб 5
щили 5
директором 5
Муж 5
реках 5
третью 5
касается 5
маленьких 5
систем 5
реализуется 5
отдыхе 5
худую 5
молву 5
Израиль@@ 5
Выши@@ 5
казали 5
укажет 5
самую 5
получается 5
трудностями 5
побоялась 5
Олеж@@ 5
Агаф@@ 5
тельному 5
яд@@ 5
диало@@ 5
властью 5
Сигоном 5
фараоновой 5
мешка 5
хотим 5
заинтересо@@ 5
пас 5
альное 5
соревнование 5
щания 5
вили 5
спрашивал 5
услышать 5
порядком 5
Царствие 5
таланта 5
владель@@ 5
Исавовых 5
теори@@ 5
мото@@ 5
гитар@@ 5
твердых 5
коммунальных 5
конкур@@ 5
концертах 5
раскрыл 5
сражался 5
Красночетай@@ 5
потек@@ 5
добраться 5
вынесли 5
тришь 5
веков 5
танцевать 5
взвода 5
Взял 5
дь@@ 5
мур@@ 5
отвратится 5
плате 5
куб@@ 5
Максимов 5
сияет 5
малым 5
Ульянов@@ 5
святыню 5
мертвого 5
повиновался 5
лежав@@ 5
начер@@ 5
Мано@@ 5
Кир@@ 5
умершему 5
Ада@@ 5
долга 5
Тре@@ 5
полезным 5
енная 5
работающих 5
Адраазаро@@ 5
произошли 5
развер@@ 5
сошли 5
замер@@ 5
Езе@@ 5
уксуса 5
Иоан@@ 5
долина 5
мский 5
Всевышнего 5
Первое 5
плено 5
выкупа 5
ковская 5
Анжелика 5
рубль 5
счету 5
зарубежных 5
жаль 5
алости 5
восьмидесяти 5
мертвым 5
занимают 5
тягость 5
шах@@ 5
лето@@ 5
оркест@@ 5
присоеди@@ 5
четверт@@ 5
способ 5
возненавидели 5
Иеффая 5
ведется 5
результатам 5
помощник 5
волхвы 5
кредиты 5
народным 5
оказалась 5
обычаям 5
Кате@@ 5
дипломом 5
меду 5
плени@@ 5
зада@@ 5
чисты 5
кадет@@ 5
чемпионка 5
чемпион 5
судьбу 5
Аминь 5
беседы 5
итель@@ 5
очей 5
ладони 5
сапоги 5
статус 5
соседних 5
передо@@ 5
Счастье 5
Тол@@ 5
думает 5
мудрым 5
мие 5
строчки 5
Лаврен@@ 5
тьев 5
ноября 5
Массифе 5
Верим 5
энциклопе@@ 5
предков 5
Попозже 5
всхоже@@ 5
Предприяти@@ 5
поделился 5
мнением 5
армей@@ 5
ровки 5
вски@@ 5
вшуюся 5
вари 5
посмотре@@ 5
пришель@@ 5
Гар@@ 5
литературу 5
построй@@ 5
медалями 5
плясать 5
повид@@ 5
Авраамова 5
девица 5
Андре@@ 5
тр 5
занятости 5
ьян@@ 5
Дмитриева 5
предпринимате@@ 5
встретиться 5
эксперт@@ 5
общих 5
принципах 5
направляются 5
финансов 5
иными 5
уведом@@ 5
кладывать 5
спло@@ 5
вымер@@ 5
чува@@ 5
емле@@ 5
Сувского 5
Собра@@ 5
Тира 5
Ленин@@ 5
рассматривает 5
кадры 5
цент 5
младшим 5
сезон 5
крыл 5
Марфа 5
Гаваон 5
Миц@@ 5
Фара@@ 5
Еле@@ 5
аф 5
Бла@@ 5
форму 5
нила 5
появится 5
лиша@@ 5
белые 5
углубленною 5
бросила 5
гадов 5
Евера 5
клубом 5
теля@@ 5
потребно 5
серьги 5
лабора@@ 5
кабине@@ 5
тину 5
сельскохозяйственную 5
академию 5
оставшийся 5
устам 5
весть 5
Работники 5
выж@@ 5
Офни 5
Рувимовым 5
Амери@@ 5
отнеси 5
исполняя 5
животного 5
ваны 5
порок 5
благоволения 5
использование 5
ционе 5
Елисею 5
ательная 5
железных 5
являлся 5
явиться 5
Туда 5
пятым 5
парнем 5
ализ@@ 5
смеяться 5
чите 5
громким 5
спит 5
зван@@ 5
Поле@@ 5
шум@@ 5
Сисару 5
сайся 5
Гаю 5
предаю 5
Вефсамис@@ 5
Кузьмина 5
разному 5
чаем 5
щался 5
занимается 5
полезных 5
нравственные 5
молодую 5
интересом 5
Отвар 5
малины 5
данные 5
предыду@@ 5
снижения 5
днями 5
дях 5
писатель@@ 5
Челябинске 5
продаст 5
отойдет 5
считает 5
поблагодар@@ 5
бренд 5
Чуваши 5
отмеч@@ 5
голь@@ 5
племена 5
стие 5
предприятиями 5
хозяйствования 5
фло@@ 5
Комис@@ 5
соединя@@ 5
стрел@@ 5
Людмил@@ 5
затор@@ 5
действуют 5
живущим 5
комбинат 5
баран@@ 5
благовонных 5
курений 5
свидетельству@@ 5
послушаете 5
Асаил 5
позави@@ 5
выделено 5
00 5
планирования 5
осени 5
известный 5
ист 5
ара@@ 5
дне 5
воротами 5
женщи@@ 5
ьевны 5
отличался 5
выраз@@ 5
традицией 5
разра@@ 5
любого 5
способностей 5
чина 5
Ана@@ 5
достоин 5
материала 5
необрезан@@ 5
выбрала 5
слушали 5
блудно 5
нувшись 5
повино@@ 5
ноябре 5
прилепля@@ 5
посвященное 5
дует 5
методами 5
мин 5
неподви@@ 5
офицер 5
худые 5
овладели 5
смотре@@ 5
молитв 5
Ашмарин 5
потреби@@ 5
лука@@ 5
новат@@ 5
нищим 5
достойны 5
часо@@ 5
соблюдая 5
обрадовал 5
активность 5
живая 5
выздорове@@ 5
устроили 5
копеек 5
юбилеем 5
Чис@@ 5
Авессе 5
Укра@@ 5
согласия 5
шеп@@ 5
ьям 5
Аверкий 5
Алексеевич 5
Пят@@ 5
растя@@ 5
Арфаксад 5
дрогну@@ 5
смирил 5
количе@@ 5
Иосифо@@ 5
собирали 5
делиться 5
странами 5
Пришли 5
значимость 5
сий 5
поняла 5
Ну@@ 5
произойдут 5
оздорови@@ 5
зерен 5
навью@@ 5
чила 5
ступайте 5
исполняется 5
110 5
экземпляров 5
неделе 5
поручил 5
добави@@ 5
мятся 5
строителей 5
Зах@@ 5
Священник 5
вательно 5
ФА@@ 5
серд@@ 5
Маре@@ 5
Стро@@ 5
алистов 5
Следует 5
возника@@ 5
вызывает 5
отвечай 5
Говорит 5
победили 5
демо@@ 5
привлекатель@@ 5
знакомого 5
лец 5
пришедших 5
отступ@@ 5
ложе 5
убитому 5
огорчился 5
Бес@@ 5
сделав 5
чена 5
отрокам 5
енному 5
сматри@@ 5
нашла 5
соп@@ 5
лодку 5
старт 5
страна 5
сражению 5
Цеф@@ 5
бригадиром 5
кувши@@ 5
Волго@@ 5
Новочебоксарск 5
снил 5
играя 5
разрушить 5
Наталия 5
Анно@@ 5
думаешь 5
поклон 5
избрали 5
Высо@@ 5
ущерб 5
печал@@ 5
тности 5
Сион 5
плохие 5
ор 5
Еврея 5
наслед@@ 5
дур@@ 5
телефону 5
съедят 5
испечен@@ 5
сожгите 5
дубом 5
идо@@ 5
оро@@ 5
сроки 5
размер 5
Эльза 5
молодое 5
наго@@ 5
родным 5
Каинана 5
гое 5
одновременно 5
слухи 5
миндаль@@ 5
плохого 5
потря@@ 5
инвесто@@ 5
сного 5
средний 5
пусто@@ 5
догад@@ 5
полем 5
научить 5
Девочка 5
Родители 5
черно@@ 5
Фегора 5
выращивать 5
посвященные 5
жиз@@ 5
определения 5
Зел@@ 5
плачем 5
стно 5
бас@@ 5
Супру@@ 5
источнику 5
пич@@ 5
Бори@@ 5
описано 5
представили 5
употреблять 5
Самсо@@ 5
плеве@@ 5
долги 5
нечистый 5
рованные 5
Владими@@ 5
роваться 5
разврат@@ 5
лун@@ 5
стился 5
храму 5
точная 5
неправду 5
Весной 5
тяго@@ 5
свари@@ 5
призе@@ 5
Старые 5
ходь@@ 5
радует 5
оказывать 5
секрет 5
разная 5
Краснова 5
хранит 5
лично 5
погубишь 5
]? 5
Моавитскому 5
мь 5
набрала 5
провин@@ 5
защищать 5
ленно 5
вожатых 5
факуль@@ 5
плод@@ 5
горячим 5
ино@@ 5
Иафе@@ 5
десан@@ 5
Радо@@ 5
комната 5
дояр@@ 5
известна 5
Кармиле 5
восстано@@ 5
Матве@@ 5
Гад@@ 5
Васильев@@ 5
тации 5
Ученики 5
представляет 5
184 5
законодательных 5
сидят 5
свире@@ 5
яви@@ 5
праву 5
поступа@@ 5
понесете 5
проти@@ 5
Авеля 5
ловить 5
r@@ 5
проектами 5
требо@@ 5
хранению 5
бесплат@@ 5
профессионального 5
специальные 5
мечтать 5
грустно 5
короткий 5
успевает 5
завершения 5
Государственный 5
созыва 5
Специалисты 5
советуют 5
послушать 5
качеству 5
полку 5
вля@@ 5
скорости 5
переходил 5
пье@@ 5
певец 5
подкре@@ 5
лучший 5
инструментом 5
Сообщил 5
вающая 5
живу@@ 5
жившая 5
душевной 5
щил 5
летнее 5
никова 5
Нынеш@@ 5
заседание 5
Акаде@@ 5
создана 5
традицию 5
подготови@@ 5
чешь 5
Измаил 5
Пославшего 5
исчисленные 5
Навина 5
стражи 5
шествия 5
трубили 5
ере 5
Аве@@ 5
галась 5
жест@@ 5
ходящего 5
настойки 5
прошение 5
покажи 5
возвращались 5
корабль 5
Коля 5
подвел 5
Ахимелеху 5
солдата 5
автономного 5
правовой 5
автоном@@ 5
контракт 5
Квалификационные 5
предъявляемые 5
художественный 5
девятом 5
жестоковый@@ 5
трупа 5
принимал 5
Министра 5
старание 5
забыли 5
наступает 5
бедному 5
нищему 5
сохрани 5
запечат@@ 5
воскресении 5
настал 5
питаться 5
секторе 5
фунда@@ 5
лежащий 5
девицы 5
Сило@@ 5
сражении 5
сился 5
сою@@ 5
сион@@ 5
звез@@ 5
Аллилуева 5
оформить 5
,- 5
воп@@ 5
Харо@@ 5
правильные 5
религи@@ 5
приобретения 5
озву@@ 5
удивился 5
сунду@@ 5
учила 5
колонии 5
правам 5
свеж@@ 5
собран@@ 5
распростра@@ 5
обере@@ 5
приёма 5
оль@@ 5
дки 5
Чтоб 5
поздравил 5
огромное 5
весель@@ 5
отня@@ 5
автори@@ 5
сайтесь 5
аша 5
охраны 5
членам 5
чением 5
Дет@@ 5
пораньше 5
Сама 5
выпал 5
Гадову 5
Иазер 5
маф 5
ющееся 5
пятого 5
технического 5
факультета 5
болезнями 5
кровенос@@ 5
отдельным 5
горам 5
делающие 5
значимых 5
десятилет@@ 5
стви@@ 5
занятия 5
сразился 5
количества 5
сроков 5
подряд 5
дворце 5
полно@@ 5
ька 5
дальнейшее 5
ранили 5
благословения 5
обеда 5
насекомых 5
!] 5
плода 5
пристра@@ 5
спир@@ 5
воспламенился 5
средину 5
возмещения 5
ответа 5
скрывать 5
Илларионо@@ 5
отру@@ 5
чери 5
эконом@@ 5
сфер 5
добиться 5
пророчествовать 5
печата@@ 5
обнару@@ 5
пекли 5
богатым 5
яй@@ 5
распа@@ 5
фона 5
прокуро@@ 5
стой@@ 5
ложи@@ 5
понрави@@ 5
Круп@@ 5
душевное 5
дверям 5
программ@@ 5
Валенти@@ 5
Иванов@@ 5
ОВ 5
соблюдай 5
определить 5
злом 5
сокровищ@@ 5
приподня@@ 5
контроли@@ 5
храня@@ 5
гол@@ 5
поступит 5
состава 5
Президенте 5
гроз@@ 5
дунов@@ 5
организует 5
учебном 5
инжене@@ 5
Пенсион@@ 5
пенсион@@ 5
пироги 5
ступаете 5
пресные 5
побежала 5
изваяния 5
таго 5
Вифлееме 5
петух 5
напомнить 5
военной 5
отданы 5
опол@@ 5
1950 5
зали 5
погоду 5
сеноко@@ 5
урожай@@ 5
зерновых 5
добросовестно 5
обратить 5
дочерям 5
свыше 5
стихами 5
неожидан@@ 5
Елкана 5
брак 5
Министер@@ 5
оф 5
Алексею 5
исполнили 5
Вам 5
Филистимлянам 5
призами 5
возложила 5
производительность 5
янину 5
резидентов 5
нечистоту 5
житницы 5
дившись 5
ует 5
материально 5
Вернувшись 5
Ивану 5
снул 5
намет@@ 5
прилично 5
приготовила 5
утвержд@@ 5
сиротами 5
художественной 5
шкам 5
положено 5
центнеров 5
магистрали 5
возвращаться 5
чувствовал 5
деева 5
зывает 5
родо@@ 5
мощь 5
Шела 5
сообщает 5
Иосафату 5
погубил 5
выход 5
вшееся 5
безработи@@ 5
шивать 5
исчез 5
арод@@ 5
Уро@@ 5
величи@@ 5
доводи@@ 5
Иссахар 5
способных 5
пастухи 5
выйди 5
левит@@ 5
Место 5
показывают 5
формируют 5
территория 5
мины 5
известие 5
невинного 5
сидела 5
прокат@@ 5
Клара 5
Вурман@@ 5
Кады@@ 5
мастерства 5
""). 5
волнение 5
Вес@@ 5
назорей 5
интерес 5
образовании 5
торо@@ 5
Дора 5
Приволж@@ 5
предусмотрено 5
воспаление 5
предвари@@ 5
Оно 5
объяс@@ 5
вред@@ 5
возраду@@ 5
творит 5
земляк 5
Федотова 5
испытать 5
январ@@ 5
челю@@ 5
мато@@ 5
Михе@@ 5
грабили 5
советы 5
кожано@@ 5
вырастет 5
майте 5
виноват 5
вско@@ 5
моли@@ 5
ёмся 5
достойном 5
Пошли 5
Этим 5
роб@@ 5
поцело@@ 5
торопятся 5
способностями 5
представьте 5
оттого 5
Атароф 5
спонсо@@ 5
Шумер@@ 5
так@@ 5
санк@@ 5
воплощения 5
идей 5
следующем 5
завесою 5
повесь 5
развесе@@ 5
позовите 5
Скворцова 5
родственниками 5
Сю@@ 5
курить 5
Агафьи 5
повести 5
вавший 5
чт@@ 5
есте@@ 5
Были 5
рады 5
музе@@ 5
обнял 5
есы 5
ар 5
изы@@ 5
Сихемских 5
производил 5
прошлогод@@ 5
всходы 5
сорня@@ 5
лепё@@ 5
намазать 5
певая 5
Пр@@ 5
последо@@ 5
ватель@@ 5
ансамбль 5
Оксана 5
Сауле 5
ушами 5
болела 5
Ста@@ 5
матерей 5
ушей 5
Дагона 5
мати@@ 5
возвращению 5
литературой 5
отдел 5
доне@@ 5
известных 5
продуктов 5
др@@ 5
Ово@@ 5
Авари@@ 5
Президен@@ 5
экзаменов 5
Сим 5
нахожу 5
обычай 5
законодательные 5
спички 5
корму 5
номер 5
Минэкономразвития 5
администраци@@ 5
погре@@ 5
брига@@ 5
дился 5
праве 5
биологи@@ 5
Полномочия 5
жалоб 5
пишут 5
Иудою 5
телекоммуника@@ 5
облеки 5
влияние 5
Фаана@@ 5
дона 5
засох@@ 5
летие 5
телевизор@@ 5
повиваль@@ 5
янок 5
тесан@@ 5
дого@@ 5
инициативе 5
миная 5
Пил@@ 5
Евреи 5
родятся 5
разу@@ 5
придётся 5
просто@@ 5
представителям 5
Ничего 5
вход 5
дырь 5
беду 5
статистике 5
происшествия 5
Батырев@@ 5
землей 5
вожди 5
завтраш@@ 5
спрашивает 5
ящик 5
пределе 5
заболевания 5
сознание 5
Ливан@@ 5
лечился 5
калы@@ 5
Гедеона 5
циф@@ 5
направились 5
наемник 5
жестоко@@ 5
библиотеке 5
ткани 5
Иисусе 5
аты@@ 5
тера@@ 5
легла 5
Одно@@ 5
организаторов 5
вере 5
подход 5
рных 5
заколи 5
сгорел 5
справедливое 5
смотрят 5
потрясания 5
чком 5
това@@ 5
генерал 5
Бар@@ 5
официальные 5
свободен 5
родственникам 5
туаль@@ 5
помыть 5
притесни@@ 5
подобию 5
спасу 5
процесс 5
квалифици@@ 5
родится 5
высот 5
стаканом 5
плачет 5
"".""; 5
хлопо@@ 5
школьный 5
пробуд@@ 5
верен 5
забор 5
возвращу 5
собираются 5
добродуш@@ 5
Иордану 5
оный 5
путешествие 5
черки@@ 5
Народ@@ 5
лечении 5
президен@@ 5
отсут@@ 5
семь@@ 5
заготов@@ 5
Ой 5
даем 5
кас 5
войском 5
внедрению 5
улучшению 5
102 5
зага@@ 5
Семеновна 5
невестку 5
ута@@ 5
тыл 5
истреби@@ 5
мечтой 5
поколению 5
внешний 5
бег@@ 5
Аршинова 5
лай 5
приступили 5
вольной 5
перевел 5
уделов 5
Зву@@ 5
деть 5
готовятся 5
планы 5
долгосро@@ 5
служанками 5
Больше@@ 5
пассажир@@ 5
Амессай 5
мечтала 5
выбира@@ 5
тк@@ 5
изголовья 5
Кор@@ 5
дружба 5
ливый 5
вышний 5
Сеира 5
возвещу 5
рять 5
участниками 5
заявления 5
холодиль@@ 5
осматривать 5
терафим 5
Исаа@@ 5
ставы 5
посеща@@ 5
падает 5
кадро@@ 5
помогла 5
твердые 5
окончила 5
вопросах 5
инициативу 5
Агари 5
Яни@@ 5
чувашское 5
Ваши 5
щею 5
Хозяева 5
хито@@ 5
Сау@@ 5
рама 5
яро@@ 5
лиге 5
готовность 5
установлен@@ 5
обеспечение 5
льз@@ 5
страд@@ 5
станавли@@ 5
наследство 5
поля@@ 5
ленок 5
Стоит 5
лад 5
умол@@ 5
человеческого 5
жатва 5
зной 5
шер@@ 5
наш@@ 5
увеличивается 5
лама 5
номе@@ 5
замеч@@ 5
вный 5
кула@@ 5
лешь 5
функций 5
практически 5
контрактной 5
заболела 5
спускается 5
участвовала 5
утрам 5
прибе@@ 5
Сре@@ 5
возложили 5
Беэр 5
сет@@ 5
дорожно 5
плетен@@ 5
Мало 5
Ною 5
запланировано 5
расширение 5
желудок 5
указано 5
поступаешь 5
Навину 5
коридо@@ 5
Хорре@@ 5
оставши@@ 5
выполнен@@ 5
контрактом 5
сились 5
достатке 5
чистое 5
величе@@ 5
корпусами 5
Железнодорож@@ 5
Ибрес@@ 5
Иллари@@ 5
Пионерская 5
Универси@@ 5
Иудиным 5
исчислите 5
колосья 5
аварий 5
подтвердили 5
реченное 5
достопримечатель@@ 5
Ниной 5
собственным 5
Урожай 5
нравятся 5
1944 5
видении 5
цей 5
Исто@@ 5
взыва@@ 5
насадил 5
Показ@@ 5
перено@@ 5
умываль@@ 5
простру 5
V 5
важных 5
профессион@@ 5
равии 5
Супруга 5
получает 5
горести 5
ял@@ 5
разга@@ 5
Домой 5
введет 5
сельхозна@@ 5
Гра@@ 5
киной 5
контей@@ 5
замеща@@ 5
служебные 5
бездет@@ 5
уя 5
рину 5
баскет@@ 5
смиряйте 5
Иудину 5
увеличения 5
представитель@@ 5
местную 5
пожить 5
послуша@@ 5
мра@@ 5
главе 5
матерью 5
женность 5
чел 5
столпе 5
труде 5
1990 5
ССР 5
суверени@@ 5
изи@@ 5
последними 5
собирайте 5
Иссахара 5
Слово 5
50@@ 5
достоинству 5
росту 5
столб 5
Кармил 5
заинтересован@@ 5
Волкова 5
мака 5
ницкого 5
дев@@ 5
отпуска 5
Еглона 5
дальней@@ 5
нечистоты 5
жива 5
песня 5
работодатели 5
комнате 5
рассмотр@@ 5
встречаться 5
воздуха 5
традициями 5
щики 5
установленные 5
делить 5
аде 5
коню@@ 5
Цель 5
молилась 5
тку 5
девства 5
Старший 5
пожар 5
мари@@ 5
четверо 5
заключения 5
экономическом 5
соглашения 5
основу 5
Дес@@ 5
регистрации 5
скре@@ 5
Нас@@ 5
илина 5
Цури@@ 5
Виталия 5
многочисленный 5
притес@@ 5
тение 5
начатки 5
рисун@@ 5
атова 5
пого@@ 5
единственного 5
мудрых 5
исполняй 5
падают 5
сыл@@ 5
Брат 5
кандидатом 5
Лив@@ 5
ьим 5
энергети@@ 5
выборы 5
благословятся 5
оскверняйте 5
уголь@@ 5
методи@@ 5
контроле 5
ослуш@@ 5
высокого 5
балансирован@@ 5
прести@@ 5
бока 5
точила 5
лучшего 5
своро@@ 5
победа 5
Исинба@@ 5
спустила 5
Корей 5
Сихе@@ 5
Последние 5
км 5
Помни 5
зор@@ 5
растерзан@@ 5
врачи 5
Чува@@ 5
перези@@ 5
вывоз@@ 5
уез@@ 5
извести@@ 5
пенсию 5
мастером 5
вооруженных 5
скивал 5
затрубите 5
бирать 5
профессий 5
шатрам 5
Константи@@ 5
рыва 5
используются 5
владельцев 5
принципи@@ 5
бина 5
мэ@@ 5
долгие 5
вывести 5
Четыре 5
гражданского 5
Московском 5
руж@@ 5
лат@@ 5
теряется 5
тим@@ 5
согласится 5
оглянулся 5
ролей 5
Поло@@ 5
уще@@ 5
баш 5
сложная 5
бегу 5
пошло 5
страшной 5
удовлетвор@@ 5
Буль@@ 5
начаток 5
человеке 5
Резер@@ 5
кувшины 5
открывать 5
лидеров 5
отборных 5
посвятили 5
поинтересовался 5
Адер 5
гались 5
живете 5
Ит@@ 5
лием 5
Иефонниин 5
служан@@ 5
станции 5
напит@@ 5
брен@@ 5
хирур@@ 5
Изрее@@ 5
кух@@ 5
имся 5
хло@@ 5
Чебоксарской 5
метро@@ 5
ищу@@ 5
нер 5
Васан@@ 5
настало 5
Гефе 5
вспомнили 5
мара@@ 5
тка 5
обоими 5
нечистому 5
чистить 5
мечтали 5
Фам@@ 5
везли 5
появилась 5
притом 5
ай@@ 5
адвокатов 5
Корея 5
участвовало 5
придете 5
сахара 5
нур@@ 5
социальную 5
дающий 5
линского 5
коров@@ 5
отметила 5
вичу 5
крышки 5
ложила 5
наследни@@ 5
сч@@ 5
Фал@@ 5
построен 5
гранатовых 5
семейных 5
обстоятель@@ 5
изре@@ 5
пьют 5
теплой 5
пробо@@ 5
останавливались 5
исчислены 5
разрушены 5
овра@@ 5
ознакомиться 5
мститель 5
арме@@ 5
наказыва@@ 5
факт 5
пенсио@@ 5
упра@@ 5
мудрого 5
отлично 5
интересы 5
клевера 5
экспо@@ 5
Московский 5
хав@@ 5
указанным 5
дик@@ 5
сишь 5
ученые 5
исследования 5
изуча@@ 5
сми@@ 5
физкультурой 5
велосипе@@ 5
артисткой 5
болезнью 5
отмщение 5
смелости 5
херуви@@ 5
Израильские 5
Главная 5
проверя@@ 5
казыва@@ 5
сжи@@ 5
Тугаево 5
воспомин@@ 5
улицах 5
создаются 5
хождении 5
здоровьем 5
Землю 5
инфек@@ 5
точку 5
студентам 5
автора 5
положитель@@ 5
показаться 5
Кеиля 5
Оль@@ 5
продукция 5
Европы 5
Калинин@@ 5
освещения 5
родный 5
заказы 5
муниципалитетов 5
угле@@ 5
отрокови@@ 5
ствии 5
Галаадских 5
выслугу 5
омочит 5
выльет 5
лебе@@ 5
прочитал 5
благоприятные 5
Фурманова 5
рекор@@ 5
акционер@@ 5
трудилась 5
метра 5
Путь 5
затрубили 5
совершай 5
отходы 5
убежит 5
умертвит 5
впря@@ 5
Сказали 5
размещению 5
учительница 5
наложниц 5
чудес 5
Эстонии 5
Гелву@@ 5
боже@@ 5
засевай 5
най 5
выйду 5
ыл@@ 5
чреве 5
Акатуй 5
доходы 5
литературе 5
щейся 5
обща@@ 5
юри@@ 5
гласно 5
Сихеме 5
обыча@@ 5
заплат@@ 5
блу@@ 5
пам 5
ru 5
хокке@@ 5
труженики 5
Амесса@@ 5
сидящего 5
примерно 5
кише@@ 5
снизить 5
Тех@@ 5
увеличился 5
правительства 5
потребность 5
рабыни 5
вторник 5
изгоня@@ 5
циально 5
Лар@@ 5
обедать 5
услышишь 5
назо@@ 5
Зав@@ 5
силах 5
курс 5
видны 5
похлеб@@ 5
правится 5
седьмого 5
ошибку 5
Фарра 5
композито@@ 5
Салпаа@@ 5
приглашают 5
ждаем 5
военные 5
замол@@ 5
циаль@@ 5
узо@@ 5
редактор 5
прибежи@@ 5
Спаси@@ 5
визи@@ 5
читай 5
жий 5
издали 5
звери 5
тружени@@ 5
кормов 5
избы@@ 5
ипоте@@ 5
удастся 5
Молоху 5
летним 5
пройду 5
заготавли@@ 5
сайта 5
Отрок 5
соба@@ 5
мил 5
крыльями 5
Матери 5
800 5
близкие 5
пьет 5
лицевой 5
порочен 5
кед@@ 5
перене@@ 5
велико 5
получение 5
Изма@@ 5
Ира 5
слушаний 5
ефоду 5
пятнадцать 5
сосуде 5
Скажи 5
пройдут 5
седми@@ 5
железа 5
отга@@ 5
g@@ 5
подставы 5
укро@@ 5
общественной 5
вери@@ 5
сомнения 5
пели@@ 5
подходит 5
свободы 5
шева 5
Орды 5
Тер@@ 5
повесили 5
ченными 5
сообщения 5
w@@ 5
80@@ 4
вое@@ 4
Кро@@ 4
Покров@@ 4
рет@@ 4
режиссе@@ 4
драматур@@ 4
Александ@@ 4
Евг@@ 4
видео 4
окассе@@ 4
ква@@ 4
Ном@@ 4
льни@@ 4
Анти@@ 4
праведли@@ 4
нимал 4
Музей 4
дря@@ 4
Азария 4
Ахия 4
илу@@ 4
Адони@@ 4
интеллиген@@ 4
400 4
кладби@@ 4
дё@@ 4
ьяна 4
фос@@ 4
Тарук 4
Солне@@ 4
Ос@@ 4
газе@@ 4
Аскар 4
казывается 4
всесторон@@ 4
орден@@ 4
Гефа 4
Дмитрий 4
две@@ 4
Проф@@ 4
Вика 4
Краснодар@@ 4
затру@@ 4
налож@@ 4
командиров@@ 4
1980 4
канала 4
тиях 4
лета@@ 4
бумаги 4
офице@@ 4
Сызра@@ 4
курса 4
Оро@@ 4
Анан@@ 4
лихора@@ 4
бинет 4
танк 4
Тови@@ 4
Жиз@@ 4
Виде@@ 4
Дмитриев 4
виссо@@ 4
Салпа@@ 4
машин@@ 4
аллер@@ 4
Неф@@ 4
Роге@@ 4
Шеме@@ 4
ьевича 4
ним@@ 4
1983 4
кура@@ 4
Уз@@ 4
Иофам 4
Компози@@ 4
Гаврило@@ 4
кружок 4
ника@@ 4
дикто@@ 4
Роза 4
Александрова 4
Силь@@ 4
изголов@@ 4
земель@@ 4
хав 4
кур 4
клуб@@ 4
сыпа@@ 4
перепис@@ 4
хво@@ 4
жег 4
Обще@@ 4
техникума 4
кооперати@@ 4
кил@@ 4
Гаврилов@@ 4
завтра@@ 4
кул 4
модерни@@ 4
агропромышлен@@ 4
гит 4
Магдалина 4
сая 4
зи 4
кки 4
положени@@ 4
Мери@@ 4
1928 4
Авгу@@ 4
ыр@@ 4
Ци@@ 4
Аре@@ 4
Авино@@ 4
повеле@@ 4
Верзеллий 4
исту@@ 4
патри@@ 4
Яковлевич 4
Палад@@ 4
Аси@@ 4
расхо@@ 4
Варна@@ 4
Искари@@ 4
организаци@@ 4
надзо@@ 4
Сисар@@ 4
Ивник 4
скульп@@ 4
Никифорович 4
Фонд 4
Мно@@ 4
психологи@@ 4
еру 4
?] 4
диван 4
композитор 4
парти@@ 4
инки 4
ган 4
фестивал@@ 4
Дево@@ 4
фортепиано 4
вирту@@ 4
заво@@ 4
Победа 4
просве@@ 4
ополч@@ 4
проезд 4
лев@@ 4
тупи@@ 4
Зве@@ 4
Турген@@ 4
Даго@@ 4
договор 4
хвали@@ 4
Эльз@@ 4
гуру 4
Вавилон 4
копы@@ 4
аук@@ 4
Мит@@ 4
Мари 4
княз@@ 4
ири 4
гин 4
Данило@@ 4
ера 4
Федора 4
Нахо@@ 4
Естао@@ 4
тофе@@ 4
фронта 4
экологи 4
лога 4
Хецрон 4
Кузне@@ 4
Хевро@@ 4
лог 4
Петя 4
Пас@@ 4
брус@@ 4
фер 4
1966 4
Катюк 4
профиль@@ 4
ути@@ 4
отц@@ 4
благод@@ 4
смело@@ 4
индустри@@ 4
Аведдара 4
комите@@ 4
отстав@@ 4
бю@@ 4
Агро@@ 4
Ольдеевская 4
отправил@@ 4
шин@@ 4
выро@@ 4
маг@@ 4
полы@@ 4
1975 4
блю 4
кори@@ 4
пе 4
Три@@ 4
дцать 4
автомобиль 4
Коллек@@ 4
Демен@@ 4
тьева 4
Дав@@ 4
налог 4
шир@@ 4
гектар 4
Генна@@ 4
Никола@@ 4
Шеде@@ 4
рес@@ 4
Макарова 4
крапи@@ 4
компонен@@ 4
сиде@@ 4
фра@@ 4
сар@@ 4
Кедорлао@@ 4
свиде@@ 4
Верхние 4
Здоровье 4
штат@@ 4
устав@@ 4
през@@ 4
Домаш@@ 4
Мис@@ 4
Георги@@ 4
урок 4
минера@@ 4
полин@@ 4
ария 4
возло@@ 4
тест@@ 4
Бан@@ 4
Октябрь@@ 4
гил 4
Берлин 4
Знамя 4
няз@@ 4
ресур@@ 4
тир 4
тысяче@@ 4
уйста 4
кажд@@ 4
редак@@ 4
Воло@@ 4
шав 4
Шаал@@ 4
рак 4
Сокхоф 4
спортсмена 4
яч@@ 4
Липо@@ 4
Ст@@ 4
жаемые 4
мень 4
жертвенни@@ 4
тео@@ 4
Амалики@@ 4
сик@@ 4
Сим@@ 4
пто@@ 4
/@@ 4
Спиридо@@ 4
Шоми@@ 4
конструк@@ 4
спи 4
мена 4
ступен@@ 4
семин@@ 4
Сабан@@ 4
Позд@@ 4
матер@@ 4
интервью 4
характери@@ 4
читель@@ 4
ОАО 4
Сирий@@ 4
водитель@@ 4
налого@@ 4
диагноз 4
Никифорова 4
гани@@ 4
хама 4
Х 4
пио@@ 4
вариан@@ 4
Оле@@ 4
кол 4
бренда 4
Ханаан 4
госпо@@ 4
республи@@ 4
Дал@@ 4
Григо@@ 4
говори@@ 4
госпит@@ 4
Гевал 4
объек@@ 4
предпис@@ 4
Бюд@@ 4
рабы@@ 4
Исаво@@ 4
Шамма 4
приобрет@@ 4
Марпосад@@ 4
ребен@@ 4
механиз@@ 4
работод@@ 4
инвести@@ 4
Савао@@ 4
Двор@@ 4
Башкорто@@ 4
Адама 4
ик 4
колледж 4
Хусарсафема 4
предложение 4
Фамар@@ 4
микроэлемен@@ 4
Глад@@ 4
аппара@@ 4
ботани@@ 4
Порфир@@ 4
национ@@ 4
Иави@@ 4
пса 4
материал@@ 4
амби@@ 4
Кра@@ 4
поощ@@ 4
Бее@@ 4
жар 4
пай 4
жир@@ 4
Васан 4
Махи@@ 4
сельскохозяйствен@@ 4
фей 4
лейтенан@@ 4
Авени@@ 4
пан@@ 4
форум 4
ченное 4
журнали@@ 4
бюдже@@ 4
фоф 4
Значи@@ 4
Акат@@ 4
Баш@@ 4
регистра@@ 4
хит 4
литр 4
гражданин 4
Морга@@ 4
Ана 4
добы@@ 4
ьдесят 4
Каинан 4
Газер 4
Росси@@ 4
историк 4
паю 4
раш@@ 4
ене 4
Настой@@ 4
мить 4
Аньхой 4
серви@@ 4
инспе@@ 4
Елиава 4
инов 4
торго@@ 4
фарао@@ 4
музыкальные 4
афаим 4
тине 4
папа 4
инте@@ 4
двена@@ 4
настой@@ 4
Япо@@ 4
дал@@ 4
новна 4
жился 4
щееся 4
Осень 4
хся 4
сып@@ 4
Агага 4
аш@@ 4
1986 4
паспорт 4
Маш@@ 4
Навуфей 4
погн@@ 4
Конститу@@ 4
журналист@@ 4
Бли@@ 4
мат 4
влиянием 4
словие 4
стату@@ 4
скать 4
сены 4
Екро@@ 4
Азот 4
лав 4
кинемато@@ 4
Мя@@ 4
ребё@@ 4
небе@@ 4
ближа@@ 4
Яганева 4
Кузнецова 4
103 4
Спорт 4
райпо 4
Гарашкин 4
Елифаза 4
товар@@ 4
лита 4
фи 4
меле@@ 4
ада@@ 4
моб@@ 4
депутат 4
273 4
авари@@ 4
сектор 4
шений 4
Кен@@ 4
G@@ 4
13@@ 4
60@@ 4
Елиасаф 4
Священни@@ 4
откров@@ 4
РАНХиГС 4
Кит@@ 4
кушкина 4
Ска@@ 4
кер@@ 4
рубили 4
Ассоциа@@ 4
Михей 4
фамили@@ 4
корпора@@ 4
Тради@@ 4
тарь 4
кап@@ 4
атор 4
цы@@ 4
цина 4
тело@@ 4
271 4
предприяти@@ 4
Ря@@ 4
дуэ@@ 4
Нагор@@ 4
почву 4
кан 4
Ухов 4
призер 4
молоде@@ 4
Андри@@ 4
Асаила 4
Вез@@ 4
Раи@@ 4
медаль@@ 4
Сою@@ 4
Аммо@@ 4
встреч@@ 4
жек 4
Кара@@ 4
Ол@@ 4
экспер@@ 4
шка@@ 4
профилак@@ 4
ката@@ 4
Рефиди@@ 4
коммуника@@ 4
ббо@@ 4
Верх@@ 4
ьев@@ 4
Саму@@ 4
обер@@ 4
клар@@ 4
Амрам 4
Иаа@@ 4
театрали@@ 4
этно@@ 4
Бахури@@ 4
надцат@@ 4
сете 4
баты@@ 4
17@@ 4
выш@@ 4
сертификат 4
бор 4
дисципли@@ 4
Гессур@@ 4
Васильевича 4
Виктори@@ 4
перее@@ 4
кинул 4
Енох 4
Маф@@ 4
усала 4
счаст@@ 4
обязан@@ 4
идеологи@@ 4
фило@@ 4
вопло@@ 4
служеб@@ 4
санато@@ 4
компани@@ 4
словар@@ 4
Вален@@ 4
Зарница 4
Олег 4
минист@@ 4
Дивла@@ 4
фаим 4
Сред@@ 4
центнера 4
казы 4
1939 4
Федо@@ 4
витамин@@ 4
ощ@@ 4
деву@@ 4
кут 4
Айя 4
сельчане 4
писи 4
навод@@ 4
ветерин@@ 4
предмест@@ 4
Нав@@ 4
Благосло@@ 4
лке 4
куль@@ 4
Борисо@@ 4
комиссариат@@ 4
зли 4
Афека 4
бя 4
Рустэм 4
души@@ 4
Ием@@ 4
преподавате@@ 4
шкина 4
Тур@@ 4
кило@@ 4
Амессая 4
Ген@@ 4
мае 4
Наг@@ 4
дон 4
Собча@@ 4
заведени@@ 4
мут 4
фран@@ 4
пился 4
Восток 4
Хри@@ 4
лей@@ 4
полковник 4
поэзи@@ 4
Гре@@ 4
Гроз@@ 4
тал@@ 4
Аммони@@ 4
сельхо@@ 4
рого 4
ющи@@ 4
чется 4
пин@@ 4
псалтир@@ 4
текста 4
атте@@ 4
Вяче@@ 4
родах 4
иру 4
прокат 4
Лы@@ 4
тывая 4
Сара@@ 4
Амно@@ 4
сва@@ 4
касс@@ 4
дву@@ 4
троту@@ 4
квас@@ 4
равни@@ 4
Паль@@ 4
тере@@ 4
Хофф@@ 4
вор 4
Район@@ 4
Молодеж@@ 4
.. 4
изде@@ 4
ЧАП 4
Миха@@ 4
наркоти@@ 4
Сиф 4
верт@@ 4
Авессало@@ 4
автомобил@@ 4
гося 4
посовето@@ 4
юрис@@ 4
1974 4
Никифо@@ 4
Дантеса 4
ент 4
Матро@@ 4
напра@@ 4
Мясникова 4
Васили@@ 4
Вара@@ 4
Факея 4
1994 4
стика 4
режи@@ 4
Производство 4
опти@@ 4
VI 4
АО 4
неви@@ 4
Рехо@@ 4
тики 4
D 4
диск 4
термин@@ 4
рей@@ 4
серь@@ 4
Еже@@ 4
Добро@@ 4
могу@@ 4
ответ@@ 4
кредит 4
Заволж@@ 4
режис@@ 4
траге@@ 4
Елимеле@@ 4
льня@@ 4
миллиарда 4
вит@@ 4
Аса@@ 4
чины 4
истор@@ 4
дек@@ 4
ствий 4
Михайловна 4
енни@@ 4
Сурков 4
энерги@@ 4
встрет@@ 4
Первомай@@ 4
Пиро@@ 4
ветери@@ 4
Ним@@ 4
зверо@@ 4
Шим@@ 4
сара@@ 4
лап@@ 4
щению 4
Менаим 4
выращи@@ 4
довщи@@ 4
судили 4
писем 4
гиль@@ 4
выпол@@ 4
Сигора 4
невест@@ 4
лиги 4
Антонина 4
смыс@@ 4
дина@@ 4
лидер 4
завод@@ 4
зить 4
Ани@@ 4
Иеси@@ 4
коле 4
Ленинград@@ 4
Деклара@@ 4
Проект 4
соль 4
ступает 4
Федорова 4
Без@@ 4
лос 4
Вадим 4
Антонов 4
Фон@@ 4
Выпус@@ 4
свое@@ 4
требовани@@ 4
Ецион 4
чете 4
сило@@ 4
Щирий 4
возненави@@ 4
Алла 4
типо@@ 4
шай@@ 4
Фор@@ 4
пожале@@ 4
возглав@@ 4
председате@@ 4
еса 4
Сол@@ 4
колледжа 4
Сванидзе 4
зав@@ 4
бир@@ 4
кала@@ 4
чатки 4
Лахис@@ 4
шишь 4
организато@@ 4
джи@@ 4
Салман 4
Ферезе@@ 4
Ермона 4
усь 4
вспомн@@ 4
журналиста 4
зака@@ 4
конь@@ 4
Елисе@@ 4
срока 4
ПАО 4
клон@@ 4
нём 4
Мордвинов 4
1918 4
опухо@@ 4
види@@ 4
выбор@@ 4
шут 4
Кадеса 4
выраст@@ 4
лия@@ 4
Ваа@@ 4
Тво@@ 4
Руст@@ 4
телефон 4
мик 4
Сефер 4
колько 4
хат@@ 4
антибиоти@@ 4
аса 4
Новочебоксар@@ 4
медал@@ 4
килограмм 4
Арада 4
уполномочен@@ 4
Зевул 4
1500 4
запе@@ 4
представление 4
Ог 4
Секелаг 4
Саф@@ 4
Хор@@ 4
уя@@ 4
клум@@ 4
огля@@ 4
повар 4
квартир@@ 4
рачи@@ 4
зуль@@ 4
гал@@ 4
дий 4
Сир@@ 4
коммун@@ 4
гас 4
гат@@ 4
тас@@ 4
прошед@@ 4
комиссари@@ 4
Владислав 4
отва@@ 4
здо@@ 4
рованного 4
приорите@@ 4
Наро@@ 4
Хеврона 4
Есхол 4
механизатор@@ 4
конди@@ 4
проз@@ 4
форов 4
Русс@@ 4
Госпо@@ 4
Раду@@ 4
Назо@@ 4
Сик@@ 4
терме 4
надзор@@ 4
чева 4
Михайлова 4
Риммо@@ 4
Соснов@@ 4
запас@@ 4
оконч@@ 4
130 4
Вениамин@@ 4
рое 4
крах@@ 4
Кузнецов 4
Таппуах 4
зароды@@ 4
места@@ 4
чев 4
ико@@ 4
Одол@@ 4
привлек@@ 4
Проек@@ 4
орг@@ 4
Кав@@ 4
компьютер 4
свято@@ 4
Лазо 4
кров 4
ФЦ 4
лани@@ 4
эпи@@ 4
Рак@@ 4
Мехо@@ 4
стей 4
площадка 4
СК 4
Кули@@ 4
учреждени@@ 4
W@@ 4
шкин 4
Лав@@ 4
лее 4
ел@@ 4
Председате@@ 4
:@@ 4
cap 4
дело@@ 4
Анфиса 4
эффек@@ 4
ату 4
пригото@@ 4
Ахино@@ 4
пары 4
почтальонка 4
шаяся 4
Фимнаф@@ 4
ине 4
пул@@ 4
Едреи 4
предприниматель@@ 4
надав 4
понра@@ 4
путев@@ 4
тренера 4
эн@@ 4
колодез@@ 4
зира@@ 4
башни 4
емы 4
Строительство 4
Женщи@@ 4
слан@@ 4
Ладыков 4
квантум 4
округ@@ 4
кидар 4
манна 4
кустар@@ 4
Ахан 4
газ 4
лан 4
Хогла 4
стров 4
Хацар 4
Узи@@ 4
кафе 4
Э 4
ер 4
наперсни@@ 4
арий 4
кор 4
1а 4
Луз 4
град@@ 4
Президи@@ 4
Гацор 4
телефо@@ 4
Башки@@ 4
нав@@ 4
Измаила 4
орла 4
Андреев 4
Офи@@ 4
Куйбы@@ 4
шевская 4
служа@@ 4
вербов@@ 4
Аппара@@ 4
Ливан 3
близи 3
Энергети@@ 3
брон@@ 3
бай@@ 3
биат@@ 3
Соб@@ 3
сох@@ 3
прия@@ 3
Фото@@ 3
сай 3
Ахимелеха 3
Малов 3
Патри@@ 3
Библиоте@@ 3
хоре@@ 3
сар 3
премье@@ 3
Ува@@ 3
садик 3
модель@@ 3
Владик 3
философи@@ 3
Ахуза@@ 3
Полина 3
нарек@@ 3
Киброт 3
Гатта@@ 3
ава 3
форми@@ 3
многоквартир@@ 3
Афе@@ 3
Ефро@@ 3
пеле 3
суббо@@ 3
передача 3
Поли@@ 3
одо@@ 3
мнения 3
Сис@@ 3
Ман@@ 3
Вале@@ 3
поль 3
Наталь@@ 3
Гончаро@@ 3
губ@@ 3
телен 3
Акконд 3
Шикар@@ 3
эпизо@@ 3
Доф@@ 3
приход@@ 3
мульт@@ 3
Ассо@@ 3
лата 3
устра@@ 3
Гарашкина 3
контрак@@ 3
заре@@ 3
прочем 3
197@@ 3
ГТО 3
ГИБДД 3
говор 3
Пуч@@ 3
Деменцо@@ 3
Ржанов 3
выр@@ 3
Анат@@ 3
Сих@@ 3
инвестор 3
Кимгам 3
Свет@@ 3
карти@@ 3
Кудря@@ 3
шова 3
Рен@@ 3
пьедестал 3
Цы@@ 3
Александров 3
Баана 3
деду@@ 3
цион 3
Зара 3
Мая@@ 3
Вячеславо@@ 3
Асри@@ 3
инспекто@@ 3
дивизи@@ 3
Танзеля 3
соревновани@@ 3
чура@@ 3
кост@@ 3
Семено@@ 3
май@@ 3
Пла@@ 3
Тет@@ 3
Евдо@@ 3
стади@@ 3
Роспотреб@@ 3
сади@@ 3
кула 3
диспан@@ 3
затра@@ 3
Навер@@ 3
ресурс 3
Раав 3
артист@@ 3
Реве@@ 3
терапев@@ 3
туммим 3
Тӑван 3
молодо@@ 3
Риф@@ 3
Кеде@@ 3
Фавор 3
гидро@@ 3
мак@@ 3
проду@@ 3
Иаиль 3
Федоро@@ 3
деев 3
46@@ 3
КО@@ 3
РО@@ 3
КА@@ 3
XIV 3
Вала@@ 3
рецеп@@ 3
сокро@@ 3
преиспод@@ 3
кото@@ 3
энер@@ 3
поселени@@ 3
зопас@@ 3
миллион 3
редакто@@ 3
жит@@ 3
журналистика 3
аспи@@ 3
горова 3
Поз@@ 3
1970 3
Ахиезер 3
Пагиил 3
Ахира 3
Солнечный 3
Спор@@ 3
больш@@ 3
диви@@ 3
ниме 3
Иав@@ 3
Содом 3
Ть@@ 3
назем@@ 3
Римма 3
тихоньку 3
Вен@@ 3
коттед@@ 3
невро@@ 3
Ханох 3
Фаллу 3
Харми 3
Фалмая 3
Тир@@ 3
особо@@ 3
опресно@@ 3
Пом@@ 3
Иотва@@ 3
брала 3
?», 3
ющ@@ 3
юся 3
щик 3
Красноче@@ 3
Света 3
крае@@ 3
тухья 3
Ависа@@ 3
шал@@ 3
Никитин 3
усло@@ 3
Физкультур@@ 3
ветвя@@ 3
Лахи@@ 3
рек 3
Лена 3
Каи@@ 3
зер 3
Гаф 3
мандра@@ 3
мероприяти@@ 3
сест@@ 3
II 3
мира@@ 3
мине 3
Выра@@ 3
1926 3
Станьял 3
Кондратьевич 3
врач@@ 3
пляж 3
Елицур 3
бабо@@ 3
государствен@@ 3
лам@@ 3
ина@@ 3
Сигор 3
смот@@ 3
Ливни 3
насле@@ 3
жгут 3
ане@@ 3
менить 3
огур@@ 3
витами@@ 3
клет@@ 3
Мероприятие 3
Ап@@ 3
Сидоров 3
степень 3
блет@@ 3
(« 3
Мир@@ 3
Проле@@ 3
Елишама 3
Авидан 3
Гидео@@ 3
экспери@@ 3
Еди@@ 3
ЛП@@ 3
проф@@ 3
индекса@@ 3
напом@@ 3
Хучель 3
седе@@ 3
Санаваллат 3
Иф@@ 3
Елон 3
Фим@@ 3
Екрон 3
Ваалаф 3
Бене 3
Иар@@ 3
ппи@@ 3
петру@@ 3
Раамсе@@ 3
спис@@ 3
лимпи@@ 3
миома 3
); 3
Зива 3
Угаслов 3
Сиго@@ 3
воспал@@ 3
Спорт@@ 3
пьеде@@ 3
мужество 3
Предприним@@ 3
боеви@@ 3
at@@ 3
kz 3
верх@@ 3
атырев@@ 3
ьян 3
ус 3
Спар@@ 3
путя@@ 3
нарко@@ 3
Душ@@ 3
Хала@@ 3
СМ 3
Мел@@ 3
гер 3
волну@@ 3
дем@@ 3
Клавдия 3
филармо@@ 3
годное 3
Бор@@ 3
цова 3
Викто@@ 3
борт 3
Витали@@ 3
элемен@@ 3
иля 3
илев 3
ИА@@ 3
цер@@ 3
Хама 3
каде@@ 3
C@@ 3
Ука@@ 3
1300 3
гим@@ 3
атлетика 3
комби@@ 3
оп@@ 3
Ники@@ 3
брат@@ 3
корз@@ 3
Наха@@ 3
арова 3
докла@@ 3
монов 3
Ир@@ 3
Иахле@@ 3
Сала 3
Парти@@ 3
Наассон 3
Нафанаил 3
Месопота@@ 3
Алев@@ 3
Малеле@@ 3
Ама@@ 3
отчет@@ 3
прос@@ 3
лья@@ 3
леп@@ 3
телефон@@ 3
чре@@ 3
СВС 3
Кес@@ 3
старшина 3
финал 3
Маханаима 3
даны 3
Сания 3
ловна 3
технику@@ 3
брез@@ 3
Краснов 3
хать 3
психо@@ 3
карт 3
Воро@@ 3
рун@@ 3
гат 3
виссон 3
оникс 3
подно@@ 3
менской 3
Дж@@ 3
сования 3
Аргов 3
Андреев@@ 3
ефо@@ 3
Денисова 3
посл@@ 3
автомат 3
Ухсай 3
Ионаф@@ 3
извая@@ 3
колит 3
фельдшер 3
Амо@@ 3
автопрокат@@ 3
Григорьевич 3
Циве@@ 3
синаго@@ 3
Авия 3
гий 3
Минних@@ 3
Шайми@@ 3
Канделаки 3
Рев@@ 3
Владимиро@@ 3
маш@@ 3
тари 3
атлети@@ 3
Мадуров 3
бухгал@@ 3
тери@@ 3
воспитан@@ 3
Ефер 3
Ахзи@@ 3
комисси@@ 3
дотря@@ 3
моф 3
Кири@@ 3
Еме@@ 3
Ахор 3
Гек@@ 3
Токио 3
Мехи@@ 3
миру@@ 3
Доик 3
Чурачик@@ 3
рист 3
Соф@@ 3
фия 3
Геннад@@ 3
Владимировна 3
туман 3
пари@@ 3
лева 3
теме 3
альбом 3
Прокопьева 3
пенсионерка 3
Фин@@ 3
Ифамар 3
кос 3
Михайлов 3
жут 3
харак@@ 3
Шо@@ 3
пок 3
Феофанович 3
вский 3
Тип@@ 3
Черно@@ 3
гастро@@ 3
прикре@@ 3
мерзо@@ 3
симова 3
Лиза 3
Начи@@ 3
Феман 3
мар 3
Кеназ 3
нрав@@ 3
холдинг 3
матиз@@ 3
Голливу@@ 3
картин@@ 3
Наталья 3
Тимофеева 3
1968 3
нав 3
абзац@@ 3
симво@@ 3
мим 3
Каф@@ 3
гур@@ 3
преду@@ 3
c@@ 3
e 3
миллион@@ 3
Иезаве@@ 3
паке@@ 3
рах@@ 3
повин@@ 3
Цвет@@ 3
ачи 3
Тай@@ 3
ассоциа@@ 3
они@@ 3
панкре@@ 3
./ 3
чече@@ 3
Евграфо@@ 3
трю 3
преми@@ 3
Рехов 3
многофункциональ@@ 3
коммен@@ 3
Елеа@@ 3
Селлу@@ 3
Гофониил 3
Кена@@ 3
бави@@ 3
механизатора 3
Гражданин 3
Афанасьева 3
организа@@ 3
катастро@@ 3
учен@@ 3
Даниил 3
Россельхоз@@ 3
Добролюбо@@ 3
Степанов 3
Госу@@ 3
адрес@@ 3
or@@ 3
востре@@ 3
семир@@ 3
эти@@ 3
осы@@ 3
шеф 3
чатель@@ 3
стрее 3
Пушкин@@ 3
Артем@@ 3
Блэ@@ 3
валери@@ 3
кален@@ 3
пропаган@@ 3
фет@@ 3
совод 3
рех 3
ЭКРА 3
Каина 3
ссу 3
Хин@@ 3
Слонов 3
сушить 3
отды@@ 3
микрорайон 3
куро@@ 3
бассей@@ 3
]@@ 3
Всевыш@@ 3
Наука 3
Пари@@ 3
Кузь@@ 3
покол@@ 3
кабель 3
пласт@@ 3
убежи@@ 3
Сера@@ 3
Теп@@ 3
Борисов@@ 3
Сергеев@@ 3
Прохо@@ 3
Рыба@@ 3
Друж@@ 3
преподаватель 3
Севастополь 3
еп@@ 3
Тах@@ 3
шар@@ 3
блокнот 3
Македо@@ 3
Нелли 3
Елизавета 3
нимать 3
Филиппова 3
Там@@ 3
наполнен@@ 3
рин 3
сей@@ 3
зина 3
тара@@ 3
фаф 3
Бет 3
Маон 3
Восор 3
мери@@ 3
шине@@ 3
Сандриков 3
Сару@@ 3
Необходи@@ 3
104 3
Сооб@@ 3
эт@@ 3
мани@@ 3
юк 3
вут 3
Испо@@ 3
льзо@@ 3
Рицпа 3
Адраазар@@ 3
Пасха 3
диктант 3
Аммонитя@@ 3
характеристи@@ 3
махор@@ 3
пуль@@ 3
Аполлос 3
гно@@ 3
зависи@@ 3
снаря@@ 3
ранах 3
Хел@@ 3
Хамитов 3
Эк@@ 3
Део@@ 3
архитек@@ 3
1981 3
1953 3
консуль@@ 3
каса@@ 3
фио@@ 3
агронома 3
Везе@@ 3
онлай@@ 3
илов 3
трактори@@ 3
Вур@@ 3
коорди@@ 3
музей@@ 3
ствозн@@ 3
даро@@ 3
Тахпен@@ 3
Нафе@@ 3
1929 3
Голан 3
Ганним 3
каф 3
сюже@@ 3
зь@@ 3
Вороб@@ 3
Кура@@ 3
Еммор 3
рованию 3
помил@@ 3
мотив 3
Бреслер 3
термино@@ 3
музыкан@@ 3
серо@@ 3
миллиар@@ 3
споко@@ 3
йе 3
Заред 3
форма 3
Ас@@ 3
Иафет 3
Аллилу@@ 3
Арбитра@@ 3
Поэт 3
тару 3
Давыдов 3
Волков 3
Тымар@@ 3
ора@@ 3
Ефре@@ 3
категори@@ 3
Сверд@@ 3
Вефсами@@ 3
Игор@@ 3
Эду@@ 3
Нау@@ 3
Турганова 3
Пен@@ 3
Горлица 3
ыться 3
илем 3
мемори@@ 3
пединститу@@ 3
Фамнаф 3
Сараи 3
экстра@@ 3
пир@@ 3
чемпион@@ 3
Мадиани@@ 3
Савей 3
Ашмар@@ 3
Совхо@@ 3
Тимиря@@ 3
Энтузиа@@ 3
борь@@ 3
тимся 3
множе@@ 3
коопера@@ 3
1991 3
ьма 3
шаш@@ 3
Поля@@ 3
Сеспе@@ 3
фик@@ 3
волон@@ 3
лиде@@ 3
мышлен@@ 3
Муж@@ 3
шин 3
]! 3
Трофимо@@ 3
страхан@@ 3
Зорге 3
гета@@ 3
афа@@ 3
внутренни@@ 3
кана 3
Ань@@ 3
дор 3
сфера 3
воф 3
ур 3
раф 3
осво@@ 3
смер@@ 3
D@@ 3
камне 3
1921 3
Зако@@ 3
сер 3
стал@@ 3
черк@@ 3
дра 3
уллин 3
опрес@@ 3
огне@@ 3
Ильи@@ 3
Фой 3
Онегин 3
Моцар@@ 3
Воо@@ 3
Кабине@@ 3
Воробьев 3
тон 3
Настоя@@ 3
Рим@@ 3
стена 3
вза@@ 3
райте 3
пливо 3
трет@@ 3
сигн@@ 3
Брян@@ 3
Разви@@ 3
выполн@@ 3
дарствен@@ 3
1947 3
Мааха 3
Лермон@@ 3
Некра@@ 3
Ял@@ 3
кипаж 3
Аксаков 3
Планета 3
разу 3
Силома 3
Таппу@@ 3
авок 3
кер 3
енко 3
Алман@@ 3
оти@@ 3
Коро@@ 3
Досто@@ 3
Максимова 3
Чай@@ 3
Ль@@ 3
Тель@@ 3
мид@@ 3
Смир@@ 3
Гиезий 3
мп 3
ьере 3
административного 3
езер 3
индек@@ 3
сса 3
Ермон 3
Ермола@@ 3
Казахстана 3
предо@@ 3
Пучкова 3
Гахила 3
мино@@ 3
тире 3
комбайн 3
чурин 3
укроп 3
Лаис 3
1926@@ 3
Мара@@ 3
лим 3
декре@@ 3
консерватори@@ 3
Юма@@ 3
Иевосфей 3
судо@@ 3
Программа 3
мгнов@@ 3
попу@@ 3
1976 3
Дамаск 3
Самойлова 3
Коми@@ 3
мна 3
Валла 3
журнал 3
Шелумиил 3
1972 3
КПСС 3
+ 3
сине 3
Завод 3
Юбил@@ 3
Моска@@ 3
вир 3
Пенуэ@@ 3
политика 3
чино 3
библиотекарь 3
рева 3
дежур@@ 3
Казахстан 3
шавтотран@@ 3
рея 3
меже@@ 3
иннова@@ 3
беззако@@ 3
иссоп 3
Докумен@@ 3
Капернаум 3
Черке@@ 3
Челябинск 3
волх@@ 3
Матрен@@ 3
Алевтина 3
церна 3
ющем 3
снайпер 3
каток 3
гатого 3
Мади@@ 3
Бала@@ 3
мали@@ 3
Асен@@ 3
лахай 3
рои 3
Ац@@ 3
ает 3
Рахмат@@ 3
Аза@@ 3
Константинов 3
назоре@@ 3
аспиран@@ 3
Шимрон 3
художник 3
ханан 3
бот@@ 3
Агрофирма 3
Миля 3
Литерату@@ 3
жили@@ 3
выход@@ 3
прогно@@ 3
сена@@ 3
преследо@@ 3
кубок 3
возо@@ 3
пром 3
Дружба 3
Иарму@@ 3
Рамо@@ 3
Ата@@ 3
Наговицы@@ 3
Колос 3
Попов 3
анге@@ 3
Мясников 3
Арсентьевна 3
автобуса 3
социо@@ 3
шк@@ 3
Авирон 3
полков@@ 3
живе@@ 3
шести@@ 3
левита 3
Вифса@@ 3
стояние 3
Агги@@ 3
кану 3
стся 3
Таи@@ 3
пелля@@ 3
состар@@ 3
Романов 3
ек 3
иммунитет 3
ОБЖ 3
рав 3
Зинаида 3
слом 3
генера@@ 3
мля@@ 3
аму 3
дис@@ 3
бак@@ 3
Води@@ 3
цивили@@ 3
слал 3
кашу 3
ашне 3
улиц@@ 3
Ноя 3
слесар@@ 3
нехват@@ 3
кидар@@ 3
корреспонден@@ 3
рюкова 3
Туга@@ 3
стаб@@ 3
Берия 3
штра@@ 3
СИ@@ 3
Беероф 3
Наташа 3
Иле@@ 3
бронза 3
конту@@ 3
Дик@@ 3
купи 3
Фаина 3
коммер@@ 3
ФХ 3
125 3
Гиези@@ 3
почтальон 3
Авель 3
Азе@@ 3
отверсти@@ 3
Сергеева 3
Берлина 3
Оливема 3
цар 3
1935 3
гра 3
Конкурен@@ 3
яма 3
Венг@@ 3
Сала@@ 3
февра@@ 3
глаза@@ 3
Инвести@@ 3
рак@@ 3
Суринов 3
Голиафа 3
ЗА@@ 3
1988 3
дох@@ 3
Чечня 3
сол@@ 3
паси 3
Изреель 3
Вет@@ 3
Гончарова 3
Дзерж@@ 3
Жд@@ 3
Комсо@@ 3
Энгель@@ 3
Леони@@ 3
рек@@ 3
абитуриен@@ 3
Наас 3
Вавилона 3
Сана 3
Яр@@ 3
изб@@ 3
Тимофе@@ 3
Хмель@@ 3
Коммун@@ 3
Аврель@@ 3
комп@@ 3
госпитале 3
Авимеле@@ 3
b@@ 3
Програм@@ 3
ДТ 3
аккурат@@ 3
произведен@@ 3
Гошен 3
Харрана 3
Море 3
аз 3
Гена 3
тема 3
re@@ 3
gu@@ 3
Иаков@@ 3
m@@ 3
Нео@@ 3
кимов 3
Анже@@ 3
бассейн 3
тти@@ 3
163 3
бок@@ 3
Праз@@ 3
Юрьевич 3
жур@@ 3
Апайка 3
193@@ 3
пятся 3
Сидорова 3
гыш 3
несколь@@ 3
Фро@@ 3
путе@@ 3
Пал@@ 3
Гергесе@@ 3
Нават 3
обели@@ 3
Кирилл 3
Ровоа@@ 3
эсте@@ 3
Дар@@ 3
Скворцов 3
загад@@ 3
темати@@ 3
оставше@@ 3
позвол@@ 3
ВДПО 3
мель 3
Кузьмин 3
лада 3
Патриар@@ 3
неф@@ 3
годно 3
абри@@ 3
Иах@@ 3
Шил@@ 3
дубра@@ 3
хон@@ 3
сай@@ 3
Прокуратура 3
5000 3
999 3
ходится 3
халат@@ 3
рти 3
кая@@ 3
Харь@@ 3
светиль@@ 3
лине 3
Алат@@ 3
хитон 3
Кле@@ 3
Фес@@ 3
илом 3
нал@@ 3
равится 3
Махла 3
Ноа 3
Фирца 3
поздрави@@ 3
Семенов 3
пауэрлиф@@ 3
цева 3
Малы@@ 3
бюллет@@ 3
Герара 3
Слак@@ 3
милия 3
Езд@@ 3
возвышен@@ 3
воспи@@ 3
Елцаф@@ 3
соли@@ 3
выпуск@@ 3
кондитер@@ 3
Хец@@ 3
ани 3
клиен@@ 3
Иц@@ 3
Сен@@ 3
галсту@@ 3
Вефо@@ 3
лад@@ 3
Верзел@@ 3
Сиона 3
Бела 3
граду@@ 3
литература 3
4а 3
324 3
Азербайд@@ 3
Урал 3
сасси 3
бре 3
Стади@@ 3
словес@@ 3
желал 3
Аня 3
вине 3
ГСВГ 3
Прокоп@@ 3
1000 3
цине 3
тираж@@ 3
Кедрон 3
бру@@ 3
конфлик@@ 3
тел@@ 3
гербици@@ 3
Кис 3
табак 3
Шур@@ 3
стра 3
Лукианов 3
Казах@@ 3
райо@@ 3
приговор 3
Ярды 3
.@@ 3
айне 3
274 3
портре@@ 3
Ноемин@@ 3
Зай@@ 3
алли@@ 3
газ@@ 3
Кошкин 3
Але@@ 3
1946 3
нище@@ 3
Валер@@ 3
Петру@@ 3
Инду@@ 3
отмет@@ 3
уйгур@@ 3
Израиле@@ 3
1917 3
локо@@ 3
Вино@@ 3
таются 2
Ох@@ 2
костю@@ 2
Варнава 2
Каҫал 2
это@@ 2
туха 2
навер@@ 2
Анаста@@ 2
весто@@ 2
хол 2
илищ@@ 2
Авен 2
Октябр@@ 2
арок 2
Галиле@@ 2
рович 2
фир@@ 2
чар@@ 2
Чура@@ 2
орден 2
эр@@ 2
мей 2
торф 2
Аиал@@ 2
Кино 2
приё@@ 2
Масси@@ 2
Санавал@@ 2
Иохаведа 2
комен@@ 2
цеп@@ 2
Золо@@ 2
Виноградов 2
журнала 2
Зайцев 2
Владимирова 2
ферен@@ 2
Деменцова 2
фоно@@ 2
сходит 2
Конкурс 2
Фермер 2
инстру@@ 2
ступник 2
тыл@@ 2
тери 2
друго@@ 2
стомато@@ 2
Муниципал@@ 2
мес@@ 2
коллек@@ 2
патриотизм 2
Варака 2
праве@@ 2
пуле@@ 2
онер@@ 2
баян 2
семнадцать 2
Ахитофе@@ 2
скохозяйствен@@ 2
ущер@@ 2
миллиард 2
нера 2
разбо@@ 2
Теле@@ 2
канчи@@ 2
Асир@@ 2
Сеннаар 2
патриот@@ 2
замен 2
подоби@@ 2
стоятельно 2
Степан 2
проб@@ 2
Херуви@@ 2
стег@@ 2
мма 2
…@@ 2
кс 2
лик 2
Авиге@@ 2
магистраль 2
сыр@@ 2
конверт@@ 2
сертифика@@ 2
Лев 2
сынов@@ 2
дочеря@@ 2
евская 2
Юрату 2
нин@@ 2
красави@@ 2
Аиалон 2
асси@@ 2
Тимирясов 2
протяж@@ 2
мазать 2
Елиц@@ 2
Маргари@@ 2
ожидан@@ 2
Иаир 2
сведени@@ 2
Сенна@@ 2
лай@@ 2
Шимей 2
Бел@@ 2
предотвра@@ 2
мыть 2
шком 2
Гамалиил 2
Педац@@ 2
цен 2
Лап@@ 2
Гадер 2
лену 2
Цора 2
имено@@ 2
зиди@@ 2
Пор@@ 2
Афанасьев 2
Гавафон 2
анти@@ 2
стин 2
Сандри@@ 2
Укахви 2
ир 2
Иовав 2
меро@@ 2
экскурси@@ 2
l 2
номи@@ 2
зил@@ 2
Федор 2
резуль@@ 2
татах 2
преступлени@@ 2
предан@@ 2
педагог 2
Станис@@ 2
Атла@@ 2
троллейбу@@ 2
лер 2
Адраазар 2
выздоро@@ 2
Атнаш 2
гене@@ 2
Спектак@@ 2
Мицра@@ 2
отрасль 2
Ура@@ 2
Гав@@ 2
деж@@ 2
правос@@ 2
ваш@@ 2
Махир@@ 2
Зерах 2
иза 2
купат@@ 2
Иаред 2
альник 2
Рама 2
роф 2
дние 2
Пророк 2
мерно 2
памя@@ 2
ежедне@@ 2
пропаганд@@ 2
СТРОЙ 2
Архипов 2
агн@@ 2
Пенуэл 2
Киттук 2
Нат@@ 2
Едре@@ 2
Тав@@ 2
рал@@ 2
Макед 2
Валериано@@ 2
АККОНД 2
документа 2
Амина@@ 2
ассо@@ 2
чень 2
F@@ 2
Сан 2
Семен 2
транспорт 2
логистика 2
оты 2
гись 2
Аи@@ 2
гимна@@ 2
мор 2
Рустам 2
Тина 2
коли@@ 2
пайка 2
плом 2
умило@@ 2
ффа@@ 2
здравоо@@ 2
Ароер 2
Сив@@ 2
реф 2
рес 2
арон 2
ознакоми@@ 2
Шар@@ 2
мара 2
лла 2
тате@@ 2
Эрне@@ 2
Корнило@@ 2
ждый 2
стественно 2
сержант 2
сердц@@ 2
Отече@@ 2
слива 2
несовершенно@@ 2
Евро@@ 2
чут@@ 2
Маша 2
Миш@@ 2
Фамаре 2
завися@@ 2
дином 2
Калаш@@ 2
Анне 2
полуго@@ 2
тонов 2
Эл@@ 2
Дени@@ 2
хани@@ 2
фам 2
Гаврилов 2
моряк 2
лавшего 2
инжен@@ 2
ие@@ 2
учитель@@ 2
Наф@@ 2
Пат@@ 2
Кас@@ 2
p@@ 2
n 2
Математи@@ 2
резиден@@ 2
сертифик@@ 2
жиль@@ 2
атит 2
вса@@ 2
кка@@ 2
ьял 2
Дина 2
Леон@@ 2
предмет@@ 2
акт 2
Афек 2
Фоноте@@ 2
иници@@ 2
пускается 2
илей@@ 2
Кап@@ 2
семе@@ 2
кай@@ 2
Дадюков 2
дьте 2
кине@@ 2
Раамсес 2
кус@@ 2
Сай@@ 2
h@@ 2
Профес@@ 2
Хамос 2
лени 2
Кондратьев 2
Ровоама 2
физкультура 2
райтесь 2
мий 2
Нимра 2
Журналист 2
сенаж 2
гордо@@ 2
Стат@@ 2
происше@@ 2
Ицгар 2
Узиил 2
эфира 2
плани@@ 2
Махана@@ 2
подол@@ 2
гитара 2
Депутат@@ 2
Гир@@ 2
лару 2
Яковлев@@ 2
Григорьева 2
пассажи@@ 2
мули@@ 2
мала@@ 2
маршру@@ 2
процеду@@ 2
Елабу@@ 2
Валериановна 2
ёд 2
Марков 2
изра@@ 2
Нес@@ 2
смен 2
Хы@@ 2
Валака 2
куля@@ 2
Господ@@ 2
Мероприяти@@ 2
Гесс@@ 2
Фарес 2
ммо@@ 2
канчивается 2
жай@@ 2
перва 2
техно@@ 2
углуб@@ 2
дила 2
Секела@@ 2
гомор 2
Физ@@ 2
Соловье@@ 2
Тук@@ 2
Калашников 2
снай@@ 2
импорто@@ 2
лава 2
практика 2
мидо@@ 2
ваши@@ 2
чул@@ 2
витамин 2
Адо@@ 2
директо@@ 2
ПО 2
Чебок@@ 2
Гала@@ 2
алаф 2
аса@@ 2
Елифа@@ 2
Иармуф 2
насеком@@ 2
дётся 2
юков 2
Санкт 2
востребо@@ 2
эх 2
кура 2
парат@@ 2
Мишши 2
шате@@ 2
Сав@@ 2
Арнон 2
Хам 2
виле@@ 2
подобие 2
студентка 2
Гос@@ 2
годняш@@ 2
Юх@@ 2
Ух@@ 2
Пил 2
ченной 2
изва@@ 2
Содома 2
Нарко@@ 2
маги@@ 2
стат 2
190 2
сана 2
Ив@@ 2
логи 2
Иарим 2
кови@@ 2
Корн@@ 2
Хана@@ 2
Сидон 2
Хи@@ 2
пая 2
дава 2
уда 2
пулемет@@ 2
Колхо@@ 2
однократ@@ 2
дом@@ 2
наем@@ 2
драго@@ 2
картина 2
посвят@@ 2
гази@@ 2
Район 2
Ревек@@ 2
самы@@ 2
Оза 2
тракторист 2
комис@@ 2
Белков 2
договор@@ 2
еники 2
Май@@ 2
ель 2
Культу@@ 2
Ч 2
Благодар@@ 2
Фале@@ 2
Евер 2
диагно@@ 2
еме 2
сравн@@ 2
Атӑ@@ 2
тарай@@ 2
Кала@@ 2
кат 2
респонден@@ 2
увиде@@ 2
ремонти@@ 2
Инжен@@ 2
питание 2
плу@@ 2
Наст@@ 2
кого@@ 2
тава 2
номина@@ 2
прокура@@ 2
космонав@@ 2
!/ 2
Махпела 2
евре@@ 2
колго@@ 2
Тури@@ 2
туллин 2
Вефиль@@ 2
Атар@@ 2
330 2
Гешем 2
препод@@ 2
умри 2
сколь@@ 2
Енос 2
Ифа@@ 2
вдво@@ 2
¬ 2
моль@@ 2
Шевченко 2
прогноз@@ 2
Мих@@ 2
Анатольевна 2
продав@@ 2
штан@@ 2
Механи@@ 2
ай 2
планиру@@ 2
почта 2
экспе@@ 2
Феко@@ 2
ая@@ 2
Горь@@ 2
41@@ 2
Гон@@ 2
така 2
сап@@ 2
ый@@ 2
лко@@ 2
коор@@ 2
Семенов@@ 2
классика 2
Ело@@ 2
Фалек 2
пани@@ 2
зачи@@ 2
Оливе@@ 2
вымо@@ 2
возьме@@ 2
азбу@@ 2
гель@@ 2
Стан@@ 2
Свято@@ 2
благополучи@@ 2
чан 2
рул@@ 2
ята 2
Уяв 2
Офир 2
компью@@ 2
роман@@ 2
аппарат 2
ферма 2
Ии@@ 2
тиш@@ 2
Сте@@ 2
ната 2
тинг 2
циональ@@ 2
Бри@@ 2
Рах@@ 2
Теат@@ 2
ЬЕВ 2
Промышлен@@ 2
циали@@ 2
Черны@@ 2
ологи@@ 2
Уч@@ 2
приим@@ 2
однократно 2
промышленность 2
уд 2
паха 2
диабе@@ 2
Киссон 2
маши@@ 2
Иосафата 2
шествии 2
кушан@@ 2
ПК 2
Ахимелех 2
стакан@@ 2
эксплуата@@ 2
ким@@ 2
шана 2
Зам@@ 2
иле 2
тович 2
Федотов 2
номер@@ 2
нача@@ 2
Вавил@@ 2
лик@@ 2
Депу@@ 2
тат 2
дохо@@ 2
Администра@@ 2
чера 2
спортзал 2
канику@@ 2
варим 2
тап@@ 2
Карина 2
рас 2
Диплом 2
Ишле@@ 2
сыно@@ 2
пациен@@ 2
Арно@@ 2
учре@@ 2
комбинат@@ 2
Митта 2
телохрани@@ 2
гги@@ 2
Оз@@ 2
еский 2
Хеврон@@ 2
Илларионович 2
втор@@ 2
Альбина 2
143 2
сою 2
демьян@@ 2
славо@@ 2
кти@@ 2
спасени@@ 2
кет@@ 2
майо@@ 2
казарма 2
Тимофеев 2
воскли@@ 2
космо@@ 2
раци@@ 2
вай@@ 2
далека 2
сор 2
испу@@ 2
дача 2
Фине@@ 2
Спа@@ 2
Иерово@@ 2
жо@@ 2
Ила 2
почтальон@@ 2
сквер@@ 2
алкоголь 2
пин 2
коллед@@ 2
ката 2
Кис@@ 2
лоф 2
Хефер 2
наф@@ 2
Ел 2
Кат@@ 2
Петруша 2
Хват@@ 2
пле 2
уйте 2
сержан@@ 2
Кедро@@ 2
фоль@@ 2
ЕВА 2
юка 2
поверх@@ 2
Духов@@ 2
путник 2
Смирнов 2
осматри@@ 2
Геде@@ 2
ниею 2
Тимофеевна 2
Матвеевич 2
осуществи@@ 2
ват 2
ыш 2
магистра@@ 2
шуюся 2
офи@@ 2
агент@@ 2
СТ@@ 2
Й 2
пище@@ 2
Хир@@ 2
Иоафам 2
Ват@@ 2
Интернацион@@ 2
Менделе@@ 2
Гера 2
пек@@ 2
Михмас@@ 2
;@@ 2
Аран 2
метр 2
Татар@@ 2
таш 2
Викентий 2
иу@@ 2
Авел 2
Реда@@ 2
¦¦ 2
Трак 2
съез@@ 2
Осен@@ 2
умре@@ 2
лика 2
надзор 2
Мотори@@ 2
d@@ 2
k@@ 2
IV 2
Крем@@ 2
юбиле@@ 2
i 2
зон 2
специ@@ 2
Иероваал 2
хин 2
рта 2
Зелфа 2
Давир 2
тихонь@@ 2
нем@@ 2
пытан@@ 2
мори@@ 2
восьми@@ 2
ена@@ 2
шуй@@ 2
Святослав 2
Рыбас 2
субсиди@@ 2
туризм 2
скал@@ 2
192@@ 2
опла@@ 2
семи@@ 2
Ил@@ 2
Электри@@ 2
кт 2
туй 2
предъявля@@ 2
пер 2
Герм@@ 2
хри 2
пожал@@ 2
сир@@ 2
предприним@@ 2
спек@@ 2
Арфак@@ 2
Иог@@ 2
прид@@ 2
Трофи@@ 2
Севасто@@ 2
тая@@ 2
стиль@@ 2
Гарин 2
тузиа@@ 2
Еглон 2
Циф@@ 2
уллина 2
Левит 2
шет@@ 2
Исинбаева 2
цеил 2
Элек@@ 2
начат@@ 2
кипяченной 2
медиц@@ 2
Институ@@ 2
Трактор 2
тех@@ 2
вантум 2
Апа@@ 2
дыня 2
помним 2
кка 2
здоровления 2
спортсмен 2
нефть 2
Серух 2
Арка@@ 2
Мак@@ 2
муниципалитет 2
гане@@ 2
од 2
мирен 2
Бион 2
начи@@ 2
Шал@@ 2
туал@@ 2
ют@@ 2
ангел 2
леш@@ 2
языч@@ 2
Авен@@ 2
хун 2
Шева 2
Хорма 2
Вс@@ 2
хис@@ 2
Дагон 2
T@@ 2
ЗИ@@ 2
Чан@@ 2
ему@@ 2
православ@@ 2
ью@@ 2
Иудин@@ 2
тти 2
рар 2
Гирсон 2
Кааф 2
Ахима@@ 2
шев 2
Ишлей@@ 2
верси@@ 2
Мафусал 2
атлет 2
Реги@@ 2
Угас@@ 2
апре@@ 2
фельд@@ 2
Денис 2
финан@@ 2
мец 2
Товия 2
надея@@ 2
Энер@@ 2
Аккаро@@ 2
фир 2
митри@@ 2
ЧФ 2
Юн@@ 2
музыка 2
Нек@@ 2
лех@@ 2
Инженер 2
Жданов 2
Сквор@@ 2
нан 2
P@@ 2
t@@ 2
o 2
виль@@ 2
Анаф 2
Механизатор 2
Ж 2
Арава 2
пыла@@ 2
Солов@@ 2
Рефаим 2
Дишон 2
пра 2
y@@ 2
t 2
Аварим 2
росси@@ 2
пыр@@ 2
наимено@@ 2
цуз 2
«@@ 2
уви@@ 2
кук@@ 2
рично 2
Саман@@ 2
хора@@ 2
инский 2
Факей 2
Аскал@@ 2
Сапож@@ 2
пассажира 2
багаж 2
ллейбу@@ 2
тябр@@ 2
шад@@ 2
циен@@ 2
щер@@ 2
Анд@@ 2
пике 2
Масса 2
сцена 2
Сидо@@ 2
O@@ 2
K@@ 2
S 2
Тимо@@ 2
фат 2
гар 2
Виногра@@ 2
кен@@ 2
лампа@@ 2
дека@@ 2
Гессур 2
Бог@@ 2
доклада 2
дез@@ 2
пуш@@ 2
инвестицион@@ 2
корруп@@ 2
сам@@ 2
бин 2
комбайнер 2
a 2
Настя 2
Арсент@@ 2
Кондрат@@ 2
кате@@ 2
вита@@ 2
доли@@ 2
Голи@@ 2
правитель@@ 2
*@@ 2
\ 2
гид@@ 2
юрист 2
Орна 2
назорей@@ 2
Аскалон 2
цу@@ 2
ветеран@@ 2
участво@@ 2
будется 2
Гари@@ 2
ратив@@ 2
пальма 2
Педа@@ 2
Строй@@ 2
филологи 2
тама 2
добно 2
Иери@@ 2
Тя@@ 2
переди 2
пого 2
каш 2
w 2
Неффали@@ 2
Фен@@ 2
шлись 1
тран 1
сала@@ 1
Ахиту@@ 1
ъявля@@ 1
фони@@ 1
Заву@@ 1
одна@@ 1
земец 1
каса 1
Никольский 1
зрабо@@ 1
Шан@@ 1
Чура 1
Асси@@ 1
учили@@ 1
Гел@@ 1
капитал@@ 1
лене 1
Анаткас 1
Каҫхи 1
тӗлпулу 1
Ты@@ 1
юмах 1
трени@@ 1
Сина@@ 1
сире 1
Дад@@ 1
Беэ@@ 1
Мос@@ 1
юрӑ 1
акку@@ 1
Эрех 1
яр 1
дуры 1
сума 1
хен@@ 1
Луки@@ 1
Аминадав 1
трен 1
Пӗчӗк 1
ҫеҫ 1
путене 1
Вафу@@ 1
муще@@ 1
израиль@@ 1
Маду@@ 1
Сата@@ 1
Кай@@ 1
Мера@@ 1
обходи@@ 1
Кив@@ 1
Скор@@ 1
Прав@@ 1
ЧН@@ 1
кис@@ 1
Моск@@ 1
эфир@@ 1
Крылов 1
Пуш@@ 1
кине 1
неме@@ 1
хонь@@ 1
Анху@@ 1
юбил@@ 1
Ар 1
Проспек@@ 1
мата 1
Евгра@@ 1
Вир@@ 1
инженер 1
вак 1
хисе@@ 1
наука 1
сю@@ 1
тул@@ 1
рев 1
степен@@ 1
Хирама 1
гую 1
Иевус 1
мла 1
Изреель@@ 1
поликли@@ 1
Аксу 1
Анатоль@@ 1
мул@@ 1
донор 1
Команд@@ 1
Хур@@ 1
нкасы 1
ипотека 1
фирма 1
Эр@@ 1
ци 1
нечно 1
ници@@ 1
сфе@@ 1
чир@@ 1
шкар 1
кун 1
аст@@ 1
професси 1
воск@@ 1
Матрена 1
Ливна 1
урам 1
Иааца 1
Фегор 1
Хура 1
Ус@@ 1
ноша 1
Наго@@ 1
здоров@@ 1
Доно@@ 1
расса 1
прикреп@@ 1
гнец 1
скри@@ 1
воровых 1
безрабо@@ 1
Газа 1
АН@@ 1
ВА 1
тас 1
вши@@ 1
блок@@ 1
Давы@@ 1
реда@@ 1
тура@@ 1
полномочен@@ 1
сали 1
тух@@ 1
комсомоль@@ 1
C 1
кун@@ 1
Гиде@@ 1
Асс@@ 1
Иофор@@ 1
лове@@ 1
партнер@@ 1
карь 1
зара 1
Илиополь 1
v 1
u 1
ом@@ 1
Парне 1
прише@@ 1
СТРО@@ 1
фима 1
" 1
углублен@@ 1
99 1
Ь@@ 1
Амв@@ 1
горелся 1
хуп@@ 1
церк@@ 1
наво@@ 1
чыла@@ 1
Николь@@ 1
Кали@@ 1
гек@@ 1
сере@@ 1
хир@@ 1
макси@@ 1
пике@@ 1
кани@@ 1
экспертиза 1
Кук@@ 1
Оне@@ 1
Парла@@ 1
вдох@@ 1
обле@@ 1
вше@@ 1
вул 1
Авимелехе 1
предь 1
еш@@ 1
Дор 1
лок@@ 1
союз@@ 1
лавкка 1
СХ@@ 1
ослу@@ 1
тах@@ 1
Донор@@ 1
Талвир 1
Анатри 1
МИ@@ 1
фра 1
Галгал@@ 1
Шик@@ 1
собла@@ 1
Хет 1
Аморрей 1
сах@@ 1
Диш@@ 1
фран 1
СС@@ 1
кати 1
...» 1
шел@@ 1
прияти@@ 1
анс 1
сереб@@ 1
Сева@@ 1
Полномо@@ 1
фору@@ 1
Театр 1
анне 1
Елимелех 1
ционер@@ 1
Мена@@ 1
верени@@ 1
ковче@@ 1
фиолет 1
лат 1
Вена@@ 1
угла@@ 1
Герар 1
тот@@ 1
онкологи 1
хул 1
адво@@ 1
молодё@@ 1
веда 1
Прокля@@ 1
халь@@ 1
Хет@@ 1
оборудовани@@ 1
Большин@@ 1
хоже@@ 1
Хот@@ 1
сыр 1
аку@@ 1
ровна 1
несем 1
чтой 1
мье@@ 1
экс@@ 1
туха@@ 1
Архи 1
сало@@ 1
ьми 1
Строитель@@ 1
оск@@ 1
сави@@ 1
спич@@ 1
фема 1
имей 1
бол 1
емен@@ 1
эле@@ 1
консоли@@ 1
даго@@ 1
Уках 1
ЧА@@ 1
тесни@@ 1
медицина 1
200@@ 1
ательность 1
Челябин@@ 1
юю 1
мач@@ 1
предусмо@@ 1
Каиафа 1
патриот 1
эм 1
Юра@@ 1
тап 1
Атӑл 1
вян@@ 1
ств@@ 1
лливу@@ 1
Виф@@ 1
пен 1
тябре 1
ИГ@@ 1
туриз@@ 1
Эко@@ 1
филос@@ 1
Лахис 1
обили@@ 1
Литюк 1
стойчи@@ 1
исе@@ 1
карта 1
Ук@@ 1
марах 1
Меди@@ 1
R 1
ӗм 1
Патӑрьел 1
Хамӑр 1
созы@@ 1
преподаватель@@ 1
Ефрон 1
туй@@ 1
больниц@@ 1
сист@@ 1
Ара 1
Рефа@@ 1
Сур 1
сорт@@ 1
Всемогу@@ 1
электротехника 1
бря 1
суб@@ 1
иммуни@@ 1
автобус 1
Паги@@ 1
бен 1
голубо@@ 1
мур 1
Ҫил@@ 1
арман 1
Вун@@ 1
шул@@ 1
Шыв 1
манӗ 1
ачаль@@ 1
Иоанн 1
кафе@@ 1
ресурс@@ 1
фермер 1
ах@@ 1
мелле 1
Сергий 1
Жур@@ 1
ЧП@@ 1
Ок@@ 1
туя 1
видев 1
лагер@@ 1
Филип@@ 1
Ахимеле@@ 1
кач@@ 1
Тюмень 1
Махир 1
зар 1
Мясни@@ 1
шак@@ 1
ета 1
тун@@ 1
ровка 1
шанса 1
вена@@ 1
КВ@@ 1
ула 1
цин 1
ару 1
Иудея 1
Тимир@@ 1
пух 1
стать@@ 1
Зат@@ 1
ноя@@ 1
няш@@ 1
ченко 1
млӗ 1
приори@@ 1
Шай@@ 1
Одоллам 1
уру 1
льд@@ 1
мак 1
Космодемьянская 1
алан@@ 1
имов 1
ППЭ 1
мас 1
кача@@ 1
Ь 1
оде 1
клад 1
Арши@@ 1
мужествен@@ 1
Исса@@ 1
цес@@ 1
Фестивал@@ 1
ъек@@ 1
сикль 1
святили@@ 1
Иису@@ 1
теплиц@@ 1
Кер@@ 1
ача@@ 1
сами@@ 1
Ача@@ 1
автомоб@@ 1
новении 1
Хоте@@ 1
шик@@ 1
абитури@@ 1
ладо@@ 1
Интер@@ 1
Ленинград 1
Сури@@ 1
серти@@ 1
фици@@ 1
хы@@ 1
шы@@ 1
ҫӗршыв 1
Башкор@@ 1
Гац@@ 1
тавли@@ 1
хап@@ 1
надле@@ 1
Ут@@ 1
матур@@ 1
@ 1
Дей@@ 1
Счаст@@ 1
шне 1
агроно@@ 1
Кӗтне 1
эро@@ 1
пунк@@ 1
аген@@ 1
Мате@@ 1
Ахса 1
Рай@@ 1
день@@ 1
атого 1
Благо@@ 1
Агар@@ 1
Аммон 1
каро@@ 1
регио@@ 1
Шел 1
форт@@ 1
объект 1
тилет@@ 1
пахи 1
форм@@ 1
шку@@ 1
хор 1
мобили@@ 1
Лари@@ 1
Часах 1
вӗсем 1
хамӑр 1
республикӑра 1
кӑна 1
ытти 1
тӑрӑхри 1
чӑвашсем 1
пурӑнакан 1
ялсене 1
ҫитрӗҫ 1
реклама 1
жечь 1
решет@@ 1
отниме@@ 1
потен@@ 1
ури 1
фь 1
Ог@@ 1
пустя 1
Иавис 1
ятам 1
ведений 1
Мур@@ 1
Сатай 1
Кайӑ@@ 1
ксене 1
хӗлле 1
апат 1
ҫитер@@ 1
ӗр 1
воспламен@@ 1
чемпионат@@ 1
Афанас@@ 1
Поволж@@ 1
Елисее 1
Евфрат 1
хожд@@ 1
грант 1
жах 1
пыл@@ 1
нитель 1
рне 1
наф 1
асы 1
деле@@ 1
шеб@@ 1
Иавок 1
черя@@ 1
спон@@ 1
Ҫамрӑксен 1
хаҫачӗ 1
Чӑваш 1
хӗрарӑмӗ 1
зрели 1
цифра 1
считы@@ 1
юри 1
сотру@@ 1
Наас@@ 1
принцип@@ 1
яка 1
осец 1
язатель@@ 1
Викен@@ 1
Алексан@@ 1
чне 1
новод@@ 1
туа@@ 1
емуся 1
Мариин@@ 1
Ишлей 1
головно 1
акан@@ 1
куру@@ 1
новья 1
хен 1
конце@@ 1
Медицина 1
реализ@@ 1
кедр 1
херувим 1
управлени@@ 1
T 1
порта 1
P 1
ченской 1
стера 1
Сту@@ 1
Y@@ 1
пан 1
нине 1
мсо@@ 1
Марье 1
Экономи@@ 1
Арби@@ 1
рук@@ 1
анох 1
циями 1
Авиаф@@ 1
элек@@ 1
бора@@ 1
Зина@@ 1
таш@@ 1
дистан@@ 1
Елам 1
Ны@@ 1
нче 1
подножи@@ 1
ализация 1
центнер 1
совест@@ 1
рассказ@@ 1
сания 1
бригад@@ 1
асла 1
Пӑ@@ 1
дисци@@ 1
Адвокат@@ 1
пенси@@ 1
оли@@ 1
километр 1
шех 1
ав 1
неш@@ 1
кел@@ 1
чик@@ 1
Мордви@@ 1
Свер@@ 1
стадиона 1
Сава@@ 1
свят@@ 1
хура@@ 1
обстоя@@ 1
афа 1
Журнали@@ 1
скрижал@@ 1
асаф 1
снить 1
Кааф@@ 1
d 1
Вефсамис 1
надцать 1
теш@@ 1
Иоха@@ 1
ппу@@ 1
эко@@ 1
Донор 1
пенсионер@@ 1
A@@ 1
N@@ 1
гей 1
Авеле 1
хан 1
нито@@ 1
аллу@@ 1
Иеффа@@ 1
сожал@@ 1
вале@@ 1
Меро@@ 1
кара 1
E@@ 1
хӗр 1
Факе@@ 1
льтра@@ 1
Мем@@ 1
солн@@ 1
муль@@ 1
Спек@@ 1
ию@@ 1
Бол@@ 1
реди 1
Клуб 1
даль 1
Соло@@ 1
Лай@@ 1
ела@@ 1
Китай 1
Эпӗ 1
пӗчӗкҫӗ 1
чӑваш 1
сдел@@ 1
кранах 1
План@@ 1
Иевос@@ 1
Лаи@@ 1
оружен@@ 1
Малелеил 1
Ес@@ 1
вел@@ 1
эре@@ 1
Шелуми@@ 1
колос@@ 1
модер@@ 1
лесе 1
Кун@@ 1
Чапаев 1
Мерива 1
ени 1
исте@@ 1
кита@@ 1
Чебокса@@ 1
ида 1
Нафана@@ 1
худо@@ 1
U@@ 1
A 1
опис@@ 1
хала@@ 1
рех@@ 1
ченого 1
орке@@ 1
хут@@ 1
ном@@ 1
Лер@@ 1
бов@@ 1
Фили@@ 1
леш 1
ниверси@@ 1
Тург@@ 1
z@@ 1
Мух@@ 1
тара 1
дрович 1
Хами@@ 1
регу@@ 1
тула 1
Дали@@ 1
нӑй 1
сенчи 1
сене 1
тӑвакан 1
мсене 1
тӑватпӑр 1
Риц@@ 1
Пирогов 1
Вит@@ 1
Чутай 1
арма 1
чару@@ 1
обнажа@@ 1
тар 1
гари@@ 1
дцати 1
Эн@@ 1
Гофони@@ 1
анович 1
юр 1
ьмой 1
Ярму@@ 1
эф@@ 1
информа@@ 1
Юн 1
ссе 1
Акса@@ 1
Викторина 1
университе@@ 1
сси 1
g 1
мобил@@ 1
Техника 1
Эй 1
дри@@ 1
автоно@@ 1
гневался 1
экзамен 1
гистри@@ 1
граждани@@ 1
Таш@@ 1
ницкий 1
самб@@ 1
деятель@@ 1
тни 1
дьми 1
умы 1
Иес@@ 1
мун@@ 1
наличи@@ 1
равши@@ 1
* 1
Ура 1
Есе@@ 1
систе@@ 1
эстрада 1
вш@@ 1
ати 1
ҫӗр 1
шыв 1
Харран@@ 1
фика@@ 1
аван 1
лара 1
ыт@@ 1
тря 1
Хура@@ 1
кадет 1
конгрес@@ 1
прелюбо@@ 1
H@@ 1
\@@ 1
Правиль@@ 1
РА 1
статистика 1
вро@@ 1
пай@@ 1
Ун@@ 1
сав@@ 1
биле@@ 1
тип 1
Кол@@ 1
шину 1
транспор@@ 1
анине 1
тиве@@ 1
Болгар@@ 1
Клу@@ 1
кульп@@ 1
шар 1
Здоров@@ 1
юнь 1
Бабу@@ 1
пата 1
мпа 1
еве@@ 1
Гамали@@ 1
пур 1
тре 1
старейши@@ 1
Пластик 1
льник 1
ирга 1
вун@@ 1
ерт@@ 1
венни@@ 1
Молоха 1
имо@@ 1
гнов@@ 1
класа 1
тники 1
прикосну@@ 1
Сарпи 1
Хусарса@@ 1
маст@@ 1
кел 1
Телей 1
Навал@@ 1
сопо@@ 1
помидор 1
агре@@ 1
сив@@ 1
хер 1
Каде@@ 1
Бессмерт@@ 1
улы@@ 1
сквоз@@ 1
Ран@@ 1
КП@@ 1
аукцион@@ 1
асла@@ 1
Нахор 1
преды@@ 1
примечатель@@ 1
врети@@ 1
равитель@@ 1
вель@@ 1
може@@ 1
вооружен@@ 1
Амали@@ 1
суй@@ 1
свящ@@ 1
зел 1
Яро@@ 1
Инд@@ 1
ьез@@ 1
комбин@@ 1
холдин@@ 1
таж 1
Иефон@@ 1
Нир 1
..@@ 1
боялась 1
юд@@ 1
Поэ@@ 1
балан@@ 1
чною 1
ОО@@ 1
дого 1
Куб@@ 1
бисе@@ 1
испуг@@ 1
№@@ 1
комму@@ 1
алим 1
аз@@ 1
фим 1
пренебре@@ 1
пах@@ 1
Лит@@ 1
Само@@ 1
канаш@@ 1
Сонам 1
журналисти@@ 1
чрес@@ 1
нот 1
Иеро@@ 1
нана 1
пек 1
зни 1
благоух@@ 1
Рамофа 1
совхоз 1
вили@@ 1
ого@@ 1
Друз@@ 1
полномочи@@ 1
шавто@@ 1
самолет 1
лий 1
